node {
  name: "global_step/initial_value"
  op: "Const"
  attr {
    key: "dtype"
    value {
      type: DT_INT32
    }
  }
  attr {
    key: "value"
    value {
      tensor {
        dtype: DT_INT32
        tensor_shape {
        }
        int_val: 0
      }
    }
  }
}
node {
  name: "global_step"
  op: "Variable"
  attr {
    key: "container"
    value {
      s: ""
    }
  }
  attr {
    key: "dtype"
    value {
      type: DT_INT32
    }
  }
  attr {
    key: "shape"
    value {
      shape {
      }
    }
  }
  attr {
    key: "shared_name"
    value {
      s: ""
    }
  }
}
node {
  name: "global_step/Assign"
  op: "Assign"
  input: "global_step"
  input: "global_step/initial_value"
  attr {
    key: "T"
    value {
      type: DT_INT32
    }
  }
  attr {
    key: "use_locking"
    value {
      b: true
    }
  }
  attr {
    key: "validate_shape"
    value {
      b: true
    }
  }
}
node {
  name: "global_step/read"
  op: "Identity"
  input: "global_step"
  attr {
    key: "T"
    value {
      type: DT_INT32
    }
  }
}
node {
  name: "input"
  op: "Placeholder"
  attr {
    key: "dtype"
    value {
      type: DT_FLOAT
    }
  }
  attr {
    key: "shape"
    value {
      shape {
      }
    }
  }
}
node {
  name: "output"
  op: "Placeholder"
  attr {
    key: "dtype"
    value {
      type: DT_FLOAT
    }
  }
  attr {
    key: "shape"
    value {
      shape {
      }
    }
  }
}
node {
  name: "HistogramSummary/tag"
  op: "Const"
  attr {
    key: "dtype"
    value {
      type: DT_STRING
    }
  }
  attr {
    key: "value"
    value {
      tensor {
        dtype: DT_STRING
        tensor_shape {
        }
        string_val: "X"
      }
    }
  }
}
node {
  name: "HistogramSummary"
  op: "HistogramSummary"
  input: "HistogramSummary/tag"
  input: "input"
  attr {
    key: "T"
    value {
      type: DT_FLOAT
    }
  }
}
node {
  name: "HistogramSummary_1/tag"
  op: "Const"
  attr {
    key: "dtype"
    value {
      type: DT_STRING
    }
  }
  attr {
    key: "value"
    value {
      tensor {
        dtype: DT_STRING
        tensor_shape {
        }
        string_val: "y"
      }
    }
  }
}
node {
  name: "HistogramSummary_1"
  op: "HistogramSummary"
  input: "HistogramSummary_1/tag"
  input: "output"
  attr {
    key: "T"
    value {
      type: DT_FLOAT
    }
  }
}
node {
  name: "fully_connected/weights/Initializer/Const"
  op: "Const"
  attr {
    key: "dtype"
    value {
      type: DT_FLOAT
    }
  }
  attr {
    key: "value"
    value {
      tensor {
        dtype: DT_FLOAT
        tensor_shape {
          dim {
            size: 8
          }
          dim {
            size: 3880
          }
        }
        tensor_content: "+\346\360:\035;\233<7\221\322\273\253\324\372<\207\274\362<gl\242\273\347\267E<r\262\205\272\000\013\213\274\224\226\237\274\357\t\342;\344\317\2109_\265\242\271{\345\334<\"U\006=X\242\000\274\025x\016=\265\241f<\352U\321<\350n\014=\313\204\017=\202GI<^\000\301<\031D\300\274\335\363\030\274\304\366s;\2319\000\275\202 R\274\\\216 <a\242\236<\277\300\006\273I\341\317:\354\023\251\273v\230\021=P\241\257:x;\232\274p\367\210;\217`\276\273\223\253\301<\275L\325;\360\332\315\274\376\235\300\274\024\353e\274\210\'\245<\326\'\227\272\3603\335\274\222\2149\274\207\366\223:\\Y8<-N\177\273=\201\017\273\346G\256\274?\345\030=\322\301\350<\023\325\311;@s\006=\017\350\357<\200\005\327\274hg\214\273\204\323\032\275\232\r6\273\306\376\207\273s\243\301\274\002g\377<\3455%\274eA\037\275\226\275|<\263\262\224\274\317#\237<\301ZO;l3I;\221H\007\275\037\345\010\273\267\326\003=\244\230\323\274\0104\037<\207\367\366<\221\351h\2742\360\241<L\220\240\273\2111\003=\362\304\037=\350\347\006=\254T\365;\212[\271\272\341i\363<\306D\313\274\257\340\377<vo\362\274\r\022\024\275l\260\374\273\031P\236<\370\365\033\275\245\311#<>i\030\274\243\215\340;\272j\310\274S\322\346\274R\240\t=\212\347\377<\262\260\273<\030;\021=\353\325\252\274\270\t\223\274~^\016;$\036\355;\306\020\324\274Dd\247<U \233<\352r\327\274\237\260\007<\003\314m\274\306\356{\274\330\207\342\274\270\333\377;\323\177\026\275\217\355\325<\021m\256\273\366\213\246\274\\W\311\274\204\357\022\275\354\340\315\274\244\215\250\274\367`\301\273XQ\304<\274\217\340\273\205\251\340:\253\005\204<9\372\343<\240\355\354\274\250X\022\275>@\004\274\016\n\032<\267T\326<\305(\227<\325%\225\274\244\030b\273{\321\307\274\367L_\274\354E\002=8\331\230<y\371Y\274\252\031\222\274\222\242\204;\333T\356\274_n\025=h>\337;\244W\013\275\313T1;\263\023;\273\253\373D;8\253\341<\243}%\274H\234\003\273\006(\322<\354\212\333\274QO\256<l\240\277\274\r\024\377<+\325\006=a\371\366<\233\th\271\315\256\326<>\000\023=\274*\010\275\211\326h\273\355\216\"\274\001x\032=\301\275\036<JX\006\275\205\330\377\274\256bi\274\027f\036=\215kb;\220fC<n\017\364\273{9\037\275\027\250\226<i:\331\274\260\241\013;\276\276-<\356`\366<7\225\\<\224\217\023;\246\344\254;$=\025=%\221Q\274\253\312\020=w\273\237;\214\250\365<\322\336\333\274\243\367\005=\322\235\243<&\343\221<\262\317\372\274]7T\273\334\221\202\273\342\313f<\311\016\264\273)og\274\231\210;<-\t\254;\352\221\010=z\250\002=\353\241\013\275\244T`<\361F\224\274\333i\262\274L\234\270;\375\236\302<\016\3139;I\036\r\275e\302\006=\377q\217\273\327\310\341\272C:#\273o\217\243<^\347X<\235^;\274\341~\233\274\230\327y;\215\337\037=\316_\377<\322\376\231\274\264\231\350<\257\261\032\275\342U\027=\230\320\007=\"\nd\274\321\225-;`\022\021\274\333}w<y\226\376\272\3173\007=\214p\025\275bn\260<\257\270\033\274v\033\013<\020\315\221<\3042\356;_0\020=k\242\202<\362\016\037\275E\335\021=ao\356\274}/\027=\251\303\212;7\247\016\274Q\316\373<\326\351\t=@\311\266<\222\265\312\274\213\007\340<H[\207<\216\000z<\300r\227\273w\210\275\274b\274\245\274\0326n<GH\341\274r\204\237<\331\305\232<\321\260\226\274P\213\332\273\342\274\373\273\240\300\254\274\265\025\025\274\260\232\245\274,k\325<\371\177\003\275O!\036=\357;\363;\255z\334\271\007\372r\274\345\340\010=X\210\353\274\323\007\255<\014\331\325\273\222\005\231\2727\345\364\274<\273X<\027xf<\035uE<\3003\313\274\2357\340<\326>\376<\254\342\033\275\'h\221;\'[\311<=\234\264<\303|\031=\371%\240;\302m&\274\rhL\273\202\351\224\274\352\246\332\273\371\245\2458\312\370\363<\206A)\274K\004\212<\345\215.<\341J\352\274\027\350\032\274\271M\241\274Z7\315\274.|\225\273\226\232S;L\364\232<\373M\315\274\n\347c\272\037\341\364<\036E\264<\200\236\263;\006\361\334\274b\310\304;>\007\001\275\201\355\276;G\357\030\2752b\360\273\303\025\006\275+2:<0\023\020=\267\241a<J\224\311\274k\242\032=\0006\212<x\023\037\275\373\206\232\274\335\231\014<L\276\016\275\030\203\317\274A2\036=\227\247\302\274\3301\025<\274\\\307\274\032\217\321\274p`\010=+\353\305\274\304B\252\27497\270\274\221\341\021\275\331Y\321\274\216\001\347\274k\310\304<\t\254\225<\n\311d;\351w\025\275T?\027\275\244i\006\275\230\324\007=\347\235\357\273\301>\266\2731p\322<\tee:\221\302\203;\024\251Z\274\003\r\201\274]\"\241\274\325\330\023\275V\271\000\275\326\"\264<L\024G;\235/\277<\241\202\207\272K\004\340<\342B\374<\030\2129\274\200?\225<\341\333-\273\021\204\017\274\037\374\266\273\204/\342<\350\367\316\274|\204\217<\212)\307<\317\316\255\274Q\333\\<vM<\274k\313\330\274\245;\316<\177\246\300\274\r\354\354\274\253\277~<\335\362\310\274\2013\006\275\323\003\270<\347\247\037\274\347\n\262<ps7\274 A2;>Y\004\275-.\030\275\222\273\t=\323\217t\2747:)\274\177~\270\274*\250\372\274\210\252\270\274\350\263\010<]/\210\274\2421\035=\034\300S\274T\334\n\275\372b\203\273\265){;$z\304\272\340\000\304;an\347;\210\035\246<\277\023\200\2749l\026\275t\201\353\274\007\343\336\274\310N\275<\323\334\312\274.\316\022=\240M\034<\200J\333;2y\304<J\311\320<{\232\010=\365^\032\275\025qZ\274Y\3067<c\247\032\274&\323\211\272\256\317\222\274>\214d\274\365\337\021\275\037\332\341<\231\237\262<)b\257<\374r\376<\3137\321<\030w\033\273\232\274b\274_n\307\271\266\236w\274\220\311\272\274\t\252!;\373\022\375<\376\307g<E\322\002=\324\023\327;H\026\373\274`\322\232\274#L\347<\350\016k\274^\360(\274\355w\216\274\262\350\246<\252\007\031\275H\230\262\274\311\022\366\274\005,\016\275\003\207\350\2740v\260<\004\022p;\'\'|\274H\230A<\304\301\276<\355\017\006\274\336\301\034\273\220\275\373\274\tC\"\273\246\316s\274\230|\033<7s\234\274\251\315G\274\3646\243\274\213\030!\274\267\t\325<\266\335\035=\267\353\023<\356\300Q<\r\177\264\274s\007\307\273\021\262\215\274\223\005\244\2730?\373<\357\301{<\345a\224\274 \220\002\275\312U\371\2740s\314<zx\335\274Xj/<\254e^\274\370%J\273@&\346\274\312\006\026=\204>\343\273s\022\033=z\021{<Ll\273\274m\271\240<a\226\006\275\003\016\036<?\016\230\272Xr\362\273\225H\250\274/\333\321\274\264\215\275<\0163\241\274C\371\r=\241\325*<IT\337;\371c\364\274W\346\031=S\305\213:\\:\024\275\371\216\003\275\236\024\020\274\364\005\340\272\354&1:0\352\360\274v:#<\342\360\227\273\212\344\032=\370u\225\271\374`\035\275\001O\246\273s\323\377<\306n\334\274<\370\314\274\000\223\326<\216C\t=\033=\n=[=^<:\212{\274X\304\024<\242d\000=b\262\324<\363\266\276<`\206><\327\260\001\275\026\005\201\274i\261\371;?u\201<\263\006\244\274\341\276O;\237\213\004\275i\317o\273J]\006\275P\247\334\274\223\251\013=Zw@<\207\222\004\275\207\222\367\274]\034\237\273\312\306\271<\300D\374<y\372\261<\376\311\016\275\005\357\365\274&\t\351\274\354\377B<\306\202/\273\305\307\210\2745\375\216\273\177\243\371<\257\223\362\273\\\035\014\274|\306\033=\234\243J\273\313Li\274o\335\315<\017\014+<~D\202;7\306\016\275\307+\272\274\301y\310\274d\006\376<i\021\341\272\353A\254;T\336\307<\345\340\212\274y\347\001=a\205\031<\356\036\320<*\245\266<\227\226\216\274\224\031\311\274\234U\034\275rS\n\275\001\226\007\275\351*\340\274`\320\374:_\351f\274S)\266\274\374K\001\275\266\210\003\275\364\313\304\274\350\300\363\274\373\314\264<8\302\023\275\202\246\016\275\373~\355\274\3556\233\274N\033\014\272\312\352\370<<W4<\025yz:\304\031\027=\250\360\205<\022S\r=\276\374\277;\337\373\n\274\013\353\253<\274\247\032=1\372\034\275\200T4<u\276\007=\321\360\356\272\003\313\304\273\256G\375;\320r\330;m\322\031=#nH\273\260\274\036=A\272\200\274\223Z\352\274\014\326\001=U\266\224<\266\007\210<\306S6\273J\225!\273\373^u\274\251\033L;\376\027\241<T\031\317<\005F\234\267\264\254\334\274\273\322\007\274\375\025\311<\032\024\370<n\205\t\275\201\256\217\273\242A\372<\305\344\360<4O%;\246\254\250<g\265\346\274\300\316\222<\033\351\222\274\025\357F<\230 \226\272G\320\n</w\001=\236Q\314\274\"\267\252<v\252\016\275\315\002\233\274}$\233<O\351\364<\354\302\021\275\340\257j<\035U\265\274\221\262\357<#\244\010<\324T\213<0H\021;O\302\301<\334\246k;t\263\n\274\331\261\t\275\212\313\271<$\020\372\274\244\"6\274Q\277\317\274f\016\200;H\027\370\274\233\373\355\274|\371\021=\370\311\005=\233 \002\275\324\324\337<\205\023\374;\202\026\001\274}#\003=\344\007\333\274\347T\240;\232\212x<b\323\327<\307j\251\274\355\323\006=v!\037\274\231\030\204\274S\\\257\274\267\036\000;\026^\257<\013\344\260<\372\nI<\355\206\345\2742\026\026\275YL\326;?\000\227\274\010\253\n\275\321\254\343<.:6<PG!<q\027\321<\r\330\360\274\217\027@;\317\241\374<>\224B<\177\374\013\275\002\023\333\274A\004>\2748\300I<A\265P<?`[\274O_\020;\272#W<G\365\267<\236x\000=Z8\226<\255\342\017<\320\021\312\274H\354\341\273\275\273\353\274\3418\324\272Y\204\022=\301\030\032=\'\020\335<\335L\357<x\034\367<\322\372\246\274\355<\336<\310\375s\274\0137\014=\313\020\000\275\300\212\007\275\223\347\000<\246\226\320\2744C\275<\362\317\036=_i\016\275W\024\224\274\310\250\267<\353\024\321;\347\353\305\274\273\245y\273Wj\300<f,\035\273c\226\337<\n\210\230<\310\236\364\274I\034\030<f\221y<<\224B\274l&>;\216\301\310<\307\337F<\231F<\274\340[@<\237\336\347\274S\317\303<n*\356<^+\351\274&\320 =\307f\313:-\214\326;o\333\n\275\202.V<\242\332><@\275j\274\240\260\272<#\273\202\274[^\263\274\226\367q<\330\300\035=\032\207\026=j\200\214\274D\177\022=s_\027\275r\211\037=\260\202\327\274\300c\206;8\373\205\274U\252Q\274Jx\274<\216:\276\274\374\'z:\003h\262\274\265Y3\274\304\030\223<;\036F<\230\261\013\275?\276|</2\010\275B\3758<\254\363\220\274\004\001\026<f\335\300\274G\373\312<\2124\235\274\\\371\215\273\205\024\317\274\372\316u:R\374o<\355\n\354\273\016\231\t=\241\276\n\275q\315\344\273&J\316\274\345\313b<\211j\311<\265x\224\274\010\203\210\274>\336\363\274\263;\314:\201\256\327\273\016R\002=\301\004\320<\344\301\330<V8\303<\325\233\307\272\327-\372<OE\004=Q\212\366\274\017\025\027\275\305b\202\273a3\363\272*\314\302<\222\301\023\273\300\222\247<\242\202\230\272W|\354:\320$\010\275\264~\262\273w\350\017:\010\020\360<~\274\272<\330\004\275<1#s<e\325\024\274m\272\034:\365\373\030\275\375\241\003\275\241I\316\273-\316\014<\211\205\032\275cp,\2730E\031=:\342\336\274\2174v\274<C\033<\312\231\232\273\307\330\004\275iU\033\275t|\212;\226M\261\273\265\203\323\274\324\002\310<\006M\237;\034\037!\274\214[\300\274d[\376<\\Z\217<^\301\020\274\263\324\025\2756\300\351\274\216\336\354<x\226C\2742\270\251\274\r\205\016\275\256N\016\275\305\232}\2746>\365;\372\207\n=Y\223\023\275\206\351\236<N\215\245\274\230\273\003=\204\244\257;M\325\200\274=\305\020\274f@U7\367\003\3658\231m\262<\330\306\205<\213\007\231<2R\314<\331\373\262<Sk3<\226\226_<\364B\344\273\251\226\376<\277\037\005=\214\232\204<\250<\2778\324\367\306<\2600\374;`\302\372\274)\264\026\275\216\277\244\274\017w\372\274\230&\345\274\266\007\274<\013\315\372<\350$V<\314\026\337;\301\344\300;\343\333\302<:\343\262<Cr\315<\304\206\014\275\365\225\302<\036\367=\274\315\324\234\274\224\254\211\274\3456\032\275\233\253\305\273\226\214\233\274#7\025=hM\027=\210j\265\273\3157\265\273h\217Q<k^\347;\236\337\272<\342[\200;\361\004\253\274\022;\255\274\363cf;\211J\010\274>t\221\273\276\022u<\242\017\312\274\375\254p\273\365\014\017=7\330\225\274Y,\000=\004/\013=\250\306\250\273\320)\026=\267\347\014<\220\t\376\272g\214\305<\356\t\251:\334\234\014=\024<\235\274\033\330\032\273G=[\273c\204\306\274lJ\260:\031\371\013=\234UC\274/\374\277\274Lt\277\273\016\220C\274\216\322B\274\034l\347<\014\300\214\274\225Jm<\203\214\024=]&\037\275\201j\332<\242\376\007\275S\256\016\272\346\214\037<\255\253v\274\265\363\037=\201\363\024\275SH\201<Y]\225:\205Y\034=\276%\031<\321@\356<\245E\000<\267\002\233<|V\006=\212\374\351\274\313\240\033=\251\272\254\274\263\032\276\274CA\t=\014Q\300<\263\034\021\275\372B\274\274\026\204\367<F\212\242\274\364!\3078Y\341\t<\000G\037=\206\362\332<\354\\\027\275]u\035\275\253x\245<%Q#\274js\314\274\366\217\331;\r\272\220<\032\016@\274\ng\325<\252\242\205\274(\233\222\274\005m\342\274`\334\347;\323\306\r\275k\240\342\274iB_\274b\2266<-\360\377\274\272\262\023=\257\334t;8q\007=0m\000=)\340|<I\311\023<\305\222D;\374\224\347<\246\312\204<\246\250\303<\260\361|<Kl\374\273\360\203\243<6l\342\274~\305\016\275\242\006f\273\335\335\006\274F\350\\<\215{\274\274\305,\246\273\354\323\232\272\030\326\374<\334\260C<`\022\357<8\372\022<\356\035\357\274\271xJ\272\n\243\003=\275\245\025=\232\355\360<\361\221\364\274R\r\304\274\231\261\314<-6\2719\'\272\330\274r\016\030=\n\347\003=;%\024\270\003\322\320<\r\254\350<~\202\332\274V\312\300<\r\302\376<g\236&<Jy\266\273\361S\375;\023w\307\274\271|S<\243\363\215<\300\371\222<\370\307\323<\245N\243\274\243M\034\275\356\036\014=\311\t1\274\021\020\355<\200\265\005=\267\233\335<x\233\355\2744\234\003\275\324\374\266\274\245q\243\274>\341\036;u>4<ZX\024<\234c\036=d\"P<e}\272\274\335)\032\275N\365\317<@v\035\275\213$\034\274E\307\204\274\373J\273\274}]\322<\3329\365<\"\252\263\273\021w=\273\324q\r;\024\367/\273\362\265\213<\344\0160;^hk<\206=\245\274\231\013\311\274p\2750<\\pA\273>\303\030=\303 \315:e3\363\273@\022\266;Y4-<>o\265<:\331\376<Cn\377\274v\204\361\274\020\202\227\273\310O\027<`\222\035\275W\333\360\274(\362\240<\252\2359;\010(\360<A\241x;\265\374~<F\206\020<I1\306\274\305\'\247\274R\202\252<\211\354\004=\347\232\017=\375\372\010=\315\277\305;,!\244;\226\215\251<\347\232\305\274Z\211\262\274z\037\007;Uj\006=Ih4<\314\365\307\274\354\023\304<\352\205\025=:\177\216;y\320\374\274\224\026\r;\276\353\006\275\017\300b<\335}\231<Eq\331\274u2\255\274\361\020u<D\266\034\275]\345\033\274I\372\017\275A\204\222<\364&\000=\234E\007=Q\373\030\275\3623\014\275\007_\022=7\374\002\273\317\332d<1\267\026\275\371\353\363\274W0\000=~:\245:e2e<\033\200W<@\234\206;}\005\007=\264\226\340;O\220\001\275\177\251\271<\244 \333\273\177\331I<\3636\334\274\312\334\r\275-\033x<\203\305\261<&3\323\274\275\315\"9\031\346\354\272\224\322\322\273\016\227i\273\371\207\036<X\310\277\274\323\220\310\273_\022\221\274\250\005$<8\026\223<hy\365<\316\323\275;\006A\251<>\343\000\275\240)\002=2\247\250\274\007(\265<\007$\372<S\202\371\274/\277\311;m\237\370\274\251X\317\273\021\220*<\357\270\314<\371\213\261\274\304\353\233<\273\234\374;\263\256\266\273l\202\022\275\373\274\033\275\367\313\373\274\201f\207<\372+\377\272\323,\310\274v\013\305\273\302\275\036\275\377\033\013\275\354\254\221<\311b\243<\271H\n<f\242\037\275\311\212\365;\201\n\210<v~[\272\317\345,<\223 j<\330n\200\274u\242:\274\251\266\220\274\272_\310;\235\r\300<\325\\\r\275\230\356\033\274g\205\306\274\372\353\373\2743W\037\275\037\300\010=\001.\026\275\301\0174<T\242\313<\200%\205<\365w\340\273xi\021\275\270C\022=\371T\312<\020\250\253<!\"?\274+\001\333<\325\264\206;\376A\251\273\203y\362\274\202\333\365;\302\320\014<g2\031=\006\026\275\273\313\250\275\274\327\232\361<\211\270\204;\350%\241<x\013\020;W\r\310<|F\363<\267y.\274v8\300\2748\321\372\274\370\203\343<\375\317\360<\243\200\005<\014\214.\274s\216\213\273\343\032\241<)\323\024\274\343(\277\274\342a\'\274\300X2<\223\277\255<\233\211\224<XG\r\275\245\236\022\275\233oQ\274T\341+<\215z\277\273Rx\t\275\2776\214<\323~\316<g\353\356;\367\225\017\275\207\240\336\274/Z/<X3.<\212-\004=W\373\333<\202)\010=6\217\305\274\003\352\222<M\265J\274\274\323K<*\007p<\312\225d\274\301\323F\274\216\214\251\274\330J\000=\257\203K;\346l\300\274\243_\302<n\2773\271\362\307\305\273\001\244\300\274\024\032\035;\370\212/\274\035\261\'\273F5\221<\363\261\333\273\010/\253\274,w\005=\3001&<\204\345\016\275\322}\006=\267\360\247<\320\334\230\274U\342\265<\354\314\254\274F]\013\275Af\314\274\312\014\241\274=\031\t<\325\3547<\000\033\r=x8\217<d\2720\274\335\304\021=\rV\222<\370\351\324\274\247e\002\274\364\t\214;^h\311\274M\265\260\274y\331\202<\033\356\375\272 c\367<\035\323t<.f\001\274\253\201\336<P\224\004\275U  \275\257\250\224<\260\372\354;\356\367\316\274\263\354\026\274\254\347\r=1\036\270<\240\r\362;\022\036\263<\243N\020\275{L\004<@\004\347<\306\330\355\274\367\250\n=\221?\365\273\014\323\201<\301Cq<8\324\001=\\YO<\314\207\021\274R\\\277;Vt\006\274\306\360\326<C4S\274g\262\213;\014\214\036\274\031t\260<\3269\027=bq\014\275\245\030\033\275\';*<a\347\355\274X\252\017=\265\321\002<\2553F<\323\026]\273(\215\365\274U\000\017=\334#\214\274@\311\276\274\276\371z\2742\'\222<\034q\302<;\003\036\275\312,\304<N\232\000=\270\232\317\274y\266\013;\352\267\243\273\372\250G\274\200\273\257<\316\337\022\275\250\257H<)\027\027=\254p\356\273q\213\371<d\312\320\274\234\t\325\272jL\370<\354:7\274\352\017\371<\366\204\307:S\317\212\274b\356\207<\344\232X\272Fu\366<\214\272\252<\222\362\031=\252F\303<x\314\300\273n\000\373<\346p\250<U\003=\274bX\236<\313\302\257<0\004\001\275\307@=\274\356\001,<\037\312*:x\264\357\274\326}\264\274s3\014\275\2478\002\272\224&\307;\330\334\330<\205\253w<D\221\376\274\263K\367\273\005\235\024<$\215\035=$\367\000=\256e\377\274\275\032\005=\205K\332<\275\023\351<\3531\220<\272\330\330<\230\321\251<\251\257w\274=\001N<\320\241\014=RO\306<!z =V\343\324<\002\216\327<\332\312\036\275\321\373m\274\023\336$:5\310x\274\201\251;9\331n\r=M\007\362\274\325\372\274<r\033\304<\356\241\217<{\t\204<K9\303<\014_\252\273\350K\037\275KF\343\273\340S\"\274\204\307\234<\331d\216<\302\360\t=\244\006\341\274p\336\202\274\360E\013\275\226\027\250;\035\"\216;1}\271;\214\202T<S\273\256\274aw\245\274\377q\321<\307\312\250\274\373\251\232<\374\336\017\275T3\027=\352\370\247\274Yo\021\275\256\271Q<\336\307\257\274\264D:<U\235\020\2754\000\r\275\032\255C\274\031\"\216<|Y\274:\3501\022=|\235\005\275q\014\270;v\341 <\032_\013\274\233b\332:k\367\226:-L\'<\275%\220\274y\002\261\273\226>\260\272\377|\013\275W]\246<\351\305\274\274\017\321\021\275z\224\"\274\333\357\t=\340D\320<&J\325\273\211\372\037=\241]\007:yC\325\274\247k\021\275\242u\017\2754A\257\273\355[\006\275m\274\343\273<\353\001\275\310[=<\376\316/\274\270w\340<\002\366\010=@\231\276\274\205\315N\274t_\341\274l\\O<\\.\275<\216\320\005=\235\270x<\252\303\033=\253-\271\273\036\267\025=w\346\347\273n%\n\275\276%\r<8\225\006<>\245\241\274\341\326\306:\231\333\235<\312\202\036\274\230i\007= \374\022\274~{p\273hE\354<\251`\025\275\364\334\372<\254\310(<\245ai;\301\nh\274\304x\005\272\320Q\334<s#\366\273\342(\017\275\300\000\027<\275(\215\2745\305\036\275\230\232\005\274\232\226\246\271\373\356\004=\217\267\030=;\370\016=\300L\274\274\030ZA\274\225r\t=hs\033\273\004\351\224<w\245\217<e|\0279\001\262\031\275\'\235\027=!j\016=\304#\034;W\027R\274\225r@<\356>\347\274\304b\267<\030R\377\273\013\344\005=j\n\232\274C=\341<\276\231\365\274 \256\212<\357s\355\272\020DI\274\017\310\236<L\024E\273\235\'\017\275\255h\024=T\023\321;\031<\224\273\312\266\252\2731v\221\274A.\324;\212\300\037<\324S\263<B\247\326;|L\010\275cv\225<\373\231\337:\317\226\310\274\243$\003\275E{\215\273\021ff<\326V\305<\332\364\020\275\315\234\224\274\316\324\276<\023\216\332\2741\233\327\274xL\032\274\364\005\353<;~\345\274\323\252\023=^\374v\274;U\377<\313\360\227\273\204i\030\275\307l\025\275W\016\r\275\375V\253\273\256CO<\250\033\003<\257\000\003=\351$\255\274\232\010\036=\376\254\327\274\317\264\035;\252\002\007\274\362\237\034=\303\r\346\274\304\036\\\274\243U\023=6\266\353;\312\026\270\274\341T\266\273\']/\274f_[\274\220\300B<\031\034\\\274G\323\020=b]\001<V7\037\275\250+c<(\270\013\275D\020\355<\024\355\360<\0334\212\274\214\230\202<x\2251\274\231\321\224\274\302\202C\274\014`\376\274\315<\273<\345\371\355\274M\263w<_\017\016\273\341\250\264<\321\205\016\275\325\224\352\272\351\035\276\273\224\250\017\275\300\236\321<`%(;\001G\233\273`P\337<5\'\214<_\330\224:v\374\263<\307\241\327\273LP\022\274\340\256\237;\306\263\035\274h\252 \274\020\341\204\274\037\206\023=\216\322\032=\203~\275;\274 l\272\327\360E\274F\377\n=\351\3650<\226T\377\273\256\232\315<\256c\370<_r\316<\230d\r=hW\017=\014\001\003\274\361\213\354\273}\340\267\274\377\316\022\275\354\031\000\275\216\322\355\274\001\373\021\275\026\372[<E\330\221<\000X\200<\3409><\357\340\004\275 \031\231\274\214\301|\274:\026\024\275\005l\310\274+\246\265<\366d\236;\301\373\326\274\265\301\245\274l\241\021=U5\177\270\344\345\231\2747\371\334<\336\312\330\274\367I\357\273.w\005=\211\327\330\273~\030J\274Z\217\204\274\211\345%\274\250mS\273\361\260\243<LH\030=\250\004\370\2746:\300\271\363\225\332;\252\241\226<&v\223\274l\301\n\274\266\306S;\317;\277\2749\357o\273\310\031&<\321;\000\275\326Y\243\274\335w\260<\255\"\023<\232\024\301<[z\037=/^\321<\037#9<\177o\236<\251\245\014=5\n\313<\324e\035<\021\343\213<\361\347V<\217!\r\274\203~\005\275\355#L\274$I\327\273\230r\225<q5\224\273!\271\260<\262L\352\2743\232\025\275J\360\212\274-f\035=\257T\310;\375q\274\274\267\257\340\274\347b\376\273\003\034\325\274\030:\365<J\360\352\274\252\ti\274\035\343\352\274\010\321^<\254\235\0379u\267\364<$\216\0179\246\342U\274\006\342U<\025\325\033\274)\321\005\275]\263\320\274\372\207\233;Nw\373:[F#<\341Z\331<\t\362\235<\321W\036=\177F\214\274k\035\326\2744?\010\274)\214\240\274\267:\251<m\263\022=c{G<\232\322\036=\373\230\021\274\377I\374<#\344\002<\350\257\023\275\016\325\356<\205\241B<M\025\210\274S\257\024\275}-\345<V\365\006=\366\254\376\272qU5\273\253\262\251<\231\234~\271\033\020\006\275\342\243\014<\325A\361<&\344\033\274\324\2150\274\003|\n\275f\037\374\273\370\001\255\273\263\ng\274\251\325\003\2753\260M<\354\233\360\274\311\025\014<Z\256;\274\356;\017=}Q\223\273/l\034=\304x\336;\203p\271\274gT\301\274!\331\002=x\032\260\274\231T\265\274\031R\361\272\315:\350<v\301\010\273\006\334\022\275\271\034\n=mC\026=\335E\007\275\342q\001=\013e\271\2741\250\001:B\322\246<\372\235\207\274\337]\r<\014\344\355\274|\023\014\275*\344\236;z\3666<\223\363\\<-zQ;\357F\260;\261w\367\274f\267\341<\217b\024=\340$\034\275\256B \274(\003\336<\343\241v\274\264*\303\273\347t\275\274\375\222q;\263=\255<\260F\357\274\325WP;\336\236\252\274\300\255\230:\311\321\347;\310\"\371\273\022\214\261<\273\303\265\274\223\363\001=@\306@<h(\221\272\323m\000=Yv\322\274\223\306\033\275\264g\334\274\373N\257<tR\031\275Y\317\016\2757Q\321<\010\023\374:\356\223\366< \230\266\274\361R\205<\254\330O\274*C\336<n.\214<\302\\$\274\005\260.<\324\r\000\275\203a\355<-\373\221\274\224y\373<hD0<\336\005b\273\363\t\214<(L\334\273U\351\377<\332U\\<\233\337\361<\342\220\324<B\206\311<I\240\022\275\373\016]\274\247s\002\275\307\016\036<1\222\341<\017\242\314<\235\370\225\274\207\315\016=\216l\311<v\212\224<|\246\016=\214 \002\275\013+\002\274\271\223\221<\342\014\327\274\301W\016=\253\273\001\275<\007(<\310\203D\274\322)\357:\214\223\022=\377\341\t\275\217W\241\274`\332\005=\234I\321\274\312\242\364\274\255\311~\274z\304\310\274\022w\266\274\033;\231\274\035\345\227<\274\201\305\274\210\031\212\274pe\212;\223`\270\274o\257\020\275\326\210\205\274\200+\355<\205\213\202;ql\351;\024+\037\273\303\274\366\274\037]\r;\260{\024\274N\224\323\274\006S*\272\357\\\321\273\206\255 \275\212C\345\273O\355\242\273\310%\264\274\203U\027\275\001*\r=%\247\006;\361\3354;:p\344<f\340\025\2758\206\206\274\376\342\032=\036+\257<\347\335\351\2749y\026\275\007R\373\273i\362\027\275\275\024\343\274\360\370\240<\014=\004=\3169\'\274\210\033\304<\352\035\307\274d\377\300;\tq!\274|\252\223:\333y\307\273$l\350\274-*\017\274\314\214\242\2745\216\000\275\023gO\274\212\316\006=\300OH<]\210\344\274\002\256\r=6\002\326\274\203\376\r=\031\240\241;\240\310\353\274\211\r\007=\261c \275L\323\207\274\034\267\261;\246\252r\274\256[\003=A\344\253<\177\362\004\275p\264\375< \271\354<\224N\227<?<\204:Iv4\274\022*\000<\354,\257<\341\222\310<)\315\035\275i\202\316\274<\200\304<@Y\300<\010\343\021=\210&\350<ab&\274Hc\t\274t\270Q<)\307\324\274\007)\001=u\010\332\2741\352\030\274\265\275\027<\262\310g<\2571\355\274\370d\263\274\313\350\215\274yf\336<\270\310\007\275\336\375\371<v\345\320:\\\236\031\274\225P\177\274A2\247\2735\254P<\344\203\326<n\340\017\275\261\010z\274\323\225\341\274\214\203\023=_\262\313\271\332B\247<p\037\224\274\013W\327<\232\227\314\273\014\374\016=3\300\251\273U\265\220;\317\371\226<vx\244<\260*\006\275\365@\364<\027\370\020=\227!)\274\032\344G\274^\366\000=U\031\221\274.^\n\274\007/Y<iOA<\017\025\345<\215\245\003=\362\017\257\274%\266\t\274\200\274\352\274JN\224\274\255 \211\273\315\240\033<\271`\317\273O\222\275<2\034\324\274Pp&<\351\210g\274Y-\016\275q\334\215<\302II\274G\333\306\273\004\220\037<^6\202\274\331\244\000=\365\027\251\274\312\263\303\274L#\032\274\375U\024\275J\323\337<\\\030g;\312\247h<\344y\034\274\275\354\227<\367e\022\275\217\335{\274$\274\002\275\223\355\274\274;\237\033=Z\276\315<D\022,\273B\304\353\273(\016\014<8H\201\274\275\201\003\274\214C\323\273\254\021T\274\336\246\310\273f.\333<\224\005\270\274\366\307\325\274\270c-<Y\026\225\274\272Z\r=\202\240\213\274\034\234/;\222b\204;\250\335\030\275{j_\274O\3550\273\274&{\274=\207/\273<C\021=\335\333\254<\362\332\037=\217\275\276\274y\323\310<@*\026\275$\347\337\273b\272\007=\355d\016\275\322\3047<\273\005\272\274\336\332\211\273\215\367\200:\027 \306\274h\340\335<\030E\344<C\300Q<\354\252\311;=k\347<\212\225\367\274\230i\022<\355$\347\274\306\301\330<\274[\022=E\356\034=\264<\322\273\"p\014\2752\313\244<\037\260\251<\323\3543\274\361\225\330<5\357\360\274E\246\321:e\312\344<Fh0<\322\260\377\274\313\205\017\275\016\026\230\272P\352u<9l\031\275\003n\016=3\204\222;r\313=<\276\020\002=\017\362\232\274M\264\351;WR\323\274\236\022\271<\001}\217\274\024o\207\271\264\320E;\030\240\021\274\221j\030\273,`w\2741\326\254\274\342\212\001\275\274\366\316\274\265\320\246<\021\254\255;\273\315\026\275m\360\210<\027\265\n\2732:h\274/\t\272<\333)\035=q\200\t=O\0366;\201\251\310\273)\034\036<\211S\250\273\276m\3119\245\002\226\274,\310\027=\317\021\323\273\361TQ<\311q\305\274\373{\230\272T\024\250<\213\346\030\275\rJ\222\274\322\311\236;oZ\240<]u\250\2737\024\372\273\322\n\005\275\\.\246\274\006q\n=\247Q\005=\270NF:\350B\265\274\216\004\375<\000\220\204;\372\322t<>\326\036\274j\347h:\360\315\006\275\036T\337<\326L#:\t2\212<\'a>;\211]\271<\025-\035<\215=\353\274N\242\256<\202\345\325\274\323\220\350\274\306\344\035=\002=\307<\315_f<\276q\205;1\343\356\274\373\203{<,\311\305\273X\325\253;f\027\001<j\275\026=7\307\253\274~6\337\274T`\037=H\322\r\275\263\261\001=d\343t<\263\"\002=O\353\375<\255\320p\274\2114\023=\"\"\033\275\302Z\226\274\331\2364<\266\272\204<\346\372G\274\032\r\t\275\221q.<\313\261\211\274\274\224[\274\303\021\010\275;!\331\2723\237M<\340_\352\274\346p\024<\031[e\274\210d\031\275\366h><i\375\264\274\303\325\254<x3\261\274\247w\217\2749\277\026:\235\000\226<\223g\027=)I\330\274i\367\334\274\345\207\033\275\263\270\004=\256P\031\274\206\322\226\272\360V\216<\374\177\317<\263z\352\274e\033~<T\nw<\2757\233<h\326\206\274T\234\377\274\025HF;v\002\027=eY\314\274\037w\200\2745\243\030=JR\271<\000N7<\335b\n=z\303\003<\264\3431\273\212dw<Q\266\325<1\321\311\273Ze\270<\035H\334\273\352\314\353\274\275\254\352<\330dd\274\003*\277<\\\302\363\273}\033\212\273\316U\374<\240l]\274bh\363<\007\003\037<Z\315\247;\335\266\353\274\207\223\237\273\223\203@\273\235]\033\275\351\333^<\262\330\375<\026\213\021=\272\301\003\274g\300\362<z`\242\274\207r\355\274\202\363\022\275K]\r<3\240q<Q7:<l\234\022<%\032\273<Im\214<\302\2567<\375\007\345\274N\233\335<\216y\034=\3755\024=V\304t<\351\']<\313\234\007\274t\356y\274\017\3746\274\273\rK<\270\003\212<K\345f\274&Hj\274\257\364\331<\324\350\253\274\272u\222\274\327%\222\274X\013\342\274t\000\302<W-\020\275\333\250\213\274qG\020=\226\364\335<4\236\270\274l8\303<\351\233<\274S\223\260<\270?\246\274\331I\002<M*\221\274\325\022\032=F\352\247;\361\306Q\274C\263\177\274\211\234\344\274s\317\035\275}\223\200\274\007\337\204<fH\026\273\365J\302\274\361\242\001\274!\220\354<\010T\320<\260\372\307\273e!\033\275{\353\036=\270^\271\273\006\022\351\274\303\300\320\274\357\301\024=\232\005\215\272sT\025\275vO\303<\3751\016\274\201\312\\<\2656\0349\236U\301\2743g\034=\307$\300\274}\325\225<R\245\001<\320\225\225\274\306\265\013\275\033\273\367<\177\224\362<\001\204\001;\013\024\014=\322\3534\273}sC\274Y\366\323\274v\270\005\275\205e\001\273\3141h<\027\220\006=2i[\274\342\314\000=\336\005\257\274\257\276\212<\241R\232<\250\330\222\274Eyl;\225\306\036<E\234\002=\354W[\272:Q\214<\271\215a\274\214\363r9*\243\347\272\"\217\365\273X\376\004\275\352Q\214\274N}A\272F\371\243;\354 !<w\356\203<\266A\007\275\323H\2409\026\233G\274.X\002\275\325\t\260<\013\\<;\002\230\376<\275\025\334\274\252?\007\275\211Ij\2741+2<\002\205 <KY\027\275w\366\270\274\030\327\231\273\010\030h<hO\274<\274V\337<h\352\273\272-\201\321;\245\371\037\273\211\t\026=\224\217\274\271\322\333L\273\224vs\274\354\024\252<\035\217\327<\311\257!\274F\013\013=\206Z!\273\037\022\036\275>z\340<\031\245N7d\240\002\274\254y\354<\270\354\355\274\374\365\206\2744\305 =\246%U\274 \0041\274b\020\252;O\205\342<\273k\202\274k\235\207\274\363\317e\274q\'\266<\014\356\311<\t\232\005\275\321\273\r=\222g\366<b\254\233<\342\220\262\273\366\273\177\274\032o\013=\252\022\306\273\237l\024\275e\016\254<V\240\267<\264\372\316;\207\330\350<\271\273\037\275\344\242\346\273\260\273\360<\027\274\013=  \252\274\334O\203\274t\210\275<!\327\"\274\323\342I\274\302\375]\274<} <\r]\202\274\315\275\005\275\243\315\372\274d>\234\273\226\221\004;\302+\361<\'!\017\275\300\210\377\274Ms\001\275\225\310\300\273\326\023\n\275Sm\356\274\346y\317<\002\t\010=l\361\235\273\2457\371<R\027Z\272\227\335\233;\t\251\325<\345\024\262<\301\207\357\274\223)\334\274\362J\326<\002\331\326\274\271M\346\274\206\275\016=\216\200\313<\"R\274\274\374@\202\274\003\375\023=3a\032\275\256\340\355;\304\232\n=\177\212q<gp\035\275\345H\254<\304\252\322\274\264\244\314;\274r\007<\334P\023=\337\210\232\274\233A\327;\221\341p<\324\333\347\273\014\223\345\272\376\217\014=\003q\250<\t\210/\274m,\226\2745\301\022=\312!\013\275\020\373\261:z\321\356\273\326A\021=Hi\202<n.\001=\231;\373\274\254\007\357\274\\\025\347\273\\Vz\274\373\355\303<c\336\360<\007Z\372\274\217\224\n;I\357\007\275\212\257\201;>$\257<#W\371:\033\366\001\275<\373\321<\236\010O<\241H\210<\027|\362\274\370\373\240\274\222\235\252\274\017H\271\274\275\276 ;\021\274\336\274\204\373\341\274\313#\250;OJ\242<\210\256\317<<\372\364<R\310\251\274d#\232<\215z\022=\201\300\225\273\341\210\221\273\223Q\337\274!&\301<LX\370<\324\353\240\274/\\\014=\214\307\355<\203j\002\274yg\311;L\346\013\275nM\251<\370\225\005=T<\330\274w5m<\213\262 \274F\301\023\275\214\323\203\274\020\237\026\274I_\373<\002\313|;:\317\242<\261\010\321;\331\340\r<;\253\235\274%\021\243\273\023y\276<,\027\304\274\211_\372;\367\316\023=\335\225\327;\342\303\022=\\\274\371\273\201\215\230\272l>*<\342Z\376<j\253\254:\264\262\223<gR\342<\230:4<\221\217\251;\254\017\316\274V\200\033\275o@\322<\n\\C\273\220<\232\274\375\024\031=\254\344\337\274h\231\034\275\254|\245\274\361\241\266\274\340\013\201\274\335Z\340\274VO\227\274\177w\237<\332&\252\274IC\223\274;\233\253\274\340\227\363<\250\260\336\274X\275\235\274<\350d;j\361\233\274\206\217\000\275\326/\203\274E\223\267<\370\335R<w\007\235\2731:\006\275N\326\022<\352\246\207<\335\200\010<\177\212\014\275PJ\233\274\026+\337\274\316\261\361\274\314\357\n<\230 \t\275\236\002\346;4\304\265\274\005\262/\273\375|\231\274K\225\203\274o\236\n=\206\010\222\274\003\241\330\274\037P0\274\217\037\2236F(\230\272\036\016\315\274Y-\002=7\226\030<7;\231\274\022\371\240<\242K\215\274\303$\355\274b\2449\274\366\264^\274]\335\232\274\277$E<J\345\340;4\300 \275\321\342\333<e\221\220\274\tz\332\274\361\225r\274\270@\310:>\211\024=\276\303\000<&\316\031\275\2063\206<(\317\007=_/\204\273\323\354\316<\315\307\\\273\273z\213<\255>\346<\\\370<\274\017\r\224<#g\371<x\350\214<\017\250\021\275VR\317\274\013\021\312\274(\345\027\275\354\205\365\274\326\222\022\275M\"\034;\372nr\274\t&\326<\017I\236\274J_\020\275X_\253\274\373\247E\274Es\367\272w\367\347<\315\262\312<\346\215\301;LW\327\273w\213\376\274\305\245\027;E\027\035\275\354\210\260\274\247\026-<\030T\277\274\224\023\021\275\302\244\273\274[\037\007=\366\220\027\275\334\240\203;\3253\244;\213\306\220\273\362\311\255;L\346\274<O\373D<\277\'\022\274\224\257\247;\251\276\324\274\233\345z\274\027Z\010=\030\331\343\274a\355\222<\007\227`\2723\031\005\275\370\301\031\275\227\177\254<\330\331\274<o\303\013\275\276z\207<R\202\020=\324\220\275<\300\303\210\274\237\360\304;~!*\273\301O\017=\202!\002\274\356\305\013\275q\325\021=%\025\333<\034\013J\274\341\000\023\275\325\347\216\274\362\206\\;3\236\235\274\321\031\270<l\250\235<\355\206\221\274\331\r\375<\320\346\027<\3230\031\275\214\221 \274&\254\217\274\323])\274M>\212;V\0266\272T\246\027=\257\227\264\274Z\222\317< \031_;\r\230\305\274\311Y\007=\254?\273\273G)V<\323\362\331<\"c\324\273\336\264\032\2750p\013=\"\360\337\274g\n\330\274L\254\033\274\026\376\260<\306\241\274\273\221m\322<\301\227\250<\212Y7\274\305\0050:Th\010\275\244\223\036<\246\342\370<\026\266\273<\234J\257<,\254\231<P\353\031\275\224t\263\274\230\002\203:SV\217;vem;\247\251\344\274\022\217C;q\355\234<\247\013\022\275\022\301\033\275p\234\360\274R!\242\273\357\214\211;\366\341\273\2732\207:\274\246\207\360;\212W\017=\230\243\306<I\361\001<\336\275\t\274]4\021={l\267\273\323\335\204\274F>\020\275F]\027\275\331~\014\275\034\30159\240Z =\016P\020=\030\320\337\274\356\323\302<]F\245<\023\027\363<\220\315\356<\243\315\213<z\3260\274\014\005\031=\245`\360\274l\003e\274\345\307\377<\233{\035<1>\007=\317\231\234<\225\213\025=\234\342\031<?\262\230\274\026\330\304:\246\371\010\275F\371\032=\203)0<\370j:\274\016<\224\273F\225\365<1\006+\274x\026\"<w\260\n\275\346\350\032=\221!=\273\233K\023\275\255\347\212<\375v\255\274FY\263\274d*\376\274n`\002=\202\3130<S.\016=*$\223\274\244f\003=~U\266<\351\314\205<\341\316C\274\276\204\245\274\177\302\261<\374\035\315<$\363\r=\300\333\236<B|\351\274\3119=<_v\245<\206Q\000\2757\0225<\347\265\027=\212\271\005\275c\216i<Wr\033=\376I\227<\016\334\226<\022\027\301\274[\224a<tn\331<\262_\331\274\361;\364\274\221\245\277\274:\037\206<\340\366~<Vh\237<\200\202\"<\014Q\271<\242\357\016=6\"\200<\351\001\014\275\270\324\026\275a9\273;p\333\267;\226\r\316<\206:\262\274\202\355l<\n_\026=\365\314D<\203t\270<\236n\032\274\005\260\207;sp\240<\216\340\271<\226\253\026\273cL\311\273-(\344<\031\271\377<\357\205\260<\373\333\037=\232i <|\211q<a\363\023={DF\274\213\271><\315\374\261<X4\371\274\260\014\205<Wt\352\274_\231\344:DD\223\273\345\024\357<\352,\'<\030\243\226<7\254\007=y%\214;o\216\341<\201\305\030\275\027\t^\274\356\261M<\005\320\332<\233\370l\274yj\231\274N\267\335<\221BA\2746\367\026=\t\333\347\274\024\343\037\275\327>\370;\336\374#\274\257\310\n<\263*\275\273\337\316\246<f6\r\275j\216\020=\020S\370\273\260\304\214\274\017 \014\275\346\265\226\274\220]\264\274\3121\307\273\241\025\260<\326\247\320<{9\031=:\253\323;m<\310<\253\373\307<Y\232\014=\237\003\035\275\320<\355\274\365\013\204<\033\224\205<)\330\323\274\313\211\035\275Po7\274\036\336\361<\267\256*\274\253\305 \272\372D\020=\314=\031\275\004\211\003=\033\254\277\274lY\005=t\020\004=l/\t=\007\252 ={\234\010\275\334\234 =\304\021\364\273\326\275\201<\306P\013\275\\\302\276;\370{\213<\241\272\220<\253\234\207\274\241\306\227<\242\371\223<v\355\310<_&\323<\246\352\243<\370\223\005\275I\275\010=\272\233\325\2749X\360\271v\030\222<E\030\254\272\370\'\356\273\367\311\231\274\342\346\262\274\005\021\240;\003\320\333<\370\223\361\274\3409\326\274\365\014\217<\343@?<\317\364\250\274\025\276\224\273\207\350\003\275c\333K<7P\365\274n\274\251\274\210\"\374<E\325\307<!0\352<\275\200\237;\024\357\255;\316\314\007\275\365\270\247<\234R\352\273\230B\263<!\037\010=e\341c<\303\006\000=!Y\002\2751\245\027=\272\364\271<\010\026\356<\255\267\013=\3260\024;\312\211\212\274\327\013\214<\020;\234\274\342\277\236<sJ\300;\212\3305;4\256\314<I\335\262:\235\254\330<\025\217<<\024\255T\274wW\206;\020/\257<\035\237\035\273\357\332\370<\310\305\251\273>\256\n=\273\352\257<\010\323\020=\210\311\365<\274\252\030<\246\'~\274^\325\256\272\341\361\211\274\324\306\312<\014\266\223\274\243&\037\275GD\217<\027\330\004\275W\210\323;\243\270\014;\364E\036=7#\203<\356g\241<\243\311\371<\345\263\324;\326\3062;[\000\365;\246\275\316\272\267\377\315\274\264c\214\274<\343\261<\375\240\204;\004t\311\274](\t=%M <\214\n\340<d\325\225\272\3422\023\275\032\037\261<.\035\310:\356g\r\275\316\010f<\331\236\254\274f\300b<\266rz<\"\200\275<\377\300P;TC(\273\352\303H<\273{m;\323\035\330\274Q\032b\274\340\035\007;)\032\204<\034\005\337<\336\203\260<LU\240<\217\317\305\274\240d\n\2757K\263\273\177\234\350;v\224N;\216\243\242\274\031\254\237\273\231I\204;\333\007X\273\021\304\005=\251\266\t\275\035\214\213;7Zm\274\265\367\032\275\257\231\307;Rr\271<\261\313\363\274e4\303\274\236W\273<\342\327H\273\256aN\274a\275I\272\376\261\210\273o\013\277\273\224]\016=\261\013\236;\263\371\024\275\362\0039\271\037\033\243<G\200y<\027#`<Pt\353\274\274\363o;\257\303+\274\205\270\371\274\013\363\261;\357\233\304\274\3273\247<F\037\251;K\246\026\275il\313\274C\260\023\275\0278\275<\216Z\303<$\241\301\274\301b\260\273\344\344\217\273FK\036\275\377\211\343\274\372Y\275<\371Rz<\310\000=\274rN\246\272\306\026\276;\022\032\216\274I\352\257<\335\311\302<m\352\273\274(\022\233\273:\205\231<VF);@\277\026<\222\215<\273g%\264<5\373\276\274\\\276\347<\256\234\367<bg\021\275\371\257\312<1!\021=A\261\024=\264\372\234;\340\334\020<\321\377\242<)\277\252\273\326y\034\274\310M\365\274\366\372\270<V\213\367\274a\276\375<\314\203c<i)\254;\334\330\335;=\006\256;\356\267\342\273h!\020\275\rV\206\274\370\026\221<\215)\341\274\352\361\025<a\020\323<\301\226\027<\n\255\004\275,\277s<jZ\271\274\031\340\243<\226g\273;\020\330\360<\371\363v\274k\353\200\274\263)\031=\364{\203;\257@\320\274\203\216\r\275\361QG\272\312\256\237;\355\347\216\274\330<x\273\207\336)<\013\307\006\275\372\010\271<\323\204\206:E\231\246<\2121\n\275&0\002\274!\3132\274\255&\033<\365.\372;\206\265\220\274\350\354\325\273\343\034$\273\033[\223\274\240j\322<\370\033\235\273\305\260\223<\242w\212\274\375\217\226<\342g\235\274I\304\215\274\330i\357;5\204\003\275 \367\027\274,1/<\004\252q\274\360F3\274>W\370\274\235C\332\274t\352\335\273\331\203\021=\213/\335\274\224\036\214\274\260-9<\013j\370<\377n\037=\327\312\000=\264\337\364\274\341E\361\274_Jn<\265\026\t\275\203\244\256\273\317\335\r\275\222\252\225\274@\253\010\275\3363e<\320y\206\2744\010\327<\363\261\005;\205\356\206;8\222\034\275\276\017\004\275\260U\362\274\231\310\003=\262\200S\274-x\263\273\261F\250\274\337{\006\275W\340\037\275YF\237<\225\261I\274\216\212\n<\324m\007=c\t\253<\342\324t;x\313\343;\202\345\226\274\300m\367\273u\256\231\274\213\233~<\200\r\2669\026>\003\275\307\300\342\271\2148x<h\242\363\274\237\016\240<\307\225\3119\344\202\004\274\376/\003\275\t\240\344\274\262#\312<\3353\301\274y3\205\271\322\206\316<\267\002\037\272\337z\241\2735@\377<\345q\001=\311\267\350<\037\202\354<Ds\3538I%\027\2741f*<\361\206\r\275\307\361\177<\371\357\355;i\312\306\274\321,\303<\265ce\274\265\024\317\274\2022\255:\351\276\363\273\036\374\017\274\030\254\252\274~\023\232\274\233P\n\275x\262\034=l\025\313<uT\010\275Qi\377<,\267\007<\251\221\206\272\340\350\253\273:\347\376<\373\367\026\274\263s\227\274\217\010\313<\214\362\232\273\254\033\234\274X\021\013\275\223\032\315\274\304\205\022<\013qs\274\257\016\265\274\2456\361\274\n\335\032;\205R\033\275\275\3369:\010\377\322\274\027\023\305\272\225\202\017\275\303\247\252\274\212)\037=\353\331\371\274\335\262\014=%\250\350<9\303s\274\255\357\212\274\334I\223</R\000=\231\005\t=\010[\224\274\250\246\230\273kz\326\273\t\277D\274\264\265\242\274\002\177\254\273\205u@\273\345)\355\274-[\321\274S`\256\272\002<\313<5\345\256\273\350\300\300\274\010\203\262<\373G\264\274?>\031<\3445\357\274\373\267\272\274c\0344<\035x_\274\335\206\240;CD\320\272\236)\276;@X3\271g\376\370\273|\325\376\274\366\203\006=\032\023\311<\332t\020\274\215\236\010=\216\313\013:\355\236q<\310j\204\274\231\361\000\275\264L\236<\032\207\031=\324\266\\\272\370\361\356<\256\275\212\2732j\305<\201\331\030\274\223\322t<\305\227\316\274\347\206\203<\030\013\321\274\342\272\373\273+Q\354<\311\321\';\310\323O;\353\363\252\2742\234\313<\354y\301\274^\"\265\273\233\223T\274\031(\374:\364\225\241\274\207)\037\275\037\n\033\274In\352<\'\016\t=\230\206 =\224\036\032=\022x\247;\242I\325<\232W\221\273\372\260\374<q\"]\274\370\244\223\272v\037 <\376\273\205\274\2759\344\274-`\305\274\020\357\343<\315;+\274e\255\013\272i\203\205\274\236\315\024\275X\204\264\272\212\202\035=L\232\217<H~\022=\336\r\216\274k|\020=3:\007\275\001\013\351<\332\006\001=\367H\333\274&M\271\272\216\352\244\274\214\313\224<\3600\217<\305\373\220<uR\203<%\313\335\274\034\203\017<y\031\n=\237\351\232<j\317\027<\010|\r<;\263\315<\237H\331\273\364X\217;\332B\333;\251\330\317\274\215\202\226\274H\240N\274\347y\032<\300\337\341<\212&\314\274\334\005\026\275\0101\246;\220\366\200<\307\364\017=\204\340\324\274\217\264O<\233GH\273l[\023\275\217f\237<\363\226_<(\004\022=\311\231\000\275\227\324\221\274,\341\361<,P\356\274\346\355\204\274c\344\005\275Z\315\r=\205\020\033\275\270\212\377<[m&<\355c\256<\234.\376<\305\263\334<\326\363\216<\347\364\002=\272\013\364;Tk\332\274\222\214\002\275\313\254J\274\266\243\230<\302\336\016\274\250\260,:\225\202\026\275\252\311\341\273\n\311J<<\334\347\274\020\256\367<\023\027/:z,\213\274\205\030\026=T\317\221<\2068\320;T\226\360<\375\366\263\274^6\202<#}F<k\"\0227cF\023=\364!\023\275\372\354\242<4Xe\273\215\037\002=\021j\265<\004\323\370<5\024\026=Q\206>\274\252\025\034\275U\027#\274\317n\371\274f\'t<\247\030s<\350\241\200<\010{\035=\216S\330<\274\207\026\273\022\031\200<\237\000\004=\003\231\250<\346\016\236;\252z\333\274;r\023\275\305\251\225<CZ\016\275bS\026\275\375\203\200<\'x\364<\265T\361\273\213?\347<\222\242\031\275\347v\n\275\347\267\013=N8\216\274\252\330\006\275\"R\270<\\\277\030\275\230\347\020=\006\342\020\275\030\213\341\273B8\t=\331\0338\274eH\'9\027\252\003<\317\263\344<\034{\005=_\224Z\274\367R\000\275;G\247<4\310m\274k\345\330\274\230\033\277\274\006\305\032\275\347\207\t=\257\316\351<\334\177q;\020B|\274\241\240I\274\251\247\375\274f\007\317:\016\245\201\274^g\004\275\212L\336<\301Z\334\274\352.\033<\002{f<\037-\006\275OL\222;d\2537<\t\353\004=\3651\212\274\331\211$\274Q\252^<\350^\020=\211X\246\274\370\205\030<\271\272\363<\323Zz;\241\214\242\273\242\367\211\274j\215\375\274\273\366\207\272\375A\262\2749e]<2\177\330\274\334\223j\274\340\245\002=\250\374\226:\2636\311\274G\313\327\274#1\037=\314\t\214<\241=\246\274\000\035\351\273\307\231\023\275X\372\365\274U\251\217<\275\275\344;\353\264\035\275\236\334\031=:v\310\274tw7\274_\265\310\2743>\272;(\323\365\274\326\355\340\274M\303P\274\276\263\355\274\377\220\361\274r(\255<\303\316\036<\374\251\343\274\235\216\231<>y\350;\310\034r\274\227\372\236\273}\030\016\275p\3667\274\022L\030\275\251\344e;\336\260\374\274\314L\021=&P\254\273T[\233\274\343\313\212\274\365\324l\273\030\371O<\263c\312<_W-<\237\314\270\274\220\204\261\274\026\313\r<\270N+<\310\361e<\255a\370<3%b<\332\035\026\275\361L\211\274P\232\312\274\302\345\301\274\215\024 =\032\221v<E.\242\274\265\223\377\274+]\020\275J\366>:\2617\024=\236\241\373<\3350\365\274T)\346\274bj\005\275\256}V:\314\312+<C\233\035<\307\013\231\274%$\261\274\275\232\321<PM\216<h\221.<\224\210\272\273}x\213<=\251\362\274ZB\373\274.!\243<\303\214\024\274\320\202\001=\225\256\305<\227\364\223\274\226h\017\275\253\343\326<s\273\261;Ux\207<(5\024=\353#\r\275e0\343\274d\2336<\365\037\276\274\031=\025=\306\343\351\274\215l\273<\315)\032=\357y4<\034\221\034=\363\314\375\274\354W\031<\264\215\r\275\317|\217\274\370\275\024=\262\305\363;\213\332\225\274h\361i\274\264\232\352\274\325\323\347\274\022\330\340\273\372e\010=@\256\247\274\317r\366\274*\261\266:7\362\276;\260\307\026=\024\244\031:L/\004\275\3262n\271km\270\274HGa\274\302\013\371<\332\2775\274\334\335\347\273\277\331\324<X\344\341\274w\253\277\273\256\336\264\274\304\200\307<\236\346\200\274*d1\274\243\322\016=\306=\333\274\316\231\n\275[\341\003=7T\315\274\205\324\260\274\330\013\242<\367/\217<l\t\223\273j\311\325\274U\322\035<\336R1<\242v\006\275\010\322\003=`f\250<\nW\200<\016j\207\274Z\202\334\272\3368\215\273\035\363\006\274\363\023\376\274\000\247\352<\340\244]\274;L\302;grF\273\272\336\222<9\266\003=\001I\020=EB\261\274\206\034\030=`\322J\274\263]V\274v\177$<:\214\323<S\304\017<\355K\266<\211t\351;I\265\035\274-\036\216\274\033\300\262<\323\200 <\027R\242\274u\250\021\274\306`\247\274I\t|<\347\265\223<\201\253S<\013\235\234<\222p=;q<\003=\"\222\007\274-\024\014\273\032\352\0319\025E\347\274\367\220\247:\316\346\014\275\341\021\246;-\334\352<\224L\226\274\"\301\032\275\360\345\014=\224\255\r\275m\355\025=\203O\205\274\317\351\t=u+\256<\2432\311\274\266\235{\274\331\245\300;\277)+\274\247,\361;\233K\301\274\265Fd\271vw8\274\302\265\034=\267\272\303;\367\351\017=S\236\246\274\244\333V<\251~\223<\344\320f<\303\324\326\274\310\310\030\275g\376\231\274\231\036\025=E\270\226\274\003\211\n\275\277\315\354\274\244\356\020\275\364%\231\270Qt\317;\357K\241<V\250%<_\3075\274n\376\n<\0320\010=\262\236\233\274\344\316A;<\324\3326\216q\350\274\315\323\251<\271\235\322\274s\314\260\274w\221\241<r\302\263\274\236*\353<\306\371\352\274/\362#;\211:\026\275\241\350J\273\320\004l<\224X\035\275P\001\377<\033\246J<\255\230Y;\205n\262<\3230\365\274\240O\206\274\226^\302\273w,\344<\230\225\315<\2033\306\274[\226\371\274A\331N\274q\335v\274ER\013=\347\"\260\273\367\321Y\2747>\232<\214\304\222<\273\242\263\273L\234\021\275\254\223\256<\240\355\'\274@(\211<3\242\253\273s\257\034=:\027\315\273\367R0\274\233\223\206\274`m\275\274U8\335;(\365;;\250\270\311<\370\244\262;\343\032\031\275Z\227\334\273\354\234\010=[_\037\275\252X\275;\232\235\t\275\376v^\274D\203\257\274\217\366\344\274\035\375\206\274\261\027(\274a\037;\274iq\236\273\334zp\274K\204=<K\243\323;Z{\343;$\0032<z\034\252\274\330\020\256\274\017\351\017=\262\377U\270\230\202\270\274\005H\231<\212\212\025<\362\\H\274\310M\030\275\325\t\217<\010\242\t\275\004g\305<\355E\265;\364\305r\274\037S\013=\225\222\235\272-\2267:\306\244 =\350\203\273\273\266\036\350;\007o\257\274\322\035\263<\354[\342\273e\260\003\275\351\266\372\274\231a\302\272\221\315\330<l\205\224<\360Eb\274\221\001\004\275\372\237\365\274\340@ \275\361\306\037\275\277e\010\275\342\251D\274\353\320\250<\265\372\007\275\377\300\277\274\344\334e\2711\037\371\274\001-\007\275\034}k:\240J\020<D\314\'<\304E\362<\244\334\261\274\336z\022\275\037=\355<6\"-<\031\372V\274\003cO\272y\247h<\267\027%<\242*\276\274B-\036\274\017\007\302<\227\317\005=\026\\\373\274\373\332\244\274\007\'Y\274\264\314\311<,\033\212\274\264i\035=\201B\274<\332\331\242;\026\250\250<>Jr\274`\327R\274]\373\022\275q\251\036\275\006\354\327\27460\234<\374dj\274\247y\240\274;\342\027\275\214W\300\274\272\t\005<\224-\370\273\037/l\273\377[\231\274\036~\265<\351\024\207\274\366\216+;p\272\014\275\332\247J\274\347\t\372\274=o\306;\232:\313<\305\277\201;\022\346\216;\325aw\274\0225\221\274J\372\361\274\222\036\256<XEc\273\265k\304;\177\025Z\274,$\002=\326\305\013;\331\037\275\274\233\331d\274\311\207\200\274\035\004\233<\326\200\275<\\\364\177<\365B\316<-\374\345\274\\ /\274<v\020:P\277\016<\0315P\274M\257\351\274M\310\300\274t*\356;\0333\026<\372`\033=)\326~:\350\000\020=\021\236\033\2700z\270\274O\n\033=!\345$<\037\320\005\274\240\371\000\275\260\222.\273H\'\317< \223\305\274\356)\277<\355\347\342\273\373\362\210<\205\271\243\274\322\215\325<\001V\343\273\\N\022\275\342i\317\273\227 \305\274\027\375\221<?/\003=\270\266\026\275t \025=\263\t\240\274F\247\321\274?Y\350\273\372\344a<\352\221\277<M\351\204\274\010&_;\'\377\336\274\014.u<q}\005\273\222\267s\273\243\032\031=zm\371<{\333\027\275\315q_\274\245y\007<\344\374\016\275\206!\224<\250t\234\274\3667\300\274P\336\205\274\000J\223\274,\036\356;\236n\037\275\334\275\036\275`@\307<\237\014\344<D*\231\2746\270\250<\345\000\002\2742\244\354<!\027\277\274\000\224\013\275<r\377<C\005\035=\222\321|<\207X\016\275\310\234\003\275*\332K\274\302\341\032\275\210\270q<\234\236\276<\036\261\267\274\220\353\207\274\337,\031\275\312\210k\273\000p\356\274i\365\371\274/l\005<\307\237H\274\014h\241<c%k;\365\214\016:\250\330n\274I\337\253<\316\301\324\273\330_\000\274\344\351\010;_\024\365\274\036\311\275<Q\221\024;\226\347\220;\210\032\252\2747\250\212<\216\030\006=\230\006q;\314\357\037<\342\223\036=/\221\004=\266!\032=\202[\030\274\205\240\315;:9\335\274\215qG<\\\\\227\274\356>\026\274\037\275\030\275e2\033\272\257i\257<\\\312\240;\373U\260\274~\026\311<`\206\377<:P\247\274\247\216E<+\223\313<y\375\220\274\373d\r=\342k\262<o-\224\274\362*\213\274\332\303\025\275]\252\350<\352\246\233\272\314\034p\274>\315\225;:z\360;o\227\356<\306\241\005\275\246\2554\274Y]\020=\201\226\256<G;\205\274=2\033=\325v\t\274\205\361\376\274\216A\002\275\376\327\020\275\246\022\363<\021\342\020<;\030\314<\250\240\216\274\360\243\004\275\017\207\235<+g/\274u0z<0\357\322<\342-\320\274*A\327\2741\216\006=\253\340\203\2747cR<\375,\177\274\026<\201<\271~\212<\257\204\t=i\276\014=1\017\'\2735>\360\274\360P\034=\250a\354<d1z\274\340\375\257;\363\272\212\272\253\204p\274`X\006\275rY\t=\017n\023\275\3078\023=\257\014\000=\334\272\r<B\031\257\273x\000\003=\230\205\030<s\206\201<p\226N<\206\230\013=[\302\214\273\367$9:\300\276\245\274\365\362\340<D\321\246<=d\241\274w-a;\3476\235<9g-\274\315K\204<\250\260\034\273\357\345\005<\275`\354\273%\373\017\275lx\347<\371]\026\275\030\251\357\274\262\303\232<t\337\241<4\217\363\273\3372\207<\027\t\030\272H\035\247\274/\307\\\272\026\202\003\274\207\204\t=\255\321\250\274\2736V<mB2\272Nx\023=a/F<\252\035\026=\322\3131\273aSj\274\0210D<\346\"\344\274\230\221\215\274\032\313\033<\362\326\321\274\311)^\274\342\231a\273\231=\277<(`\233;{\275\310\274\354\023\003\275\251\271\320\274\355\242\223;\007\336\014\275\375\326\236\274\264y\322; w\t\275:5\205\274\315Li\274IO\311;\017\322\321\274\257\000\003=\000\016k\274,d\200;J\0047;\023z\362<\025\350\026\275\362\225\032=\021\323\332<\246,\373<\207t\313\273X\274\207\274\001\t\013=\t!\033\275f?]\274\033\354\340<\250\306\367\274\222\340\251\274\022\200\n=\336\245=<\003*%<\222C\r\275[V\260\274\372z\275<\037k\251\274\"\tW<\014\267\004=\224\267\336<\036\005\356<\001\231\024\273\234>5;#/\037=<\376\265\274\014\374q\2744=\003\275\200\"\225<\347k\364;\374\302\243\274Y\033f\273{C\264;\031\201:\2745\360\305<\273\032\373\274\362\352\r\275\rR\336\274)\004\251\274\264\026\326\274\353\241\362\2741\235Z\274\026\234\230\2745\307\373\274f\023\032=p\266\222\274\2328\240\274&\203\000\275y\033\277\273)\224\003\2758Y\270\273\301n\376<\374h\350<9\034\363<\260O\002\274\034\3113<\266\t\347<\354\370\006=|\337x\273\334\341\350<\320\253\001=\352\342v<\365o\315<\364\017\370<\263\\\371<\200\2655<\370a\360<\002a\247<\257?\252\274*\214\266;\210(\227\274=\377\251\274\321E8<\231\263\211<hM\204;&j\235<\316EV<5\002\330<\273\014\020\275\235/\n\275M\021\315<\305\235\201\274\310bu\274\310\271\225\274\315[r\274\200m\340\274\017\366\201\274l\373\212;wU\256<v\344\027=\207\214C<\205_};LhS<\335m\";m\263\220\274\217^7\274\225)\352\274\236H\326;\000<\365<\302\215\345\274m\272\033\275aO\t\275\022\375d;N)\003=\301Q\373;5\245\235\273\262$\022<\014Y\340\274;E.<\310Z\014\275l\037\227\274\272\205\002\275\314\007#;\034\220E\274\302\270\224\274\035\310{<\237\253\021=b*\240<\361\246\206<\367\254c\273\243\350\004=P\230\250<|\366\\\274\nt\205;\327U\036\274l&D\274\363\003\026=\002\201\205;\311l\220<3\231F\274\277+\014<N\014\260:\304\324\304<]\323O<\371\307 <H\355\025=\260\251\035=D\325\036=.\225\272<\213*z\274\235\257\317\274\302\216\277\273\037\203\273<0\370\356\2729\n\005:V\332\241\274\241h`<d`\255\274\002\003\362<\033\376\244\274`\245\273\273Ya\327\274E\207\r\275@^\366<\340\203F<\367(\306<\264\364\032=b)\371\271\246w\022\275\345\261\353<B\341`<\347\025r\273\031\232\001<v\250`\274Y,\001<\326$\032\275\235uW<\366:V<\224\215\000\275\002\331\344;\377\020w;0\003\374<}C!\273 p\033=\'\366\032<o#\007=U?\362\274\310\311c<\355\254\032=\004\006q;\364\262 =8G\355<\304\350\034=\233d\356</?\203<\003\213\322;\371E\251\274s\303\023=\007\t\235\274\336\206\216\274_\257\234<\336\363\224<\245+\330<;\013\315:\363E\263\273\366\360\334<D~\023=\n3\354\274\010\261\246<\336Z\037=\337\362B\274[\204\002\275#\320,<M\010>\274H\231\277\274?$\262;\t\325\017\275\036Y\262\274|\177\365\274\315\205\201<hV(<t\343\033\275v\031\205<\357/\021\273\363!\204\274dO\265\274\303\264\303;I\n\257\274K\377\303\274\036&\211<\227\016\004\275\'k\324\273\265X\365<\"^\335<\313]p\274\032D\n\274\355\354\014=\2776`<Fg\267\274\265{\324\274\367p\373\274\3063\t=\254\257\270\274\262?o\274\361\n\022\274:\330\255<\324\226\215<K\351,<\007\344r\274s\311\305\274\006\364\340<\037\334\325;h\037\214\274\365\216\262\274o\330\036=\225\360\325\274\344\327\376<u\237\201;\253\222\\\271Fi\220\272_\302\377;e(\016={\330\370\273\212/4\274\210N\312;u\337\030\275?\310\n:b\232\234;\035\207\326<`\234\344<\343$\030=\213\223\364\274+-\002=\211CR\274\364\213\037<\372\213\355<\324\264\214;,\253\363\274L}a\274\367;\007\273\021\345\301\273 \344\344<\246\033\211\274\027=\242<\r\350\000=\361\177D<sV\222\274cj\253\274w4\024=\006pS;/\362\010\274D\233\274\274\n\030S<r\275k<:\357\000\275\316c\272\273:P\367<\221&\351;\352]\262<\322\313\001\275\210\372\000\275\351\303\020=z\032\372<\275\354\274\274\177\032\034=g\204\341\274\271*\316;\036Op\274T\017\177\274\325\242Z<RF\030\274\032\000\351\274[8\245<\316~\374\274\246\237a\273x\002I<\373\317\227\274l+\266;1\036.\274o\334\021\275(t\304<\272r\364;\017d\211\274\211=\316\2744f*<\235V\234<\257\272;;\014\023\003<o\227\351<\254\313)<VT\211\274\321\263T\274\3312\312\273w%~<\225\350\232<\213\235\334\274\333*\001\271\362\261\035=\265\021J<+\262_;a\316;\273Tv\276\274\300\021\020\275\370I\n=w6\022\275i\266\345\274e\210\361\274\317k\236\274\356c\230\273\n\372\240\2749.\325\274\202d\207<\223p\314\272\304\321x\273\362\001\t<\322\356\035\273FL\301\274i{\320\274\261{I\274\245\351\200\2744\356\022\275\221\006\361\274R\360\366;\344\333\263<#\n\316<jN\230<M.?\273\261\013\t=\0109\312<\320\356\342<\335\t\005\275p\374\013=\020\025\221<\000\002\343\273\024=P\273R2\310;\007\'y<j\036\355\273\037z\013\275\363a\307\274\3432\337<1\322&<J|\227\274\346\t\317\273.B\362;\200\030>\274\302U\346\274\000{i<\027{\020<\303\016\310<\314/\360\274z\340\237<}D\346<\243\313\3408V\305\320<\302d\n=\216\255e\274\237v3<\221\371q<\"v\334\274\347\220x\274\343\016\n=\363@\001\275\007\322(\274\254 I<^F\267<M\371\377<0\351\255\274\223\342\336<\320:\030=$\365\273\274\010\010!;\332\314\004=4X\006\275\331q\004\274\277\341\217\274\374v\027\275H8y\274\322\205\277\274\350\372\274\274\300\025\243\274\276\033\007\275\317d\244;\214d\224<?\230\303<\t\242\010=\037H]\2749=t<\320\272\255<\364d\037\275R\311\033\273\347S\255<\360S\030=#x\225<H\350\010=\016\236\202<\251\362\261<\230\306~;C=\363\274U\346\022=\004C\243\274S\211\335\274\311\354B\273O\240\305\274sQ\025=.%~<S\205\021\2752\246\007\275\006\';<\333\'\222;\005\204\322<\216%\022=\210\027\357;\272\315\321\273z\tZ<\363\251\347\273\336]\331<7k\363\274\246Ke<\255\231\254<A.\274<J\230\276<\370?\346;Ld\034=&\205%<\030:\002\274i\332\306\274\\\222\036\274\203\366\335\273\260i\300\273\230\\\377<\242\200><r\277\032=\321g\'<)N\265<\267\227\3619\215\267\036\275\2270\201\274`\270\251\270l4\304\274w\322\014<\361\020\330\274\226\260\340:\317i_\274\2064\222<f\031\327;\217Rp\274\210\234\036\273\002.\341\274\346\311\026=69\376<\344\n\032=`\245\203<\223\020\212<\034\001j;\266\212\037\273\356;\003\2759\372\272\274\025\251\037\274\314~\264\274,\251\250:\335\326\307\274>\260\301\274x\326\n=\\@\316<\301\355\367\274\244k\013=\240\353\313<[(\374<\365\301\206<\373a\360<\212\344\207\274\310\250\230<\343&\366\274u\337\373<I\032L<\270B\252\274?3\207\274\236\301\000\275[\002\002<\332\334\321\274\347,\321\274\360\304\227<\n\\\240<\032\321\364<\350\200p<\362{\r;\303\232\252;\314\202\016\275\"\023\024=\362\236\227\274\313>H\274\307Y\270<=\020\"\274\356$ \275<\265\262<N\362\022=\245\t\021;\335\301\374<[&I<\311\235\016\275\312d\266;*\220W;JW\303\274\022\021\n\274\314Rx\274\035\315\000\275E>Z<\n8=\274\323J\030;:\006\266\274\262\332\244<\362\263\314<\013\000\336<-\223\251<\364\226\256\274>dB<C\307\035\275c\235y<O\007\266\274\254\024\326;\026\030\266\274\251\225\205\273\0066\257<&.\215\274|\374\266\273E6\223\274rS@<\246\334\241;@R\025\274H1l\274p\330\027\275\305\366V\274^\031\376<\005.\267\274\266 \003\275\206\314\022\274\351\362\256<\355\333t<\261\360\254\274^\346\177\274\330\037\030\275L<\346<W\037\212\274\316?\227<\235\"\325<\240\004\237\274R8\247<\204\203\036<\342-\271\273\254q\321<\007\3448<\343^\256<Y\301\310<Uv\006=U\231\017<\252\376\204<.\330\304\273qC\005\275\020\270\247\274fFs\274e\240\252\274\037\030g\272\205\345~\274\\\337c<^\301\367\274X\354\232<\274\344\304\274\034\364s<\305\026\200\274\252\375\030=O\302\260\274\360uT\2740\371\002=\256IX\272}\205\372;cs\001\2740z\312\273?\212\210\274z`\357<\335\036\242<3\031\245;D\263\357\274\271\343\220\273%6\023<\367V\007\275Rh\334\274h<\360\274j\363\364< /\215\274\243\224\362<s/\030=\311C\351;hH\020=\264\355\360<\031(\305:\314\376R\272;\313\032\275\340\261u\272X\327\003=\262\371T\274\351#\326\274\266\350\246\274\013\'\335\274\207\213\272<\026\234\236<\213\222\346<\347!x\274\303`2\274{k\r\275\255vW\274:\374\245\274\365\r\300<\344<\327<d\370\027\275\365\261\270<\026\231Y\274I\032\363\272%Q\260\274}>X\274\251\274L\274\024\240\034\275\007\241:\274\357a\r\2751\252\334<\344\330\000=\324\201A<\3031\342\274\276z\316\274\320\371C\273e\307\214<\3778\211<\004\357\024\275q\332M<\250\216\356;Q\223\022=\313Ok\274X\205\325<2&\307\274\341\036\203<\336g\224;\320%\372<\236\237\376<\037\022\376<\266\362\321;3 \004=GkV\274\245\335\361<\210b\333<s\250w<j5\354\274\344\032T\274\276)\207\272\177\221\3329)m\253<\r}\021;\340\340\264\2737r\375<\034\247\260\273\2625\232;7\356\001\274\315W\306<f\332\274<\323\252\020\274\321\014\365\274\276\372y<\254\214W\274\n&\352\272\214/C\2733#\367\274\377H \274\214d\036=\037\327\242\274<\215\227\274\264\321[\274g\036\227\274\3157\215<\037/\230<+r\260\273F\347\236\2731(\014=\261\370\210<\351\356\225<X\222X\274AX\231\274\366?\340\271\234\212\311\274u\310c\274\262c\007\275\'\212-\274\353\326z;5y\363\274\010\274\325<\330\266\025=\204\026\020<\003P\003\275\347\\\031=\320\377s<\357\252\023=\033G.\27467\367<\223B\002=Q\321\317\274\231\264\025<-\204}\274v\n\346\2748N\037\275Apb\274\302\247\304\274\312\305\222<\363.\356\274\230\030\243<\177\263\274\274|\031g9Q\263\315<R\315\247<}\017\003\2737F\217\274\202t\212<\304x\242\274S\221\334<\311\3123;r\025f\274\252`\030\2756\226\177\274\223\314\251<\257\224\301\274\347\263\372<HI{<}\023\255\273N\351\370;:`\017\273\2447^\274X\374\026\275\001k;<\301|\274\274\236W\362\274\372\230\022\275>\033\275<WK\266<\221\337\325\273\217s^\274M\3202<\271\215\221\274\367\223\313:\360\025\357<\004\364\270<\016I\030=9jH<xY\357<\261\236\027=#\307\323\274\314\024\353<IFM\274\2575l\274\331oH\274\\G\346;\336\r\013\275\235\013\323<Oi/\274\354Y\371<\2047\341<6\007\016\275\303\205\017\275|\202\242<P\225\250<\036\377\007=\027\265H\273\002\325j<?\230\023=\017\325\234;\003O\027<\307\235\312\273\216\322\265\273\226\224\304<y\010\371<\250-\356\274#\372\323<\204\\\204\274\325\340\017\273\303\307B;\362\033\021=;\261\231:MM\036=v\360\031=\324\365K< \324\344<E$ =\313\304@\274\300\025\004=\r\273y<9\366.<\031\233\003<\217\344\311\274\306v\326\274AC\024\272\\\025\353<!\001\016\275&2\025=r\312}<\352=\020\275\341\363\005\275Q\331\030=\016|\265<\231r\356<\352\325F\273E\337\271\274\224Q\220<Z\316\352\274p\252\246\274\344\005\200\274F]M\2747\303L\274\360\251\024\275z\205\273;Wk\323<\270\306\n\275\324\237\326<S\256\035\275c#\344;\324\263\020=\3622\260<,\317\023=\206\262\t\274)\262\357\274\220\220\212<^\035\316<\350*\004=$c3<^E4<c\275\334\274\"g\233;\243q0<\356}\330;~\330\235<BW\220<\303/\242;\342\037*\274\243^\023\275\233\376\016\275\3431\034\275\360H\272<#e\332\274\254-\235<\313\372\355<Wh\217\274:\203\227\274z\231\360;\306\327\210<C\314E<\003\230\241;\002A\246\273K)\214\274}d\010\275\272\016\375\274\303e\353<\035O\261;\235\363\217<-c\207\274<\342\021\274\023\356\2249^\027\220\274(\223\023=\246_\374\274\237\004\245<pU,<\r\315\336<+\372\214<\225\213\263<0\351\223;!Q\263<:\264\255<=i\016\274\357r\251\274ki\275\274\230\032\255\274\331\224\006=\367\330\342<i\265\321<#\357[\274\324\233\343\274>\302A\274sL\266<%T\014<\242\230\n\272\331\225k<\177F\227<\267\266\216<\256\255\024=\336G\372\274\317\311\272\273\371\270\001\275`\201\2239\006\203\236\274\242;F<Km\333<\010\243\341\273\r\301\020\275\327\034\023\2755\202\036\275X\215\303<\3207\231;\321\352\360<BH\317\274\302\322\336\274\n\271\211;Uz\341\273]A\030\274k\205\317<\207}\026\274\004\204s:\257\021\036\275\033C\222<\022\230\023\275\301\325\006=\371\032\004;4F\005\274\007\276\322\274\201\340\365<\365i\332;\034\237\017\275\031!K\273\325\336j\274\020\247\335<\247\375\312\274\003\006e;\210L/\27424\007\275@\260\010\275\271\013\336<\334\373\255<3\276\031\275.~\023=Qp\031=\206\014~<@\235\007\275\304\177\372<\004\204k;-\023\334\274\035\350\217<\353g\243\2728\341\270<#\220\020=\014\003 \274y\211\363\274-\355\346\273\273\234\302\274\0139\313<\375\331S\274\000\005\025\275b\214\205\273td\025\275F\224\020=\0335\251< \242\212\274\205R\031=\376\361\025\275\006\212\005=\037wc\274\220\235\263<C\237\345\273}\n\327\274Ew\236\273\312\360\025=\271l3<\rb\033=\2317\224<\006\254\013=jr\342\274P\305+;d\275O\274\247|\003\272\362R\270<\346\354\030\275\033\225\032\275\246\341\345\274F\3335\2744\\\001\275\354\267*;\037~\315\274nV\234\273\312\236\005\275\252\0347:\3242\302<JO(<\324\373\016=\233\313X\274\327e\020=\t\371\216;\314\231\330;M\200!\274\361\314\003<\202Q\324\274\030\036j\272Z&\355\2725\225\212<\257\005\326<\245o\322\274\262f\211\274V\202\010=\235\355\2029\301C\351\274F\014\034<\327/\014=*p\322\274Z\200\311\274&^\312;7\273\014;F\t\320<x\231\270<t\007\363\274[Y\205<\317N&\274B\027\023\275\252\214\252<`\300D\274&\344\'\272\010Z\302\274a<h\273\301\201\362\274}\330\035=/\362\r=6\026\271<\010|\003=\026c\235<\253\025\020=\370X\330\274A\221{\272\251\217\341<\220\017\315\274\307\335\312<w\357\306<e^\t=\362\336d<\243\223\316;)\006\267\274gL\010\275|YQ\274\2629p<\321Hn;\215\2004\273\216&\255;\370\330P:\341\267\037= \351\246\27369\261<\255&\006<S\366\321<\236\300\032=\224#\350<\225vs\274-\250\037=\354-\017=\013\217\342\274O\233\322\274\221Q\307\274Z\'\266<K\350\016=\231\002\022=\237]\210<\034\213n<\224\217\371\274\231L\'<\376\005+\274\022w\344\274\335\033\330\274(\022\021<W\313\t=\314\377*<\3122-<Y\203P;\032\323\302<\321\307\342\274\303\263\310\274\016\017\034\274\311\223\357\273\026\t\236;\233\373\210\274\303:\027=\025\347\313\274\025G\014;\325\033\033=\376\367\250;B*\243\274\025\332\007\275Uqu<o\360\203;\251\245\r\275\025pb\274P/\315\274\255\037J\274X?\246\274\267\326\003\275\227i\343<\2764\247\274\000&\224<`;\304\272\000\244\037\275_\237\262<\253\217\360\272\315\020\363\274\344\021\230<\034R\257<\242\347\255\274x\363\351\274\377\323\027\275\224s\306\274\320Y\231<\205|N\272\235n\024\275\002\032\003=\277S\232\2741T\221\274\203\374\250<\220\203A\274E\342\024\275\364\322b\274\306\2328\274G\3327\274\001.\t=f\254\016=\247\037\177;\200a#<\325\371\346<\373\232R;1]\241<F\266\003\275\375\265\303<\303;\217\274d[\202\273\231\377)\274\355\324\361<L\367\322\274\367\324\313\274\263r\270;d\372\376\274k\020\214<\336\226\037<d\036\021\275}\262C\273\372\351\000\275\336\347\341\274\250\263\314<g\223\370<6\215\200\274v`\307:v\375\006\275)\203\220;\205:1;\356=\300\274\334g\363\273s@\362<\261S\017=\005\332(<Jb\305<\"\366G;+\263\301\274)-\307<L\354\350\274\361\000\247<Ri\372\274yg\201<N\250\017=uR\006\274\224\205\265\274\'\306\356\274\247\216\305;\217&#<\335\355\317\274\317\n\240<\377l\006\274\364\256D;\256\001\363\274\003W\000\274\214\037\312:\3474\257\274\177\037\301<c\212x;\202\r\006\2756\205\216<\t\300}<\255S\206<\335k\224<\214\305\t=\230\356\200\272\326A\320;wl\214<#\204\342<_\237\200<(\303\t=\026\'\001=F\013\244\274xy\366\274\005\226\025\275U\335U;\004\014\270\274\371\022\311<\336\303\007=\035 \245\274\2701\034=\353\264\326<X\031F\273=\267\264\272\373\022\021={H8<dN\310<\337\350\223\272\353>p\274=Z\022\271\007T);\315\370\310:\272\324\204\273i\336t\274\315\214\276\274GD\214\274\246\t\260\274\237s\005\275\360\316\303<\206\275\003\273Z\005\222<\257\376\205\274\335\263\006=\200V\010<f\243\344<e\334\341<>\212\256\273\273r\030=\261\310\352<\374\205\350\274;;\253\274f-\027\275\330\247\035\275\373\377u;*\034\021\273p\3021\273\241^\317;\236\234\021=\246\215\364<]7&\274=94<\026\302Y\274\320\262><\017>T<\262\016\210\273\027\016)\274v^\346<+\207\006=\233|\225<b\361\350\274h<E\2744Z!\274jG\310<\354\330\347\274F\303\346<\277K\211\274\350\323=\274/\023J\274p}$\2741\360\027=\207\001\240;\014zz\274b\340\261\274\323y\002\2756Bt\274,\252\022;\356\244\354\274\2438\031\275\225|\016\274R\376\033\275\021P-\274l\272E;\006\371\t\275\307\207\222;\311\027\032=$\211x<\267]\337\273s\241@;!h\032\274\232\227g;\240%\371\273_\032\224\274\207\010\0328\000\021\325<\330w\036=\253Y\036=\312\275|;\237\334\250<\260\001\307\273\026\033\005\275\260\032\321<\215M\024=t\324\264;\235w\377\274~L\005<h\013\333\274\262\006\347<-\356\233<\022\245\031=/X*\274\\\316\027=\"\314\224\274{\341\232<r\016\235;\375\241\026=_\213\026\275\345\206\233<\036\344\022\275\005s\271<\260\355\305<v^\007\275\025dR; -\205;\301{\312<\333\275>\274\303\233\367:K>\375<-\267H;DM\020\275$\322\000\275\314\017L<\3074\027\275\252\327K\274+#\330;\205\'\262;\220\023\371\274x\337\320<\376[\002=\325\341\202<\301\201\217\273L\027c\274t\220,\273\034\321y<\360\233*\274\nM\027\275\335\000\036=\264\304\234<\002\221\367<D\341?\273\323\003\217<\032\214\004=Z\254\347<M\225\372<\235\374C<\026\034F<n\272\200<;\274\001\275Ux?\274\254\251\020\275y\255\262\274\376$\010<\254(\371<\356\267\347\274\315T\207<\003S\325\274c\246\232\274\023\233d<x,\307\274\314\007\347<[I\236;F\223\000\2755\304\255<?A\006=\010]\206\273\226YY<\240\277]<\344 )<\002\241\310\270*\224\356\272\\\326\307\274]\243a<\032p\037\275\225\217\230\274\302R\321\273\r@\021\275\265\377Q<\324\200g\274\243\273\257<\323sK\274\264\236\024\274\373\337j\274N=\313<0\025\301<\003d\323;\023J\034=\234\376%\274\27626\273b\243\010\275\323\007\224<\202\272\305<[\022\"\274\334\260\002=\010\037\370\274\226\327\007=H\242\255<\317\312\304\2746x\311\274\371y\335\274\031\310\335<\261\376\222\274\223\273\\:X\214\217:M\237\346\274\357A\262<\361\257\036=O6\315<\'H\244<\220\367\360\274\361\372\033=\"\354\344\274\255\310#\274\251\335\031\275#\324D;\234\026\024\275\345<\005=\215\232\013=?\207\311\2740\340\374\274c\t\002\274\213\225\t\275\026~\311\273!3\222;\0326\036<\r\233\375<\306\376\304\274PS\372<d_|\273\222VL<>O\345<\":\r=\274+]\274+\332\004=1\002\004;\017\305\000<\245\314<\274\347\350\013=\341\'Z<u-\016\275p\005\310<\2475\225<\307\223\006\274\177\002\021=\177}\316<.\251\033=\362kf<\221tJ<+\333\037\272\261\025\017=\371\362\005=6V\230<\316\210\210\274X\322\035=\255\263j<n\210\364\274\376\223\n=\200\255\276\273\024\325\363<\017s\022=\344}\232<~\032\336\274\010W\006\275\215\006@\274a^\257<\234\270\334\272\013o\005\275\263lj\274\344x\341\274q1\273<\016\204\262\272k\017\244<\206\267\002\274\225\\\255\274J\035\007\275\233p\352<\"+\224<\372x5\274\225\344\3538\330\037\224\274\017\224\201\273Q\335\322<n\216\346;&R\323<\302\257q\274}\n\347\274Y\005\243\274_$d\272\001\274\304\274\001z\353\274\372A\002\275\354\327\021=R\306$;\202\367\031<\003\177\350<\006\252\003=s\216\344<\371\026\320<i7\322\274\004C\020\273a\322\035\275\340\364\254<s\241\001\275\\\013 \275\2334\001=D\335\205<\014v\330\274h\020C\274\006^\372<\375\244\367\274r\273S<+\264\004=\341\350G<F\310\232\274\233\240\232\274l\200\366\274P5\r\275\306\275L<\310yx\272y\334\'<@Ws<^\353\344\274\362\354q\272I\013\222\273\375&5;T\263\377<zR\355<\274s\026\275\305&\246\273\370\023\264\274\245\t\216</\367\022=\326J$;\270\214\023=\374\004\236<q\257\r\275e\026\224\274\355\220\274<\213\351\002=\332\221Q\274Q\306\034\274mO\353\273\210=\255;\344\327\322\274s\372\373\274f\246\r\274H\367\322\274\356\203\270\274\3520\023=\223\227\032\275\245\341z\274\362\205\241\274N\305\213<\213\247\031\274\215\034\006\275Q.\335\274\255t\353<\230\215\272<q$\303\2741\356\300<d\210~\274\303\266\033\275\017\365\002=~\314\330\273X\000\326\274\030O\244\274\'\001\241\274\332\265\371:\n\336\023\2759\275=\274\3316\374<|\225M\274\020\271S<\246\361\223\274\016\311\330<]A\226<|\244/\274\2375c\273<z\335\274\r\323\347\273j?\307\274\276\252\002\274\310]\023\275\033_/\272\0307\004=\037BF\273&\333\362\274D\022\032\275\345-\270</\320\323<\212\014\n\274yV\216<\316Y\245\273Y\260\352\272`\210\357<.3\347\274_\375\313<Lx\364\273\241{\341\273\026\033\027;p\343h\274|\224\216\274[.\304<\230\360\002\272Q\341\276\274\272q\356\2743\027\373<s\037\004=\3711\222<N/\001=\304\226\n\275\305f\325<\230\306\266\274\222A\002\274\032R\013\273\312\320a<\363\301$;M\005\026\275AD\373;\366\260\234\274\307\327 \275\370@\322\274s\341\031=I\365\320<\317\252\312<\352\243\255<\337sE\274\375)\345<\251\"\006\275&\336 \275x~\334\273\2600\351\274\366\031\253<\355\224\225\274\354i\346\274\242\267\342\274@\302I\274\357\023\200<}\301\013=A\260\3069;\277\200<\027\330\023=\270&M\274c\355\002\275\377R\277\272\343Q\223\274\t&0<\262\210\252<\235Q\260\272\251\372\035<\353\203\035<a\211\221\274W>\341\274\353\361\325\274\346\250\336<\350yf\273%1\277<\362\311[\274X\263\252\274\263y\032\275w0\360\272\207\276\202<uS\032\274\273\301\251\274\376M\247\273\017P\332<(\r\327;\335\351\250\272\033\333\323\274\220\207\372<\244*\263\274,@\014\275\261\207c\274\324\310A<\233\220\305<\202\321\3609\231\321m<\036_=\274\014\335\001;\312\021\023\275]\237P\273\316F\037\275l\372T;\203\034\365<\3266\377\274\265\367\014=s\220\032=S:\217\272\002\350\035;\220F\323<!+\274\272\244\375\266\274\030|\035=\313\021~<:\365\000\275\'xf;\007\026\257<l\321\334\274\224A}\274\033\234\n=\320\205\024=O\024\025\275\007)\013\275\273\214\205<\235~\347\2741\345\324<+\212\322\274\356\252\367<\367i~\274\275s\013=\203\007\005\275\353\301\005<U\343\030;\240\264\006\274\262\277\353:\372\300\301\2746\362\367</\335\242<\226\265\243;|\237\034\275\324\362\004\275{\003\027\275\205\257\250\274\341^\262;\252\324\244<\333\221\340\274\353\223\007\272[\241\362<\375$\323\271\337\037\334\274R49<\351\271\336:\376b\032\275\244\301\266;\005Q2\274\023\261\202\274\325C\026\275\275x\305\273a7 \274K\243\367;T\224\346<\350G\355<\025yF;\3071\027=!\357\276<t\017\241;\261\336\211\274\177\205\311;\217\227\254<\356;\000\275\005\024\036=\350\306\247\274`\031k<T\270\r\275E\264\212<\037#\377\274\215]\357;\316\304B<\000{\327<\231\365\254<\371\256p\274s,\003\275\207~\0069\374S\027=\211U\252<\'*\244\274\276o\316<\300i\2729{\247\2718l\266*;\370. \275\330U\027=6G\202\274rbB<\261E\220\274\353\327\307\274I}\371<\222\014\317<~\260\210\273\333j\375<\374\324\303;L\255f<\245\025\267\274\210\366\210<\275\214~\274\262\326\226<\004\372\272\274GB\n\275\376\301\323\274\365\006\023\273\305\324\245<\255\002M\273{r\211;\367\247?<\234\267\255;\2433\016\275\200\022\n\274b\270u<\317)\230\274\376\230\210\274\300_\024=\242\230\274;+]{<\003\230\262<\370\311\307\273\t\324\227\274\232\246\004\274\007\'\347\274\010\321\000=\312m\006\275\213\360\2309T\251\221\272|\356\036\275_t\206\274\303\301\277<MU\344<,\326\306\274\377Z\004=@\200\023\274\000\017\364;\312\204\314<5\336\220\274zNO\274\235\336\230<\275\332\301\274SV\320<F\272\';.\256\300<]\350\026\275\302\340\324<\311<\344;L[\004\275\277F\356\274\201\260\004\275\350j\017=\247\303\013=\311\"\221\274i\236\030\275\376\177\036=%4\230<\020\234c\272A&\272\274\360\233\013\274\250\010\305:\226L\353\274\356\3266\274!\013\351<-\225\230;\212k\203<\272K\227<\266\276\356;-\246\304<\212i\020\275\244\334\365\274\224\266\227;w)d\2742\216d<D\001\020\275{G\021\274\206\205\020\275W{D<\356\003\355\274\335@>;\025\370\350<\223b\202<\371\000+\274\376\023\315<\274T\001\275\3549\010=q\036\303\274Ts\010\274\361`\200\274\033\200\355\273?`\035;*\247(<,\346\305\274\322\332\376:q\231\273;R-\234:L\215\001\275\371>\306;\020h[<Q7\263\274\226/\014=55\007\275\363\200\342<\014\252\237<\344s\343\274D\200\":\376p\211\274\317\325\313\273\305a\267;\204)*:d\264\020\274\322\366b\274\327\014\024\275w\"\226<ID\271;\371A\363<\206Z\266\274qm\331\274\275\2523\274\001\365\014<\265\326\206\274\222W\213\274C\320\347\274\370\247\324<\014\003\216\274~\307~<\246\303\242\274o\004\200<\t\274\373<I\333\007\275/<\363\274\301\314\226<<\215&<\230ry<\365\320\275<r\003\336\274\2268_<\367\336\271\274\207\206A<\206\200&;>8P\274\241\331E<\323U\323<$7\007\274$\356\030\275axQ;\242\323B\274\2318^\273\313\005\335;t\233-\274\016\337\013\275:g\203\274Z\223\222\274\216\347?;3q\301<\273K\003=\247\023\354\274\260\227\227\274\214\362u<\321%\274<)\350\342\274\367u\t\274\236t\356;\371H\371\2743@\211<\241\310I;2)8\273\255\275\200<Y\342Y<\033\303\021\275\217\'(<_\246\235\273V\255\033=4\000\026=\346e\032\275}B\271\273\n\\\314<\356/\276<\310\263\2748\351h\035\275Ip\212\274\016\321\276\274\tD\030\274\275X\216<\231\000\257<WL\371\2743\201+\273o\335\224\2744\304\006=p\036\332<a\237\035\275\253\202\014=\221I\364<\274\323\001;Q|\211<6\224\n=\216[G<\301\251\026\275Z\327\340\2724\312\025=C\246\024\273\326j\345:b#\017=OZ\352<\371JL<\031\265\305\274\314\316\037=\265\344\300\274!0\272\273\323=\356\274\331\275i\274n[\250<E\254\251\273\021\203\010\275G\253u\274\004\202\010=P\202\027\275\344\340]\274\2602\321\274\037\177K<i\374\023<\223\273\000\275_b\230\274wZ\276<\211\2248\274fqS<\306#\n=m\205\014\275\001\331\307<Hw\320\274\"\234\205;\321(\r=81h\2745\3417<\007\354\336<\322\203\375\274 \266\274\272\370Pm\274\035u\n\275\376\360\370<\354\214\371\273r\372\251<&u\246<\262\313\200\274[\265\330<\271\'\252\2746\2371\273\001R\352;\200\344v\273\233s\366\274&jq<\021\341\276;\024\" \275I]\003\275\014$#\274#ZI\274\232\312\263\274\221\216\247<Za\027:\004r\275<]\313\305\274\250\236\030=\002\030\"<\277)\177\274mY\023\275\252\320\030\274\242\251T<t\343\376<\311\202\035=\235\322\232\274\221\035n<\246\336\007\273w\033\330\273\273\351\325\274\310?\226<\206\'\241<\350\360\257\273\217\334\005\274G\033]\2746\200\212\274\340\016\005\275\242\340J\274\261\304\201;\364\363\314\274\356C\306;\214\216N\274L\367\215<!\220\257<\311\301\237;zk\312;G\024^\273\352\304\244\274\232\007\327\274fYs\274OX\375\2741y\034=\233;\352\274pO\035\274\311\377%\273i\332 \275\345\226\016;\346\203\r\275m\201\026\275\310Q\335\274s%\033=KQ\304\274\304tf<\210\242\240<\311\301\244\274\\\n\022\275h\324u\274P\362\t\275s\217\334<_\311k<\374\003G<Q\326\231<\227\327\227\273\254\360\035\275h\001{<k\363\007\273\365\222\243<\332\022\025;*I\241<\351\365\262<\374K>\274Tu\320\274\014~\261\274\340\270\014\274\254&\326<2]\203\273h\330\020=e2\014\275#\312\317\274\013h\302<R\263\342:\252\020\007=\316\005T\274\206\025\263<m\374\013\275\241\226\003=n\021\016\275\217\003\352<?\371\272<\233\222\024\275\355k\"<\375I\200<\236;\372<B\247\223\274\337\222\267\274vP\224<\262\034\272;\251\377\220\274\255\206\361<\t\350\003=\245$\r;\256f =k\323\341\274\251\026[<B\346#<:O\r=$\330\033\275\024n\300\274er\031=\016e\310<\t\252Y\274\3008\224\274\330\242\030=\000\230\177<p,\025=\345\337\337<!\376\354:\306t\004:3\215\203<\251\225\266<\240\023\267\274f\207\027\275\324\301\337\274\335K\005=\237\216\375\274\351u\222\274\375VT<J(\262\274D}%;\343)\324<\207*\230\274M\301\376\274\013v\000\274<x\221\274\340\220\036={H\245\274-w\261\273\ry\003\275\350S\010\275)1\307\274t\001\333<!\206\336<o\267/<\203\224-\273u\343\347:\263#\027=xzS<\021s\322\273\n\222\221<]Ga\274\244\246\022=\013\232V<\035\352\234<\344\326m<S\377~\274dD\002\274E8E;\250\224\325<\356\371\257\274\312r\024=\225\347\314\273\266+\016\275\230O\353<\362k\027\275\307a\261\274\016\211\000=^4\001\275\363\231\372;\'\306\004\275F\233\005=\225a\2179rP\277\273v\367\321\274m=\034;\2353\025\275\306\267\272;\372\022\020=4V\276\274\303\312\221\274\275\263\366\274H%\317\272\240|\3069\305)\300\274$\272\206\274\273\237\013=~\004\331\274\245\005\022\275\225\n\305\271B\331\305\274\204\025n\274Q\016\r\273`\014\030<T<\264<9\222\353\274z\007\316<\307\022E<\2250\306<\314\311\214<QD\241\273c\270\221\274\260\217\005=\255\031\200<\364\256J;\304,\370\274\323\253\010\275q\245\264\274=\264\004;\225#\004=h\026\375<\247H\222\274\207\032\032\275\225\037\001=Y\016\016\275\216\"\266\274p\210\031=Z92<$_\244<\213\240\005;\027D\225<+ec\274r\201\376\274RE\214\274\355\373\036\275\rH\005\275\261\242\r=\267\017\316<\260\201\007\2757\377\204<\374\366\317\274w\317\273<\006\230\251\273\323\266\356<\372\267\377<\320\340\310<T\311X\274\2742\351\274\':\326<\231\346\334\274\327`\010\275\300z\003\275\014\342\205<?\333\021=\3637\024=3}><E\222\314:\275\227J\274o4\343\274\026)\t\275N\026\246\274\314n \275U\246c<\265\355\272<\367;\027\275=l\001=^|\315<\301zK\2748\377\003\274^#\341\274\302F\016\275_\336\352<\243\222\253\274S\0045<pu\010\275\030\001\326<r(\367<=}\260;\204\262a\274~7\366\274\243\306\031=\3705\"<k\370\221\274\251\226!<!\203\023;C\010\361\274\276\255%\274\317\037\030=!\020\352<\366\001\223\274\014d\023=\332\273\240<\347\273\331\274yf\226\273\307\375s\274;\204\363<p\260\313\274I\354\240;\217m\310\274\222\230\302<\"\360.\2744\231\205;\262\350u;\032\207\033\275\322R\310<\265\300\257:\032\330\264<\217c\006\275\332|\264<X8\023\275\355\022\010=\311 \020=\367N\214<n\017\263\2743\222\265;\253\267\206;\017\326\236<\264\347\225<be\267\274\315q\320<\002\177\367\274[\336\352\274\302b\031\275\243e\200<\026p\325\274/\231\375\274\253\333\025\275L\006s<N^\360<w\354\337\274\322\001\377\274N\365u\273\263\256\024\275\356sd\272\235q\006\274d\205\227\274\364\252\337\274\375\361_<\333\235\350\274\253\205\021=\200\250\246\274\200<\223;),\374\274\030\006\252:|\244H\274DD\364\274U\257\237:\376D\"\271\334\313\016=\260\361\345\274\355\\\341<\356\277\246<\206\2549<T)\236;#\205\361<\245\027\'\274pn\207;\336\020\032=\213l\032\275\035\241\353<\316q\235\273\353DW\274\2253\337<\335rk<\305\324\305<\205Jx;\205.\260\274O:\255<\032\030\220\274\010\371>;r\276\353<\331HD<\257\321\033\275\261\022\035=\302\347\215\274I H<\371d\002\274v\177\364<\332A\r\274h\336\031<2\177-<\232N\177;\311\210\322<\0339\360<\236\177\361;\231\026\017\275\324H\033\275\004\277\257<W\017\251\274\263U\201\272v\000\353:\273\277\020=F\016\031\2750\211\036<\347\312\014\275=\323\237<\244\356\343<01\014=\373\302\300\273h*\006\275}\270\023\275Z\001\006\275\243\311I<RH\027=\222 \202\273\235\354\013\275\270\027\275\274\3309\232\274\247\275\031\275!\236\347<\375Z\272\274\255<\254\274W^\013\273\207$\247<\351\006\001\275\327\270\014=\325\361\345\273C@\3718\351Z\006\274k\367\204<\301\210\"\274\030B =]\225\301<\376^\321<m\331 \273\270\305U:\372\267\253\273\303\315\005=m\254\304<6f\252\271t\t\364;\354\247m<J=m<4\017\245\274\276\250M<5\346\n\275k\004\253<\324\244\217<w(\341\274?xT\274\236\035L\274E\010\271\274\230A:\274\374t\002=\361;\322\274p\201\020\275\3775\241\274\225\353{\274\333K\313\274\353\241\025=\231\313\322<\324v\004<\203\237\017=g\215\336<\262@\344\271\177\035\031\274\303\366\246;73\013\27594>\274]\332\375;\363x\266<*\004\001\275\363\342\013\274\250\023\275\274\tA\325\274\270v\036=\"vD<Y7\013\275.{&;\313\203\346\272.@\334<\035H\374\274\223\353\200\274\246\254\220<\206\216\270<\205WE\272A\035j<\035\272\032\275\234H\306<\037Yy<?\025\204;\3555\014=\261\320\002=\304\361d<\234\035\337<\270\372#\274dJ\273<\253\375\014=u\204\010\274V\\\027\275\264\361\024\274\306\313\310\274Ro\360<\326\347\203\274#\214\003\275\031\023x\274\225\005\002=\003\024\203;t\343`\274\231\353\234<\351\003o<=~\263;J\245\032=\245\214\352\274\210K\330<\301\254O\274\337\302I;\202U\032=\265\265\004\274\252\\\371<\243(\t\275\007\246\007\275|_\316\274\370`\322<\036\376\221<\203\232\007\275:/\337\274\203\331\350\274\027\312\374<\357\300\244<GT\247<\304\362\241\274_+\203<\310?\'\274\326p\017\274\362\243\200\274\260U\213\272\346z\010=%$\022=\237\370\025\275\2328\242\274\231y\005\275\335\314\021\275\323X\003\275\322y\005=\264\025\211<ty\010\275\005[\371\272@[\352<\230V\035;\351\376\266<+b\331;~\003\013\275\002\365\326\274t\004\034=/\033\353\274_\302\256\274_e\343\272\201\310\003\275\353. <\366#\023;9^\014=^\220\376\274C^/\273\216a\024\275\2355\347\274\342\034?\273\204\331V\274\244V\363;\254\2617<97\244<\205\270b\274\235\271\366<Ktu<r\362\037=@X\207\274\224\3513;{\205\026\275Zrg\2715\360\333\272\227\354#\274\"\250\005<\352S\217\274\034[=\274\300\212v\274\203\377R\274\003$\212\274\345J\201\274\227\001\001\275\307\2720;\261g\003=3\351\025\275\005\324\275<\276F\001\275\276\2636<\240\345\344<,\363&<\311\357\316:\214\"l\274)\014\005=\032f\243<R\201\223<D\034\\\273\3654 \275\362\020\244\274\215\223\206<\367\013\242\274\334=\260\274[\345\372\274\002\265D<\352\332X<\313mR\274T\231%<\222\256D\274<2\300;\377YD<\242\360\366<X\250\221\272\303\304\274\274M\313!;\237\004\276;\225\242\205\273p/\225\274r*\320;\033\327\t\275dk\240\274K\313\225\272\223\226\037\275\227#e\274+7\252<\253V\375<\211+\013<\036\347\263\274\360\233\021=\225\343(\273\2554\272\274\321\250\226\274\356\216\322\274:\323\255;5\321\225<\333``<\272i\202<\243:m<`.\003\275\327u\343\274\236\276\261<\354\266\305<\367-\211;6\301\243;\312\211\005\275\266\312\354\274\204\234\275<e2\004\275\032\342\027<>i\352\273\245\306\037\275\222E\322\272\271D\345<Q\302\237<\360B\257<\242\377\223\272B\366\371\274\212S9\274#\271\007\275\324\307\217\272P\343\361\274\2006\224\274\346\031\020=a\276\251\274\227w`\274\360\275\351<\322\220?\273\276\277\267;\365\007\036\275\313Z\212<yp\277\274?\300\322\274\214\222\017\2743\202\033=q|\r=y\032\232\273o3\333<\323(\210<T\221\316<\376\234 =Xen\274\0135\223<\202\243\304;=\223\310\272f+\323\274\343y\021=\311\351\300<\031H\211:\345X\221\274@\277\036\275\'x\312\274\337Q\366<\366\324\225;\206\035\002<\302\202\310\274F~\350<\226\310\007=~\0021<\355\202\340\273\266k\315\274\342\251\212\274=\365\235\273\305k\312\273\035i\037\275M0\334\274\031\025\204:\307\361\000\275\306\231j\273\234\241\322\273\201\034\366<\177\362\t\275D\277z\273R\321\372<I8 \275\006;\013<\276v4\274r\313\016\27516\014=\007\234\326\274\032\246\252\274\301x\225:\302\376\002=]5\233\274\356Gs<F\003\007\275\356\350B\2727\367\016\275\371x\271\274\260\211\262<,06<\024\212\211\274,\010\245;\360J\026\275\366\341\034=\347\240\034\275\014n\370<\254\352\247\274\036qn\274&=d;hF\247<h\246\026=w\036\001\275\226\310\277\274\375\242\345<\017\031\023=\032\266\223\274\211\200\302\274\252\360K<\253\\\374\274\274\000\370<\240\331\364;\301\243\254:\03343\273\267\302\277\274\027\035\t\274b*\311\274\357\017\006=1\r\005=Rt\313<I\032\276\274\335\254\007\275\211\\\222<\306t\035=%t\366<\232\327\361;\372\037\031\274\345\016\036=\253z8\274\372\366\327\274\225\333\030\274\033V}\271\233\366-;\222?\323<*E\005=\324\003\263<\265\003\017\275}\032\346<\376\246\311\274hS\376\274\261\332\236<3\214\206<_Y\261\272~k\242\273k\333c\274}\014Z<\337\353\244<[\333_<\356\260\003=\356M\027\275\025\357a\272\234N\336\274~\021\215;\246~E<p\337\251\274\324|\317<\tV\177\274\354iz\273\332\212\017<\037.\006<5\241\324;\236#\366;CZ\210\273\240\021\027=\027\207\237<\305\031\303\274\211 \263\274\373@\020\274\305\211\2759,>\377\273$\334\035\274CK\226\274\"8\231<\3049z\274\032-\342<\220j\017\275\3223\032\274\240\005\252<\311\252\036=\361$\226\272\267\201\302\2742.k\274!\221\032=\204\322\002\275\3561\270\274\272\252\t\275\n\261\230;\324\312\031=i\037\365<\336\362\r=\0203-<\213~\253\274\300\314\261\274Km\305\274CX\301\274.`\333\274eg\203<\214>\t\273\246\212\025\275\367LB\274\035\326\235\274\365X\374<\0378T<\276\346\036<\326 \322\274q\244\343\273=\327\254\272\325\211\321\272\345\354\034\275\352\376\030=\355\n\200\274jV\305<\\<\223:\303\313\020\275\031g\334\274\337h\376<\344\334\021\275\0108\037\275;\235\276\274\276\365\033\273\r\205\020=\3004\262<\216:\213\274o\261\005\275\376\315\032\275\225\315\033\275\242y\312\273\224\267\032\275\330\014\231:d\360\300\273\354\375\274<\300A\001\275\371BD<\224\321\203<\007\221\346\272d\017\277:\254*\227<\361m\226\274P\030\255\274[\257\'\2740M\213;_-\"<\026&\020=u\371\207;+c\305\274\322D\002\274\367\250\371<\020\266I\272\220eA<\211\320N\274\022\n\367<h6\204\2749.~\273\346w\3429D\207\324<\331\333\311<I\266\024=\224A\350\274\362\236\022;z\347\t</\326\020=\304\344\260\274\244\226\245<\303x\253\273\234\376\326<}s\265<\367\255\245\274\326\241\2079\022]\225<\232K\003\275hY\217<\204*\n\275:\206\347\274\201c\315<\323\343\352\274\276\000\376\274=\272L\274\345u\030\275O\024\270\274Qg\271\274\304\247\212\274\353T\033\275\030\206C\274\343y,<\320\277\332<\222\310\023\275Id\267;\2660\323<\321S\375<\302\017_7\356\216\266\274\257_\333;~)s<\334v\233\273)\344\245\274\032\255\306<X\375\332<2KB\274\300\031\021\275\010\350\362;M\225\223;\203l\030=\272\323 \275GiR\274\302!\341\274\312\335\r\274\000\316\337\273\211\t|<\317\257\373<^\301\320<\302\002o<\230\340\003\274\213\260\253\274.\033\034<\251\n\266<\275N\035<\306\t\247<R\332\000<\226\241\027\275\tX\223<\305/\321\274,\370\256<:\314\006;S\306\316\274\007^\276\273.v\240\274\267+\334\274\255\234\256<\316\337H\273\275\336\030=\340\203\027=\003\022\326\274\2247\030=\345o\205\2744\325\033<\'\\(<\315\264\002=\026\241\310\273\255B\257\272\377z\366\274\307\201\205<3Mw<\\\223\271;:\210\257\274\366\220\245<\352\307\006\275\267\353\355<\023\020\353<Jx =\246\262m\2740B\227<\001\323\030\275\024(!\274\324\232f<}\030\021=A\312\266\2748T\013\275Z\234\'<&\232\033\274PZ\301;\205?\351<\240\320\322<\005\\\360\274\237\006\272\274\224o\000\275q\207*;j\247\274<\344\255\215\274S\035\020\275\326\212\r\274\237Fj\274\356\303\006\275L0\336<\267\313\004=8\233\327\272\324\010\374<$\305^\273|\205-;\376\341W\273O9\020<y\341d\274{\271\002=!\340\231\274\311\256\270\274\344\205\241<\237q\017=\233S\261\274!\264\025\275\201\347\020\275W\365\030=\2567\333\274\310\007\202\274%b\311\274\203\261\351<\243/9;\253\365\035=l\3006\274\262\212\344\274\214\\\307\2740r\231<\237\n\214<[\324\330\274\1774\037\275{~&<<\013?\2748\356\260<\013\006\343;uw3;S\367\022=B\241\376\274\203\033\013\275\302z\276<\356\3640\273\302\013\272\274\005t\252<\\:\301\274U\351(<\024H@\273\277\313\336<\202\206\234<\270S\306:\371B\036<m\235\204<h\205\340<\257\362i\273\273\204?<\03474\272\353i68\013\370\330;~\210\007\275C\255\323\2740S\207<\t\257\270:\016\310\333;)\265\341<\202\203\346<)\030\314\274S\235\344<\027)\023\275O\275~<\354d\344\274\224\020x\274\024\027\366\272\317\242\246;(g\210\274\256\341\024\275^\220R;D=\322\272\362\254U\274!\304\022<`\260\333<\265\302I\274J\342\013\275\354L\207\274>\354\233<(\014\032\275\207~\300\2745c\201<2\376\024\275\200\376\001=M\222\021<e\344\202;AL\271<\207\016\016\273\210k\340<\243\2264\273\2245\023<\020\251&<\263\352\267<\330M\003\275\266Y[<\037\322\262<\254K\002\275\326\201\256<]\232\023\274\001\365\266\273}\000\006=\261\232\010\275\243j\231\2747V\013\275\261\356\340;\201\276g\274\345S\001<\001\360u<HgN\273\257\t\323<\010\n\306\274\217\205\330\274={\356<G2r\274\341>\305<(\222\001<\017\327\263<%\312\252<i\337\026=\264\\\324\274\332\t\240: b\352\274%TO\274\314\027\002\274e.%\274G\301\374<\345[\330\274\301\220\3749\227\024\262;\357\271\305\274\325\'\345\274\372\003x<\265\334\317\274G6\024\275\353\363\004=\n`\342\274\277!\t=\324D\020=\3220\202\273\031\302\306<s\234\n\275&\277\207\274D\311\271<1\274\276\274)g\332\272\246-\375\271\213\273\006\275\353\316\000\271\224\272\322\274\252=\033=nt\342\274\014h\332;\326Q\217<\005NN:\317\206\030=\253_\032=#in<\236o\024\274uV\\<(\276^;\257\270\036\275\r\301\225\272\277\265\n=X\\x\274\035q\310<\204\352\014\274\277\270\320<H\255\355<\037!\027=\366(\006\274\202\265\000=\003\013\000=\265B\t=\204a\232<\345\2330\274\224\020\274<\334\362i\274*\237\317;(\202\326\274|f\005\275\343X6\274Z\004\022=\224\0348; \025\035=\220\320\002=\347\236\212<$\207\241\2744\010I<j\347\036\275\036\251\350<\254\321\233\273\275\324\367<mE\246\274\230\361\242\274\271\373\004=\206w\321\274\007q\362<\327#\250<\307\206\001=\017\271Z<z\332\025=\264?t<\221A\030\274NC\376<\202D\013=\374\324<:\230\311\351<\201\277\277\274\243\211$:\031g7\274\243Fz<^\347\367<\374\304\006=\301j\341\274\242\214R<\355\021\256\274\273\n]\274\362\246Y\274\000gl\274\304\332\326<\260$\257\274L(\023;\002\375L\273S>\207<\243\007\367\274\220~\340<\254\212\212\274\020\247t<\230\2278\274J\036\210;N\315p\274\\d\t\275\256\223\312\274\206g\020\275\2145\265<^$\252<\017Nq<\347\360\033=.\253\001=y]\033=\227\363|\274\332\207\363<+\321\001=\301\305\r=\341\263\200;\205l\322:\220\017\306<\207\377\244<\025\003\306\274\356i\033\275\354\010e;\\\363\320<\277\320\007\275\360\257\207;`\264\345;:iN<\252\362\033\274\364\221\023=\206k\237<\303\253\264\274hS\353<\1773\244\274kw\261\274\320H\037=\\an\273\320\020H\274\0164K:\0139\021\275\354\253\374\274M\242\315\274\220Z\205<\365\373p<<\222\037=,\'\030<\237\230\262\274\304\177\016=n\261=\274\306\240\020=$\253\316<\014\007\241\274`\224\025=qj\234\274\331\n\201\273\206Q\376\274\337\200\032\2758\306,\272\320\300M\274F\343\010=\211\335\027\275\213\201x\274=J\214\274\367\203\231<\325\014\244<4r\000=O\326q\274\337\260\257\274\367\246\022=\250\005\003=\n\277C<\252]\372\274\250z\211\274\243U^<\304\356\225;sU>\274z\217\207\274\253N\246<d\316\312<&f\244;\320\352d<3\222\036=o\230\203\274\257y\350< \\\n=^W\271<\t$\232\274\r9j<\252E\036\275\370$\373\274\303z\261;;\254f;\313\\\036\273\036\017\230\274Y\247f<a\'\234\274n\230\254\274\314\324\304\274\006\2224\274?\221\356<\004\237\000\275\234w\006=\255\353Q\274oL3<V#\023\275\347Q\000<\263{\243<\333\253\023\274\353\260\305<8\265\227\274sN\035=Pm\032<\366\263\366\274\272\310\352\274\301\\\027=\013\351*:\r\270\365<\031\013\026\275I0\n\275\003\3171\274l\001\000=\257:\242<\315B\221<\013\033\335\274!C\307<\354|\013<\374\352\301\273\301\303\247;\221$\371\274N\372\014\275\271&\240\273k`\344<\217\273\300<ZS\002=M \240\274W7\023<![\264\274\2069U<\243\245\310;\210\251\2009i~\322<=!\240\274\032\264\034<\024/\313\274\371}\370\274X\302\335\273h\014\214<R\330\027\275\201m<\274\335\222\223;\240\222\263\274H\221\001=\351\357\324<\371\020^<w\037\033\275\232\032e\273\350\2520\273\342\006\300\274\035\306j\274\225*\311;\351\240\371\273\006\305\255\274\253l\033\2754\014_<\355H\036\274=t\221<\237\242\223<\320z\007\275Nm\030=\355\240\234\274\027Il\274\267\nF\274\236\013\244\273CC\345<\246Or<\252\202\000=er\316<\320\334\361\273\265a\022\274\243`\276<\217\360\006\275\024\020\313\274_\270\301<\335\340\241\274.\3257\273i\257\313\274\247\212\355<\247\370\t\275\326\346\215\274\177\032/<*\020\216\274\037>\361;\220\"\014=Z#\376;o\310\027<\257\306\337<\356\262Z<\251\330:\273\236\212\374<`(\r=\020X\037\275\217\r\234<\3104\301<\3003\255<\355\237\024=\301T=\274\021\240\331:7\277\217\274qU\037=\347<\377\272\312\347\'<j\215\r=\032A\202;Q\371\016<l>\334;\351\250\264<E<\311;\2252\215\274\220\003\347\274\332\'\201;D\313;;n\250\312<\\\201\246;c\326\277\273\357\274e\274N|\017\275]k\342<\371v\365\273\3657\324\274Uq\016\273\200g\003=*X\377<w\375\232<\027\205\010\274\255\375\364\274\304\031\351\274\213@\352\274q\207m;\210\341\272\273\266\273o;\240\364\267<\023\202P;@\341\021=\216\361\256<u\330\315<\370\361\005\273C\013\031=\016\274\022=\345Lu\274\350\363I\2749\357d;\024\363\227\274\272UZ<\330\323\024\275>yD9f\253\272\274Vw\227<\2154\224<\347=\312\274\322\232\003\275\323Z\020\275B:\366<\2151V:\356\350Z<DU\257\274\340\370\350\274[\r\010\274]\325\272<\221\265$\273A\3051<\3466\362<\024f\n\274p\005\020\274$\tC\274\315\247M<)\373\362<l\306\016\274\025\004\233\271\331.\013=\256`\211\274G\216\036=k(\267\274\274\352\322\273\334Q\366\274\266\035\023\275\020\031)<b\205\230\274\253b\226<\007F\023\275\254]\366<4B\006\275\237~8\274\024\227\026=\247\r\362<O\245\226\273Ks\3738\024\367\363\274O\022\214\274\005\220\364\274\242\325\364\274^\273\222\274\037\035\265\274\022\341\031\274\376\262[<\251r\007\272\275B\236<\274\301\271\274\310q\031=\223h\005=[\275\226\273\265\330\265<\306\"\272\274\335@\313<W\211\367\273\017\301 <>\214+\274\346\253\352\274T\304\025\2755>\247\274\274\331Z<\325\255\356<\203,\003=n\\8<R\275\364\274\272_\234<\363\221\201\273\376l\302\274\3058\250\274\347\265\322<\250\335\244\274\245,}\274\207\251\026\275t`&<t\230#<\332\360\234\273\310.-\274\217Y\223<\232D\003\275\327\030\277\274\304\266\315\273\031w\t\272\307M\260<\274~\220<S\312\301<\372g\t\275\335\352z<\261I\007\274\022\007\260<\0042\020=d\236\014=\375\236\035\274\264\317\275<5\324\177<\016,+\274\010\215\251;\301\022\252<\365\276s\274\3177\374;\317\276O\274\223\003*\274u\344\t<,\025_\273\314\340,;\352\312\032\274x\222\234<\333Q\211\274=\'b\274\212^\227<Me\304<z\236a<n7\213\274\257\203\017\27446\342:\262#\311\274\354\211\364<n+N\274+4\273:\373a\005\274\316_\212;}\014\007=\330P\232\274\225k\t=\337\320\335\274\227\026m<\nf\r=}\250\013\275\216N\334\274\314G\002\275\367^\240;<Y\354<e:\273<\035\254\221;\022e\372\274%\203\244\273%#\202;E{\255\274&\341\302<\247s+\274Sx\312\273UM\020\275l}\027\275\237td\274\273l%\274\020j\211\273X\362\t\275\212C\220:3\373\002=$\252\013=\353\334\226;5*.<\315\326,\272\020=A\273}\216\311<\350\311\332\274*~\031\2757j\000=\207\343V<m\245\r\275Yx\347<\352@\001=\334\215\000=`\360\210\274<e\024=\'q\234<\217Z\374\274IO\010=\256\367\033=\263\213\n\275\216\352\254<\022\354\216\273zE\323\274\014F\273\274\236\2333<i\302\303\274\247\000\201\274\031\037\'<\315r=<I\266\304\274\205\242\346\274\204\205\203<\377L\234;*\354\231;-\026\013\274\313\270F\273\016\273\313\274G\317\251;]\243\254\274\336\332\016=\30756\274\325\374\232\273\262\215\255;\371\227\004\275\373\033\375<\277o.<\262 f<5\342\245\274A?\257<>\361\001\27521\214\274c\334\024=\230E\001=\032~\265\274p\370\202:\271\260\305\274\347\177\262\274Rz\363<\241\034\221<\031\005u<,\362\377\274\200&^\272\020K\002:V\306(;#i\222\274aq\3539\374\206\025\275\207\334f<\031\333G\270\220\302\263\274\213\336\025=\207\256\372;\333\035\204<L+_\274\3461\236<\3679\017\275\367\256\255<5\247\037\275\243\214\310<R(\337\274\020\346J\274\304\013\002\2753\316\n=E=I\274\203\331\322<\034\337w\273\345\341\245<u\244\235\273&\377w\274Hq\005\275\303\177\030\275f\210\252<\335\345|\272\355\237\207<\207\036o<\374\303S<\325\346\013=\342\023\236\274?8\023\275\202\337\022=\226\337\266\274))\255<\342%\035\275\256g\336<\262M=<\302\036\341\273M\210V<0ST<gh-;\320M\021\275\361\214\202<\024m\220<\256\316 :\355n\345<\221v\027\275\034\267\004\275\207\250\006\275\226\370P\274\014\022\006=\321\301\377\274\223S\257<3Q\000\275n\332\240\271\004\000\"<\234\244\365:Q \343<@\345\032\275\261%\213\274\024\013\337;wC\246\2730\270\005=\305i\303\274\270\014\301<Pq\317\274&\032t\274~\241\252\274\312\312 \275\240\317\323\274\336\365\027=\231\000\002\275\310=?\274\374\344\335<\352\3413\274\033Av\274\271\303\266<c\\H<\242{\210\274\247\023\272;\201b\257\274\232\244\260<\017i\207<\320V\t=\315\241V<\254\302n<*\214\367<_\327\362\274\234\314\256\274\252\0259\274h\314\233\274\222\333\032\275o\222\r;um\210<t\315z;\273RE\274\226\321\354\273\240\2522<\017\020\227<,\264\006\275\023F\337<\232\021\244\274\206+\236<\312\250\016\275X\\\002=\'%\343<)\217:\273\255_<\272\247Rs\274\216tN<\334\312\016<\256\221\016<\032Q<\274\310CS<m\357/\273?\320\351\274\354{\270;\2716\306;\023\234\236\2732u\304<L-\237<\037N1<\3217 =\360T\005=\355\013\030\2758V\013<\r\236\276\274\351Y\260<\211\347\222\274n<\300\274\334\260\334\2746\013i\274f1\327\274\035*\271<\324\346\037=\362\276\316\274U\000\201<\260\344\010<\036.\232\274,\032\265<\306\272y;\301\265\217\274\214* \275E\001\347<\307L~;\376x*<\237\366\264\274\223,\367<%\241\250<\r\200\010\275\304g\023\275iZ\025\275\000\036\274;\032\324\021\275LZ\037=\201\264\013;\255\017\374<g|\030\275\026\\\210<\334\245\024=s\354\326\273\035\025\010=R\031\206\274\311S$\274\374\272\023=\3528\311\273*D\366;\005\250>:\270\206\002<\007L\315\273\314\235\n\275!`\336<\201\303G<@\234\032\274L=\007\274\374\276!\274\223i1<8\214\034=\216x\315<=\355\205\274nNQ<\232&\021\275\274\2275<\320\004\253:\266j\013\274\237\273N\274\017\253\273\274\033d\021\275Z`\255\274S\027\r=\320s\201<DM\354\274\301\010;\274F\277\356<\210\222\371<\026g\362<\214\267\010\275e!~<M\234\301<p~\341<$N\202<_j\354\274\230\202\036\275\331x/\274c\201\203;\226[\212;P*n<\347&\034<\231\200\023=\002\334\016\275\226\256/<\377?v\274\256\036\345\274\200i\220<c\246n<\270\n\200<gie\274\373u\231<X\352\303\274\325\221\021=\005\331\\\2747\330\314<\276\013O<=\"\256<2>\226<#\271\013\2756,\322<\031\301\032\274\334\377%\274\375.\212\274\331\227\321;G-\024\275x\256\366<jf\005< \252E\271u\353\317<\354\027\273\274Y\204r\274\362\235\202\274\025H\013=\274\355\252\274\302\352\031=\366U\316<r<\024\275\344u\340<\254\357\3279lU\004\275\270\274\010=\225\365\205\273m\243e\274\236\335\365\274\341\243\322\274T\307\352;\261\252\274\274\205\305\020\273\031r5;\351N_<\247\032];\325]\037\275\214\357\230<\2167\221;\376E\n\275\337\361\265\274\246\366\211<\311T\360;t\374\005\274\223\342\231\2743\256\325<Ja\234\273\227\207]<\232K\221<\303\360\033\275\200/\\<M\310\344\273\324\207\264\274\323\301\367\274\267\312\346<1\303\035=\236\203\032\275O\352H<H\302e\274\t\300\034<\",%<4B\200<\364\021\315\274b-\240\274\331J\312;\265\370\235:\204\304J<\300\217\n\275c\010\014={\305p<\332\362\014\275Z\243\217\274\345L\260<\250\346\314\274=v\021<\n+\177\272\351x\251\272\351>\332</\272\351<\247\001\375\274\205\351\216\274Gh\036=\311\370\033\275\307!\004=\031\354J;\354\227\212;m*\240\273\222\271\354<\346\372\205\274\2079\n=\225\214\031=\357\n\357\274\237\373C<\351\025\323<vQ\014=\347\233L\274Ht\202<\216K\270\273\355\354\023\275\366\220\002=\177\347\316<+\336\232\274D\n^\274\212\331\221\273\205 g\271\341\021\013<\365 