node {
  name: "global_step/initial_value"
  op: "Const"
  attr {
    key: "dtype"
    value {
      type: DT_INT32
    }
  }
  attr {
    key: "value"
    value {
      tensor {
        dtype: DT_INT32
        tensor_shape {
        }
        int_val: 0
      }
    }
  }
}
node {
  name: "global_step"
  op: "Variable"
  attr {
    key: "container"
    value {
      s: ""
    }
  }
  attr {
    key: "dtype"
    value {
      type: DT_INT32
    }
  }
  attr {
    key: "shape"
    value {
      shape {
      }
    }
  }
  attr {
    key: "shared_name"
    value {
      s: ""
    }
  }
}
node {
  name: "global_step/Assign"
  op: "Assign"
  input: "global_step"
  input: "global_step/initial_value"
  attr {
    key: "T"
    value {
      type: DT_INT32
    }
  }
  attr {
    key: "use_locking"
    value {
      b: true
    }
  }
  attr {
    key: "validate_shape"
    value {
      b: true
    }
  }
}
node {
  name: "global_step/read"
  op: "Identity"
  input: "global_step"
  attr {
    key: "T"
    value {
      type: DT_INT32
    }
  }
}
node {
  name: "input"
  op: "Placeholder"
  attr {
    key: "dtype"
    value {
      type: DT_FLOAT
    }
  }
  attr {
    key: "shape"
    value {
      shape {
      }
    }
  }
}
node {
  name: "output"
  op: "Placeholder"
  attr {
    key: "dtype"
    value {
      type: DT_FLOAT
    }
  }
  attr {
    key: "shape"
    value {
      shape {
      }
    }
  }
}
node {
  name: "HistogramSummary/tag"
  op: "Const"
  attr {
    key: "dtype"
    value {
      type: DT_STRING
    }
  }
  attr {
    key: "value"
    value {
      tensor {
        dtype: DT_STRING
        tensor_shape {
        }
        string_val: "X"
      }
    }
  }
}
node {
  name: "HistogramSummary"
  op: "HistogramSummary"
  input: "HistogramSummary/tag"
  input: "input"
  attr {
    key: "T"
    value {
      type: DT_FLOAT
    }
  }
}
node {
  name: "HistogramSummary_1/tag"
  op: "Const"
  attr {
    key: "dtype"
    value {
      type: DT_STRING
    }
  }
  attr {
    key: "value"
    value {
      tensor {
        dtype: DT_STRING
        tensor_shape {
        }
        string_val: "y"
      }
    }
  }
}
node {
  name: "HistogramSummary_1"
  op: "HistogramSummary"
  input: "HistogramSummary_1/tag"
  input: "output"
  attr {
    key: "T"
    value {
      type: DT_FLOAT
    }
  }
}
node {
  name: "fully_connected/weights/Initializer/Const"
  op: "Const"
  attr {
    key: "dtype"
    value {
      type: DT_FLOAT
    }
  }
  attr {
    key: "value"
    value {
      tensor {
        dtype: DT_FLOAT
        tensor_shape {
          dim {
            size: 8
          }
          dim {
            size: 3690
          }
        }
        tensor_content: "g\022{<\030\266\003\275\331V\232\274P\303\367<\253\236\211<\342\302\357<#3\315<\004\250\n<18\371<D\030\220\274g\030\220<\224\337\210\274\037\024\002\273\010\205\353<\336zG\274\n\206\243\274+%\032< F\224\274tU!\272\244\220R<C2\231<\371\336\374\274\261\016\272\274\232,\324\274\342U\027=#\036U\273MX\024=\324r,\2747\240$\275\331\233\377<\301U\333<\353 \001=//\275<W\003\025\275W\327\t=n\232\000=\237\017\202\274B4e<;zk\274\250\230\220\274\036\312\244\274\355Q\360\2733\n\217\274tw\261\274\364\013\303<\300\000=\274\314W\n=\213\247\032=\265\n\212\274p\303\260<\267~\"\275\272\007\331<\376\304\367<\242\244\252;,\341\207<n\0044\274j6\317\274\271\355\336\274mv\343<GVr<mBD\2747\206\014\275\276\247\013=\266\346\003\275\354a\237<\264\375\242<\031\234\340\273\320\314\245<B\036\330\2730\353\357;\013S;\273\263\236\266\274\244\206\316<\023\256=<\002@\177\274\032\312\036=q~\202\274\262w\320: 9\271<T\342\344;\244r\024\272\227\342\272\274\331\222k\274\327\214\353\272\356\301[\274\367@#<)\007\027\275\233K\270<\314\221D\273\276\251f;\257\317\243<\325\273C\274\264Bw\274\350+\211<\203\322z\274/z\267<vm\030\275\313\036\234<&\231\001;V\003\023\275\212\301E<(.\313\273H]\242<\276o\301\274\005\300\316\274K9\002\275,\270\"\275\010\240\354\274i\366\r=\316\244\320<\026\355\003\2750t\002=>\"\360;\277\014\030=\253\026\022=\004\266\265\274T\2360\274\257\373\000;\232w\003=\032\323g;X\272\224<s\356\264<\223\017N\274vV\016=o\324\330\274\"K\356<*.\006\274\366Z\r\275d\312\244\274\214\242\027=\350\231 \275\372\312l<?\032_:4)~<\r\214\030\275\000\265\242<ir\000=\230\021S\274D\346\253\274\307\370\307<\275\022\236:\321\334\350\274\0135\025\274\327\314\006=\344\365b;\376\242\252\274\311%\021=\263\371\374\274k\274^<\252@\366<\332\375\276\274\002tX\274\363\231\321<\347*\242;e/\317<{\223\031<\225\264C\274\220\367\"=\265\312\377\273q\336\313\273\246M\363<\022\346\366\274X\324(<p\220\322\274\366\277\352\274\033 \327\274*\331\022=\267\027\037=^g\026=\216|*<rI\237<\332C\026=*8\320\274\271[s;\313:\303<0\311\'<\337\035\223\273C1r:\242\324\253<\366;d7\025\273\350\274w\270\031=\026\016\t=\006t\253\274\274\3539\274T\036\035=\370\247\001\273/GM:\243\327\227\272X\244\024=\023\235\207<\377Jj\274\221h#\275\315v\006=-\302\265\274\201LF<\317\233|\274\237\343I\273[\037j<\204V\004\275]\267\370<*\303\032\275\217\025\036\275\363\210\365:\333\360\005=J\216\220;O\253\024=\246\223L\274\253\370t<\324B\240<(\234\006=SW\333\273t\377\016=\320\376\265<\361{\370\274\317=\326\274qM\030\275I\233\017\275\243\276\003=t\300\020\274-N\016=\366\347\354\274R\242\006\275\304\365@<\352+s<\221[\274\274U\245\226<oV\n=R\230\037\275\023\266e\274OT\215<\221\316\261\274Jl/\274\251\260g<xl\360:\330\336\331:\335\272\223\274\250\020\270<GN\315\274\311\235{;0\020\206<^\365\241\274\3426\242\274D(\267<\310,\327\274\227\321\324<\353\030\006=\235t =\357\371\222<\000j9\274\346\'\034=\254w\004\2754\032\372<\324 +\273\202\263\351\273R\272\002=b,n\274\2752\202\274\226v\324\274\220\363\305;\237\313\342\274~\022\000=\355L\256<&\341\037\275*(Z<g(\t=v\271`<\277 d\274=K\366:\277\326\226\274\006LJ\274\261\307\331<%\276\344\274\343X\207<\374\037\036\274;\345\250<\357\261\230<\220\031\020\274\256\205\205\272\253\224[<d+\330\273W\333\273<%\211X<\314(R\274\007\0044<o#g<\335\310\027=W\331\214;\364\313\233\274`x\244\274\207h\246<\226.\325\274\267\021N\273F\025\327\273\003\031P</\252\334\274\263!\275\274&\017\267<J\327\316<\274=\244<\260\033\225;xuf\274u\317\007=W\267\016=PH\005\275\370\276!<\372\230\256\274O\357\025\275\024\246\225\272\224\013\236\274$\263\212<\371W\223;\311u$<\333\032\273<cb\371<\217\350\367\274\341\277\272:\271\333\014\275\375\220\234<N\271\271\274\340\255\006\274pF\274<\330\244\376\274?9\342\272\032\205\014\275\224\031\3659\346\200\035\275\234\r\236<_\340\234\274\224\200\022=\230\367u\274\363\3375;}\033\270;\032\tO\274_\007\027<\023\272J\274\000\351\001<m\305\203\274\350\212\021\275:\215\013\275\225C\036<Q\260\233<\303\037D\274s\202)\274\275\221\342<\016\204\020<\212o%\274 \326\027\275\263:\244\274\203Q\330<\335Y\027\275\273\005\332\274q\031\331<\365\361\022\2750/\332\274y\025\237<GD\377<SPm<\327\n\331\274)\026e:\341\271\n=K\0371<PS\375\274*Y\n\274\306\000\357\274\006\320\020=\0270\t=4\313\031\275\361\326\257\274T\021\330\274N\377\214\274\350\365\026\275\\\261\361\273K\233\007\275<\232H\274n\252\305\2743\003\360\2746H\314\273\021\001\230<\344\005_\274}\372\022\275\230\267\252;s\217\247\273\001v\007\275\025\322\023\275E\360\206<qp0\274\004\222\006=\263\001\366\274\374\020\334\274\034\017\024\275\205\203\221\274|\302\013\275#\017\004;<\005\250:y\031\351\274fA\023\275\247m\005\275\222\270\234\274\241\300\331<W\313J\271\255\027g<=*\377\274\242\204\374\273\321\305k\271\377\350\356\274\362$\006=\332\370\'<\325#\333\274\354q\337\274\352\2131<=M\322\274\330\273\023;\255\004J\274\354\2209\274\202\013R<JY5\273\341\347\025=\276M*\273\340\036 \275V\264\317;\\\216\031\2755\177\254\273\352\267\017=\274$<\274\022i\006\275\3636\270\273\025\026\333\273\224\212S\273\304Y\010\275\035/\261\273\t\331.<\254i\205\274v\304\353\274c_g\274W\354#;\231\342\345<\204\027\016\273\361\236m<\366\344\302\274\303\'\350<\327\354\365\274\307\273\376\274\326\222\237\274\326\336\030=_\373\221<\016\001\253\273\320\373\332<\\\244\237\274\353-\036=/\3055<N\330\021\275\203\354\307<\240\367\005=\306\313\033=D\334\023\275\023\202x\272\306\362\325\274h\371\210\271\004E\017=1=\237\274\023:\t=\003v\377\274RJ\036<po\344<kN\271\272/)\206<\037H\246\274K\317\342\272\321Y\325\274\273\224\004\275\302\316\020\275q\277\035=\301m\026=\303\200j<\376\224\275\274\017\370\203\274\024\227\032=\023\312\374\274\347\242\030=\3628\357<\321\371\250<\351\240\333;(\337\227\2743\312f\274\214\266\024\274%L\036=!\225\331<\003Y\245<|M7\274\221\317\303\273\355\302s;}m\007\275\033C\307\274\225+\274\274\206\367\245\274\236\326\005</\344f<\0224\356<\263\365\037\274\177B\017=)\206#\275\032\027\234;\334e\t=2K\236<\n\007\365\274z\210#=(q\234\274\022?\345\274\\\206\365<];\006\275\023+\212\274\206\\\013=*\240\222<\242\030\372\274\010!\321<\251f\022=l\351\363\274Y\264\272<\236L\035\275\005\201\315<}\266\322\273w7#=R\235S\274\036\314\021\275\271}\030\274+\'\214<\270\035\322<\376\035{;9\327\202<\373@\014\274\3769\031=Q+\366<.\021\225<=L\306\274\214\267\216\274&\252\255\274\317B\376\274\320{\375\274\266>\231\274w\340\t\275\003c\326<\246\335\217\27350\177<\206 \032\275\270\031\221;\225X\034=\326\370\311<E\206\241<\265\301\014\275M\310\014\275\002\324\327<\231p\231\273\005v\035\274\031\221f<\021R\"=g\327\371\273\377{\306<q\030\313\274[\311\020=\3500\272\274\204$\262<H\255`\274!,\341<:6\340<\267\'\r<y_\356\273z\243\220<MLu\274d|\021=T\352W\274b\257\245\274\377\302\344\274\320\242e\273\353\256\r=r\357\017\275\345\333n\271\3726\256<\2700o\273\265sm<t\222\350\274\016%\010=t\214k<\230\t;<|\017S;x\254\004\275\3418|\272\254\274\266\273}\300\303\270\221\375);\220\237\277<\0346\277\274\362=\026=\301\203\362<\256\021\360;\001\361\r\275\313\236-\274\233nq\273\236\205k<o\177\275;\213\242+<8G\307<p^\265\274\2535\035=\305\201\251<L\367M<\331\270\243<,#\035\275\251~\326<?&\204<\r\006Q<\034.\t\2755\n\361<\335\241\247\274T\2417<\304\240\036\275<F\"=\357*\264\274K\304 =UY\216\274\020\330\n\275\347\004\036\275p\304\253\274\270,\030=\265e\255\271\177P\253;\332\0170\274Z$=<\266$\275\274\355-O<\354\204\013=\036F><Q{!=\351\367\t\275\262\374\033\274T\246\255;b&\004=\034\217\001=\230\276\303\274\265\006\021=n\335\222\274v9\205\274c\306\225\273`\347\225\267?\266T;\020\211\227;\t\255\223<G\304\333<\274/\262\274\r\256w<\022\220A\274\005\266\255\273\317?\350<TI\334\274(\342\000<\270\227B\274\203@\004=\016\244<\273\306o\232\274\031\177\026\2751U9<\024\362\321<E(\213<iTD\274F\006\217\274\177\241\341\274V\255\001=xr\276<\224\003\364<\207\307\352<\210u\336<\365\215\214\273-<\014=\030n\314\274\261\177\001=Z%\007=F,;<I\254\252\274h\202\"=\000$\033=\0213\375<\243\245\240<\222P\027\275;G\016\274u\014\216<\004\316\335<\025\353\315\274<\321\032\275\352\r\006\275\002\255P\274\032IZ<\325te<\374\034\213\274F[y<\2027\004=\202Lk\273\350\001!\275\026\275\023\275\312\350\362\274Y\217^<q\376\225<h\346I<\004V\314\273\371\210\273;\022|\035=\226\034\026<\323\177\301\274\270$\0269\010N\333\273\260b\200\274MQ\026=\261f\t=fL\342\274\377\302\325<\003\001\341<}q\024=[c@\274\242,O;\366#\314\274\267\300\014\275(H\000=J\177\265\272\336\323\317;E\3759\274\230Er<.\2656\274\3349\005\274\234,\035\275\361t\027=\257\231\332\273B\314\034=\"\335\372<\3656\007=\027\256\241<\315\237\355;\344\252\032\275\253\236\255<9|}<_\351\320\271\332\254\240<{9\023\275\346%4\274\311\234!\275 #b\274\226\314\365\274?\264\320<\006\261\006=E(\275\273\376\235\202\274h:\010\275L\021$=\251\244O\274\250\001\005=\037\336\256<[\274\250\274\206b\010=\320p\025\275\016\336\334;\375\274#\275\007o\266;\311\246\210\274\221\335\365<\006\351\265\274\200\013\252\274\311\031$=\346\177\350\274\023\273\250<>\254\361\273#a@\274(>\266\274\322\310\223:`\271=\274?\037\224<\213v =R\224\010\275\014\262\224<\371\204\032\275:\210\222<y\036O\2741\266\033=\037\010r\2743\252(\274\375\372\022\275^\336\017\275<\354A\274\244\227\033\273Wr\367\274a\016\216\274/\260\312\274\300\223\226\274\233k\304\274\217v\273\274\021\212\266<.\330\333<\210\371b<\302\t\352\273?\240\343\273EM\205\274\215\246\264\274BJ\236\274\266\263\013\275\202\224\n\275\017\272\n\274PO\221\274w)\007\275\331\303 \274\211#\010\275#\017\267\274\213\344\210\274\212\200<<\330\247\251\274\351\213\337\274\300\270 <\233\230\035\275\251.\000=\026T\234\2724\265\351\274\342V\235\274(:\303\274\3078\371\274\372\024\257\273\324\331\214;\321\261\371\273\361o^<\273Rs<^s\020=\207\327\367\274\215\256r;\352\225\355<\r(\314<\324\002\337\274\373\372\273;\003B\263<\022\245\244\274\264l\206<\345-\302<.\030\002=R\326\247<\367\2414<\\\333\240<\007\253)<W\0369<\177D\355\274:\177\007\275lA\000<\255\013\304: \227\016=\002\317\277\274\367\214\302;\274\242\204\274\211\032\251\274\202^\006=\351\342$\275\263\254\255\274\215\221\223\273\244< \274\020\027\005\275f\245\036=\317\314\325\274\367\016\023=\261\242\010\274R\030\236<\214+\251\274N\340\260<\247\221;\274\005\246\266<\377\313\264\274\202\312\003\275)\206\002=\316/\215\274\210Ut\274\374Q\276\273\251\r\"=\327\346\000\275\031<\211\272\331\350$\275/6a<\226\007\005\275\214\215\220\274\245(\332<\211`\215\274\327X\202\274\000\226\271<\331\221\37398\334\315\274/C\021\275\022\261\255\274\207\216\035=\030\260\375<\t\242\347<\204\237\363\274\363\343\304\274\245M\036\274BZ(\273{\027\016\274F\244R\273\334\260\365<\326qW:\3473\246<\034\225\014=\314/\342\273\005\366\362<\264\254\206\273xI\365\274\205\307\315:G4?<Rl\014=\261-M\274\026o\"\275\203\230\227\2740\004\212\274\036R\273<\216\242W<xW\3569m{\213;;m\351:\371\016\020=\204\032\026=0\253M;\251X\256<7\035\314\274l\213\013=g\313\371\273\346\300\027\275\021\2073<\346\243\250;L\243\277<5\325\3059\320\320\320;\307\336\016\275\317\027\016=Tj%\272\025H\311;-=\210\273Gq\220\274T\234\024=~c\337\274VM\246;d\234\033\2752\013W\274w\3777\274F\271\331\274\214!\212<\216\027.<\035\202r\274G\376\032=w\026\204\274\371\356\246<f\262\307<\320\333B;\000\n\312<\316^u<\252O\254\2748\310t<:\215\332\274m\237\277<\207\036\026=\005a\206;\301\022\376\274\366|\t\274!\225W<\352\2344<\337\267X;\325\353\342<r\004\034\273\203k\305<^p\033=S\374\031=\205\222\274\274Tz\242\274\367vL<\343\302\030=\245\314\342<\340\224F<\315[\342\274#a\023\274\021\223\213\274\375Y&\274\362\326\372\273U\016\022=A\276\275\274\234\373^<\204A\337<\256H\031\275\203\366W\274m9\373<.\363-9W<\007=0\321\360<\305\263\307<+x*\274\320+\017=\206~\031=/J\334<e\243\246;\0144\"<Z\320\247\274\305D\310\274\340(\346<\377\033\204<C6\354\274<\2477\273R\021\251\272\252m\274<\016TQ<i\240$\275q\202\304\271\016\224\215<\026\014\026\275n\'\252<\tH\017=\325Z\021\275\352w\212<\002%\016< \213\237:\321\000\017=\272\370\363\274\354U\246;(%\271\273\316\207\321<\331Ju<P\014\031\275\251Sh<|\0212\2744k\033=\357\002\\\274\026\023!=\224h\006:j\222\222\274Q\000\227<\203N\035\275\r\n\316\274&\263b\274\240\360\242\273\010\330\001=}\342\326;G_\343\274Of\261\272M\235\356;4\t\257<\205C\214\274\\\327\006\275\257\'#=h\002\302;C\006\364\274\3026\033\275`\013 \275\3536\010\2757\276\016<\037\014\n\274\354\322\354\274\242a\031\275\001f\213\274\215\367\353<\225%\270<\341\025\005=\270N\032=x=\371<\274d\030=\002\255\347\274\314\220\337\271\026a\320\274jY\254;\335\327.<\311\353\025=u\257\010;\255M\204\272\205\213\373<R>o\274!J\271<\\\372\212<\253\027\214\274\375,\341\274\263\016\216\274v\005u\274\311\016\364\274\205\003\030<\036\373\377\274\032\272\033\275:\344\031=\240l\371<G>\021\275\310\215\036\275\356\226\t=[\365h<\221\222\317;\302\326\322;+\302\027\273\326\363\355<\317\263\245\274\307_\366<\324_\031\275H\223\341<l\262\n=\010\274\313\274\346\256\244\274\232j\302<2\230\313<\362\222\350\274\230\274P\272\255\335\036\275\245 \263;#\315\241<Rt\004:M\233\207<\234\231\017\274\316:\344\272|\344\207;/\266\026\275[\305\000=a\212\314\274\026\300\255<w`Y<Kd\036=\362#Y\274\014_\376\274\177t\312<[[\026=\335\342\025\275\343b\367<]e\034\275\323\265\265<3K!=\277\007*\273\344\357\333\274\2276\027\275\342K\363\274\301)\034\274\234Y\t=\':\025<\237\023\233;\036\255\200<\245\245\t\2758\337\303<\205\216\321\274\356\305\225<\200\300>\272\201m\020\275\206\362\337<\263\025\313<*\026\347;\217Q\026\274/l\271\274\314\356\355\274\253\232\037=P\243\032\275\264\301\236<\374m\234\274i\026\261;\024{~<\313\010\014\275\352tY\274\353\362\317<\235\237\265\274\333T\256\273\270a\031\274\357\230#\275\250a\317;\200_\355\274\251\337\226;ox:\274O\311\010<\201]\354\274\037\314I\274\332:\253\274p-\260\274\335%H\271\201\003\n=\366k\313<\241^\337\274j\261\276\274\326R5<\330\321\037=7\320\376\274\357\214\';0\241\014\274\301\326\361\273k\264\007\275\326s\376<D\037\271<:\260\213:\330#\214<1\213\006=E\004\004<\273\274\224\273c\337\222<\261\206C9hI\005\275X!\270\274(\221\t=<#\325\274\203\266\036\275\351\317&<\230!\204\274&\231\361\274w@\022<j\212\036\275\252{g\2744\003\212\274\006<\231\274lu\303\274w3\357\274h\233\006=\311\316Y\273\371!\321\274\314Q =\022\r\223\274\333\246\257;\003Z\257\274\254_\005<\347c\000\275\317C\032=<f\013\275\234>\216<W\312\366\274\270.t\274\354\227\020\275l\216,<M_ <,~\303\273Qo\224<\205\003\264<=GK\274P%\371\274\325j\243<n\362\376<\026\336\331\273\\\013\365<\347\r\330\2746\353\000\275\275\321\336\274$\270\010\275\001Ct\274uf!\275\366\302\244;\205\004\270<\311\010\351\274\305\355\242<Q\336\341;p@\314<\205\233\027\273\376\355\230\274\326\030\220<\256\"T\274p\016\250;\037\321Y<:\363R<W\345\353<?\360\035=\003\004\265<k\036\232\274r\263\250<B|\336<rm+\274y\037\347<p\271\036\275\340\204\202\274\"\303\337\274\240\211\r\275\205\213\326<\277j\226\274 .\364<\027x\344;l\317\032\275\315:@<\203\247\306<Ep\231\274\020K\200\273C\254\275<\031z\024=\304P\365<\222T\243<\326\321\234;@5\367\273\302\300\201:DM\234\274\363\002\276\274\001[\257\274\214e\233\274\236\364\341\274I6r\273\001e\307<G>\246\274Rj\307<\322\276!=\220T\017=y\206\232<1k\215<@\032=\274\211\216m\274?\207\351\273\360\2302\274w\317\336\274\264w\347<\243w\273\274\3148p\274\242\0308\2742\203W<h=\317<\333)\036=\034\230{<\262\033\016\275\'\325\370\274\243\031\010<(,\033=\314%\273<%|\340\274a%\262\274\020\375\023\275\204\333\320\274 >\330\274\212\222i<@\370\276\271D\3005;SS\017\275\320\351\336\274\356\221k;\024\363\365;\270*\030=\320;|<\317\003\342;0Y\250<\027\032\356<\2472\272\274-\362\205<\231b\303\274\23433<\254]!\275g\016Q<\317\220\300;\257x\032\275j\244\036=\366\250\004\275\345\321\277<\273\253\337\274r#?\274fK\251<\232\345\213\274\177\223S\274\225\253\216\274\314\016q<e\246F\273\221\"\254\274X\364\375\274\017\327\354;\276\307z<T\367\240<G\263\342\274\305\002\032=\360\377\231<\235@\233<\376q\372<\322i\237<\323\035\007=\245G\300<i9!=\023@\027\275\277`W\274\232X\355<\350\253\025=?#\302\274\014\244\001<\253\343!\274\334\247\275\274\313\342\024\275\235\227\207\274J\373?\2733\204\240<\371\277\312\274\371\365\236\274-W\330<K\302\025=\353U\212;QS\203<\304?\017=z9\227\274\327\001\t\275\267x!<\211\302\224<L+\306<\312p\204<<mc<r\347\t\275&\376\030<\356\255\025<\365\007p<\246\245\374\274\013\002!=\353O$=\317\332\n=PF\373\274?\207\251\274\234\3050;b\261\032\275\377\320\216\274\315\007\027\275\263A]<Z\247\257\274#\350\224<\311\326\301<\010\010\256<mG\005\275\367\231\030=`\265\215\274\353\362\224\274\370\357v\274\210.\255<7\356\320\274\336\333>\274\350H\332\274\005\031\010=\253P\257<\211\224d\272\020 S<\325\343\343<\244\303,<\255\347\227;GH\206<\203\314\305\274+\201d\273:\242o<\346\350\013=\2364\335\274\313E\010\275>\316\360\274\354\"{\273jw\224\274\363P\006\275d(\005=F\225\"=}\314\005<\242\177\005\275o\356\376\272\005\277\002<F2h\274y*)<\244\'\006\275\313\272\375<%5\005\275=pd;o\2444\274\277xM<9)\270\274\223\030\253;q?\227;fdA\273\022\324\335\274\305)l<\347\245#\275#\246R\2749\300\240\274wI\026\274?\351\263\274\200^\322<\216!\264\274\232\257\022\275\225wq\274%\212\022=\303B\214<\006\301\354<\246\351\352\274\017\034\004\275,\314\361<\177\266\247<\353\312!\275\222\003\005<\375|\316\273\232L\216\274\361\030\206<a\273\037=\017+\361\266\271\253J<\255\025\002=\010\352x\273?\030\024=\312n\241\273\3530\245\273\231\211\016\275\324\254\017=\373\204A<\306\305\030\275\353\237\030=\247\377\237\274\020\003\033=XH\267\274U\236\312<\350`\027\275\010\212\244<\035\241\023;\273m\333\274C\263\366\274H$\347:\277\264\262<-\217\206\274\270\342\036\273O\311\376\274\207pa\272iz\036\275\370\375\307<A\030\020\275\r\206\031\273\255\305\315<\306t\020\275I\014\243\274\016\355\030\275A\255\255<\231\241O\267\006\214\360<\374\177R<O\001?<5j\222<9m\"=\255\342\025\275r\000\323\274\2448\314;6=\000=n\202\r=\231\235\036\275`\341\315;e\225\244<\234\007\014\2742`\310<\312V\002=l9\301<Z2\277<\261\353\032<~/\002\275\034\\\014\274\333\014\000=\331\223\030\275\221\035\330\274B#!=\030#\372<\000e@<\204\277_<\305\rQ<\007\315\037=\225M\215\274\362\2401\274lMI\273h\346\366<K\221\334<\2523\024=`\221\244;I[\341\274$\273\000\2752\036\004<\352\332\r=%\225\262<\316BX<`!\014\275\230\270\303\274\032\350\326\274\210\017\006=\r\3466\274\311\224\270\272\353\227:\274{e\300\274\361\231\220\273%kI<\307J\'<%\000\372:y\263\353\274,\365<\274LH8<\201\335\322\274\0018\363\272\032\014\001=\212_\354;\234\"\257<\205\324\n\275\223q%\274O\302\224<\377\347B\274N\203\244\274\314\277\005=\007\217p<\352Y\010\275Vn\374\274\270\275\370\274gA\001<uu\305<y\016\262<)\261\237\273\312\305\007=\240v\007\275\3774\016\272\357\210\236<\376\0023<\205\360\364;\230\270\331<f\237\003=)?\273\274\243\312\023\273=\206\036\275\303\354\021=\320%.\274\265g\370\274A\213\217\273k\212\260\274g\212\230\274\363\017\305\274\303\357\376\273\025\2727\274\336-{<\275\r\n\275\317\361\306\270\r\332\376\274\360\237}<\207\360\030\275\323h\r\275p\212\r=\'\242\370\274#\372\017\275q\313\356;\n\251\264<\266c\310\274\022\032\"\275\027\217\332<\000D\017\275C\317\237<\237\223\032\275P\304\372\272\024r\344\274\205\236\034=<\215\251<\023C9\274\334\356\034=#k*<\215\"\376;J\275\035<\302\271\032=\234\237\207\273\221xx<\370f\2758\223)\350<R\237\017\274\315\021\212\274R\213\200\274\004\214\211\274\2063\031\274\277\254\t<=\'\033\275M\243\366\274Rq\333<I\331\321\273H,\262;0a =\036u\001\272\245\213\356<\361\261\210\274\273E\337\274\'\334\253;\322\365\003\275O\327\272;Y-Z\274f\007\347\273\254$\257<\317\254$\275p\022\250\274\365\276\004\275A?y<l\335~<M\306\001=\323t\r\275\036K\004\275oq\336<\235I-:\325m\027\275h\336\346\273\235\306\003=\315\360\235\274b\227\302<O\\\264\274\t\002\032\275$\246\260;\201{\006\275\256l\300\271\207,\352\274\230\260\016\274lM\231;\276\321\030\275H\000U<^\340\242\274\273\025D\274Ri\357\274\235\356\022=\344<\242<\201i\036=p$\314<C\t\234\274\205\300\"=\005)\017<y\215\335\273ih\216\274\205\351?;\320\354o\274\312\202\236\2742\362\016=\003f\336\274\336\n\207\274\361\221\342<\354\253);\346\213\007=@6\025\274x\334\252\274\003\031]<DP\304<\032\244\326<^H\213\274:\t\013=$j\321\274\227\225\357\274\216\rj<\205-Y\274\307\332\016\275\217\315\270<\032\350\274<\237\031\215<Z\214\327\274&\031\371\273\017n\355<\254=\034\275\247\316A\274\214h\351\273\354\002\264\2741H\237<6\247\t\272\'X\234\273\201\341\222\274\227\264\305\274\003\365\327\274\314\237\317;\362\034T<\233\253z<\266\202\377<\010Fi\273\'d\005=)\001a<\226\266\374\274\3534\006\275\211r\267<\t\222\n;\003\036\020\275d\306\321\274\320\007\324\273m\202\211\274\302\312\323<\274<\235<\233\202\021=\317\370\267\274\337>\036;r\356\221\273\321\336\036\275\314\010\033=\021-\026<\210\225\004=-k\001\275\017\201\035\273R\000\034=\006\360\005;\304\370!<Y\346#=\254\035.<\\\226\177\274s\342\003;x\253\n=\266k\030\273<\371l<\365\366G<Vk\020={2\371\274\004\035\031\274\020\200\363<\345.)\274`\004\020=E\304\311\273\023N!;\361\371\021\275\014\010\366<\344\314\r=%\332#\275#q\224;Vw\032\275\370\020\221<\310\023\007\274\321l\351\274\232\234\233<\362\3702\274\r\227P\274\031\270\263\274\034\342\270<\177\273\243\273\206\341\013=\272$\000=~dD<+\261\243\274\201\210\022=pt\324<\356\251\321;&>\265<]\322\033\275\031\020S;\2564\373<\031C\331\274d\033\234\274o/\023=\360|\002\275\t:\250\273\222\353\326<l\237\007\275;\374\014=\0220\210<M\316\260;SJG\274`\204\006\275X\251\262\274DOv;\317Y\034\275\310~\342\274\231\271\372<B\315\315<s\312\314\273\010\261\272\273N\204\254<\254^\330<4g \275m\354\271\274}\237\355<\353\223\023\274\275\267\021=\366\"\010\275L;\333\274\301\270~\273tQ\251\274\234\230\n\275\336Z\031=\272\254\234<\314\310\233<h\225\305<3\273\231\274~Z\310\273[+\250\273\333\306\244\274t\311\341\274\341\204s\274\357\035\361\274X\261\036;\221\257\253<\256\220\001\275\3149\320<i\253\313\273_\271\370\265\315\273\322<\254\0073\274\310\242\037=\017\2105\273\276\017\024\274Bn\325\273\360O\251\273J$\020<A\275&\273\260\375\t=\226$\001\275\344|\264\274\031\325\013<F[\007\273K\303\024\275i\371\352:a\002\254\274\263\274\013=a\016\231<\261{\024\275\224\000\247\274\224\346$\275\253\244\266;\223\376P\273J\203\224<\267\315\342\274H\333Z\274\327\232\006=\227\230a\274\331\363\032\275\355\331T\2710u\n\275\r\257:<\214!\214\274/Y\027\275\371oI\2735\310\321<\225v\300<\r\016\031\273@\021\030\272\305\214\231<\332=\"\275\237\273\264\274i6\277<\242\202\254;\251\246\304\274\360\227\352<\266\214\t=\003\326\314\273c\231<<\372\215\207;\025z?\274\031\0308\274!<\367<\220\022w\274\2352\311\274@w]\274\321\n\345\2749\231\002<\304<\314<F\n\016=\315Q\276\273\027\323,<}\321\006\273A\013D<!\361\r<\316\234\372<-U\226\274\337?)\274\242\301k<\210\372\210<t\033\237<\366\\F\274WW\267;PQ\034;G\267\003=Q=\037=I\227\355\273\326\335\233\274c\213Q\274G\366\004=\016\341\371;`\3762<\330;\034=\353\240\360<\376\021\275\2746H\020=-I\021\275K\372\237\274\323V\304\274\245W\020<\t\200\034\275@\356\217\274\367K\202:\306\242\361\2747f\006=\300\320\001=\323Y\265\274\001F\032\275u\333m<+z\r=\316a\244\274\2228\352\273\323r8<i\266\353;\225\347\346\274h\200\364\274s\236\205\274\t!\222\274Q\360\256\273]D\351\274\010\231\232<\265\347\000=\312\352\262<\316h\241\274\213\222W\274\000\263H\274\243\330\026\275\256\263\035=_\314\320\274\001\014\250\274\327\266\014\275\372\366\025\275!\335\373;=\267\037=e\357\235<!\017\213\274\371\267\351\274\243\277\037\275\033\317\323<\353\257\340;\237)\003\274J\252\351\274\226\345<<|\253\252<[\226\356\274\262\243\276<\213\200\316\274b}\003\275\224\234\345\274\3533\2739\256\020\027=~\361\007=\005\020\341\273\361U\260;Z.\017\275\030\232\000\275\375\243R<\376r#\274\373\366\346<\203\237\027\275$;\373\273\1771%\274\216\331\367\273\306\367\237\274\376U\356\273\327\316\311\274\377f\035\275urq;\214\307\t=d\021\342\274HG\020\272ZX\220<\\\270\010\275Tb\272<A0\255\272dR\273;\036\377\200<\246I\272\274\247\310\225;C\222\302\274<\331\346\273\270\307\320\274l\273\351\274\266\247#\274\3717\343\274\310\367\271\273\247y{\274\305>\204\274\240\025\357<\223\214\311:\272\r\236<#\000\276<$\315\224\274{\014\034=\2675\022\275t\267\250<\241\302\231<0\343\211\2742\260\251<s\370\004<\025\362\016\275\322\037\t\274\034H\255:\320tI<\25661\274\217\252\266<\306\000E;\037]\010=\0374\312<\n9\217\274\305B\212<W\243\240\273\306\263P\2735\220\312\274\026l\031;8\273\333;9\005\254<.g\301;C\010\031\2749\203 \275@;\364<\334\026\t\275\343\225i\274\316\266\300\274\303]\303\273bE\270\274\t\020\210\274\2072\300\274,\000\230\274\236Y\r;\333\344\t=\315~\2519\274b*<hb\217\274\002\226\356;\361\354\331<]A$<Dp\023\2745\302B<C\341t\274\350T\360\274\001\326L<\315l\217\274\344M\005<\322\340\035\275\245\201\313<\037\037\264\272\211\244\031<u\246\001\275\'\270\026=6\271\005\275\341O\233<9|\n\275\212\223\203\274\027\010<<\270\241\305;j\314Y\272\206B\261\274\230\001\033<\213k\202<\220\354R\274\033k\023=\031\2773<\027\324\323<\017I\225\274\203\211\316;\010g\201\274s6\024\275\025^\022=\354-\326\273?\234\260<+\033\312\274N3\215<\237\003\035\275\214\232\222\274\246$\205\2746\222\232\274\220\212\332\274W\240Q<\367\033\367\274\006/\230;\303t\036\275\000\204\020\275\376\2436\274\016%\232\274\037\230T9u\322\245<q\353\275<%\260\002=\205)0\274+\247\340\274\340\373k\274f\330\251;2\200\304<\255\300\032\275Q\200\"<P^\272\270\237\026\366;v\203\300<4\277\300\274\037\027\200<Y\"\337\274#E\270<\254\025\235\273\214\264\377<\022\310\204\274\224\367 =p\350\276<\333}\341\274\265\221\354\274tS\014\275\234\2537\274\271\2376<\222\301\016\275G\273:<\267N\340<*\357\316\274d!\220<=\250\244<y\272\016\275OI\360<\216@\335:\013\363\371\274\n\236\007=S`\224;r\307\n=\"\347\226\2745FM\274\245\'\367<\t\257F:\253#\327<(\221\020\275}Tn:\314\361\021\273\003\344\033\273\372q\250\273b\256\240<\324\021\035\275\333\271\340<\"\253\370\274m\003\254\274\337\204 \275\3074g;P\032\336\273\237\336\003\2754\020\331\273|\304\260\274\374\211\333<\223*\365\274XL]\273!\302I\274\367\0369\274q\366\377\274|\257\376;\261d?<\250\340\300\274h\340\271\274\372th\273\236sT;\217e\000\275)\177\327\274#d4\274\264\032\372<\326\367#=?P\322\274\274\356\026\275\205\206\374<)\301\"\270\267\257\010\275Dp\257<\223\001\003\275DW\214:\rv\022<.@\036=\345o\017=(\340\301\274\356b\025=k|\233:vC\334;\205X\244\274*\217\302\274\026\254n\274_v\035\273\224\215\236<,\306\031=Qg\351<\323dX\274\005\352\n\275I\234$\275\302\014\020\272\317\257\270\274\305\r\270;ZL=\274\376\215\026=\327\025\365\274\326\227\007\275Z\341\274<\353\300<<Q\005:\274r\030\037\275\253\263\236\274p\345\242\274\267\233\225<=\273\030\275\022\200\247<\030U\365<[\005\t\275n\263\006\275\312\275(<E\207\247<~\317\275\274EW <\223\2535\274V\'\033=n\354\376:>\251\350<\"^\312\274-\202\005=V\326B;o|b\274:\263\020\275\344O\344:\305\222q\272\253\275\243<G\320\271\274A\222\000=\262\301\330;~O\030\275I\212\025\275\"]\223\274~\312\024=\004\235\310\273\365#{;\316\013 =\245\272\317\274F!\033\275\321%b<\341\322\255<6\204\353;\240\034\377:\325D\360\271\307\323n\274#t\231\274\031;\020\275\201\363\006\275\206Q\256\274G-\346\272!\254\026=\334\314\230\272f\367\246<\255\343\306\272\226\032\003<\0000H\272O\222\363\274\205\204\327\274\354y\274<\3246Y:\335\211\342\273\0169\260<i\351\250\274\346\341\220;n\211\324<!?\203<\232\236\004=\324C\032;\n\241\321<jy\220\273O\212\375<\033x\215\271E\310\014=\017\235\271\274K\"\323\274\007\023\021\274g\372\271<&\356\337<\241\214\'\274\277M\"<\017\331\027<\023m\234<\343\267\207<\330t\014\275fh\n=\344\353\022\275M,\312\274Y\312?\274\227\323\301<\215\276\343;\236V\322<O\345$\275\327U\013=\007\220\007\275Y1\"\274\276\025(<O\362\237\273\302\373\366\273\274+\001;\337\'\305:\236\026\217;\250f\177\274\370V\324\274\367\334\014<w\241\022\275\r\"\316\274\3206\006\275\244\2345;\277X\375<J\366\345:\r|\365\274=\\\034=M_\276<\220\\\244<\271\323\030\275\177W]\274\0210\251\274\236h\020=\346\313?\274\335\027\217;\272\234\032\275h\221\005\275\361\225\026\275P9\322\2745\021\342\274;\334\267\274\267\035\212<;-\333\274\026=T<\206p\302\274X\360\035\275\251\222\021\275\354*\264\274F\261\017\275\36671\273&\372\"\275N\264\026\275\n\253\252\274\237v\307<x5s<p\2049\274!\266!=vg\374<\213\244<\274_\355\345\273\263\224\307<1\242\227<\305\340\003\274\342)\017\274c\213\237\274p\217\"<\307K<\274\261\036\303\274\243\n!\275\225\332\321<ER\234<g\226\373\274)\014\002=\244\220\n\275\203\365\007\275\245\254G\274&\326\217<\303Z\024\275\260\255\324<\212\325\r;g\327\337<\331\214\225\274\025\352\217\274\244\344\211<,\277\232\272\322\253\r=&\2633<\366i\214<\274\237\340\274\264\305j\2744\t\236\274YB\202<8\374\343\274\200\231H<#d\202;\263K\311\274>\304\000\275\302$Q\274E1\322\274y\373\222\274?\227\341\272M\014\233\274R\340\023\274\201\303$\275\335\034\025<\035]F\273W;\225\274\362\301\004\274\310H\022=p\003\354;\272\300\032=\235\272N;\316\000\272<Sz\237<8\372\037\275|\372\020\274\211\022\000\275\274F\214<T\303J\274 \367O<).\357\273{r\274\274t\337\025=\233.\244\273$\216\243\274\\(\022=\261\332#\275d\240\035\275a\237\261;y\025\213\274P8!=\210y\274\272\035[\221<{\215\206<\214\261P;\365\031n<\026\245\031\275\340\371\002\274x\3636<f\232\210<\036\257\316:\342\257\016\275\374h\201<a\316\253\274\341\302\017\273\272I\257<\255\\\367\274\025\354\253<\317\032\324\274LH\033\275\201|\316\274\235\363\021=\2324\"=cC\261<\305\201\334<n\365\347\274R\006\217\274\317%\275:\274\261\214\274c\020\214<\370\376\254\274\257`\325\273\252t9\274M/8\274\256\360t<\241[\237\274\305\341\006\275ej\006=\271S\374\274\307:0\274\2767\273;\307\322\367<{\263M<]R\035\274i\305F<\310e\204<\024j\313\274\2335\017\275=\022\232\274\351\002\343<h\037\221<\377\233\357\274\334\364\275\274\201\241K<\007\225\244<\000o\033=\356\277\330;\216\222\340\274;]\002\275\357\300E\274\320\345\312<\264K\306<i\206\225\273w\221\016\274\237\3613\274\311\301\237<W\334\263\272Q\257 \275\004\006e\274\244\177\336<7C\315\274\207\327\214<\217; \275\001\323!\275\301\335\222<\231M\020\275\311\000\256<\250\"A\274Kg\016=.\023\322\274\250\231\200\274\026\345\301;M \322;\362C\000=NM\323<5C#=_\262\027=\310\225\301:\330x\310\273\0201\331<\377c\206<\017\016\217\274\301\272\336\274V\326\031=\302|&\274\243\317\211<\203_\327<\240\027r\274\363\233\217<\276L\315\274\204\246\257<\317\337\032<V\362\020<\264(\000\275\251\375\201\273!P\317\2746\336\036=0I\372\274\023j\360<\234\247\376<\243W\035\275M\310W<<\025\007=&#\304<\337\226\350:\352_T:d\311\020\275W\245\264<6\013\236\274\236\272\035=\3063\345<\3267\023\275\326.\000\2750lf\274D\310\t<\\\347\234;T\003\026=Q%\214<\233\023\207\274\226\217(\274\326`\035=\313\236;<\037@b\273\274\tQ<\215\365\"=`\313\306;\326\035p\273x\023\362<|\363P:\365\235\321\273}j\275<x\334\307\274\255\007\320\274\334\224#=\350rk\274\354\030\004\275J\364\327\274n\025=;\262\275D\274`\201\251\273h\353\302\273n\353\252<x\226\215\274\320\347\267<\322v#\275\013\345\020\275\020\341\363\274\326\\\267\274M\262\204\2738\353\231\273\007}\263\274BG\033=\005\371\006\275Z1\276<Ctu\274>\370e<\221Q\033\275\022D1\274\213\310I<d:\332<}\000\r\275^\265\304<\031#\021\275\005\014e\274ZE\367<h\341\220<Y\314\250<=0\362;<\210\014\275|\030\r= \032\273:\263?\275\2741V\374<\275|\232\274b<\014\275\361\203\367\273\"d\313\273l(z<\336\266\234<jv\242;ON\025=S\203\252\273U0.\272g=\356<\223\001\257\273\tk\321\274he\304\273\004\320\311<\t\212\000=v\247\373\274\334\t\312\274ro\017\274(\306\031\274\361E\304\274:\005\350\274\263\235\346\273\206\360>\274\246\265\026\275i4\024\275\200\260u<}\373\037\275\236\300\345<\\\352\022=1H\303;\352\222\276;g\377\030\274n\277\020\274\230\373\236<v$\377\274m\213\304\273\245V\203<\357a\321<}\350;<\223\334\036\274/\266\010=\220\331?;\033\224\304\274\263\277\005<K\246F\273\214\314F<\222\264\005=\255\304\324<-v\271\273[\223\021\275\301J\261<\225\277\014=c}\267\274\024\027y<,\266:;\322\313!<Q\363$\274\311d>\274A\345:\273G*\244\274\003\255\033\2759u\327\2738x}<\212P\'\274\240b\034=OK\331\271\337\265\r=b\002\303\274\242[Y\274\026\340\336<\014\257\263<\275\204\242<\211L\325<\327\241\007\275_\277\201\274\207o\313\274<c\340<*\271\313\274\373P\324<\213\205\001\275\303\007\267<-\374\222\274\362e =`\005\236<\202(\001\275\322>\016=\265\325\013<Hs\014\275F\207\303\274\217\246\267;?\377^\273\326>\014\275\005v\357;\004\327\376<wq\336\274\204\3000<]\233\342<\343#\027\275\344\255n\274\2367\226<i!\376\274\200\"\273<\225]\024=\365bS<\314=j;\227m\232;\366B\232<\244R\270;\227C\247\274\363C\372<\360\356\371<y\233\005<\276\364C<\006\035\276\274}\304\326\274(\277\276<\241\\\354\274\232+\260<\327i\035\275\262\216?\273uh\232\274+*.\274\t\314\331\274!\337\033\275\2634W\274\203+\323<\277K`<G=\232\274\261\246~<\276\371\314<\013\241\006\275y\203X\273\010\337\301\273\344\306\341<b6s<%\\d\274Ln\014\275,\024B\274\006\032\356\273H\350\242;{\214\317\274:\021\035=\036\201\345<\334\377\001=\326\311$\275u\261\177\274#=q;\225^<\274\350ft\273\241\356\013\274\332\331\314\274lB\017=\036\265\317<\206\035\3039\2643\236\274\355\203\000=\374\254\310<\215\372\027=M\3520<\210+\230<63\272\274\274vb;\002\n\000\273\033\317\007=\300\274\210\273$\001\035\275H\331\014<\250\r\021\274^\250\026\275K\'\210\273\263\361k\273\227E\362<\364\324\203<\361&\332<\274\314\027<\010mW<;\335B<\252\220\267<=\201\355\273\032X\367:K\2731<\020\231\371<2\350\327<$\346\334\274\250\310\307\274y\247\254<MI\245\274\327q\010=\2630\246\274\212\345\006<\326\222F\274\353\002\001\274\220\267\300<f\226\255<\220\241\334\274\300c]\274\266T+<\315\207\361\273\031\351\251\274c\007\221;\023\334\256\273B\246\025<\035K\320<\027\'\007\272\227\265\320\272m?%\274L\361j\273\336\351\337\274\022N\345<q\273\214<H~\202<TEA<\211S\262\274S\326*;\313\332\215\273\304\2571<\3471\313<\354e\200\274,\207u<t\310a<<\310^\274\017\251\036\2757\377\336<\031\177\363<ug\034=\307x\037=\300\267\013\275\352b\251<\021\256\034<\332T\037\275\"X\343\272\360\235!\275\204\\\302\274\345w\345:A\206\"\275\226\003\035<}\333\267\273\360<9<\003\343k\274\017\234\264\274!\036\354<\255G\237\274g@\325<\307*\270\274\037\327\376\274\367\353\317<q{|<U.\244<\351\030_<\017\360\t\275.\214\325<\202\313\333\274\'0\003=\035\236A<\240\r\212\274\320S\205\274\314J\372\274\022\217\370\274\270\202\022\275\3416\021\275\022\265K<Q\306X8\034*\030;\202\246\275\274\257\010{<k\177\024=l\224a\274\315\256\030=\321DJ\274#\342H\274Wj\002=\030J\025\2757\201\200<\275J\347;\010\254(\274@\312\246;:\027V;0\240\271<D\021\236\273\215\307r;N\341\006\275|\205\216\274K\356\027=\307\316\032\275\341w\277<\010\322\210<\356\364\220\274\"qi<\316\325\020;\305\223\023=\222\020\256<\343\211\337;\3311$=\246\024\007\275\017@\027\274\014\364\327<\206B\303;\356M\262<\267t\014=7:\031\275G\223v<[\262\263\274P^\004=\2027G\274\204\317\230\274\367\252d<\325\033\223\274* \264\274\016j\255<-\271\276<\275k\002=\207\303\333\274\356\235\013\274B\321K<\377\302\337\274\333Ql\274\374h\013\275]\344\253<\343c3\274\223d!=\242{\253;\367\345\236;O[\2638\216\212\232\273\346\315\027<#\203\230\274\235/r<e\361\261:/\237\323\273R\007\343\2741\205\036=k\t\346\274\262Y\010=\321%\273<\006\261\203\274\036\004\244\273\232\265\266<l\204\026=\362\021\353\274_,\354\274\217\265\265\274b\002T;Gk\267<$\275\360<\303\360\223\274\267\264\001\275\227\2239\274|\336\2239\363g\310:;u\031=w\321\013\275\272*\213\274W\323\016\275\225\263\374<\245\311\207<\217%\023=*\0332\274\326\240\000\275\332\013J<\217$K;\205\214$\274N\037\270\274\026w\230\274*\013v\273\331\326\331<\213l\226;G,\210\272\323/\020=5k\223\274\377\261\320<$\2268<\377\025\347<\323QE\273.6.\274\343\377\345\274l\330\022\275\242\001\r\274FR\232\273+|z\273b\"\237<\313\350\250<\350\321(<]\260\001=4\332\025<\224\2228\274x`\035\273q\321{\274\000L\277<_\346\010\275P\252\352<UE\r\275,\3618\274\343\314\274\274\020\322\002\275\267\241\246\274R\221\326\274\2467\256<&#\221<\030\323\004=\t\260\355<tQ$\275\376\317\301<\3278\370\274\361J\r\275\370\177\021\275\341|\264\274G\371\210;-\025\357<\244\322\354;\017EM\274\216F\n=\037Th\274c\210O\274xrK<\256q\314\274\202\014\000=1\355\316<\025p\310<\374\263\261\273\330\001\277<\2233\023\275)I\003=\220\217\251;\355\222\027<\343.\242<\215p =\016\202\031\275?\201\245\274\324\034z\274W\014\203\274%\331\311\271\364\207\360\274o\002\033=8;#\274O\213u\274S\320\315<\000\230\367;(\020\315<\251\022\303<T^\0279\222\330\002=}4\312:\363\037\007=\374{\366<J\351\273<\351\211\270;8~l\274\264\264\320<~\023u\274\326\243\270\273\276\312\272<3\r\027\274\266\352\306<\3416\363<iD\265\273}\237\333\273\205I\347\273~\030\013\275.i\037=\230\245\313\274\226b\017\2751\n\375\273x \245;\371\005\267<\275\350\r\274Z\250\010=P\010\345\274\340J$=\020r\254<\024 \033=\377\257\341<\244 \362<\236\307\205\274\005\361s\274Q\003\332\274\236\2070\274\260\314\222<\020X\263\274#\265\305<\364\247\023\275aQ =\301\250\016\275\217\t\300\274\362\273\024=[\317\001\275\'\033G;XW\212\274\372\006\260<\n\321\376\273q\212\0078\312E/<\322G\374;(\375\n=\262\t\036\275;\310\037=\362i+\274\215\353\347<\325(\204<)\023\260\2736ab\274\032\371\306;\352*\363\274\004\230\003\274\224\251\255\273s\307\226\274\023\337\306<wk\021\275\002?\304\274N\177\205\273\372\2206\273\240\000\025=U\235\354<4\330\004\275\313\260\364\274\303\214\260\274\306\004y\274H\242\353;_\325\020=\201\023\204;O\273\224;\354l\004=WS\375\273\224D\003\275\273\355\270;\'\207\321\272X\302\321<\200y\037\275d\377\024\275@\177A:\255b\372\27458\372\274\\\355\247<p\203D\274\326\353\233\274\375\351\265;2\022`\274\241\"\355<#\020L<\336\232\375<\262\035\023\275\274\375\210<l\333\216\273].\333;H\2643\273\344\003@;\222<\200\274\353k\333\273`s\274\274\261\007\355\274<\037\316<\331#\302:^Q\034\275\216\026\232\274\317\372\232\274\253<\004\275\356c\340<\330l \275\347\177\305<ac\006=\240ck\273\272\035%\274\'\004\214<\226\205\212<\225\214\275\274\246\211!=\360F\261\274\354D\271\274\365&T;O\253\266<E\322P\274\033\001\017=\327Y8\274\314>\353\273\010\313\303<\345\335;<vEj<\021\260\016=\363<\300;\034\014\036\275\255\265\014=l\247^\274\251\345q\274\311\255L\274\333\034\000\275\211\241\322\273\313O\263\2742k\334\274\274e\023=\377{z\274\003\247\361\274Ye\037=\337\306\023\2757\227\r=\271\232\030\275|_\260<k\257\300\274\217\367I<&oN<\301\027\035\275DS\032<\357\363\017=\225C\263<\3007$<\264\274&;\243\315\263\274T\322m\274o6\265<#\007\302<\203\364+<i$\371\273X\366\346<}\372\"\273\222\3060\274\345\370\302<E\200\001\275\3159\344;\315\376\351<J\312\364:\000\350\027<\000\244\213<\251\260b<\030&&;\374\013\252<0y\317<\321\226~<\247N\370<\355\304\357<\316\231\036=\305\245O<^/\240<+R\024\275\021\305\300<\277\026\373<\367\034\266\272\256\301a<3\246\006\273\337\224^\273\200R$=\007o\004=\000&\033\275\t\034U<,j\255<\211j\034\275~\252!\275\032\246W<\351\316u<\304N\003\274\214[\362\274!Z]\273\2172)<\234\010\273\274b\t\3749\016\036\035\274f\202\343<A\344q;\036\0376<r(\007=1\350q\274\026\214\265\274\026\301\336<\017>\374\274~P\367<\003=$\273/\235\202\274$\366\2369\233\261\242\274\031[\335<\266\251\245;\231&\023<QD\250\273g}\n=\226\262\377<\223.\027\274k\213\016=\353Ye<\351t$=\307\000\306\274\363\017\003\275\224\237\034\275\257+$\275;P\014\274?\343\"\275\004\215\035\275qV\"=e@z<\363\227\321<=\225\201<\274|W<\r\362\320;\256\247\371\274\020\355\250;\216\212\274\274\2249\223;\326X3<v,\024=~\317\212\273\251\305\r=0q\344<rd\003\275\377\206A\274\245Z\217<\222k\331\274\213\021:\274\202F\005=\230\230S\2721\256!\273\312\306\034\275!y\017=(\264\344<\207#\254< \210/<\324\344\010=v\022\333<\345\336\210\273}\2159;\364:\n\275\213#Y<\304\234\363<\351t\377\273\317\226\211\273q\213\032<\303\022i\274\"\341\271\274\215h\353<k\375\016\271\266\003\250<m\373\317<u\177\023=<\024\354<#\361\302\274\2750\032\275\035\265\322<]t\004=\240*\254\274\210X\307;SS\223\273\3273\334;\223\341\313<v\033\342\274a`\017\275\335>\006\275\230\221\327:M\344\205\274B\"\002=\305\242\235<\03760\274!<\346\274\354\024\003\275\007\034\270\274k\277\000\274\201\n\251\273\311wo<I\241\021\275W\370.\274X\375 <\221&e\274$\226\370\274+w\347<bx\205\274\013\230\343;\'\361\206\273\352l\250<\023\274\355<\333\177\361\274B\357\341\273\346U\377<\276\347\326;cq\214;\372,\316<_<\215<\370D7\274\220\233\321\274\027g\027\274\234\0378\274\240#\257<NUz:8\357\330\273\277\335\366<\335\356\327<J\255\010=dY\302\274\345Tx\274\022S\r=>\340\342\274\tp\255\274\n\000\377\274y\360\";Bf\003\275\004)\021\275$\271\301<\353J\014\273\326\036\000=\363x0\274c\235\";\351\246\271\274.\231\004\274\240\030A<\330\260\t\2756u\212\274\377\311\210\274\033J\363\274\007\1779<\026\302\023=O \"=\n\267\013\275\266\3778\274\273\001\000\274\020\210\030\274\340\262\027=\313\220\265\274Eq\234;@\275\322<\230o\025<\006bX\2745\207\264<{V~\274\004\324\255<0\376\220<\005\002{<\241\263\302\274\310K\306<\304\302#\275~\362\362<\327\"\311\274\332\204\376;cd\305<\025.\036=VN\276<\374\204\350\274J\217\344\274i\214\024\275\366\'w<\247GZ\274\312\365\030<\321\332\223\274\213\241\022\275$\303\350<\375G\267<A\366\256<\372\304$=h\375\002<T \266\274\233\033\202<\001~\016=\007`\016=N\231\361<\247\360\202\274\226\003$\274\3137\335\274\371)\3059\356\272/;\022\035\004<\302KW<\035gT<\226\006\234<@_\321;}b\247;v\217\022\274+\314\350<\010\322\t=\337\325\343<X\230\276;\307\321\031=\320\236\272<|\'\255;\026\254\350\273\307\021\323\273\\l\257\274c\332\234<\2149\346\274Q\024\033\275\213\275D\273w&\264;3b\001=v\214T<\243\272\350\274\322\337\026\275\213=\352;\220[\017=L\353\247<\204\232\223\274<\340,\274\315\235\364<\t#\221\2746f\013<\224\366p\274\215Y\272\273F\335\n\272t\270l;{\227\245<\344\250\253<R\273\037\275\241W\013\275F\263.<W\231i<TH\234\274\231\326\025=\2405\313\274\235(\252\274\245\3545\273\201\301\375;\251\326\023<\372\"\307\274D6 =0\n\247\274\304U\351;\007\254\242<\357\305\322<\000\216\007=\240\303\217<\034>a<\322N$\275\213U\256\272\370`!\275c}\330<P\200\\\274\010z\261<e\345L<\334\252\373<\360.\001<\271\321l\273\214\302\352\274q\370\331\274\317\'\377<k\347\017:\002\250\016=\237\320\237\274\205\262\244\274QaT\274\351)\034=i6\211\274\362y\346\274\357\023}<\374VC\274\345\027,<\360\202\357\273_%\265\273\264K\234;\026\242$\275\027\316\260<\340iS\273N\031\332:|\313:\274\207\203\365\273\035\242$\275\343\241\304\273\325\013\275;[JI\274\337\"\020=8\023\003\275k*\225\274M_\364<\007}\002=\327\003j<U\253\204\274\274==<[\256\261<\273\376\005\275\214\332\333<\263D\212\274\374&\330\274\336O\315;\3713l\273s\252\211;\270\363\036=gt\321:0\373\311<*u\'<K \027\2753\351\026=A,\270<\322F\022=\205\226\270<\245R\207<\3350\341\274\232\336\377\274\203E\003\272e\234i<_\343\206<ui0<\342h\274<\361\202\377<\306\355\230<\303\220\242\273\364\243\326\274f\315\204<\200\035i\274\010\275t<]\251\237<,\253\016\272\016\247\275\274\257T\351\272\312n\306<\371\032\220;$9.\274\334\277\216\274\354\302\267<\246n\326:&\210n\2735@\326\274x\303\356\274\267\266\n=\204R\274\274\032\267\020\275\204_\276<\253m\314<\213<\306<\366\206*<\211\333\033\275B\221\007\275g1\023=\322\350\240;>\362\206\272\353\211\235\274\330TA<\020z\205<F\340\306\274Ah\007=\224]B\274\014\347N\273\216\007\024\275BS\360<\373\373\020\274@\302c\274@R\001;\323\252(\274\177u\237\273u\364\006\275\253\306\226<\375\375\210<6\336\322\272O\246\033\275aN\004=(\306\021=\275\007\243\274C\251\216<\337\350\270<\317\211\363\274\003~\272\274\372\374\377\274\252\224\321<\333ok\274FD\336\274\315\375\374<d\260\033\275\336\014\017;\'5\345<\322Q\257<\302P(<\337\254\243<\350\344\201\274\236\307\301\274\014x\351<\332\347\n=$b\244\274\233\375!\274\035S\007\275O\313\310\274!\031\006=\275\241\201\274\027e\223<w,\231;\262K\321<\356S&\274\215\211\277<\251H\262<\231\201\023\275\275\307\003\275\341E\030=\232m\036=9U\031=\004\267\035<\247x\241\274\025_\267\273^\027\025\275\234\344\r=\037`\352\274O\232\220<\032\210U<\327\226\300;~\331\016\275\342o\256\274\352B{<W3\213:\224N\036=\021\222\030=\350\366\"\275+\362\252\274\244\257\016=\253\342X<JUc\274\034/\253<\216\217\001\275\342\251\350\274\003\007\036\275-\263\270<,\362\206<\334\354\255\274\260j\004=ZnR<\264\217\037\2757\265\r\2751p\211<\214\2675\273a\022\007=t6\312\273\316\373\360;\352w\320\274FS\212<\225\342\206<\0353\356<S\355\313<\215\310\207<\242\211\320<\035\013\017\275\300\250\365<\253\220\224<6\310\014=*\320\375\274\220\366\025<\231\214\246<\354\263\306\273\310l\r\275sVD\274\324i\320<\353:#\274\261\"d;\367\225\020\275\034\322\213<#R\317\274e\2616\274+`\254\274 c0\274c\317w\274qM\277\273{U\002\275\244\345\337\274K\327\222\273\252sl<9e\362<\265\027\370\274\016_(;\nL\263:\272^{\274\347\245\202\274/ \244\274}=\273<Sn\213<\302\372\242\274\235\265\016=\264\342\275\274\227s\212\274\003\370\315\2741\301t\274\027\352\372<\204\017\367\2744/u\274\373\250x<\242\336\000\275\215H\343<\013T!<\320\261\335;#\024\306\2736\206&\274\274$\267\274*P\361\273L\r\006\274\032\375\221\274\204]x<\320\255\207<\031\371\026<\335)\034\275\260\336\337<i\375\272<D\206\027\275\313\231\301\274\004\206@<\275ZU\273\\\000\231\272\023L\336<\254\274\253<\237\367\377\273t\272\026\275\t\\\250<cT\027=\203\001\t=\\l\023=\3755\377;\220\361\013<an\347<\002%\337<c\\\t= \253 \275\252\301\300;i\245\323\274\266\276^<)kg<8\237\037\274j\241\375<\262\214\275;\377a\017\274\030\354\003\275\226\033\036\274D@\362;\220sK<\264\301\032=\2529y\274:\035\302<\260\321\263\274\021\235\\\274\336\210\025=\334\255\316<\334\037\271;\022\306~:xE\314\274\222\347\263\274\270\374\263<\346\271\206;\270\300J<\203`\342<\271\007\000=\226\226\r\275j\247\336\273\023\033\347:9\323\337\274\367\236\203<<G\016\275\\\014\353\274dy\034<\277m\221\274\261?\250\274-\264\253<Z\366\004=[\004&;\255\234\233<\037\237\025=\376(\025\275d&\302\273\210\232\316\274\313\224]<\267\251\013<r\310\350<L\267\023\275\2562W<\200k+\274\312\375T:\001\237\336\274^!7\274\303\357\r<\225Q\013\275\312\227\332\274\214\336\037\274h\276\025\275\213T\007<\307O\023<\340\335y\274\201\000$<z\243\023\275\003\317\206:O\256*<\277\235\215<\363\273$\275\3204?\2749\367\353;*\363\347<-\36489\\\201}\274|\276\244\274Y\250\305\273\247\'\352\274\0376\367\274!\357<<\255\326\014=\033y\345;\270\214\006<\201u\230\274y\227\301;\247\350!=\037\007\374;Nhr\273\243I]\274($\253\274\'v\240\273f\014Z;\221)a;\347\305v<\303\261\020\274\217+V<\254\274\254\274\212\225\326;\354\274\323\274\203\013\033=\332\240\314<\357\350\037\275=C\207;\031\235\223<\276\307\004\275$\314\225<\nr\313<\335\270\337<\024\211\262\274n\220\371<\'C\200\274\026\330\315\274h\256t\274j\326\310\274\221\031\026\275\364k\006=Mm\025\275\006J\354\273\232\355v\273\016\034U\274{E#=~\237e;Zd\024\275\210\n\231<\267\336\225<\254:+<\234\230\334<\033\254\337\270eP\267\272\354E\024=O\203J\273):\220;\334;\320<\236\316\r=0/\310<\350\367Y\273PJ\301\273\322\227\211<\234\257\375\274\351\246\032\275\"\260\342:U\017\356<i\366#=4\266\002=\251\2568;\233i\n=e\214\025\275\304\271\213<\3757\036=3\377\204\274,\366\244\274?[\265\274\260\"\366\274\270\013\211\274\301)\335\274\252b\032\274\355\026\t=r\242H:\252Z\337<`\236\245\274\212\244\270\273\303t\314;7\363\347<\032\355\206\273@r\370<\373\304\033=N\203 ;\260F\'\274\024v\330\274\231\024\023=\315\265\312\274\262v5;\203\217\215\274\246?5\274[\255\222:H>\312\274Q\233\310;\364\037 \275\003\322Q\274$\'\356;\"\263\327\274\302(\334<\214\r$<\"\345!=\002t\336<\276\342v<\234\307\017\275\235\004.:-\320\335<o\350\342\274\307\325\351\273\2120\027\2758\377\033\275\361\337\245\274\340*,<.c\021\275\377}#=!\036\374:\310\361&<c\021\034=,Et\274\026\223 \275\274\354\306;\n\262\305<\241\212\264\274R|\346</\017\317<\010\250\212\274fi9\274\254H\314\273$>C<\366\315\272:)\346!\275\271\371\311\274\002\301\323<\244\031K\2744\206\030<e\244)\274P\033\355<\010\034\005<\201J0<\347]\t\275\030)#\274\0047\345<\231\257\362<\337L\021=il#\275\200~\275\273\215{\241<\361\031\013=\002X\316\274\\\255\356\274\207K!\275\374\211\033\275\251\260q\274\010\223\365<w\220\036\275L\336\260;\233\\\025\274\306\232\031=\245\264\271\273\001\'\377<\320\310\311<\333\240\247\274\340\350\272\274\203\013\026\274\377\215\037\274\312\263M\272\2111\032\275\257R =%?\207\274L\207\226<\344\363R;+[\313<\333-\272<j\225\372<q\303\311:\234u\337\274\235E\"\2754qH\274\207\320\245\274\205k\352<\013j\016\275\252/\347\273S\006\351\274~a\305<\240D\241<xk\177<\372[*\273\334\210\304\274\320\'\370\274\264r\"=s6\025=A\360W\274\257\020B;\010l\211\272R\242\"<\000\347\237<\333E\024\273\225\355\370<8\310\374\273\322\235\035\275\341i\001=\rC\360\274\301\307\221<\036\327\213\274\2450\342\274\303\346\334\273D\354\375<\302\373\022=\177D\315\274,\333\310\2742\034 \275\321S\203\274\260\311!=\217\230\031\275\"t \275\326\346\341<}\315\317<\025n\272\273\272\3254\2743Qa\274\360\375\314\273d}#<\020\367\336<\210\217\205<\224\236\322\274P\213\311\274\351\335\232\274\370\322\310\274\222b\361\274\261\202!\274`\233\252<,\030\345<\257-\247\274\246\366-<\266\303\334;5\307\343<>\254\024\275\2352\206\271\236\275\340<X\373\004\275h\325\357\274\372\246\n=\204\367\021=\373\352&<R\361\343<@5\313\274~\273\217<\034%\271<\302\211\214<\336n!\275\301\311\325\274\321\035\307\274\350D\337<\262\351\3669\250e\271\274\031\362\336<\357d\351\273\300\276\215\274\004\325;<Vi\307\274\341\010!\275\363\236\216<;\350n\273\200\275\034=\026F\023<f\352\006<\216\312\004=\013x\353\2744\302\266<\317\247\325\274\001\241\316\274l\354\377\274\235\014\200\274\303$b\272G\000\325<\035\326\217\273\001>M<Rc\t\275\345\223\033\275\355{\316<T\212\356<\206Z\013=U\337\307<i\267\364<\036D9\274\365\024\270\274v>\322\274h\225\005\275\275j\020=\377\000\252<\265G\223\274\364\315\270<PV\n<\301\233\200\274\354L\030=\344_ <\333\037\016\272\302)\"=a\337\364\274>\022\017=\232si\273\305\216#\275\014B\227\274b\213\021\275\262}\216<\310\353@\273\000\355\n\275w\226\300;-i\034<\200\203\237\273\2335\244<\342\255\336;\000j\377<\244o\271<\251\335\007=\036\211^<PC\016=d%\324\274\273\272\346<\003\220 \275i\317l\274B:\342\272W~\313;\366\200<\273w\t\204:\377\356\343<(\026\202<,4:<r\004\364<\230\340\264;o\232\360<G5\026\275\331]\035\275\235}e\274\275\366\377\274\021y\234<\320\242*<\332\007\341<\031s\373\274_,\274\273\313%!=\364\004\260<\027\363\267<`\001\250<\353\"\255<\253\323\306\274\020\317\035\274\312\214\241\274\"\313;\274&h\231<G;\333\274L}\003\273\262D\321\274m\3418\274\355\342\034\275\0251\276<\352\356\013\275\335<(<\341\235\347<\200\226\003\275\266\255\021\2750\n\364\274\274G\030\275\212f\036=\217\230Z\274\200\315\036=:u\002;\301\335\231\274\252\223\261<\275\300(\274\226\340\004=\216\370\016<\360M\346<X\256\236\2745\247s<\010\353\337<o$m\274\002xF\272sy\264<W\3500\273\\\230Q\273(r\234\272\026\322?\274\357\337\025\275\220e\234<N\201\273<\262)\322<\032\247\017=\231\325Y\274(\244\354\274\'\344\010=G\303\365\273~\331\013\274\340o\256\274\227\366\t=\237\230\372<\003\222\242<c\\\007\275X\347\376\274\260\237\005\275p\332\234<\016\227\234:\t\210*;Y\211\375<}\227\225\274\350\267\007\275\327|\306<\301\356\016=\021\207\202<\303\365T\271Z\204\006=\224\202\020=\350<\311\273\234\321J<3\363\004\275tN \275\223\026\350\274\252\367\016=pu\001=\356 \236;e\313\010=\303I\026\275\242\222\333\274\305\372i\274Q\367\034\275\",\225\274xU\030=eD\027=\350\202a<,.\025\275\322\315\256<4\270\325<\255-\006\275\361Q\360<\322\036\311\274\037:\003\275>\3555\273\014\247\217<\351(\000<\253\352\310;\230\202\204;\315\355\251\274\250\001\350\273ra\244\274%7q<\325\231\220<\031\362\010\274\376\262`;\277i\340:Z\220\224\274\253\342\016<]\002\r\274\317n8<\370\031\244\274\250\206\013=S\032\330\274@\247[\273\236\372\211;\0360\360\274\262\037#=\027\335\004=9E\217\274\365k6<\3431\034=\221,[;@s\222\274I\216\365<\342\274u<\251\333\335\272\306b\000\275r\277\016=1\020C\274\366jf<\266\246\246\274\225\304\034=,q\200\273\001=9\274\021& <\236I#\2752\346h\274\016~4\274\200p!=\360\201\327<\3437\021\274\220\014\333\274\026\033\371\273\224\233\235\2746G\343\272\366u\016\274\254\017\211<\023|\311\273yy\270<\314\355\036=\371\351\216\274\231\002\n=\025R\000=!\350$=3\345\\\273#\236\335\274\326\036(;\000\224\035=\007\312\005=\026\233\000\275\356.J\274(\205\357\274\002Y\200\273\006\336\026\275\003g\315<\374\270\330;\200\331\213<g\257\030\275W\320\270\274K\006\037\275\004\265\343;M#\244\274\377\\\037=a\256\007=\035>\322\273\365\237\354\274\335c\270\274\177>\317<\311\027\327\274\312.n<\303\250\306<\377#\005\275\310M\223\274\362\254\352:KZ\001\275\255\216\247<a\233T;\357\226\2679\341\352\023\275\245\241#\275\275\330\317\274!H\025\275\004\246l<_\002\201<\216\214\362\274\035>\326\274Ga\252\274J@#=\206\265\027=G\346\032=I\031\270\272rU\207\274\276N\355;\255:\310\274\024\003\355<\321\217\374\274\272\305\255\274\356N\321<\270\244w\274\010\334\274<\374R\232<\022\254\210\274\250\356\344<\371\373\270\274rt\330\274x\244\331<\037\226\306<\016\227\354<\314\024 \275i\352\316<dF\330<\345\177\220\274\036\376\027\274\003\207\023=Kz\036=\316!\030\275\016\201J<\224\270\277\271\022\353\206<G\345\021;\336\213\024\275d\010\367<\205n\024=n\030\266\274I#\014\275\303\321\265<\231\314\177<\226\007\233\273\335\300\177\273\016\343\220\270\034\006\013\2741F\366<\202K\251\273d\270\034\275\036\205\231<z\350i\274B1\273;\324w\366:\345\252\236<!\001e\274\346\337y\274\262\335\341\274\346z\362<\263\327\246<\005\342#=s\257\200<Y\014\006=6\250\244\274 \214\327<{8y\274\235\202u<\245xl\274I\025\357\274?\342\313\274k\255\010\275\227a\024=\210\304\037<Nu\343:%>\002<F?\360\274\023\265\357\274V\371\253\273:0t\273\256e+<9R \275 \372\346<\360\223\260\273\021\304\006\275\026\334\022=l\302\252\274M \032=\342\372%\274\362\327\371\274w\006\2449`\030\235\272\220\203\325\274\036 \021=\347\221\215\274o\265\375;\"\250*\274*#\006;<\211\305\273\034\227\006\275\315\207e<\240\360\026=X\347\217\274\026\235r\274\003\024\367<lo\353<\320\311~<\203\341\336\274/\275=\274\366f\021;\247\254\177<\220H\206<\302`\236\274I[\024=%\237F\274\203)c\273\014s\316<\363\246\201<\037G\000=\326:3\274\177\306\001\275,\214\350\274\245\022\312\273\230\036\006=\327\002\017\275\345M\027=\007)#=\362X\331\274\003\373\n\275\002\2577\273n\206\304<b+\343\274\201\226i<\364\352\333<\027<\n:\337\010#\275\351;\016;\014L\315\274$\203\315<\336\2103<LD\221<\354\002\204\2741\241\026=g\336\n\275\344\230\246\274\303\265\271\273\240\027Q\273\371\010\022=\373\206\002<\005\211\251;\331\365\032=X\357\335<\366O\271\274\2200\342\274\253\247\005\275VMH<\032\354\016;Wc\376\274\030\035\357<Q\231\271<\362Bz\274\377\254\014=L\013\005=\rj\226;2\217\227\274\255g\222<A\"\034\272\023\022\356:\365I\305;\211\033\276\274}\330\234\274\356P$\275\'\325\206\274%k\201\271\221\342\002\275\235\350\020\2745\365\016\275\223\334\230\274aU <h\372\016=\313v\331\273\320u\303<S\342\251\274\326I\333\272\317\314\030\275\306\277`\272+\'\216<K\177\230<\223 \013\275_(\025\275O\367\346<7\375\t\275\204\n\022=\364\2062<\240\331\026\275Nt\365\274VT\337<3\3044<\256\263\270\274c5\354\274rJ\006\275\277\340\t\275\350\t\322<O\240/\274\014\2249;ZX\302\273\315\272\013\275\257\026\312<\210Va\274\002y\007\275\3251\247:?\372\014\275~\010\317\274\304}\234<^\236\252<>\260\337;\265\303\002=\237J\304<\t\346\217\273R/\\;\305\216z\274rA\302\273\336\324\334<\006\202\006=\036\227\346<\020Q\301:\177\363\340;*\206\023\275\023f\277\273\002\373\304<\024\271M<\305D\026=\324\356\205\273vn\355<3\351i<8\242\263\274\372H\017=\317c\221\274\272\206\025=\201?\305\274\225\022\357<S\236Q\274\370^\355\274\315k\033=F\223\305\274\375k\232\274\3101\322;\376s\366\273\243s\371<\310\325\240\274&J\271<\177Z\316<93\357\274\200z\204\274\335M\017=$\224$\275\221\245\372<\274\260\217\273z>C\273\022*j;\274\360\305;9.\"=\236\264\242<:v\250\272\302\000&<;P=\274\216\355\356\273\034\325\003=Z\266U:\376l\346<l\320\257\274\345=\325\273\266r8<2\001\360\274\232\204\030\275\351\246\366<\312}\027<L\005\263\274\277\027\313\274\337aa<\223\354\354\274\333\262\321<H\364\334;]\207\'\273k\\#\275?\346\r\275_\221\342\273=\267\330\272\370!\364\274\347Q\021<i\177V\273\336c\023\275\347\016\346;\275\356\032=\314]%<\341\311\357<t\307\n<\3504\022=\022\246%;Z@\215\274\372\014F<lI\362\274\213U\313\273\365}\221\273\256dY<$5\017\275\022\3516;(7\204\274$\001\236\274=$\323<\213N\010=&e\255<\022\377\323\274\231\357\022\275\005\321\027=\236\277\223\274y\t\007=\266\346\327<\2201\255\274F\215\357:\376\337\222\274_\276\364<\343r\007\275\n\363\274\274\331=v\274cB\000=\\\351\355;\314\022\335<+\320\004=\350C\303\274w\023@\274\317\216\234\274X(\n\275\337\321]\274\310\314\301<\2302\261\274\246\037\255<\000o.\273\350\312#\275\032\300N\273H\214\036=\367A\325<<\207\340<\007\265\257\274+=\"\275N\353\235<\253\311\220\2744\217C\274\353\027\017\275\023hO\274\316\314\364<\251\255\355\274cg\271<+\262\213;\255\240\017=|)\252<\0370\274\274\022\323\000\275\241\311\'<k\220n\274\261\373\337\273\250k\001\273y\010\023=\2675$=A7\024\275\003\270\335<:\246\021=\257\201d\274\334=\265:\246\337\275\274\334\010\355\274\232\327\317\274\335}\375\2748\301\352;D}t\273%c\217;\352\272\000\275\371\022\347;\002\037\211\274_\327\"<aC\324<Qz\304<C\253\010\275\004\270\036\275\243\351\021\2757\267\365\274\210\232\013\274\325\326\240\274\2346}\273;\346\272;\'\006\004=\372\256\260;\374C\315<R[\240\274\211\271\343\274@\200\351;q\336\242\274\325\340+<\272\261%<\273\377\022\274=\253\376;\354 N\274h\033\"\275\274\'\367\274\\e\225;pLw\274\204%\376<F\361\347\273\232\272\032\275\264\021\377\271\035\260\324\274\246\300\217<\331\332\300\274\030u=\274./\007:\377\311\204:\321\235\021=~\377\274\274\337\275\252\274w\363\351\272X\007\004\275I\236\031\275\235\226\007\274D\2458<\244\r\277\273\262?\225\273\"3Z\274\262P#\275u\026\300:\221\027\330\274^\343\036=\323\035\023\275\307\321\222\273\375b\026=\220\335-\274\247\206w<\336\025\371\274\272\343\032\275\323\006(<)\014\302\274\220\201\252\274(=\301\274\231~\005\275\022O\206<a\202\371\273\332\031\r\275\325\230\\\274S\361\373;Xq\037=\037\344\322\274\024\372\320<\205\232\214<~H\333:\264\274\026\275\336\235\000\273Dr\361\273\236\035\214\274\231\027\"\275\035\317\310;\251\217\214<9\355\227:\005\274\270\272X\026S<\350~G\274?\036\033=dk\274\274KeC\274\220p\207\273\207\006\037=g= \273\022\203\313\274\r\223\337;5\371\337;4f\027\274\243$\244\274\217>><d\345\035\275%\000K\272\365\227\022\275IA\t\275\361Y\303\273\327\026\321\273_\350!\275\014\302\304<\026g\006\275\347\273\371\273\242\221\205<P\355)\273\0316\303\274\210\301\267\274\372r\024=\342v\"=\346\207 =6*\343\273H\t\014\275\034vA<\237\234\2559\210\004\307\274\250u\346\274\371F\267\274\237\264\377\274\"\356X\273\331\210\"<\341\016\346\274q\341\313\274\217\014\330\2742H\332\274dm\307\274O\'\035\275\347\272\334\274\200\223v\274\225\013\036\275\343F\213<l\026\002=\336\241\256<\222\013\030=\274\"d\273\240K\303<I\007a\2740K\330<\377j\217\274Y\000\370:\356\327S\2733\315\026\274\267\nJ;vSm<\377#\264<\005\215\231<\217$\327\274%\335\363;<\324\316\272\226h\273<$=\037\275\030q!<\225\3165\273I6\227\274\313\304\370\273X7\215<\316L\276\273\024I\037=\023$B;\272\247\005=g\362}:@Rc<\035\222\001<\345{\213\274\213\0241\274\317\301\027=e*\336\273w\352\226;\221\373\211<\t[\301\274\002R\036=\312y\035=\027)\335;m\353\027=N\256\271;\000\353\326\274/\313\006\275\325Gp\274b\321\337\272\026<\250\274\003\037\033\275\2551\277;u\034\032=q\370\003\273`\270\221<#\352\310<\252|c<\214\331:<x\021\352\270&\243\326;\2168\025<2\347y\274pHi;\270\241]<\326R\r=u4\306\274\302&\234<\376\204\374\274\243\360\235\274\306\026\345<\007c\252<\2314\241<\023\311\216\274\202\023\014\275k\216\002\273\362\200\236< \310\034\275u\230\343<\200\372\002\275 x\371\274`u\351<\234\324\245\274\002\264N\274#\205\027\275\237\022F\274K\021\353\273jo\322\274\204A\004\274\363[x<k\375\375<^z/<\370^\356\274\341\232c\273\244\006\026=_|\001\275m\242\005<E\335\227\274F\333!\275\267\252\310;\271\217\323\274_;\243<e1K;\224\007A<\204*&\274\210\217\357<\233\r\356<:\245\000\275v\264\':\3327\031\275\334~\240\272o\323\007\275\310p\r\275\355gL\274\315/l<\277\301\234\272]\202\276<\365W\013\275uA(<\3546X<\001\224m<q\205\n\275\337W\331<L\265\037=\371\376\234\274O\022\005\275j\021\002\275\255\303\216;O\002\031\275\027\272\323<H7\017\275\031\223\227</\302\327\273\003u\035=\275\253\373\274\\\265\340\274 ,\222<m\025\336<\035\221\276<\020\202\035\274\2023\217\274\377\024\013=\315\016\202<\017{,<\3037\332<\237\031\353<\345>\034=I\365\336;7\345\351\273k4$\274c\231\002=\232\240\252<\353\344\362\274\267\232$\274\254\267\036\275\312\314\303\274C\336\021<(TD<\333JO\274\010m\031\275\267\277\211<\240m|<9=\365<\251\255\276\2745j\276\274\270\357\003\2734dB\274S\031\263\273\304\263\323<@_\312<1\337\026=\2012r\273\035[\263\274\020\355\361<\020R\000\275\340\234\324\274\306~E<\200\251\216<\005\247\026=F\304 =+\016\036\2752\342\321\273\177\354T<2\277#\275D\260\007\275e\313\212\273r\342\021=\0356\t=h\243\320<\267\374\001\275\201v\222<j\316\350<\n\342\013=x \342\274D\275\252<\207\334w\274\020\355F\274\241I\010\274\341[\341\273[\354N;\201\335C<\323\031\374\273\030\300\033\274\316\231Z<;\177\031=\354ht\274\200\311\254\274\025\314\024=\242\032/\272\232\325b<\342\034\005\275(a1\274q5\024=\301\310\314;\3574\327\274\206`\266\274C\304\273;r\275];\310\265\026\275F\202$=\014n\r\275q\014\221:\346Y\240\273\367\210z\274\017!\003\274\224_\241<\324\275M\2742\331\022\271\326/\252\273\235\356\204\274\006\005\026=t~\372;s\3372\274\033\341\303\274\267\010]\273:\336\330\274\343(x<\014\r\330;\253r\343\274\202\377\301<_\312\003=2\r=\274\'\273\"=r\370\236\273\005:\201<\365$ =\237\013\373\274(\323\272:\310\035\302\274\n\334\216;\322\030\031=]4\365;\256\006\302\274\254N\200<\255\336\253\274\r\333\263<\1772S\274\266\202\216\274\334/K<Z\3524<t6\324<\371\326\031=TP\220\273\023\266\203<\376a\367;\021\305>\274K\305\210<\356\251\341<\266F\311\274\307\373\032\274\314H\t\275\302\357\335\274,-\004=\003\n\242\273T`\252<\3676\2769\23225<\2221\207<\001\007$=\016\"I\274\221\017~\2746\322\241<\347\263\365<`%\230<\346\\\017=\3009\342\274\253\363\236<\315o\030\275*\360 \2751\236\214;y\264\377<\257J-;e\210\032=\325\216\357\274\300\235\003<qT\027=\340n}:N\005\024=\276\252\301<\2525\n\275@p\032\274\014\377t<\230~\232<\'*\264\274\001\023\245\274\325\201&<\270G\253<9\377^<\316\264\315<I\2122<LC\320\273\014t\346;\331\005\372;0\030v<:\032\364<\260\350\002<\236\233g\273\264\347\267<\230\022\276<\336\353\234\274\222ve<\177Nj\274\200\367\001\275\007Ur<\346Z\212\274\224\222\"=\355Y\263\274\301\203\014\275\037\340\027\273\343l\344\274\006\r\311<\370\324\331</\271\220\273\320\rc\273s\206\002\275\240F\025\273\242\000\203<\241?\264<\323\211\231\274x\222\352\274\217l\277\274\362\223\003\275y\260I\273\3036\031\273\022,N<i[\242;qp\226\273\323I2<\240X\r=*\263\375\273\213\230\212\274p\313\272<\'\020\253<4h\327\273\313\023\014\275\341\341\035=)\t\034\275\344H\333\274\245Z\322<\336\3058<\t\377\220<\231W\264\273\231\202\017=\\\250C\273H\330\001<\270\344\224\274\344\335\371\274\246\303\020=\310\373\035\275cQ\006=\206%\030\275\351\217\037\274\247+\323<\014H\264;\r\205\254<>(\271<7\214\255;\323\340T\274\371\261\013\273\312Nq<\032\221\014\272\024\261\010=\007?d<o\0224<\365\214\320<HG\334\272$u\005\275\215\177@;8\224\036\275cT\300;W\304\330\274\340\312\312<\316m\242\274Y\243\204\274\377\357T\274~\235\r\275t#\241<\270J\031\275r\372\005\275\272,)<)\030V<\237\317\023=\205$\367\274m$\215;\366X\252<\230\335\336\273\227\270\316<6\252\016\273\'\206\267<\320\243\033=}\347\'\274\200\371\002\275\341\'\311\274:\356\352\272\2246\255\274\277\013\356\273\010B\036<\350\244\340<\243\376\014\275\345\245\354\274\214\355\356<\264:\002\274\004S(<x\333\007=\246\375l\274\365\360D<\344\244q\273\2750}\273\n.\177\274\366\033\001=nJ\213<\203\315\026\275\306;\356<\240\273\004<\254s\327\274S|\343\274I^\237<\226\327\017<\032A\376\274\356\244\233\274|C5\274\031\232\311<\264\234n<n\220\004\275n\226\007;\235\326\235\274p\303\357\274\023/\213\274E\352,\274\273\021\026\275\224u\317<$\031\024\274M\232\2149Df\024\272\234q\026<\013P\031=\032\301\250\273B\275\314\274B\372\265\274#a\000\2758\241\311\274\177\245\036=9(8<\214k!\274x\2115\274\323\025\266<\262\301\337<\t\327\010=\270k\346\274.v\371\274q,><\0355\032=\256P\357;\346\236\177<\375\035\330\273\322\2557\274\\\252\004=\347\250q\274\274C\344<?w\243<W\311W<\036\324\014\2754ON<\323\270\347<\261MM\273s6l<\252\313\275\274\212`\301<?\027\221\274\277\005.\274\274?\323<\337hD;\334\254>\273k\033\t=\244S\232\273\344\300\240\274\334\022\306;6F\331<\322\314\224</\364\313<\270\276\n\275\326\341\325<\346\342\215\273\224y\332;W0\226<\231\363\304\267\001U\034=3\262\002=\365O\021<sP\332\274\301le\274\243\231\235\274\347\277.;\330\277\032\275}\266\"\275\306\032V;<Z\302\274\346\262\334<\027\025\r\275\264r\025=\200_\304\274o\376\n=\224o\333\274\3333\224\274\205h\025\275\344\304\037\274\220\203\267<\212\231\310\274\235\277\237;\267w\215\274\002\310\327<\276o\263:L\340U\273\335R\373\272\217y\036=\177j\230\274\277b\014\275\217\035\235\274\035\273^;\236\033\t=\305\002\020\275\233%\003\275\265\0056\274\255\312\234:c31\273\241\324\322\273\n\"F\274\222\254\352;\232Bp<\322\264<\273b\006\300\274HG\3569\364T\277\274\370q$\275W\353#=\354\215o<[2\355<\223\033\013<\010\010\006\275\372\254\034=\244$\220\274\251m=\274!p\312\274\033\222\312\274\371\301U\2745\022\370\274f\023G\274\327\241\257\274\265\3261<>m\351\274@\345\001\275\315\222\252\274\257U\213\274I\323\232<c\313\237<>\301\201\274\342\005\000\275:\007\t\275D\360\003<\271\352\277\274\320MA\272\262\341\352<i\344\026\274\267_\331\273Re\240<\022]\300;\030\377\335<\247\217\030=\240vN\274[\014\364\274\006#\207\273J]#<\322G@\273\223\"w\274\000\220b\274M\314\363<\344\031\210<Wc\377\274]\255!=[\317\021=y,\217<k\264\363\274`K\263\273_\361\377\274\213\355\032\275x\373\001=\016\006I<\016\341!\275\370\305\203<\213\213\370<\020\356\035\275[\032\244<\360U\207<l\202\200\274n\247$\275z\332C\273\2416\222;s>\001<I\030K<[\'\213\273\224V\265<C\354\350<\361\332\305<\332\202\355<\215\n\314<\225l_\274\317\236)\274$\0170<3\n\237\273\224\326\313\274\201\315t<\323t\016\275BY\335<\373\3516<|Fk\274\037\264\305\273\243\344\303<\346%\363<\000O\301;*nR\274\205T\344;\014\314\310\274\274\361\233\274\211\030\r=_Wo;\346\255\362<\0043\245;\377~\r=EQ\210\274zh\027\275fxC\274W\201\316<\213\224\n\275\273\020\350<\241\253\000\275L\364\004=\247!\316\274\222\367\030\275\234%\375\274\340$K\274R\020 =\202 \321\274ZG\326<\372q\214<\207\223K;\035[\002;)\214 =\030\272\313<\252)x\274\360\"\031=\366\224\250\273\217\016\254<\023\322\n<\365\355\215\274\327\333\316\274\272\245\362;\027\212$\275(\256\227\274\237\320\243<SK\022=\264\203\230<\3020g\274\002\230\263<\254m\276\272\"D\026\275\240\025\311<+\341j<\261\304Q\274v\363E\2718\266\210<\215\005\201:\341\337\255;N\230\203\274\346\243\345\273\261Z\243:\201/\334\274|oG<\377\237o\274\312Qo\274u\221h\274NC\037\275\250\033G;(\354\025\275\323\374\n\274\333K\001;U#5\274\330\220\357<\221\363\317:>\030\244\274\242$\004==\371\312\273\234\033\357<#p\013=\226\021,<vI\313\274f\357 =\003\007\024=f\252\3469N\014{<V\357\341\274\032k\272<\351\021\002\275\274U\007<\333\325\351;%Y\356\273\025k =z\311/<\254Y\030=7;\212\273\372-\271\273\325\334\271<\317\224\205<\324\367\217<G\031\254<\337Y\247<\331\014\215<W6\273\274}\230\266;d\037\316<\210K\222<.\036\204\274\225t\336\273\023\232\232<\013y<\274h\351\032<\263\264\226\273\335\226E;\313\001\3678\304\227\005\275%Cm;Y\255\024<\275\260\270<\374j\367\274\242bv;\367\300\211\271\037A\037;\212\254\225\274o2\262<\321\312P<\006\215\006=\026\000\031=\274\375\306\270k\371\263;\336?\323;Xq\016\275\233h\312\273X\247(;Y?F\272U\"\351\274U\301\330<\217\316\372\274)\016\027=\002\364\331\273\033\267\367<\302\311\004\275e\3706\274=\231\001\273\345j\210;\340\021\230<\325\025\305<r~ \275~\004\031\275\246\220\202<\266@\244<9\256\206<\023\356\016=\337\n\256\2744\035\251<+L#=T\231\035=\337\342\017=pZ\003=\3314\033=\263)\273;\021\211\354<\007\270\305\274,\323\263\271\2112\333;R\370\340:\217I\330\273>Q\210\274;g\251\274\312\275\374<\224s\025=:j\273:\004\330\213\2743Q\360;w\037\251<\204\271\317\274G\036\000\275\214\024\007\274!X\326\274c,\364\274\336&\030\275\036H\366<;Q\003=\202\301F\274C\020\t=kY\033=\215\355g\273\265\344O\274\373\350\257\274j\013\211<\234\343\310<2\376\223\273\242\360\316\274\370x_<@n\270:\222<\220<#a\005=\013\327\213;UNb\274=\031\031<pA=\274\007\340\271\274\273~\311;\310\255\375<3\375+\273\243\006\275<P\232\323\274\241\337\013=\"\370s\274\016\243\020=\210\357\026=p\247\017=\241\2267\274\216\216\272\274\t{\353<\262\025\022=A\362\310\274\302C\201:\353\254\213\274\024\367\376\272\333G`\272\246\312W\274u\001\355:\211\312\277;\2148\022=\302 \333<iAc\274\365<\247<\316y\036=\307\344\002\275\361\013(;\023\323\332\274s\367\275\274)\'!<\225\2579\273\034a\255<\245\275\t\275\256\033\240\2748\024h\274\243\271\265\271\266A=\274\325\023\262\274\354\327j<c\306\030;\362\035\203<\303P\025=\335A}<x\344\004\275\210o\031=\003\362\307<\323\330\000\274l%\362<=\302\223\273\275\335\263\272.\235\021\275W\375\033=\214\341\312\273RU\264<-vz<\361\031\002\275?\t\031\275\002Lj\274\334Uv<\331\211\006\275\035m\376\273\367h\316\274;\223\035=\002l\302<\371\022\354\274\215\025\021\275\024\330f\274\333\232\036\275K2\010\275\364\264\010\273\321f\023\274O\336\374<\370\242\034=\3746\375\273\321\366A\274\231\311D\273\267!\343<\375L\337<:[\260\274\031\310\326\274\014\365z\274\177C\000=\244\320\312\270\325\364D\274\371\204\325<\377\206\270\273\201\353P\274\260?\374\274\026\2003\272D8\356\274\255\025\201\2724\203\255<\177J\3459\272U\024\275r\317\223;~R\225<,\003\277\273\232\354^<3\324\025=M\036\032=\264\260\003=\223\303\035\275\332\237\030=)k\035=\315\333\025\274\326k\243;\'O\330\274|\013m;\354\314\360<\267+\261\274\302\231$=E\343[<\324\227\016<\346,\017=\007\305Z\2735f\007=i\231\347\273\343\236\336<\336\177\266<uW\242\274\177[\221\271k@\223<\316a\t\275\022v\377\271\241\023\024\275\231\t\013\275d5\000=\323\010\251\274)b\263\274\300\310\220</\312\353<\275b\301<\224\227\276<\255\021\022=\204\227\010\275\035\253\010\275o\242\320<\303\304\345\274\261\311\371;\2418O\274\214f\367<\247Ri<\240\2303\273\r\346z;\245y\257\274\305;\377<\3023\013\274=\313\270<V\002\240;\371\332,\274\376W\253\274%\\\330\274\225c\033\275\256\236\024\275,^\301<sq\333\274\026\303c\274pAf\274\261\'L<\321\2465\273\304+\372<\026\3228<\010>\034\27589\006=\365\306\341<9Z\023\274\222\227\026\275]\360\363\274\204\225\022=P\251\016\275\353\030\351<\033\315\305<Zm\031=\004\001\037<\031\373\031=%\304\250\274\213N\306<\r{z\274KG\300\274\246\301\303\274\255C\013=\343\255\037<\217S3\272\025\210\321<\031N\207\274\340\364\273\274R\337\026=\027S\362:\260\301\336<(\354\205<$}R\272\262\242\006\273[\210\370\274w\035\\:\243\215\326;\313\311\236<\010D!\275\'Vy\274%\355\252\274U\'+;\373\336$=\260\222\n\275Q\r\312\272\177\"\275<\211*\325<(g\302\274\320\244\327\274\376\227\036\275\026_\211\274\366\306\035=\n\224\320<F\002\337\273@\302\345<S\323\006\275Z\244\210<wb\361\274\372i\020\274\340r\035=\240\032-<\020\331&<Q\307\245<\205\t\200<z\353\004\275\374\310\357\274\301\277\271\273\232\033\240:\303\225\200\274\3331\216\274&\373\365\273p\327d\274\2305\013\272\003\367\233\272\336\300\245<\202\342\342<\262\272d\274/\210\031\274e\315\247;He(\273\300j\213\274\270\317T\274\202\314\354\274\234\214-;\224\241\236\274\025\t\227<w\n\r\275G\277\321<r\267\024=\211\217\n<\343\026\232\274\222\325\343\274\201\213\025<w\"\"\274\227?7<z\\\025\274F\255\267\274z\227\247;\2159\202\274$\255\200<\267\344\223\273\357cm\274@\262\362<\241\301\034\273\363\320i\274z\256\250\273\343m\202<O\206\305<X\206~\274\310\300\300\274t\236\227\274\242=\336<\247\367\\\274\301`-;\233\250\347<\243\\\211\274?\241\336\273\210\307\315<\251g\017=\357\325\032<zN\2009\266\265j<\376\304\261\270\203\365+\274\020\270\311;\025\260\235<N\243 \275E\212\024=\3251\343\274\300\370!<p.\006;\342\355\300<A\306\000\275l\373\010\275a\000\"\275\025,\013<\r\267\350<\330\256\360\274a\321\351\274\224\315\222<\340\307\025\275\301\201\032=A0\004<=^^<\253\3613<\206h6\274\262\274\265\273n\025\n\2757O\341<\360ZP<h\\\230\273\\\237\000=\321\353\027=\223\035\305<y\325\212\273$[\036\274\327V\313\274\032\367\242<y\272\201\274\363\253\024:\371\331\231\274\367\031\352<\202\231\014\275\316n\236\273-\227\323\274[\367\225\271a\212\211\273%#\355\274\316\202\342\274\270 \007\275\322\326\030<\021\233d<\016\237\001=yv\017\275\207.\003\275\227\033\245<Vx\242<\243\372L<@s}\274\025\323\366\274\016\261\002<\t\271\352\274\266\374\204\274,\016\363;\207=\000\273\021@\324<\3654\245<O\211\270<\231\362 \2756p\n<\247F\235\274\211\007N<\007\212\"\275Ww\233\273\n\320w:\211\246\026=\275k\362;4^\003<\355m\362\274\305\033\323;\203\343Q\273c{\003=\026\275\246<\341\352\360\274A\262\347\274\246\332\003<\326\357\034\275~`\362<EY\373<s\023z\274\301\344\332<\366\242\232:\377\351\033=\332W \275\006\303B<=(\003\272\3308\024;r\027\316<\273G\017=\330\355\n\275\032\205\310<\t\252\016=:\205\021\275\220\216\242\274n\302\335<\004\314\177;${\252\274\262k\240\274-\227\361\274\\\276\022=\264\365\007\275[\001\301\274\207R\345\273\200t\334\274\351\236\205<83\257\274Y\200X<\370\253\035=\024\227\037=\236\335\323;m\202\340\274)p\315\274\225\265\r\275\017%\316\274+\203\'<3m\202;\237\312\255\274\367\250\332<\"\373\203\274x\030-\2747iP\273U\236\273\271Q\203)\273\364\265\230;\032\223.\274\274Dv\272\347z\315\273\200\321\357<:\305\267\274\227 \037=\237\252\232<\235\376\2409V\262\003\275\226\007\030\275\235\030\016\275\303\'\014=\204\247\036<\352\034\255\274\226\304\357\274\371o\233;\352\232\223<\316\317\001\274_ r\273\0328\345;\3226\366<\202\312O\274\350\254s\274\305\244\311\274\007`\223<!M#=\305\272\025\275\\\221\304<\277\214\316\273\326\2149\272Q\004\003=\311\222M<\370/\307\274^\274\265\274\032\372<<7\2249\274|x\004=P\200\203\274\344[R\274\304~\324<\246\361\305<9\252J\274\324n\024\275\032\203\314\274fs\235\274B\367\225\274~z\030=t\244\036\275e}\013=\r\344\225\272\024 \"=\037\202\363\274\311\336\271;\210\262\210<\361\324\363\274:\014\"=\305\336\210\274\253\366K\274\336\314\357\273B\256@\274\376\272\307\274\246\022\326\274\270\350\257<\003t\034\274|\337&<\031\210@\274Z\371\376\2737\020\243\272\022f\247\2749\331\"\274(X$\275\256\252\344;\316\344\010=\347TL<@\360\253\274\2244p;^7\007\275[T\217:\371\265\013\275\227\346\211:\n8\300<\252\r#\270E\'\016\275Z\257:\274>0\203<u\335\220\274\203:\203\274\261E\275<\245\034{<\272\305\373\274\306\036\277\274\205\243e\274\352\272\237\274\004\270\027==!\376\273\013A\315\273Q\376\372:\000\246\260\274\2065\223\274\t\263\351\273\367J\346\274\233\243\331\274\020TW;\244o\311<\3437\374\273)\351*\272\300\202\335<\247t\022=\321(\036=\254\307\271\273\331\360\204<\034G\252\274~\240 \273^h\271\274\344\256\210;\311\020\025\275\306\365\\<u\270\t=\342\016\303;h\030\001\275\3744\345\274R\353\231\2713\024*\274\347S\236<\374J\376<\212 \261\274\221%4<\201\242P\274\334\311\243\274\304b\027\275\354\235M\274\364\230\346:\273\3241<\316\273\343\274\020}\353\274u\351\004\275\264\r\016=y[\031=\350\375\342;^\353#<2\007\013\274\330\036\320\273\334\261,\274:\370\315\274\025]_<_Y\327:\313<\251\273\263\\|\274w$\336\274J\256\023<\025\211\354;3\340\216<\221\034\"\275\323g\r\275G\245\3379\024\017\266\274J\027\357<t2\315<\256\t\t=\365Kw\273\253K\252<\\\2372\274\275\201n\274\367x\027\275\235\242\361;\243\027\262<\361\233\020\275\206\215#\274\311\232\302\274\352\353\304\274\2551\r\275\257\346\257<\006\312\210;\335\225\363<\004\353\r\275r-\032=dO\272\274J\254\250<\364..\2745N\224\274Q}\332\271\216\244 =\257\001\006\275{\344\235\274\205\244\375;\320\366\371\274i\324\027=\331\275\210<\333.\276\273eX$=\203\270\256\274\362U\022\275\342\034\325\274\342y\222\274\347b\332\274\366i\013=\245\260\376\274x\353\r\275\270%5\274B\2303\274o\241x\274\031\001\261\273L\021\315;\210\260 \275X\227\202<UJ\330\272\177\222\221\272\334\217\241<\000Y\"\274\273\225\317\274C\342\337\273\340s\321;\010\311\027=\206\304\000\275f\267,:o\023\337<\360\216\373\274g\245\037<2\305\002\274.\353\014=<\224/\274\213\361\273\274\322\347\022\274ql\023\275\t\233\001\275\243\225\025\275\204\255\'<zOp<h\366\001\275G\0011\273\337\213B;\223-\005\275;\302%\2745\323 <mC}\2740\331\375<\342\345\027\275\032\254\262<\254#\"=\3252\277:\205\357B\274\354\333N<\341t\240:\247\020\364\274[\342\206<\027\231\310\274[\337\r=\353h\220<\241X><\302\316\020\274\307\243\247\274\332\247\214<\243\255\223<-\211\033\275\212\305V\274\225\345\240<\005\031_\274\224.\t=\014\274\017=\241\301=\274\326\211y<\323\355\033\274\000o\306<\302\271\342<S\305\024\2744\370(<\303x\032<\351nN\274\376\247\311\274\202\226\013\275]#p\274kK}\2732\270\010\273\035\306L<pL\t\272\t.\014\275U\200H;\027LH\274J\220\033=?\354>\274\301\204\027\274x]\265<\222\241K<\357\177L<\375t\200\274\340\327\357;\010!\370<\363r =\357\340\362\2746_/<f\036L;\206=\352;\365\270\373\271\241\305\211\274\316\237\017=1HU\273u\275\023=\335\352\305;\360$ \275\024\301\264<\025J\322\274\255m\277:7\261,\274\220n\332\274\351\336\002\274\331p\212\273\274\263\257<F\314\350\274\374T\037\275\350(\027\275,\313\036\275Z[\335;\006\250\032\274\356\342\330\270\276\340S\274\277X\242\274D\261\021\275\314\177\266\274rR\333\274|{\030\274\276\336\257\273\250>\277;\307\203\230<\257\314\233<\374\201\240\274\352\206\037=\342\3357;\324\262\223\274\246s\255\274k\243\240\274 L\336\274\344a\243\274\344\234$\275\353\263;\274\332\272\274\2748\266\325\274\233h\005\275\205\247\036\275\260x\312<Fo\351<\2704a\2743\231\365\274\024i\t\273g\222\220\274#\223a<\234\362\247<\211\017\305\274\270\217\345<\227\305\357<\021s\252<\247g.\274\375U\006=%\313\364\274\365\204T<@\351\367\272e\217\316\2736\332I\274O\306\262\274\332\225n\274\350\031\377<\t\307N<\351x\313<\260X\327<\276L\024\275\353\205B<!\303\345\273@\252\363\273\n\307\031=\212\335\016<4\\\"=\006\3631\272\270\312\n=RV\346<\265\333\213\274\301\032\002<\r\312\245\274\244\2103\273\030\247\314\274\332)\002=\351e\246:\020(\306\274\301g\243:\236w\361\274\226\301E<#\355\2209\033|\307\274\026\026\322\273\031\334\265\274\224\244=<\353\305\013\275a\304\367\274Z.\307<\344\245\235<\361\325\351\274\332]L\274\226\304\357\273\340\246\240<D\212\214\274 \017 \275:\214\211\274\3775\247<Toi\274\363\200t\273\252K\002=\200\346\016=$\376\013=\265(\003\274\352\0011\274\237Y\000\275\213\231\007\275\333\372(\273\034:\230\274]\004\223\274\210\331\212<K\371\023\274*\230\002\275s\300\353<(!\034<\001R\033\275{\375\200\274\010\204\014\275#\2077<\0308\232;\344Cn\274\"g\2528\271\327v\274\\IO\272cM\027\275\016\241\026\275 \017\214<8\235\242\274\333\275\260\274c\177\367\274\276\032b<_\222C\274\032\357\266;\201=\315\274\344C\013\275>\n\275\274N0\320;Q\002\247\274\2441\214<\373\024>\274*1\260<pS\344\273:\371\261<t\235\323<.\235k<vae<\020\354\243\274\010\334-;\316[\202\2747\375\343<\214\010\206;\344c\216;c\024\360\274\346\336\202\273\331\241\033=PW\321\274\202\n\346<\340\031L\273\r\360\314;\3016\235\274\336\261\277\274\"u\034\275\365\"\315<\366F\376\274\317\374\277<=6\357;\251\372\306<#\374m<\326Y\032=\203\250\264<\262\212\023;\347\255\250\274\326\014\013\275Nh\344<\335\347y:rg\263\274\376\313\365;\250\325\034=\320\266J\274B\276\243\274Bg\221\274\233\320\005=\037R\262\274j\336v;\372\337\266\274^\270\310<\"\235\031=[\351\372;\360p\036\275\376\217\330<\211\375\034<\027\251\212<\311\307\010=\331+\037\275Uz\242<f+\212\273\334\261\227;\273\004\352\274\240\332\n\275j\245\335<\033\205\244\274Av\302<\363\342\020\275\276\005\323\274\337\270\372\2748\271\031\275\345\355\244:\310\027\231\274\272M!;\366\257\033=\226\020\031\275|\264\274\273%E\367\2741r\001;8\227\364<v!<;>@-<\217O\376<\002q\241\274\343G\027<^=\221\274\016l <)\227\325\274\000_\032\275\246\022\275\273N\r=<\32231<V\303G\273\020\017\203\274=\342\377\274\205\261\271\274K\240T\274\276M\t\2756\337\257<\243Q\353<\276\232C\274h!\217\274\002\337\031=O\303:\273\306}\036=\2700\237;\241P\202<[,\026\275\375\351\322\273\274:!=(_\352<X\004x\2748N\345<\316`\033=\300\262&<;Q\277\274Q\004\334\274\017\264\"\275\256\220\031= (\251:\205\300\360<3\255\026=]\"-\274\223\035\r<\203\261\027\274\370M\033\275\3153\324\274RS\227;\003\037\330\274\032\2536<\226%\357;u\216Z<J\020\036=\252\034\356\271?\340\366<\377\265u\272\264\240\374<\316\235$<(\331\242<\245y\376:\177^)\273v?\n\274GJe<\325[\031\275K\002[\274\234e\004=\230e\247<5i\333<\276\033\021\275\201G\"=\030u\026=\2365\034\275\340@\014=\3322\305\273U\213\216<\002\323\223<w\024\237<\343K\032<\206\256\346<\274\247\033\275\216\"\356\274Z\032\007<\316\275X\274^\027\313<\265\245\255<\306\t\030\275|\276\033=\034\255\336<\220g\263<(k\373\273\356.\337\274\205\252\231\274\006\010\346\273\223b\325<\374r\370<\200(\273\274\334\240\200<<\327\276<\224\233\000=\206\350m<*q\353\273k\261\210\274\247\222\"=\377v\000\274L\332\253<\304\0269\274o\346\026=\216\220{\274h:\346\273V\235\033=\221\204\003=\226\367|\2736\212\326<\356;\221\2738aZ;W\016\016\275\366\362\313\274e\377\034=\204\332\310\274\256t\020<\237\311[<\365\036\001=\262\031\013\274\001\335\345\2740R\274\274[R\246<Lc\202;\372F\342<!\311\215<\276\314\024\274dZ\222\273\241\222\313\274\262\350:\273^\301\327:\311\255\316\274\241*\r\273\324?L<\334\007\007\274\222\321\017=\n\035\027\273:,i\274r\215\355\274\314\347\253\265u\350\243\274_Hv\274\366\260\"\275r\237\020\275\026\242\317\274.)\311;G\253\037=A\322\305\274\007\303\357\273\210\374\016=\201\226\"\275\362\241.\274P2\350<~0\005\275B`\242;\333\031\017=\232\357\233\274\037\360\243\274\312\373\210<Z\253\306\274\022\256r<uHY\274^\2153\274%\206\023=t!\362<\365*\216;`S\251;J\t\031\275\005yG<\310.\025=p\202\017=\263\303\357\274\366}\254<j&\323\274c\225\001=6x\234\274\210\211\022=*\\\217<\310\360P\2744\277\272\274\276O\362\274\301~\033\275\375\017\354<\222=\255<\222h\263<\272\360\242:\276\355\277\274\220$\366:g\233\"=8\031\023\274u\227\r\275\322A\311\274\314q\005:\314~e<\212V\317\274\354\337\326<*\215\251;\0243\020=<\352n\274k)s\2744\337\243\2740<#\275\013\243\323\274+4\000\274\304\"\334\273\260\n\374;\227i\325\274\2327\226\274X\371\272<8\006\234\2749\204\313\274\306i\253<a\366\307<\253\230\275\274\020Wy\274d\016\035\275Y\362\371<\003\036\357\274S\266>;\014\362 =|\205\304<\237\361!<\215\333\231\274~.\273\274\2728r\274\324f\371\271\350\270\370<\325g\356\273?1\002\274\234j\230<\335\014;\273N=\333:7\326\214\272\017\336\005= \305\264\274\371M\014<U\032\226<\035\013\205\274\200\027$\275\306\362\000=\215\240\337;\370\317\034\275\270g\374<X\177R\274\353\330\007=\220}\330\274\352\210\230<?\317\231\274R\274#\275o\t\035<\024R\352\274\222|\n=\301)\230<\302Q\024\273\261l\233<\257\321\004<q\037\207<\r\232\246<\002\222\004\275\301\337\323<\332\334l\274c\316\360;\225\267\344<\323\317\t\275br\201<y\006\226\274\273\250\005=\031\255U<\312xh;\255\006\223\274I\323\"=\027L\263\274\250\271\203\272\272\345\214<9\333A\274r\230\266<\246\345]\274\000\\|\273\310\022\256<\242=\212<\221\201$=\222\314T<R\363L\274Cp\035=k\314\203\274i\257\210\274vF\363<\315\255\020\275\316\317\344<\230X\327\273l2\n<\347\277\324<\326\314\351\2748\026\234\274\rs\023=vS\245<\025I\341\274\242t\033\275\303\363\014=*p\204\273\010F\301\274V\010\"\274U\347B\273\0172\017=\242-M\274\310O\362\274\034\240\247<\t\356\033\274F\333\036=~j\036\2744j\311<\002\223\213;9\327\266\274\310\311\325;\220\232\215\273\255E!\275\272\323\332<NI&\272\236\256C\273\355\001Y<\371\361\326;p\210\314\274\301j\337\274t\300r\274\261\034\371\2746\'\323<\027\021\352\274#y\202<\336\374\371<ec\362<\365\221r\274\242\250(<\231\206\016:&\276\306\274H\304\235<hL\216\274x\201><\003D\256\274\257R\261\274&8\025=\365R\363<c\010\023\274\301x\313<\037/0\274\225\241\021\275\227\"\251<q7\206\274J\031g\274\327i:<\214\033\363<\204\001\212\274\'\016\234;5\t\003=I<N<s\344\306\274U5\313<\325\201\323<q\322\235\274\231\341 \275\311\374B\273\021\001\n\275R\335\371<k\353\224\274\035\316\371;\314\365\317<\362>\261;\010\331\374<\275w\340:\216\273\232\274Z<\262<\323\372\177\274\220\026p<!\301\000\275\206g\263<\3627\311<K|\"=8\347 =\337$!\275\035\273\263<\261\203\203\274\336\277\023\275\3359\035=\025\252\262\274\221\255q<\354\031\202<\206\327\014=\275\"\254<\2135\026=\016\326\3039\021\322\235\274\346v\227\272\2427><m-\r\275(\020\344\274q\312\222\272wE\036=\'\374g<?\246 \275\241u\2759~.\021=\200\217\301<\001\016\n\275\376|\024\275\243ls\274\3463\240<k\317\022<,\307\244<)\372\222\273\345?\003\275j\205\037\275\303\374\265\274\356\252!=(t\302<&\301\001\275\234\204F<\225\'\267<\355%\"=i(\003=\020\\L\274\272j\232;\210\013\266;H\245U\274E\331\217<=\304\016=Y\212\037=8\260\354\273\255/\344\274\202g\036=Z\361\265<\302,L:\372\372\336; \275\220\274\3553\210\274\352\\\315\273\326+4<M\027&<\225\212\331<N)\016=\035\255\371<\324\372 <\314\026\240;\275r^<_d\306\274}\365\367\274\261\\\016\275\244O\356:\273\222\254\274\201\323\032=\345\311\205\274\334\033}\274\217%\222\274\215B\030=\2251*\274\216\353\350<\005\027\356\274\253\217\202<\215\323\373\2739w0\2746\232C\274\274\253\315\274g\303\021\273!y$\275%\210\320\273\272\357\252<\372\313\221<#\347W<\200\240\020=\367Y\354<1\301\241\274\306\237\321\274\236\302\375\273{\257$\274\353\240\356\274\204v\022==#\"=\250\371\342<\275$\000\274\215|\321\27199\327\274\022\267\013\274\213\345\216\274\266=\017\275\to\372\274\371M\013\275\340:\005=\233\301@\274\277\204\022\275\032\377\363<\207\005\375\274\257\270\332<\345\246M;\260\316\330<Dq&;4Q\230;\357\r\335<!h\t\275\254\347\336\274p\316\230<\304\243\215<\361\321\201\274qw\306<cc+\274\232\341P<\004\236\245<\255_\030=%v\020<\'\376,\2748P,\274\320\240D\274\324;\330<\244x\231< \230T\274$\203\030=\314C;;:\257\254<\001\316\036=\216y\340<\t\301\021\275\272s\225<\343\330\234\274\034\266p<\254\276\276<\216\320\233\274\004\r\322<\036 1:\265\304\256<\354\326\031<\2606@\274\300\213\253\274\242\030\016=\375\356\001=\200\256\221<\353b\027\274\r\024\360\274\226\350!\275/)\360\274\201V\345<\022{\016\275\027c\241\274\3559!\275\022E\203\271\246\020\260\274\005\027\037\275\202Y\366\274\0041\214\274\264\030S<(\372\r\275\010\201\016=\345\020\337<ju\203\274\313\336\022=6\301\337\274\311q =\372\3228\274M\244l<i\225<\273\210C\310\274]\306\374\274\341|$\275\226\255#<\257\000\034= \335\025\275\344\275\376\272\221\220\016\274\010n[<\222\345\026\274T\321\007< \241\207\273\022D\004\275\335\026\322\274\325\036\273<\331F\355<\365EX\271m\230\204\274\310\007\243<v#\332\273\005\240\026<w\321\264<C\366\270\274\014\371\t:_?\007<\341y\027\274\365\250\034=7\356\247\274 RK<\252z\205<\257rr\274(\350\013=\333K\214\274XO\020=\307Y\"\275\033\357\352\272\317\376\361\273%\\$\275\267G\376;\273j\242<.+\341<5\303\202\274_\244T<E8\357<\026S\005=\"\036\257\273\t|\255<\345\353\262<\344a\031=\"qT;\211X \274oD\203;\216\013+:rc\026=\"\310Q\274\356`F<b\364\027;\201\355\007\274\372\n\237;\236\336\330\274\t\310|;\202F\375<\031}\302\274M\370\026<\037P\020<\343a\333\274b\372\004=\325\356x\2735\271\004=\336\366\344\274\031\035\276\274\306A\021\275\241\243\030\275Gc\2219\242\226\246<\023\003\027\275\343\252\333\274\367\027\211\273t\000\324<\330\021\260\274\371\352\027=\227\313\344\274\242\337\210\2740\201\236\272\205a\343\274\220\n\237<\361\323\361<\322\020\t\274Pw_:\250\033!\275)\005Z\274\372\254\026=e\003\030\274!\212\033=\035\314\017\273|\020\204<\271\"\034=\376\220\347\274\022\323`<jAq\273R\341\261\273W\022\363<\342/\265\274\376Z\341;e\037 =\"\347\277<\307c\205\274\020\233\000\275\000Pw;\250\006\273\274E\356\311\273\217\262\224<2e\"\275\315\237\014\274\"6S<~/\247\2741\300\311\274D\207\220<]\354\213<\337`Y\274\313\230\200<\332W\027\275\201\305\322\273\274.\310;\260\317\320<\351\017\007=K$\345\273\300\026\177\274\014Z\023=\371T\014=\035\343\010<d\213\302\273p\002\036=sdo\273\372<\004=\346\201\377<Y\026\033=\211\007\037\274\201y\343\274\312\341\023=W7\377\274\315\250\376\274!\341@\274\260\227\264;{\243\267\274\226\013\205<\207)\035\275\311&\237<\3403\325:\274<6\274\224|\010\275\020\262\230<\206\331\300<\361\257\030=\246\321\361\273!\367\031=\267N\313\273\330z\252\274d\365\212\274\316 \027\275\026\n\213<1\240\010=*\315\271\274BE\266<\244\372l<\331\306\017=\262#3;\177\352\037=0\353\374<\367\230\274\274\010<\263\274\337\2304<\336\237\342\274}\240]<o\177\373\274\3365\n=q*\230\274\211;\014\2755\237\371:JB\242\274\212i\027\275\315]\375\273\3450\361\274=>!\274\234\300\271\274/;\301\274eT\352<\337\r\034\275\366\234\271;\336@(\274$\305\016<\014\331\327\274\212\274\371\274\004\3458\2742AZ<\364L\261;\225\376\254\274\337\203\265\274o\227\246<\361B\013\275\327\331\010=$\034\223\273\217\206\253\2747\223\001\274u\202\360<\263b\322\274\377\010B\274\223\360\362\274B<\013=?=\221\273\341\030V\270\006S\370<\260A =P\002\242\274\211}\336<^\242\335\274#\rC<du\t=P\221\274<\313\364s<^\246T\273q\347\356\274{\267#=3\000\375<1]t<\345-\206<^q\356\274q\346\027\274\340F$=B~\323;\363\t\371<z\353\364<k\210\027\275\324\372\340<{K\253\274\013h\226\274\211\\h<sx\021=\270\320\032\275\240L\212\273)\374\303:\303\252\000\275P\016\244\274\346\360\"\275\352hU<\271U\362\273b\371\203\274\257B\020\275\030\326G\274d=#=\342\347 \275e\252Z;@\272\361<\307\252\023\275\007\020)<\021x\320\274%\253\372:4T\236<\251\201a<6Q\006=\204\305\201<\217\030#=Z\206\010\273\356\340P\274\027Q\233<^\367\273<\347o\t<\3414\033\275\005\214\023=\234y\340\274\373\312\207<\031\3739\274\r\374$\273\347z\002=Zt\306\274\237$\300\274t\270\234\274\220*s;\243\325%<r\037l<\234\270\003\275>\275e:\'u8:\355c\021\275 \t\263\274i\314<\274\370\344\365\274\261s\t\275mT\363\273\307\320\336<\307\222\370<\211T\374<z\273U\274 z\020\275\210\243\272;:\321\354<)\250\265;\364\256(;J\001\205\274\326\355f<\031\207\312<\207H\024=\232?\n<\345\345\031\274\005\010\214<\221\210\031=`FV<g0\242<\033\371\242;w\226\240;)\357\354<\331\227\"\275b6\345\274\246\277\007=\250\276D<k\023\032\273=l\241<\246vq\272W>\340<\332\035a\2748\n[<J\261\330\274\023\034\036\274\347\235\233:\217+\030=.\300r<\364\340\331:\264j\032\274>\255\034<\241\024\247<MV\217<\006N\021\275I\265\374<\377X&<pu\3149\363\r\035=y`%\273\202$g<K\352\030\2756\302q<4I\360\274\336l\374<\215rK<F\205\037\275\031\326\360<@Z\027=C/\035\275H\374\354<\236?\276\274\031\257\332\273Tt\376;\333\271\272<\0220\345<\253\303\027=\274\200\361\274\371\365\325\274\035\217\023=\032\344\353\272\\\367\234\274)\306\016=t\304K<\206\346\363\274\202?\301;\324\306H\274\\y\004=\211h$=C\"\275\274\177x\320<{\347\272\274\207\021G<D\216\005=\260\270\262<|a\332\272ru\022\275i\241\n\274\037\264z<\272\263\375\274I\323\017\274($\004=\245\320\253:=Fd\2748\254\327;\245\324\030=\001\241\001<\376TJ:e@\007\275\255>\033<\351\014;\274+<^;:\323\033=\375~\360<^e\335\274\031\024\361<v1\227:o\017\272\274\234>\035=\361\225\265\273\377]\325\274\244\337\225\274\335\332b\274\025\206\014<\301t\t\275\252(\264\274\035\321\'<\317\336\203<\021\177\010\275\343\261\010=f8\374<\325\316\001=&\351\246\274e\363\026\274\277\337\000=t]\247\274\'\203\336\273\267\270\"\275L\234U<\207\242\023=\236J\351\274\246\222\"<*\245%\272\013\317\022\275\033\300\376\274\205.{<\307\351\245<y}\305<\373\327{\274E\366\344<d\016\007\275\267\370/<\251yU;7\222\255<\266Y\014=\026[\033=;s\231\274\311\303\253\274\362\356\025\275\236\237\326<E\220\016\275\226\224\021\273\2516\273\274>G\252<Ke\236<I\0372<%j\255\274\345\265$\275\236Of\273:Ax:H\346b\274\203\025\307\274\315\316\000\272%o\314\274\330\222\243<\211\026\034\273/\327\301;\354\004\274\274X\001#=SI\313\274\247`\034\275rV\310<\353\370\000\275\030\250\252\274\273K\n<\311b\022\275\3337\367\274\372\366H<c\037\226\274&\027d<3<\265<{L\202;f,\216\273\036B\2649\007\177\014=\266\275\202\272:F\221<\325\033\306<7t\037=&\253\t\275{\242\202;\343\331\250\274\262P\265<\377w\264\274\361\246\352\274\214\020\023<\nz\265<d\203\334;\314\210j\274j\013\035=ti\233\274\213\270,<\336\r4<\"z\206<\262\030\360<i\203\363\274\370\206O;_\000\242\273p\263\265;\376\351\211<\314\032\325<Z\013\007\275o\365\217\274q(\351:\324F*:\231\317\323<\313.a;\321\306\027=>\211\001:\305\261\313<d\321\270<r\364\320:\206s\001\275\"\340\035=>a\202\274q_\232\274\325yw<z\331B<\0033\327\274\261\344k;\240\256\355;\372U\260;\300g]<\267@\006=\354\250#\275\225ZN;7q\334<!\333\204;\332\003\031\2752[e\274\224\003\320\273\217Zo;\001\nG<\206\033\t\275\331\203\221\272g\373\017=dz\222; \212\271\273e\363{<8\"\026\275\311\377\013=u\t\376:\340:>\274\273E\227\274\347X\353\274\252\371=\274\332\310\255;\215\001\003\274d\224=<\230\342\034=\240\266_;\024<\215<\253\245s\274\302`><\264O\024\273\275\000\033:\377\030\000<\274+\256\274\241i\262\274\361\250\"\275\367\322 =^F\004\275\265Y ;\256s$\275\300\374\251\273[z\334<\375\236\024=\341\243\322<\265\370\016\275\376\035\222\274\026\352\252<T\370d;\345\026\001=C\224\226<6\373\202\274\237g\025\275\210\237\010=e\325\330\274i\244\302\274\324\374\024\275?\344\005=c#\300\274\371\206\222<RH\371\274r]b\274\207\330\0169V\034\251<\355\303\023\274/\273\255\274A\033\227;\334\313\211<\2565\017\275\236\314\242\274\216\'\006\274\353\272\035\275\311\267\334\272\323\225\346\2746\374\002=\376\t\317<\200\361\014\275\177\337\235\274\004k\334\274\371\303\230\272\356\322\314<\215<}<\363\032\240\274\034e\021=G\361\357:\212\323i;\201e_<\004\274\267<s\235\377;\023f\332\274\270\220\312\274\355\377\034\275\353|A<\274\271\r\275\362\203\271\273j\264\034\271o5W\272\312\360\007\275\377qn;@\225!\274\006\224\344;5\224\215<\331z\032=\204\020\245\273K\t\227<\202\023\235\274\024\237\242\274\224$\023=\347\025\235\274O\t\020\2737\260G\274\336:\032<\350\014\256\274\001\007\024=\210!\316<7-?\274S\364\340<\242h\351\274\305\'\000\273\333\230\306<\346t\017=\241\231\036\275XUH;\326\275\335:\335\344\2237\370\230\000\275\013=\215<WY#\275\'\226\301\274}\272\277\274\010.\305<\224\242\014\274Dh\327<(\374(;\351\307\315<\365\rM<L\007\025\275\016U\352<\233%n<\355\226\233<\227>\023\274\337%\366\274Z\210\232\274\254\376\260;\351E\023\275\324b$\274]\016\022=\200h!<X\037\240;\254b\260<\240}\017\275\032\3202<z\345V<z\177\306\273\335~\257\274\224\320g<\224F\315<\337\231\027\274\351\274/;\034\306R<\253\tA\274T\346\205\274\'\033\223\273\376\244\017<\270\351\'<\356R\302<\255\336\025=\230.\030=\364*\260\274:&\371\274\336\242\331<\177\373&<\211\322P<Jv\"\275sr\030<\366\326\325<\366\003\025\2756\230u\273\031\223\016=\222\'\210\274U5\037\275v\020R<;\2263<\'\014\003\275\370\205\027\275\326\300\301<B\215\264\274\217}A\273\267\202\353<\253\314 \275QD\016\272\330\t\263\270%\336\007\274I\354\001\275\235\177\354\274\t!B\274d\211\030\275\371\327}\274j\025\225\273\326\\\033=l\2200\274\363\233\210<\272\"\305<\236$\007\275\316m\r\275\310\334\t\274l9\337\274\2153y\274*E\222;k\352\3279\352\031\342<=%\014=Fk\275<^{\251\273zsb;\344t\016=\235\276\247<\351\221\376<\277W1<\207\003\210<O\352\224\274d;\220\274T\026\215\274\264\232\352<o\323\265:\266\332\322\274\246\343\206;9r\037\274v\351d<\323\207\334\273\031\321.\273\320kA\274\3041\342;\227\211\032\275\r\026\232\274Y\207\033\275q\314\236<\220\340\306\274g\341\014\275\360\247\313\273!\021\250\274\267g\233;\377\031]\273\033\007\005=\357\244]\272\312-D<\001\006\032\2742@\035\275\377w\370\2740C\345<\021\237$\275\264k\352\274\324\t\211<\357\252\037=uX\251\274\235t\210\274\253,\035=\177\275\013\275G\004#=\023\375\235<\352\331\344\273\257\325\367\274\367~\r\275\033\267\234\274\207O\302\274\357D\014<\333H\311<#\r\211\273\263:Z\274G\326\026=\355\003\235\274$\271\260\274\362\363\212<\306\010\003=6\350\024<\272gK\274\276\247\032\275\310\356\336<\3270\021\274KE\037=\003,\321;\257\352\013=\343\272\215<X\360\342<\346\004\206<-\200d\274\362s\230<{ee;\217-\352<L\345\202\274nl\365\272\016\303\003<\367\322Q\271\217\300Z\2748\001\022\275GH\363<U\374\033=#{U\273\234\311Y\271\213\316\363\2741v\250\274\322\205\010=\246\323\263<\023\203p<\2170j<9-\001\27519w\274_\\\032\275\177\362\242\274\014\2659\274#=\323\274[e\024= \265\312\274\t\t\302<\026\254\352<x\362\027\274TW\033\275^\254\240<\236w\367<\032\235\323\274\016jP\274K\326A\274c\260v\274\341\362\244\273\027\224\n\275\307\340\347\2745\303(<o8 \275\344L\363\274\276\274\001=\303\024-\272\354\370\204\274\315R\237\274j\213 \2758\240\276<\347\307\361<\321\273\303\274\312;\351\274VP\027\273\017@\231\272\350\007\373;\2441\351<|\250\260\274\372\005?<w\032\375;\363`M<:\230\022=q\262>\273:QE<\216{O\274\364\306\225<\001_\243\274\026\255\235<a\331\017=\344+\363\274c\034U\271\005\2710\274X4\274\274|\352\362<\t\325\346;\020J`<\377\261\262\273\335\334\261<\240\346a\274^\227\006\274/\236\237\274\'\253;\273O\360\001</8;:\321E\001<\214\340\n\275\353~\342\273C=\322\274\367^b\274@\377\333<IA\221\274\256\370o\2746\363\"=\2572\213:\t\322\r=\347\007,\274X\"\343\274rs\230;\256=\224;\t\315\242\273\027z\337<\"\364\372:U\265\r\275\002\252\263<\372\200\263<\225Z\231\274\361\241\305;\366\363Y\274RG\265<Ir\r\275\362\317!<:\036\270\274\022\241\203\274\377X\373;mM\372<F\375\034=\302#\020<Y+z\274\347\003k;\243\222\010\275\260.B\274\203n6\274\336\204\n\275Q\330\256;\010\303\256<D\245\010=\245\213\263\273\224\204\230\274\241p\241\274\243\213\220;\270\237!;\017J\020\275\343 l\273\337\344f<5~\317\274dz\347\273m\013\345<rp\315\273\276F\031=\0030w\273\232\347\357<+7\271;\326\267\021=2\336\214\274\365\215\220\274/@\036=>\036\340<8\265\230<\323\355\252\2746\027\222<\t\336\330;\034$\345\273\216S|<H\253\236<8NR<\010v\357\273\373*\235;=Z\312<\324\020\n=L\267\340<Z\003!=\005\331\212;\224I\334<_\327\000<\333d\240\273\232\352k\274\373^\265<h\250\334<i\300\375\274`\224$\275\204%A<\316\324[\273\003\323\005=\236\362]\274\227\024\177<\346\253\254<u\013e\274\204\352\372\273\256\223\245\274\242H$=Gm\027\275\004/\312<of\337<\n\330\327<j\025\003\275\214\202g<\267B\021=\016\235\265<\343\037\351\274\211v\256< O\r=n\340A\274\312\014\257;\305K\227<\311 \306\272\230\202 