node {
  name: "global_step/initial_value"
  op: "Const"
  attr {
    key: "dtype"
    value {
      type: DT_INT32
    }
  }
  attr {
    key: "value"
    value {
      tensor {
        dtype: DT_INT32
        tensor_shape {
        }
        int_val: 0
      }
    }
  }
}
node {
  name: "global_step"
  op: "Variable"
  attr {
    key: "container"
    value {
      s: ""
    }
  }
  attr {
    key: "dtype"
    value {
      type: DT_INT32
    }
  }
  attr {
    key: "shape"
    value {
      shape {
      }
    }
  }
  attr {
    key: "shared_name"
    value {
      s: ""
    }
  }
}
node {
  name: "global_step/Assign"
  op: "Assign"
  input: "global_step"
  input: "global_step/initial_value"
  attr {
    key: "T"
    value {
      type: DT_INT32
    }
  }
  attr {
    key: "use_locking"
    value {
      b: true
    }
  }
  attr {
    key: "validate_shape"
    value {
      b: true
    }
  }
}
node {
  name: "global_step/read"
  op: "Identity"
  input: "global_step"
  attr {
    key: "T"
    value {
      type: DT_INT32
    }
  }
}
node {
  name: "input"
  op: "Placeholder"
  attr {
    key: "dtype"
    value {
      type: DT_FLOAT
    }
  }
  attr {
    key: "shape"
    value {
      shape {
      }
    }
  }
}
node {
  name: "output"
  op: "Placeholder"
  attr {
    key: "dtype"
    value {
      type: DT_FLOAT
    }
  }
  attr {
    key: "shape"
    value {
      shape {
      }
    }
  }
}
node {
  name: "HistogramSummary/tag"
  op: "Const"
  attr {
    key: "dtype"
    value {
      type: DT_STRING
    }
  }
  attr {
    key: "value"
    value {
      tensor {
        dtype: DT_STRING
        tensor_shape {
        }
        string_val: "X"
      }
    }
  }
}
node {
  name: "HistogramSummary"
  op: "HistogramSummary"
  input: "HistogramSummary/tag"
  input: "input"
  attr {
    key: "T"
    value {
      type: DT_FLOAT
    }
  }
}
node {
  name: "HistogramSummary_1/tag"
  op: "Const"
  attr {
    key: "dtype"
    value {
      type: DT_STRING
    }
  }
  attr {
    key: "value"
    value {
      tensor {
        dtype: DT_STRING
        tensor_shape {
        }
        string_val: "y"
      }
    }
  }
}
node {
  name: "HistogramSummary_1"
  op: "HistogramSummary"
  input: "HistogramSummary_1/tag"
  input: "output"
  attr {
    key: "T"
    value {
      type: DT_FLOAT
    }
  }
}
node {
  name: "fully_connected/weights/Initializer/Const"
  op: "Const"
  attr {
    key: "dtype"
    value {
      type: DT_FLOAT
    }
  }
  attr {
    key: "value"
    value {
      tensor {
        dtype: DT_FLOAT
        tensor_shape {
          dim {
            size: 8
          }
          dim {
            size: 2040
          }
        }
        tensor_content: ":\233\022\275xt\352<\320\226\034\2750\357\032\273h[%=\263\024\334\274\034\326==\300\214F\275\266E+\275\211\276\356\274\244DD=\252\321\023=\220LP\275\341\357\001\274\006D\351<2\302\335<\341.A;\362!x<\337\377\\<\205\337\233\274\207gJ=\360\020n\274\0300\373<9\327\201\274\016\252\326<\037wJ<N\300\036\274\335\363\234<g\210\004\275w\263\n=\006eC;z\3267\275\370\2146\275B\227T\275\276\253\007=\313J9\275l\252\324\274\264\037\335\274]\252\013<\200\375\010;\202?Y\275\336\225\034=\307\006p<\n\353\335<\306K\341\273\243\350\267<\313\024B\2755?G=\302/\214<\306Y\024\275iU\026=w\264\006\275-\303\t\274wvG;x_\305:{\227+\275\216JW=\034V:<\257}S<\250\346\000\273\327Z\222<Xo\220\273\274\001\307<\356\335\006<\265`\013;\345\363\226<W\206\327\274\371\322|;=oL\275Q\215\373\273\273\345\220\272`\007.\275\000\313\341</\r@\275*\373N\274\013\367\201\274ze>\2750h+<\312\014X\274a\3742=\335\305\220<\277\320\305\274o\031\337<\265\240Q\275[\343\017:\253\367\217:\204\031\350;\037Z\024=eL\003\274; \355<\013V\335\274\357\033\214\274\222\232H\275\355\343Q\275 #F<1\205\245<\376\275\344;\264x)\275\024j\323\273\024\256\025\275\373\270\217\274\177uD=L\200\001=\230\003H=`$x<3\216\033\273r^\330\274\344 T=\271\276\200\274\247\345R=\035\257F=\360IF\273\221\303\257\274@oS<\3207\'=&\271%\275\2471A=\302\000\010=\0067*\275\357\274U\275\246\257\004=\267]%\275\025+\236;\303\374\232\274/\311l\274\244;\006\275\301JY=\230]\033\275\273O\035<r\034\272\274\004\350\013=\026\307\\\275\263\275#=\340\234R\275\031\321\240<H/_<\005\345\033=u\t(\275\272\272O=\003\256\020\275\263\301:<Y\3478<xg\344\274\241lC=\246\023U\273\362F@:,\177\016<[~2\274d\363E\275e5\023=bZ\002\275\351t8=[\215x;\376B\014\275q;\224<U\224O\275ppX\273\337,\316<\360\240\"=QBQ=\235\324\314<~\374\362;\217\2638=\210/\021\275\033\267\260\274\314_]=\345\3746\273k\254\027\274\372\363<=\267\312\313;_\344\023\273\233eI=!\216\"<\034\2728\275\375\261L\275n\354\217;\274\360\033\274J\370\007\274p\343\333<\240\034\343;\0370P\275\366\200\017\275\376\037%=\343f#\275\340iU\275y\304\352\274\201r\354\274hK\372<\354\356\305<\216\302\020=\233\313\t\275MRH:\230/&\275\257\2253=\307\013%=\266\0108\275\016>\300;\213\3679:p\014@\274\322\177\333<\031\342\220\274\301\260\277<\201\275<\274\320``\274\230\023H=\014\251\255\273\0007\020=\244\315H=\353V(=m&R\274D\212\226:\257\371\225<\r\255W=\255t\365\274\247/\260<\321\331%\275~4\376<4\001E\275mr\205\274\333d\020\2744\262\257\274\237hB\275\361\211>=\342\342Y\274P6\025\275\372 \334<\237kv</v\005\275\005\372\316<2\013,=Q\272\254\272\371\022\023:$A\n\274\036\326\033=6\346\344\274k1\314\2741\340Q=\270\2759\275\255\254*=\267d\003=Zp\333<\224LK=\221i\203\273Y\016\231<\022\001I=\027\210\333<c\355\361<r\371\371\274\276\372\r=\222\307<=\260\020\206\272\276,\315<\016\232\t\275\356\345\004=\343\242?=c(\265\272T\\J=\233\212\361<\302\253#90ZQ\275\233\"\017\275?\321>\275B\035\006\275\021\rZ=\023K\271<\216=\331\274\204\355E;\237\345\"\274\277\2238\275\247\005F\275\0371K\273\227\262\t\275\227\325\243;\356\376\244\274\3167\237\274o\372\\\274\200\016\025\273\364\244G\275\235tW=\034\315\027<\265\226\306<\242L(\275/\275)=\364{\366\274-(\341<\354\316\025\275\357\323\206;\n%\200<\265\2654\275\356\306X\275\242\373b\274\344\314[\275_\334\030=}?p<\365\311D\275:\260K\275)\372\002=\273l$=\202\2375=\234NF\275\034x\232<9\026\000<u\331\257\274\220\233X\275\221\301L=|\2662=\356\307\224\274\366\020\316\274:J\301<\300\254\021\275\3039F\2754\204\014\275\252l\313<#G\213<\247a\334\274i\372\034=\263\336\302\273\024\317\020\275n\022\372\274\336?E=#\304P\275\322\306\275\273%\\#\274B\\\002=;\3476\275\265\361>\2747\273\373<\303\246$=\356\355A\275\367\343\326\273\004\304A<\264\247Z\275\327\2167<\216\036\037=B\332\367<|\357`\274+4\307\274\337\261\222<\025\255I\275$f@\273J\016H\275\302G\352\274\321\311C=\035\305\235\274\276B\365\274\202\314,=7\202\254\273\312k\000\275\224\3439=Rk\304\273\021R\321\2747;m\273/-\006\275\313\210]=\007\002N\275\350@\213<\017MG\273\3760[<\237\004>\275\236Q\251\274t\364,\275b\264\234<\356E\004=?7M=\200\301G=]\031[\275\316~\241<\257\031\232<e3\027=\021\354\266\274\231\310B\275\3140\336<J\220R\275\027\327V\275\200\270\006==v\031=u4p<\037\253\272<\376\261T\275\313\2034=\374\215\276\2745\302\352\2744\344;\275\212\301r<\002/\262\274\256x(=\351u$;\365\023\323\274\316\277\002=U\233\315\274/\256\022\275\2159(\275c\031B;J\2649\2754\033G\275d\374\357;\242\2442\275\025\0338\275\360X?\275\010\255\036\275p?\376\274\306\240;=\230n:=+)Y\2758\031\213<X\027\257<\306\n\010\275\325\266Y\274\367\313U\275\222\016\225\273bb\001\275\277\365\236\274N\323\375\272\366\233\002= \300\016\275\354\266\022\275\334\2010\2756\327\013<@\035\242\274\252\236~:\352\254\251<\277\350\360\274\247@\005=\260\321\251<\"\250\022=u\'\227\274\204\211\'=\260\222\007=\312\303\230<\377\024\337<\311\362\215<\201[\003<\267\271\310<\242\026\017=\302C<\275\257\217U=\313\347\010=\303\350\210\274,\'\004<\227\202\316\274i\214\236\274p\021\025=\327\311\372\274AWR=\202\260\"<~\364<\275,|\327\274 \265\260<\262U$=w\021\022<\322\227\027=+\237H<\3750M=\354\304\301<\202\347j\274@\030\260\274\"\321\214\274h\313\263\273\271\r-\275\207\346C<\303\\&<\215\177d;WpZ;\021\257W=\"\371\226<\240`\351;\313C\t\273*i\276<\253\260Z=&T\313\273a\270\007=\334 >\275\253\314\004\275\242m\006;\320=Y\275\356\375*\275\313\226\330\274\260y\013=\274\342>=\322\232,\274:\324\177\274\257\222r\274\346\314E\275X\272$\275\".\240<\014\312 \275\267\310Q=\224\217\001\275\365\275\'\275\373\rX=1\374\204< \311\235<h\206J=\327#S=\327P\021\274DfQ\273hq\n= ~\271\274\372D\355<\347\027\005=\367k\211<\211\274\247\274\277k!\275\002\351\020=\277c\365\273k\206\372\274\326X\323<\301?=<T#/<v\267\331;\310\027\007<m\360\360<\241\221\375<\203|r;FaB;\254c#\275\351\037\007=\205\314\363:\221a\\\275\2217\316<\203\036\321\274\216\230\022\275\313W\307\274\27362=!\364\037\275\222\232\362\274=\306\"=}\2349=\3100P=sc\003=\337\007P\273\354L\325<CEZ=B\177:\275[\r\315<\254}\303\274\213zN\275\313\032\\=\323\273\275:\362\312O=\031DW<\"c8<\211\177\261\274<\020\342<\035\336\312\274\335\240*<lr\316\274\2756\213<L>\240<\234|\275<]\336\302<\357\346\235\274\313Pn\274\2579N=t\347C=\302f\204;K\202@<\360\221\313<\001\035U=\372\310%=Qa\275<\032B\033=\255p\254;D\207%\275\231|/\275\27099=\265\225&\274\212J\323<>\220:;\250\\\256\274\244d\322:Y\2155\275\224\227\250\274\343i\354<\247\273\034\275\335\363\320\272rI\373\274\332\307\2439\200%\024=\206\352\211<\254,\204<5\212&=-\262\035\275\016n)=\260gz<\313\247E=\351V\037\275\267vd<2\331\016=\036X\342\274\227\031\006\275\362\207D=\204\244p\274i\201\326\274\352\375);\277Y\275<U\300\'=\205\333L\275\003\266\207\274\254w\337<\000\032\026\275\374\227\020\275%\n\210<\370\2778=\273kb<\302\345B=\037\351\352\273}r;\273\251\031\031<tt\323\274\372F\272\273*1>\275\022L\375<n\242\212<,\232M\274\266\024\263\274!\0243\275h\321O\274\261\263\025=\202\350C\274\216dM\275\033\032U\275\331\365\271<\245z\234\274l\273\253<\231u:=N\364\356<^H\220<\323\322\232<\216\231\022=\374\236(;\362\376S\275\250\261\220\274sY\024=\026s\372\273\370\222@=<\226\014=4\255\021\274\255p\014=)\330\331\274\2577\315<\003\243I\275\371)Q\275\357\300\3319wQ<\275\213\3070\275\2543\357\274^F\200\274k(\300\273\311\232\256\274Z-\363\274\177!\030\274vQj:\363\250\257<\246\254\271\274\022\253\303<\374\271\347<p\344\240\273\216\031\204\273\254k/=\334[\327;\213h\340<w\377\021\274\271\375/=F\'R\272\261\225s\274F\314K\275\343\301\254;p\310M=!\252\316\274\374\255<=6G7=\220\361\006=\202\224;<\372\025s<\376\375\005=\307\032\006<\367\014\357\274\201%\365\274i\330Z\275\204\200\262\274J\363\210<%n\343\274gEJ=C\312\217;~\260F\275\250\007R=\204^\032\275-S6=b\373%=\371\313O=\315x>\275(\'\246<\322\354G<$\366\020\275V\242M\275o\213\360;\350\256\373\274\022+l<`\253\032=\235H\027<4\026\037=D\316\202\274h\266\310;\331\341\260\274\242j\277;Fb3\275\253i\266<\000\373\030\275\206\367\367<nf\205<\300U\324\274}\217F=\016\026<\275\216\321-=\r\200#\275gh=\275\377\310\024\275\273\022!=\303E\242\273\225\034i;oW\244<2\014/\275\257\034S=i?\346<f\217J=\036E/\275e\216\260\274p\343\021\275x!@\274F\352R=\216dM\275S\354\200;\t8\356<!\211\001=\223\207\370\274<!\014\275\343H&\275\227\376\310<\242\206\221<\212\213{<\214s\202\274\261\314[<\220\206\311\273.h\026\275[\020\033<[I\030<\260\224\277<\332\306R\274\317\231\273\274\344\000\365<\3606N\275\354\tG=r\323\330\274\352\336W=9\343\330\274\2373\331\274\2151\023\275\000\375\332\272\342\244\305\274\300{\353\274e\022\\\275\271[\377\274\222f\005=3&\270\274&\022.=)\003*=\331;3=\034;\226\274\0346\322<\341\373\353<\231sP=O\201\245\274r\014K<\026\034\'\275\372M\357\274\r\325\"\274\376-5=\252\307\252<&\340\037=\251e\244\274\222e\032\275\203\366\320<6\303\377\274u\271,=\353\214\014=/>\263;\021\202\327<\301I[\275Nn)\275\350\017K\274\243\025\376<\334A\217;\315\362\307<u\032\032\274q\352V<\031H\n;`\001\210\274Z\244P=\301H\342;\247\'#=,QF\275\266?\037\275\271\'>\275[`=\275S\010M\2758\032\342<q\333\251\274\365\367I\275_M\200\274J\'\r=O\354_<\027\372>\275\020*H\275\254#,;\264\261/<x*:=1r\350<\215\025#\275\310$X\275\366|&\275`\224\252<V^\302;)\032\356\274\323\342W\275\022\362B<\342W\330<\214\177b\274o\026:\275\rH\230\273\201\347\340<@<\343\274l\020I=h6\325:t\340K\274x`\321\274-d\255<\001\037\224<_\311\266\274\006_\373;S\177)\275\007\337%=(0\':\033\2656=\202\377\254;\347\255\271<5y`<~\256\020=\261\013A\275\334\013\207\274.Z`\274\003\267\206<\361O\212;\246\033\021\275`\220!=\\J\t\275gVb<\275\016J=\256\002\227\272\363\246>=I\002\322\274\344\024\"\275\017\244?\275\023*\373<\005\326\035\275\234\323D=Dl\241<kC\262\274\225\025]\275\335Z\327\274\000&C\275&\3231=\371Q\005=,-\007\275\036|\340\273n \225;\025\316\n=\223V\237\274\324M(\275 \322\024=\334\025:=G\275;\275W\207\362\274Xz\323;\203\001*=\031\310\313<\364\330-\275\365P\344<\370\257\272<\300\261\\=\303}\346<\377\352\270\274\351\340.<\n\030I\275\312!&\274YD\225\274\002\353l\273\020G/\275k\271\024\275}\016\357<\366\326I\275\314N.\275\n\310\330\274\177\344\013=S\301\013\274\035^/\275\205U\246;\300\244\274\273Kg;<\367\214\322;\004\362\033=\312\317\025=\025\212,=\221\222\033\274r\377*\275Wy\225:&\310\004=IB<\274\017\201\332\274\345&8\275\177=\217<5\332>=\267I#=\034\275\247<\323\333M8rw7\275\311\272D\275\2744\247\274OT,=\370\221\023<6\257J=v\000Y\2756=w\272\266:\017=\331u6\273\t\372\352\272_\013\330\274\3321L<\240\023\267<\014\241\344\273\244)\025\275f_\035=K\310\270\273\301\370\365\274\2234s\274\365\\e\274\024E\037=h\250\257<\3752\344\273\245\324 <\350\367@=JS\344\2723\217\016=?\236\021\275\371\201\025\275$\377\001=Z-@\275\020U\363<\347\2601\274\270\276\020\275\252t,\275(\371\206<\343b\000\275\250er;\311p\035=\252\030\270<F\357O\2742\270\210\272\321\004\315\274\264\234\276\273t\267\367\274\274J\222\274S3\3629\t\353\001=\231\2551=\210\316%\275:f\304\273TS\376<\371a;\2752\333+\275\305\0351<\240\227\343<\002\007\016\272\323\227\"\275\204\304`:I\377/=R\222\"\275\241e6<\341V;=\246~\'\275\242\255\245<XU\326<{\2178\274=\343\025\275%\276\007<\216\037\037=\354\345\365\274\203\017\260<\215\315\242\274U\221\017\275\037\227=\275\030\021\356<\221\211\004\273i\316W=\212\332\252<l \024\275\260\323\215;gl\006\275\262Q\322\274\232\333 =\242\306\251\274\013\320\014<r\035\033<=\213\2269P\253T\274\255\210\002\275\240\nI\2745\304>=6\213M\275\331K?<A\232`\274\323\244<\275\300\227\301<\237\344\202\273\301\277\022\275s\257\223\274Ha\357\274\010\022\'=D\323\030\275\251 \330\274\225\277J=|A\215\273r\212\307\272v\252M=\374\346\034=\330R\241\274\346\224Z=\226\024\000=\250\231H<P\345\035\275e>)=T\"G\275\235\t\232;\265\262\366\274\230\312\371\274\204\000\326\274d\360\303\274\314\264==s3U\274ns/\275\027\275\257;9}\346:X\333:\275\321\205\031=\315\354\367<;\354\035\275\310T\326\274\352\244L\275\204\320\254;.\356@\275`M\251\274\217\003A\275j\331N\275d\\\360\274\303\325B\275;\022\021\274F\n\006\274\305H\001=\332\324\032\275\177^\335;\252/H=\336\274.=\361\236\351<\224T\341<\345\220\373<\365\354\014\275+\272\026\274\264\342B\2759J\206\272\233\031\330;\216*m\274.\273\240\274R\346<=\354\230\242\274f\374\016=Z\035\220;\222n\312<\026\315\304\274\377\374\275\273\374\303l\274a\177\006<w\030E=>%U\275m\236\021<\201\355C\275\3373G=VRR;\373\214E\275\372`W\275\010\342\354<\271\346\311\274\373\326\344<6\302V\275h\361\316\274\346\342\256:y\230`<\337}\030\275\027H\347<\210\t\312<\261\260Z=\322\276\236\274\342C\226\273?P\030\275%\205<\2752\232\016\275O\337\336<\004G4\275F\2758\275\363\370\364\274\036\020T\274\376\210N=\222\303\023\274~\306\274;\013\326\024=\316\346?=m\270\214\2748\366C\272\022\226\344<I5C\274\332\037\237\272\354m\020\2757\343\036\275y\365\020=\034\274\226\274S\364\205\274\276\001\003=l\202\315\273Z\245\035=3\201\355<c3\313\274\267\336\"=\365\274\365\274\002x\016\275Wu\033=\246BL=\354\203&=\031\251C=\342\022\004\275\213\001^\273\240E\013\274!\023\377\274\201R\326\274X\330\010=5O\222\274\311\300\376<R\302\344\274\240\223\030\275\325\0135=X\245\216\274\3337\026\275})\204\274\317\322(=\t\211\032=\2023\027=\320\317\272\274\374\311\235<2\335\026=\024\263\262\273W\345\310\274\313\310\322<\257\202X=\270\324/=\3135B\275\343\371\244;\357\037.<\326\3071\2745\327\325<Z\246\317<\377\261\357\272\201\362\253\274eR\n\275\\\366C=\030\335O\274\237\266\257<(\305+\274\000~\026\274\377\022\020=\343\010\"\275\242\037v<\270\216J=a\325+\275v\230\221<\221S\014\275\244NP=\304#\200</\354X\274\013\200\025=a\rI=\372\356\014\275\027x\013=\224\307\324<\305+\021\275X-\215<\031\317\266\274\271_?=\033\rX\275\203U\240;\371\004\005=?vS=\312\204Z=\304\240E=,hF=\204\267&<\007\0327;$\362\006\274b\317\261<.\353\'=\3015!\275Va\366\274\316%:\275\231\r<\275/\346\014\275O\344{;\216\315T\274O>\247<\026\0051=_\376\356\274w\325B\275\363\364(=\254\030N=l\336\030\275\334\2447=Ed]=\374gV=\234bI\275\314\024\244<}\3144\275\261)\030<2\002\000=\276:\322\274b\337\214<\350pK\2747\270\365;\212\305\370<d5t\274\373\227H=yB\t\275\027WX\275#e\026;\221\250(\274-]&<\032T&\2754\351R=\326;\035<\"\352K=\304\376\250\274\303\236\266\274\"\364L\275\256\020\265\270y\342\024\274\364\324\376;-\340\240;\343\202\266:\313\232\366<`\207H<c]\"=\356\274G==\"\n<\321j\266\273\263\027\333\273\327G\232<\366\3558\275\335\321\354;C\3018\274P\035\231<\310-\241\273\375_V\275\333\340\217\274\323\203\314\274\323f$\275\2025=\275\273\000\001=\262\273\272\273\r\374\020\274\232{0=?@=\275\010J\244\273\377%\350\274\216\353\367<\352\266\"\275%\325\017\275\376\255\\\274D14=[\016\037=\240PQ\275\357\032\014\274\344\252\201<\322>\203;4\305\360;f\225\276;j\256E<\010\233\032=q;\373\274)\267+=\014B\263\274\355p\326<\022_9=\027\367\\<aii<\355\030\035=0G\327\274\034,\032\275\237\331\343;\361(\260;\363N\315\274\2635\037=8\343>\273\342e\000\275\273\235]\275\001<Y=\263\233\351\273\005\232\335\274\362\260A<\342\3350\275\3572\356<Z\323\371<\264\027\303<\322H\312\2749\260<\275!#\016\274T\035[\274\001\'>\2755Z\021=.({;\345e\'\275I\346\311<\330c>=1\217\001\275\371*M\275C\356\334<Fkk\274\364\270\343\274\376\003Y</?\023=U%1=\200\2116\275\022\374(\275\207\037B\275\221\346S=\201\320\236<\233x\205\274!48\275\354bG<[o\267\274\016\363P<~\202\200<)\220/=\231yj82\354K=f\231\256\273\330M\304\274\267\326(\275\342+P:\355\017\267\274\365\016\022\275\t\346\316<\214]\316\274\201\024(=\031\021?=\002\243\273\274\343vU\275\260o\256<\217\345|<\313\324\337\274\310g\352:\214\277\003\2750\275 \275,P\347<\262\036\256\273q/\322<f\377U<\2405\302:\355\2030=\201LU=\376\354\225\272\345V\016\274\211k\014=0\007x<\\\347\007\275~t\000\275\372\177\214\274\215\374\234<\252\036C=\323\237\007\275\264\363\n\274Z\350H\274\'\326\031=oU\031=\300C\006=\020\362\006;\222%\001=\354\217K\275B[\r\275\272\360T\275\202I\372;\254\202\010=f\370\336\274=\336T\275\n\353\212<\320\335\251\273\2164F<\215\314U\275\004\324\000\275\314a\250\274;\303\004\275c\371F\274\205\3602\275\216\205\342\274\320\216\222\274uE\034\275\375\212\013=\224&\002<xs\244\272R\256Q=\235\334\240<\312\347B=\2348\t<G7\027\274\341\332\262;OV\360\273\237\032\010=a\217\014=h\2037\274\257Z\325\274\330\267\034=`\273[<\370-\236;\000\266\n=#\340>\273Y\034\333\274\031\244\346\274@\245\203\274\020\237H=@Qk\274`~\261\274\245/\371;\321\020\236<\242g\022\275\001?\346\274\337m\250\274\260\207J\275\245\3630\275\337\317\"\275\341\3435<\304\250\013\275\331p3\275X\365\014;\2113\362\274\201\002V=5m\035\275\305\201\337<0|\240<E\374\014\275\313\301\017=L$\r\275\030}K\275\314\017U\274V\2422\274\272\330A\275\306\262`\274\305\310P=t\217!<\014\177\345<*\'+\274\245\204\030<\t\023H\275u6F=\245\007\032\274\351\227A\275\232\277+=;@A=aS\237<\300v\331<\377n%=\254[\247\274\260\315\336<\203\344Y;\241f\n<\335/\255<\327\242Y<u},<r\377\030=\327l2\275\371\254\314;\275\244\303:\264\032@\275\357\220\023<S\221\240<0\205\027=%x\003==\330[\275:aH:\373\202\370\274H\372\035\275\255\326C=4\265\273\272`\347)<)\307\031\275k\314\037=x\220\310\273rF-\275\320\017_<\356\3439=\374\016\n\274\207\315F;B\273\t\275\250=-=&\350\233\274\345R?<*\276U<%1U\275H\315\r\275\330\2230=\327\356\010<G\206\007\275\261a\352<\002\035\377\274q\354\026\275\351\214[=\201-V=X,\3068kE\"\275\2112\235\274f\300\312<\006\377\271<s\375\010=8\2423=\r\203?\274\020\212*=c8\321\274c\033\357\272\ta$\275yh\265<bzH=\001\2311\275\232`\206\273\006h%=mk9\275\372\3155=\305\370\262\274\263f\335<V\022\024=\356\361\320<)u\253\274\345\262\027=@\355\263\274\232\016Y\275\361\n\013=l\300\261<&g =\345z\321\274\r\306Z\275\271\035\024=\3660\204\274\010\251h<\206\0343<u\'\343\273|f2\275\363\013N\272\313u8\275|\342:=\t\205\325\273\023\306\365\274+\270M\274\345p\r=\2508\320\274\200kY=1\216S<1x\007<z#\364<c\274I=I\343\t=\316\247/\275\233\361\300\274\311T8=\332\251-\275!\241\206;\332\206\365;\362\330\022\275:b\261\273\254\334I\275\306J\360<\304e\354<,*\203<\022\333\367<\331w\035\274)l#\275\027\030*=\353NE=M\214;\275\241\\6=\322*z<x2\024=\031\260\006<\220\337\235\274\333\377\352\274\253b8<\030\030\301<\347\331-=\035\010 \275 \001\037=/C\231\274\252\213\213\273P\341\034=t\271R=R\243K=\260\357@<6)\302<\333\037<=k\312\t=6tI\275!\317\022=\320s\335\274\367\316\203\274\377D/=\006\004\006=\014\270\002=16<\275\317l\234\274\014\\.\274\271\354\275\274\021\220h<\377\377:\275\234\023\'=\313`-\275\2411\034\273N\007K<T1J=\255:}\274\311\243O\275\033\303\021=\250<=\275dg\340<e\355\312<\216l\346;\\p\337\274d\300\325;2\241\t=\313\303\360\273\323\'\006=\327`\014\275\014\004U=\210K{\274\0044\244<\000\371\215\273W\024J\2755U\010=\200&\021\275\335#\201\274:R\321\274=\234\036=\335\2636\274\354\252Q<\304\021Y\274\350\036\247\274\230\343\337\274\013o\031\275\025y{\274a+I=}\350N\275M\260\253\274\354Z><,KN=\316c7=\306E]<k{\207\274\326\375\334\272\n\000\246\273\266\353\013<\332\335Z=\223\005\010\275\245o\244\274\205\276\t=\225\2419=V8,=\246\010\203\274\262\203#\273n\220\375\274}\013\'\275\253\001.\275\366\031\200<sM\001<d\033\344\273\373\004\216\274*\212O\274u\001<<\264\365\000=\275\363\r\275w\271\237<P\240\270\274}\010\n=\341\313\351<\'S0=\221r\362\274\207\330\342\273T\257\326\273\370\370\261\274\275*\371\274J\313\314\274m\200\023\275\303\342\214<\361\206\217\274\354\337\020;\325\327C\275 \003D\275\316\000H=\264\263\010\275\217\3676<\251\201#\275\363\241\344<\206BW\275\346\004Z\275m\262!:\347=X=/\267B\274\2203\000=\231\375\325\2740\251&\275\324\2739; \375\304<\333\240\'=\202*\214\274\326Y\346;z\355V<.\313,<\003\361\251\274\201\032\323<\276nH=d\317\"<\277R\016=\255\224\221\271\027\243\255\274i:\243<C~\207\274\301\236\301<|?\246\274\013\024\354<\270\021*\2742\2236=\367Z{\274\334\020\235<!\353\014\275\265V,\275\201\304\361\274\320&6\275W\310\226;\000\014\374<n\2320=q\307G\275w\252R\272\032\214o\274v\277-\275\267\375\\\275\255Y\360\272\305\3001;\357\303\354:Tn\353<i\340#=\271\340\031=I\2452\275\346\220\242\273\244{G<\345\244\223;\306\014\234\274\207\031\220;)\346P=#\034\261\274S5E\275l\242\370<\275\352&=\026\230<;\326**\274\321\215\373<\337\332\205\274\277T\034\275\3259-=\333\244F=\3255b<)*\025<\253\312\331<v\271\316\274\211s\242\274\202\217Z\274_\nI\275\250m\213<\272\r\346;~`\010=Y\tH=\204\352\307<\205\206C<@\242\212<\343\236\005=\346\340J\275/\351\034={\205\224:\002\003\002=\317\252\317<\215\250\n\275\224\033I=,0I=Hb\230<M\223\315\274E\317\256\274\305\020\007\275\350\037F\272\3364Y\275\206\022\274<jQ\327<V\253G\275+\270\357<\341N&\275#\354\335\274\034\312+\274}\031\006=\257&\232< ]\234<\303\\\020\275\033\035T\274\370^\320\274\362\342\376<\356\346\301\274\325\376\200\271j\325\316<\234\356;\275\276\014[<\341S3<o\3628=/AG=\305\352\303\274\301\220\251<8\260R\275M\375<=\314\013\377<\3446\222<\352$\353<E\352\246\274f\364\002<J\224\034\275C0\013\274\265]\343\274\263\271\370\274iT\374<\027Hw<p\266v\273x\241\314\274\032%\336<|%\312\274\305\243\016\275\r|\217;h\255\314<\332\262\313\274t$\031=\353\243\315<q\363\215<\214\0345\275I\202\355;\214\240\315<+8\317;/\333\352\274\027\336\r\2740\305\230<Q\262\375\274\252\207,\2759\325A=\237\200\224<n:\021\273\370\026H=\010 \313<\222N3\275\260\305\010=\361B\027=\031\3778=XHO;\226\004\022\275\246\204\223<E\222\026\275\334x\001\274\315\322Z=\'\033\365<*\256\014\274\237\234\333;\240\260\273\274\000\251T=\230\253\251\274\352\014Q=o\340\271<\263A\224;\236\006H=\326\350 =\022\224\034=\267C\316\274N\216\234<BVE<\215@H=y\024\214\273\033\325\031=a$\265\271\017\341\343<\206\361J\275.^\322\272\021\022\375\273\023\223D<\215\266\225\274\024\305\n=\0248\241\274\344B\264<\325\273\314\272\017;Y;\214\014\341\274S\210\265<C\240\331<\036\300\021=Z\335\250<\r\267\026\275\371b\030=\023\225\221<\343\305\342\274\3278]\275\272\347\025=;\351\177<bT\222\273\274\212\035\275\307$R\275\375rB<\300\375\223;\313\236\273:\235A\n\275\342\374\230\274\247\263\330\273{0\264\274\313i\217\273\014\275#;\226\242\027\275\324\342;=\237mE=\3043\035=\321\007\321\274\010j\331\274d\225\237<\212\256[<\311p*=\364\313\272<Q\261O\274\234\301]<\002\266\010\275\271\237\246<\365\234D=4\250G<\232\273*\275\t\025H=\304\"\277\274\r\002\265<\0251\352<r\357\037\275\212\262\200\274\252J\307\274\335-\354<\335\277\026\273\251yH=)I\322\274\323\253\030=\340\'H\273\200p\204<\251>\004\275\306\336%\275N\327\231\274\351\257\003;sl\014<\341D[=\005.\025\275\346g\232<\302\033)=o\351\005\275\337u\356;\314\215P=y\203\'=\357\035\"\275a\221H=0\033\034\273-g\236\274\026\177-\275\321\351\230\274\312\031\\=\373R\022\275\023\013\006=\251\355\370\274\230\232A\27578q\273y^\341<\023\220\212;\344fG\275\270u!\275\341}\340\273\346U\200<8\304D=e\274K\273\251\016\251\274%\000\234\274\002\022\205\274\240=1;\300/7\275\031F\247\273M\276F=Vq\354\274.)\177\274\021\304L\275\264\035@\275;\254\022\275P,\003=\234\2169\275$\'\023\275Z\rA\275\'L\324\274\365\014O\275\364\\U=\350$\255\274\233\377\273<g\376\004\275\032\277D<\205>\312<:\242\242\274\250\242\363;R\201?=\244E\330:|\300W\275\316\2640\275\247\272A\275\241[\217\274\341\247\033\274y\346C<<\314f<\377\360]<\254\2714\274\343EP=\034G~<\252EK\275U\3419=\370;5=1b\355<y\223[\275\326\352\013\275\333\324\346\274]\303p\274z5\036\274\254\207\312<w\030\002=>\303\014=U\030g\274\007\013\222\274\364\267p\272\340\315{<\353\002\005=_6\347<\322T)\275\210\034\210\274\037T\310<\356,Y=n\027\033\275\213\206\177\274\301\243U<\204\010\035=K.\241\274\200\3574\275\204\346d\2745\024\022\275\264\027\\=\031\300V\275\317\033\022\275\325\2034=_.\002\275\021=\350<\344m\013=GE\036=\203@\276\274\223\240\313\272\360\225D\275: H\275\232\325R\275\220N\'\275Eki<<\346\030=\224=P\275\362\214\243\274\025\346R=\302\3435:\313\240\'\274\247\254P=\317\271\352\274NW\024\275\304p/=8h\033\275&\325\014=n\335\017=\004,<\275\332\201\265<\376E\320;\356n\231;\275\355\\=\201\0252=\200\'\227<K\264\263;\020\253*<\3635M\274AxQ\275\270U\025\273\217\364\372\274y\204\032=d\253\201\274\277\"+\274}f\265<\'\005\227\274\'\211\320:\241\260\275<\224\305:\275\'\233Y=\260\005A\275\254_7\275\344=>\275Q\346\207\273\345\026\240\274\n\207\335<\367\036X\274P\327\036\273\2026\"\275\221\322M\275\2009\016\275ae\345<\254\n\n\275^C\262<~\355==\301\235\366<\300!z\274\'r\322\273Z\007 <*\243\245\274L\251k<\263$R=E\274\231\274\363T \275f +=C\250&\275\227\346E=\335\261\031=\327wF=\3317\370\2725\005!\275(\261\345<\234?]=\374N\325<q\276\004=[B\241\273@\200\034=\311\325\036=\376\375\014<\007\337[=2\326\343\274X\303\306\274\271\335\220\274\202\300@=\257\362Q\275\253k\t=\330S\026=\267\273\237;\263v\033\274/\250E=o\006P\274{RF\275C\374\370<\337A\305\274\314f\343<\263\335\241<I\211\\\275i|\022=t@8\274\017\233Z=\024\375A\273\376\365\345<\3019\241<\002\rE=0\355B\275}\031\013;\351J\315\274*s =i\242\216\273q$\234<,\215=<\275\337\357<g`\005\275\177\305\025=\274\253\023\275\252\316#=F}\010\275\234\261\315\274\177\021\263\274vA2\275\025\237M\273\265\237\204\274\322\204\325<\370\246\025\275\257lX\275\350a,\274\345AD=\021\217\024=\321\020(=\205*\3769*s\346\274\206\325h\274u\242\326<5,R<\232V\316;y\264\331\273\240K6=\\\337\342<&P\200<j\017\225<9\021\253\274-\370q\274Q\345Q=\251\315R\273\'\005\037\274OP~\274\007\260V\275\3712\345;\230r\r=\260\272\010<mQ\036\275\312\355\351<\235}n<lo\211;\361\2274=\276\334T\275[\022O=\247\001\326<\272\202\216\274\345\372\375<\037\013\337<\315\272\244<\211\337\337<\222\203\320<\213|=\275\375\231l<\273OO=~\370\256<\347^W\275E\262\341\274%cx<\310U\326\274\271\010\003\274\321\207)=\242v\355;\372P\307;Q\275E;\256\035 \275\214\r\001\274\037V\034=-\334\237\273\206\251\226<f\3136\275\342|\000=ca\360<\234\366V=.yQ\275\261\205\033\275\022\026W=\353\305Y\275\324\243\027=\234\3713\275V\320\026\275\227\254\320<\016\276\300\274\220aJ\273*\005]\275%\004\345\271\324\265\270\273\332\327\352\274\214\256\225;L\217\273\273\302?\340\274\270F\020=\270O\212\274*\254d<IV\256\274\\b\225<\"\035R\275\216\312\270<,I\224\274\313\332%\275f\351\256\274\301yr<\331G\r\275\220\355\311\274\323\030\237\274\337\302\220\274\364\005\035=NlQ\275w\377\250;\230\244\345<{\037\305\274\255I\223;\2645\267;[\226>\275\321um\274RT\303<\203\222A=\300\035:=\276\201?=,\206\221\274\356\244\030\274\202\244\004<sK\217\274\212D\n=\000\020K\2743- \275r\343\261;/\212\204<\004\353\206\274\207\024f\2745H3\274\t+0=\360\374==H\367\212<8\256\022;\267\324\246\274\270\302G;\275\035\325\274\217h7\275\361\254i<K\267\207\274\357\0036=\215L]=\337\351X<{\247T\275\261b\224<R)W\275\r\255f\273\203\275E\275\024D\330;0_\332<\032\206[\275\331\025-\275\357a\014<=D\033\275\244m\013\275p\271R\274q\032\214\274\300t\247\274\367\227\2767\316\255L=<\213\335\274q\213\022<\327[\347<\355\253\033=\035V\376\272\214\016\324\2745[\\=\016\200V=i\205\001<RE9<\216wR\275\230-F=\304@\347<\266\247\226:INS=s\025\221\274\033\257L\275I\345\013=p\352)\275f\213\325;\206\362\343<\001\020+\275\262\360\035\274\240\0364=\274D\001\275\262\331\244<\336sS\275\t\374\002\275\254\331\254;\303\325J=ID\317<\207E\306\274\361\275\214\273\217{\331\273\t\253\231\274\312\007v\274\010d%=(C\"=x=L=\366v\345;\347\273L=\005\251\376<\265|\036=\016}N\275\264C\230<V\277\005=\245f\212\274\360R\302\274\342u\312<\\\343\242\274\373L==(\367<\275\302\t\275\274\305\223l<x\261^7=\263)<\317\272\315\274G\2453=\324b\027\275\352\371\027=S\000\023\275\227\177P=3\222\226\274\003\364\r\275}\255B=\333;\276\272P\350N\273\263%\036=\2210^\271\321PE=,\321\"\2755\277\024=rw\337\274FIJ\272M\242Z\274bQ\\\274~\036J\275\270\235I\2745\256&=(7\301<\202Q3=4\351\365\274\372A\035={\277\241\274\276\2227\275\375,\316<\227\2340=d=\033=Dk\353\274\\\3158<HUL\275\266\252\350\274W\013\366:s\005\031\2743\275\334\274o*5=^e\036\275C\030\226\273[v#=\213\000\002\275Xl\330;\324\276+\274I\240\\=\335\362\216<\320\260Q=\301/\003\274F]M=\317\250\266<}~H\275\242g\362<u/M\273\346\227J\275\356\352G=\276eX\275\341\355\033\275\346J&=x\020\037\275\306qu:\264C\r=\016\324\233;m\2339\275x\235t\274\373\2413\275\021,I=\274F\016\275\370\027C\275[b\'=\350Mk\274\214Z\013<\002\201;=\003=\222<\254\334\361;6\233\265\274;a\202\274\256\370\371\2739SV<\262\314\340\274\004\3221<\260\006=\275u\265\362<\023\257\215<\252w\277<\304\326p;\210\021\316<$\323S\272@\033\037=Y\277I\274Jn\343;.!6=\214<\026\275\275\013T=\363\247\224<\250\325(=\247\361A\275\236\247\033=I\3748=\353\3058=8\356X<Xm\031=\372\313\320<Mx\r\2757\262\036=rK\020\275J#P=\255\363z\274?\232\223\273;\363\333<\377\0370\274\356d\036\275\030\351d\274A\261\315\274\276\232\370\274^\023X\275v|:=\257\007\335<\3412\211\274z\030\370<\"\224\007=L\371L\274\343\207\006\275\177aQ\275\374\304\343\274f\234J\275\303[-\275\024!\031\275\213\264U<$\021\"\275\217lY\275\301\\\002=\347t[\275\025[\300<\371\211\001\275\333\2201;L!\\\275z-\321\273\353\3469\275P:j<\265I5=JW\377<\314\372x\274v\213\224:\314)\026\275M\233\t<\336\027\274<\345\366\n\275\343\357\257<|B\242<\346\003E=\025\375\030=h\374\365<nj:\275h#\306\274\177n\031<=:\354\274XqD\275v\354\374<I\327\213<\277\205\367\274\364?\263\274\0067\360;\272.\354\274}\211\037\275\366L\031\275\013\027\257\272\200W\330\273\354\265S=@5[\275;\251\301<\371Q\312\274\3300\372\274p0\030\273F:\020\274>w1\275\352\260\310<\214\227\206;\260\321-\275\253#\302\274x\365\037\275\307\257\345;o\033\211\274jn&\275p\016(\275*\3077\274\363U\274\274\336M]\2759X\210\273\237\030\373<gx5\275|^X\274\274](=\233-\022\275\341!,=\200\3361=n\377\013=\266\212\010\275\007\375F\275\177m)=k\377X\275\007\177\222\2744LR\275\363\237\266\274/\377\017\275\257\260\250<nl*=\256\003!<J\372\"\275<\2444\275\344\222\026\275\3007S\275\266\307\002<\342\333\344\273\316R ;\233M\203\273\017#L\275\"\264\242;\353\225\256<\250\323e<\014!\205\274\214)Q=0\300\256<\226F\016<\2076\020\275\310\272\031\274\3350S\273@\335\037=I\306\036=\357\225\023\275Uz\203<\221\003K=\203\035\343\274\253\327\021\275y\022\273;f\014\254;\375\272\303\274\"\375K\275\\\377\245\273$\253\r=\351\322\033=\347|Q=F$Y=\343k!\272\021A\005=\215\232\321<\306\245\177\274\034\307\314<Am>=\347~;=$#>\275\234\372\351\270\264\246B=\250b\252<\240S]\275x\210\206\272jc\324<>\300-\275,4\345<\321G+=\352\353)=\3245\340<zKM\275E\320O\275\311-\362\274:\023\271\274\2072!\275\260\330\362<Q\335\230\272\023\226X\275}\000\264;\351\226\016\275\331\210\341\274E@\213\274MT\362<;<]\274\346\202c<\034\205A<\305\247,=erF=\004\016Q\275\377\301\376:\237\221~<\320\314\017=\250\354\021=\204\212\225\2743\027\350\274\225\201\020\275\341\371\211;3w%\274\3157\364\274\033$\223;\024R\214\272g\331_\274\003\177H=\025\371\'<t\3674\274;,\024\275q\243\366\274\022\214\025=O\0100=\361A>=>\363j<\332\265F<\362\007\234\274\023\256\306<\000\362\022\275\253\250\301\274L\2115\274G\211\212\274S\316$\2755\253\270<\362^\304<a\363\034\275P\010*=\177\376\301<\361\361\230\273\361~\343\272\326!G=H\261\270\274\266aC\275\311\373\377\273B \247\272Woe\274\244\251\002=,\363\247<-\316\224<N\t\007=\243?\303<\244\237\321<{\344H\275\177\3145\273>\222\344<\0063\216;\374^B=\230 .\274\317\206:\274(&\n\275\272\253R\2751qx\274C\360\226<8\240\235;i\0366<\326\235 <\211!\241\273P\346L\27564\317<\n5\031=\375p*\275\0247f\274\226\244\264<\216\353\373<(K5=\005\371\302:\212\303_\274N\017\021=z\267\333\274\220w\034=\314\261\370\273\rgH=\231\251\020=\323\252G=%\2514=\372P\304\274\226\270A\274\364V\034\275\307\030\317<,\022==\256\253X\273\245~<<R\3554\275\260\3702\275\237\363\244<h=C\275Q\3118=U\225<<\024N6=k\372\211\274m\3727=9nP\275\315\330\317\274\320X\301<=\2103<\231u\366;\373@X=\343\030P\275C\027\034\275\313\333\235:\313\324\360<\354Z\016=\250{\232<\271\030@\275\210\352}\274<\364\226;\323#v\274\206\016\'\275\017\020\312<\210\023\330:\0206[\275W\230\264<\211t\014;\217\313\376;\300\356\215\274m\314\273\274\253\231\253\274\2161M\274\002s?=\370\333H\273\304\351s;n\223\005\275\230\035f<M\233\243<\217\301>\275\014,\'\275\254ZX=i\272\030\275:\023\323<}s\225<\313\335\\=K\302\005\275\247\214\365\274\215\1778=DyN\274^d\024=\206\240\004=\220\020;\275\377\243\211<Z\037\005<\326\274k\274` ^\272_\210S\275r\373\260\274\207*W\275\234\314I\275\316\322\034\275\214\037O\275\266zE;_iK\275<\365\214\272\200\266\216\274\305\364\014\275\221\304V=\007\341J=\321H\006\274a\n\265<y\2152:\024\243\243<U[9\275p\265n<\307\201&\275\277w3=M\353#;\302\362C<\200\305\232<Rq\236\274U\263X\274iS)\275 H \275\243\247-=\004\315\030\2758l\262<\274\207\267<\236\026\277<,\345\236\274\304E\345<b\226\266\274w\251\246\274\252Z)=Y\246]\275\016B\276\273\242\376#<(\212\316\274\367\345F\275\244\017,=\025\210D=+\311\266;ui\316\273\007\222X<\216I]=\304\213\312\274\302Z\253\274\024\026\332\273+\227.\2752\177\'\275A2\305\274\3470\200\273\330\351\200<\244\313\273\274\220\030?=\300\273E=\306\301\3458\372\2330\275\227\330\272\274\255\032\333<{\t-\275\016\307\034\275wB\354<\340e5\2756\000\340<\034\226\316\274\315\326\037=\354\226\255\274\342\201J=\310\361\235;\366K>\275R\364\277\274\341k\017=\271\326\023\273\210X~\274y\332s\273\313Iv<\035\030\213<\033\265n<\023\246\000=&O\260\274g\275\313;\307m\233\274\223YI=\376\375\327\274\177\320\245\273\242\375\242\273!H\351<\313gA=\234t\367\273\001\2431=\204$\346\274\0233C=#.W=\026<V\275\304;\271\274\304\330I\275\"\326!=\322!\206\274\302\2353\275;<L=\241\021,=\207\177\312\274\352\005\343<\372\030_<\216\3267=\311[\267\274\227`\021\2752}\302<R\225D\275\031\353\016=\311\276m\274\325Sz\274Q\320\020\275\274_\303<x\330\025=O\0365\275/\354 \273\3177J=\255LE\275A7\345<\331\367<\274\354\201\212<yG\313\274\215\2100<W\3059\274Y\312\027=f%\276\274\3647\327<\324\205\230<~1\227\274nR,<\254\030\353;F\332/=\025.6\275U\017\260\274\"\204+<\244\002F\275\022\320?\274\211\335\243\274r\266\217\274(\254\357\274\365^V\275\r\371\001=\227\2444:\323\271\254\274\351\223\330<\332\027\215<\354\254.\274w\232\230<\320\216\n=\266j\034=\243\220\217:\251\365&=\202SZ\275dn\300<\367}H=\267\374\314;6<\355<1\315\036\272_\n\231\274pJH\275\323%;=.4j<4\244\022\274f\3317=eb;=\307\334\336;\252\326K\275Z\363\203\274\337<8=\312\201&\275\215\222\004\275\321\304!\275\t\232\302\273ux\006=\326^-=`\244\027\275D ;\275g:\020\275`+1<\302\366\223<\377q#\2753<u\274\316V\022\2745\344,=\211\246%=\3407\301<TB\344\272\020\273,\275\302b\020=`o\245<\304\242\\=\231\230\323\274\321N\024\274\274\260\030\275]\341\250;\371^X\275C\342\331<\232/\330<\304\305\326\274Nc\245\274\273\016\344\273@\275\204\274\227G\346<s\330;\275jW\231\274\254Z\254;\266\216\t\275K{\274\274\255tl<\0141\267\274A#k<\265>)=\007\322!\275Y\311\007\275\247\202\364\273<\311\201\274~\361\016<\2738\021\275\350\365(=/y\201\274\202\0350=\314l\007<I\253\263<c\252\032=\245SV\2751F\341<\227\233\235\274<\233\305<\244\024W=\241\363\'\275\3632\006\275F(\374\274\200\2717<\350m\342<{\n\207<\230\226\035<\371\254\001\275x\2062=\347\252\202<\376\225\316<\237\221\211<\232\2731\275Lf\301<d\247Z<S\317O\274S)\020=\240\355\226\274d\277V=\210\335%\275\275\301)\275|\2769\275U{\254<\276_\311<\027AI\275\"s.=O81<\322\350\t=\374\377\343\274\232\307x<t\246\025\274]Yi\273\275\n\020=\355O\034=\256i^<\003p\327\274r^\036;\033\224\374\274i\337O\2753x%\275@\322\222</5\013\275I\270\"=\346\375A=\226e\315\274i\374\t<\"Z\n\275\265\234\017=\352,\364\273\273`\304<J\030\247<\277\302\271;o\215\033=\312m\034=\226Zj\274\365e<<>\017\240\273)\232\214\274\006?\014\274;\327\002\274m\336:\275\256\267\255\274}3P\274\311)\035=nF\365\271\2579\244\272l(k\274\005\252\360<S\376n\274\374\024\274\274.\375\001\275 \202\275<\'\320-\275\210\361\\=\213\240F\275\006\3047=\025<\036=\360\305\352<\037\\Y=\241\320?\275\317\300\361:?X\336\274hy\330<\202X>\273\215\tl;\325\263\370\274\335U%=\243MN=\262a(=\306\n6\275\325\226\341\273\217\no<l\200\r\275#\032\216<\313\251\216\274w*\033=\364e\310\274\367\375w\274\270P^<\227\203V=\335\366=\275\217\323E\274\315\013\222<ej\027\275\006p8\275tj]\275\023\316\002\275\236\337k<\227\261\007<\013\262\202<Z\226\227<\254s\352\274\200\260\036=f?\272\274\322\2437=$\207\336;(i]=\317\366\240\274;>`;\230\361I\275Z\2545\273\312\257\257\274\332n\261<\0319\016=\035\200\337\274T`\206<\317\025\014=\204\336\216\274%|_<$\314F\275\334\342\"\273j\261\322<\227b\253\273\263{\255\274`\2514\274\004Pe\274S\3757=\036\373\231\2747\236)=\240\317\005<\027\3603\274\300y)\275\375\013\263\273\266\202\033\274\030\025V\2752bY\275\010fe<\305x\214<!\256\367<\211\035\020\275\225\014\023=\276&\213\274:\313\247<,\206<=\350~\252<\276\006\217<\336n\261;\266Q\322;\307\371\252\274\273\212\263\273\225\357}<W\242C==\2164\275\3014@\275`\246\246\274\225CN\275Qz\014\275\363\235\224\273\\\276\\=9\225(\275\215\220\252\274\22612=N\'*\275\242\241\003;\357K)\275\356\2143=\004\271\264\273\331\257\324\2748G\272\274\232@\'\275\343\367\345\274\303\263Y\274 \246\004=\272\354\334<\000\0337=\235O\215<H\323\314;#|\030\274\3177\264<rw9;G\034\271:\013\265\334\274w\032\226\274\313\033P\275\225\250\313<=\203\237\274\316\ta<\200\363?=\335\244\307\273\330^\352\274\363\221\307<\277\0366\275\300/<\275=\022:\275\262\326M=\201\2373<\364\245(\275|Z\257\274$2\355<\363\210\030\275\231\377\000=\025.\365<\237\343I\275\341\005\004\275)\251\024\270l\336\013<\242^\322\274\313\346Q\275M\245W=\251O\311\274q2\373\274\256\275\020\275e(\n=\250\246;\274\277\234:<\345\304|\274\006\206\372\274\254\316D\273f\305\'\274\225C\247\274O\320\377\274\347\362\035;+2S\273\300\034?=\357\0232=\371\325 \274\203\036T=,\254\275<\006D\263<+&\333\274\206%\243\274\375p\326\274\324&\253\274m\316Y\275KQ\037;\2031\274\274\030\245\276\273N\252\027\275K\351s<A\036\277<d\300\2539m\005{\274\361\255_\274,\214\014=\311\037B\275fg\221;<\0210<\217\\A=\360;[\275\247\2304=\364\002]\273\227\r\365\274\354\226\247\273/uO\275?6\033= Gd<\267\232\270\274*\200\322<\211\225\'=\304\377\031\275\215\277\262;+\351[\275s\273\205;O\242/\275X\227\035<\247FJ\274\272\363\340<.\316\365\2740\207\310<~\347\036\275\376\262\027\275\311\200\311\270<hS;\200jL=\364K\t\275\271\304\007\275\n.\263<\272\tS\275\322\327*=\023\277\343\273\013\300J\275O\274;=\340\261\341\273\247Q\n=3\n!\275\201\021\366\274\201\264\342\271\344/V\275\025\202\316<\203\357\017;\261\3375\274\213U\024\275\337z\273\274\203# \275|/A<\340\331\001\275\356\220&\275\334\226\002\274\255_+\275\037\303\264:a\225\220\274\000\0345<7\204{<+<*=7\'\275\274\363L\243\271Inj\274t\270K\275\274E\032\274\214\216\234\274\364\361!\275\234\022\234\274P[B\275\323\370\t=\233\010\233<\267\027\007\275\364\034S=P\tg<\213\322\004\275\266/!=\014\336(=\217\277?\275\033\373f\274\001\364\341\274ZX\323:\317\346\323<B\206_;|$\013\274\2735h<\025\266F=\236)@<\3579\203:\330\313\326<%~\235\274\025\376\031\274n\200\235\270\367c*=\250\301\"\275\340\321=\275\376\241\034=\225qH<\215\217\345<\316\200L\273\332=\252\2741\326\365<@\200>=;/\t\275n[2\275\235\r\266<\305<i<\277\177R=$s\373\272Z\351\'\275\2502t\274\346\255*<S\320(\275\376w\003<#\207\010\274\373\036d<\"\207)=\375{\003=M\200\265\274\036\215\231\274\022\311\"=\251/\342\274$\211\003\275\336$:=\264\252\360;\363\216&\275g3I\275\226\"\260\274_R\240\274\376\306z<\343w\212<Y\226\177\274\005\357\267\274\312\345S=\202\001.=\rB\232<lbZ=s7-\275\247]X=\2100\352;(9\312\274\246`\275\274\021-\265<\236\235\'=]u\366\2728\t\226\274\267T%=\312\2016=\267\235/<\271;\277\274v\202X=\004\354@\274%,\375<\223sU\275\273c\310\274\216U\252<6\254\314\274\274N\274<\201\321\323\273\254\326\217\2748<\332<0\010\223\273\021A\236\273\253B\233\274\2657\350\274\266\230!\274\252uH<\266\343\007=\002\205R\275\252p7=2\202\245\274\033\315#=\177VL\274xx4\275~\351f\274+\245\216<\335\266\017\275\325g_\274\360X\375\273D\334\266:\200+\373<\256SK<\331\277F\2753\020\036=mL.=\347\205:=r!\237<h\224\226\274H\026\277;\223\256\000=Qh\016\275\215\225\022=\275\021H\274\250f!=b\010}\274n\250A=\256\240\363;\375Z<=\367\206?\273G\3406\274\035c\307<\247\227\211< 9\t<M\253A=\203|C<w\222/\275)j\375<\354s&\275\314<\263\273\251\350\233<\016K\264<QU\322<^\r-\275\036\233\023\275\323\263\357\274\361K\265\273\331\234\363;\224\200\335\2748\376X=nN\r\275\274\350\027\275|\234\202\274\213\273\200\274\032\354j<\013\277l;\314\346S=\252?;\275A93\275PrP\275K~:\275\020\375\360;\3414\243\274\262x\000\275\361\017N\275:L\307\273\013\212\322\274\336\204$\275\037\346V=\304eR\275s\300C\275\'\342\030\275\377\0368=\203x\034\275tNS=\347\257\002\275GIT\275\315\255\355\272X\265:\275\312}\347<\216\370\030=\321E!:\373uk\274#\024\352;\257\313A\275\025\271h<\221\233\246<iJ\003\275c\352\344<a\024/=YZ\030<M\260s<\312z\271:n\321C=.\232\003=\017\030=\275\025]\"\273\206\272!=\"K\340<3\016\230\272\220\276\311\274\005\312\247<\205\031\036\275\036p&\275\240e\314\274\306\321A=_\rX\275\257z\255<\334b\335\274y\031\353\274fg\006\274PcA\275m\313\210<\224\237\235\272\231\344P\275\324\020\032\272KR\374<\312_r\274\3739\037\275\235Wu<\371\000F\275-\325-\272l/\355\274-\313\353\274\347\270\021\275\005\200\225\274\341\252\306\273~\236\033<\364\312\031=\3420\261\274\322_\031<\265\3423=>U\302\274u\337\364;d\250\364<\277\003\236\274\036\316D\274\307\373\341<\205bM=?\233\355<\247\014\365\273\352f\037<=\035\212\273\325&\313<\200\3649=}1Z=\362\007\367<?\340L<CxK<Z~\201<\027\305\035\2743\260\034=1\rT\275 \272\252\273\314}!\275F\036\370;\314\261\224;\227\233!=\225\2457<\032\004\252<\033\003\240<L\212L\275t\337\322:I\344\213\273\026\244\214\273\325H9=M\212\312<ME\334;\332\267\"=@\332(\274\244\325{<\352\3712=\300\211m\274J~\263;9\254\336\274\220\'\322\274\005:\314\273D\327\010\274\363mW\275<\273\007\275\233~#<C\330\270;P\372\354\274\331\230o\2746R\223<\2107\t=Z\254P<\036xC\275\036\375\326\274\206\214\013=>\201\233\273\353\241\025=P,F=!\364!=8#\272;YcK\275`\021\000\274\341\341Y<\260\266\277<\300\025\t\275\237\034==&\350\373<\010=\007\273\'0\032<7\317\260<I\242_\274{r5\275\347\267\022\275\022\213\014=\0036\342\273\332R\362\274\367\313\001\274\030@(;_\337\'\273\351\233\000\275\363B\253\272+\n\253\273\2616F=\003\363N\274\345,x\274|\000\352\274\017\244\214<R\260@=\201\331D\275&\223\032=\004z\032<\305Y\021=\260m\356<\205\350\347<\365P\025\275\212\367\326<\'P/=\266\327\310\273\316X2\275\314\010,=;f|\270E\273\344;CK\341\274\0361\001\273\346\375\'\2741c\251\274\325\314.\275\350_\331\274\254\216\256\274du]\275\256\315\366\273\321\246\251\274\331\335\t\275\354kT\2744\330Q\275E\210 \274p#\321\274\345\275\211;S+\220;W\024%=X\'\362<7\rp\274*\212\n=\233m\255\274\300\375\210\274\014\355\r\275\230\277\377\274\003\351\321<\306\255D\275K\016\302<\252\024\256;\227S$\275\177\273\366<\313pP\275\'\016\232\274\372\242\344;Z\347\351<\363\313\003\275\203\356\337<\354e/=\333\010c\274\367Y\236<\005\272\316\274l\357\375<2\005\231\272\342O\010\275\007S\252<~@\330\273\203N\315<\331\317H=\375\365\3348WE\342\274c\311J\275s\033\314<1o\341\274\2449T\275\346|\215\274Q\333\r\275\255\356\301\273y(\206<\261\207\343<\343\234\'=\022\221\021<>\3212=\225\205\345<\206\231\333<_\nR<\314\371\353\274{mK\275\026X\320;xH\265\274\326h\242<\205\025\331<\263\214\017=DY\265< _]=\277\321\263<G\275V\275\244?\343<\246\2012:_\277\301<\343\331Q;\010\r|<\340,Q\274\214\016/<\035\320\n<l\342\021=^\0308=^c\233\273\322\316C=\2660\354<\033\003\t\274Ce\374\274\314cR=\345\203\246: \261W=\2149\023= \255;\275l6J\275\006\271L=\366&\350;\326\272Z\275\022\263\215\274\246\271\212<\266f\254\274-\003*\274\333E\001=\225\267Q\275P\0245\275\023\312S<6\275\274\274\336\221[<7\344\036\274\314\373\370<\246u\026\274\033Z?=\302)D\275\004\270\363\273\307\030\352<u5\372\274\005f\014=e\022m\274v\2559\275\013j\336\274\357r/=\342%\305<\255\3029<\270\374\027=\304\326\021\275#w:<g\301\277<~\n\207<LG];tf-\274U\212\033\275\303\0312\275iu\377;\\,J=q\333N=n\314}<\356<M\274:\200C=?|E\274S\327b:\307(\"\272\007&3<\010\266?=\333\373\r\275}\014\232<\367\'\237<\256\370\032=ww\013\275\204\034\354\274\311\350\037\275dy\214\274|\314T=\231(<=\2728\036=x\205\224\273U\375\353<\376\340%=\261\336\312\274o?\323\274\335\204\005\275e\325H=2=\033=\246nQ\275\242\316\026\275\224\270`<B\002\240<}EY<\3215\234\274\277\353\021=\3626a<\252\020\373<H9;=\353C\005<x\204\303<*^N\275\032\017\271\273\321\322\366\274\023/+=u\272\020\275[\251\337;\230\"\344<\222_\266\273\373\'\262\274\201\211\370<\331\231G=4\303\006=\035\235M\275f\272\363\273N\340L\275\024\251\026=p\3708=\000\304\035={s\275\274\221\273\034=\360\374\\=\214<9\275\362(Y=\326\255\375\274r:\025\274\371\246L=@\370\273\274\372\315T\275J\324E\275\2277U\274\223o`:0yK\275\353\206K=\007&A\273)o1=\205\337\272<FT\327\274\257\036\'\275\024\023T\274\364\361\245;v\346\001\275\023\247\274\274;8)<\270\265\"<4=7=:\226\030=\244\335\270;\333\204T\275\253\271\032=7\351\276<qTI\275\324\010P:P\227\262\274\021b\337\274=\335\234\273\355\203\206\274\346\253E=EHw\273\353\227Z=.@.9\025\010,\275\tD\255<\204\214\340<6\003\022\275\276\035\021=\324\323\270\274\301\356K\275\356W\333<\220\344@=\224\240v\274\312J\007=2\013]\274\261\3378\275\027\226L<B\312\003=\020\234)=\353 \206<\027\360\246;Z\355\321;\347\372B<8\021F=L\026]=L^D=\362\220J\272T\360\030=J\364\037\2733-\355\274MgD\275\034\310\007=\016\363\217\274\256F\242<\226\303\232:9\260\006<>!\000\274<\t\n\274\325\270\207\273\315j1\273\016\225\016=q\025\005<x\340%\275\324(?=\365\r\351<,\3258\274\303\206\260;9`9\275\334\002/=\275R\276<n\313\231;\315\2103=\260\036<=\216@\315\273\313\363+\274\367j\027=X\010\005\274+\017<\275\031G\240\274\352[?=\013\001\317<\251\340\343<\004n\002\275\251j\365\2745\2153=\220\366\223\274\230lU\275\205\302!\275\241\307\025=\345\222A=wQY=\364&\021<;\000\025\275\223X\245<+\020G\274@\256\224\2746\243\362\273I\355W\275&\247\001=\361\251\237\273\223d\023\274\372\202V=er8=\220\243\035\275\036\243\222\273\330\342\265<%\223\344<\022P\221\274\301L+=\336\254N=\315U\333;\202\202\226<\262P!\275B\210\267\274\031\303\256<E\2226\275\203*\t\275\022)\025\275i|S\275\355o\200\274\231\215\032\275\260&\021\275\2766U\274{\212\021=9\001\370;\200k\324:\257i\017\275z>\"=F|\373\274NS\001\275\235y\233\274\221\017\321\273\333\004\354\274\177\216\\\275D]\226<\277dF<\226\3710=\340o\241<\205\000\365;\031\017\223<\002Q\267;\370\260\265\274\217\232\001\275\333\204\202;\001\373\355\274\312\234\263\274\357\266B\275(\211\207\274eC\\=\222\230\272<\317oB\275}#\374\274\344\227K\275J\245=\2722\324M\274q\330\272\274\031\2042\273g\371<\275#@\017\275\260\n\327\274\205\226U=8\010\252<\277\366\225<\331%\221\273\244@\'=D9\n\275\272\356\316\274\351\331\346<\304\221:\275\313\364\003\275@\034\024\275)^>\275r\323$\273\226\025\336<)@\007=\021l\036\275\314\222\272\273\373\347%;\214\273\223\274T\313R=\322\310\324<\274\356$\275r\271\022\275\352\\\014\275!A\014\274\257o\374\274]\307.=:)\036\275\222\354\274:g\246\216<q\3537\275y\256D\275\257\030M\274\224\360{<\226&(\274\224\303<=\014Ru<g\302\244;7\232\315\274\024\352+\275\333\244\343\274,pB<h:\023<\316\034\227\274VTJ\275\214\317\202<@F\351<$\3651\275\342\252T=%\245\242<\311\205\010\275\337\317\245\273$\221\016\275qr\017\274\2371\021=\243\240\216<N\273$<\274\213|\274[\366\351<H\320&=_\376&\2745\371\345;V\264N\275\247\313.\275B\333m\273\017\262\006\275\036\320\026\275F\010\036<\201\2055<E1+=8\267E=,\036n<\331,\035\271\251NO=\375\013\\\275y\t]\2755\177R=\177\263\031\275\341f\n=T\002P<\254R0\275{\215*=\301\362\363\274\374.-\275\005DT=.e\236<\274-\016\275\306\263<\275\315d\264\274\264\330 =\035o\263\274\203\236F\275n\264{<\256ES={\0100\275\007\"\341<\305\2507\275dV\022;^\342\223;\342\242\214<h\246\207\271\236\317\253<\365z\256\274|\3119=\352@\220;\242\004\307\273\210\344B=\311\237(\275\024>=\275\2279\252\2748\367B=Z\000\035\275\242\234\312<\n\255\232;\"W\306;c0\343<zI\253<E\377p;\373s2\275\366\306\034\275\034\225\371\274n\270\302<2z\373<\351\265\\\274\2453O=\261+\001;5\351(\274\376w\362<\005H\026\275\247\267J\274P\221F\275\310\232\004=\346\357\237\272\200\237\243<\275\356X\275\377\323\267\272?h\217;?\340O=W\026?=\026\230\025\275N\2757\275\363|A=\220=?;a\010\\;Ed+=B\260\232<e\\+\273Ah0=(\216\342\274\336>&=\2635\013=GuG\274\035.\350\274\003)\004\274m\035*<!|9\275h\3562<\317\201\025\275\207\327\324\274Z\037\024\275\240\353\324<\343zu;6_W=C\364\275<\241\013\033=\366\242\017=\352\210\035\275?R\360;\214xM\275\327\037\350\273C\255\346\274\022,\024\275\256F\240<\242\366\375\274/\341\010<\033\303\024=\351R\242;\252\027r<\351\242Y<56\004\275\214P\315\272\265\321I\274\356_\t\275\340\010Y=^(\372\274@8|<\3024(\274\376\247\322<\215\224K\275CX\000\274\345\351\234\274\263\207H\275\332\265M\274\224&\256;\374%*\275l0\023<\320\\\276<\240\016P=\221\221\003\275\032K\021\275\304\026K=TV\213\273\325i\272\274Y\262\223\274)\354\312<D\317\311\274\276u\r\275\343\233F\273Z\220\220\273\222\323\234<\177\273\n\275\247\240\225<\204`%=\336\307>\274\006\310q\274\222\2165\275Tj$\275`\2360\275\357k&\275\004\351o\274\"8,=<\276\007=\277\356\016=q~H=y\026N=\242D%;~\372\260<\226#\356<`\234$<\357\365c<\203\261\266\274\010\213T\275\305@\376\274VBC\274\024 \352<?\326\014;bp\303<X\336\327;\034kE\275\216TB\274\'\212,\275?YV<\t[\030\275?\310\375<\033;B\275S\360\303<C\214\201\274\231\033\371<\316x\353;5~2<\004Xz\273[\373\312<]\224{\271\204\306\021=\252\277\224\274\212\354\266<\030\036W<\232e\264\274\343]S\275\351TQ\275\270]\314<\227i\227<\0240\201<N\3676<\t#E\275\207\316S\274\001I\242<\226\267\n=>\204P<~s;\275\030B\036=\262\0262={ Q\275\376 1<\025\374\253\274X`E<{\360\340<\343\265T\275\275qX\274\336\234+\275\315\213\007\272\201\313J=u\2343\275\323B\356:\310\2402;\033VL\275\200S\352\274\367z\242<R\002N=\210\227R\275%\233\035\275\322\362Z<\306nG=y\236\275:w\0326<\021^\026\274\222Q\003\275V\247\002\274\3173.=\226\247\006=/\003E<D\371\235\274\272$-\275\217\333[\272\221\322:\275\276\"Z=\337|\201<\245t<\275\217\265\337<\275qF\275\353\332`<\231\343\202\274G\352\215\274\330\341(=l?$;\306\276#<\352\333\257<[\214\304\274\036\334N=\177^3=X\370\'\275\256\2412\275U\210$\275\341\370T\275W\300O=\2032\205\274\271\r\316\274GQ=\275\325:\244;\244\233\017\274NO\260\274\001$\017=\361\240\315<\003\330\316<4\010\010=\2347\231<&?\304\274\003\016i\274\250\t4\275\307\272L\275\347\005I=\223\264\r=\325\220\r=\271\215\n=d\371\304;\303\226U<\216\350\027;\340\250U=\377+?\275\035BR<h\r\266<h\205\262;(\025\305\273\352M\245\274U\256N=\233U:=M\230\205;I\336\346<.\005\201;\204\347\002\275\322\252\214\273\2410\276\274\323\237\247<}\262\366\274\266\247\346<=q\342<<\3106<\220@\351<\205l\025\275\231\024\235\273\247\255\021\275q\251\314\274/\373;;\270A\032=o\340M\275\321\350\262\274 \373\353<\200I\031=Cy\364\273R\360\226:\224\241\351:\013\324\004=5l?=\223(\010;0\036\267\274a\365\374<\364\014/=t\314\342\272w\372!\275\n\321\023=\365\2546<vwp<K\352\252<\362\241!\275\363\010A=\322\035\014<\301\257\000\275\276\026-=\253\002U=5!\306\274l\342\256\274\360\352:\275b\004\232\274\327\255\212<\000J\217<\236FL\275\370\026 \275\206\270\377\273\260\026\350<V?U\275\r\303\204<\005\375\271\274\245\3229\275\230a\324\274\370\307\351\274\267+\030\275O\302\n\275\210g\'\275\036`\377\274n\037\233\272}\361\372\274l\365:\275\244\027N=\311z\025\275\373GX=\013z8\2759D\255<\213J\014\275L!\217\274)\320\030\275\032\010\020<\373\312 =V\003\273\274\335\030\023:\035j\277<i\002\375\274\374\276c\273\321P\004\275\022\272\322<\357\322\336\273A\222E=\345\367\2346\037\207W=;\337(\275EGw<,\341\023<\212\267=<y\200Y\275\030\337\342<\215\273\t\275\310\320\324\274\345\2706=\325\375$\275\370\243\032=u\346\022=\222\232V\275x\026\237\273}\r\331\274!j>\275MZ\206\273\230\344#\275\221\205\357<\203\267\341:,\027O=\377\036\271<\362\236(;\2448/=\300\355(\274nE6=\343\345\033\275\027JJ\274t\225\215;\002\352\227<\027\rk\274^\275Q=\037\357\274<7\t\346;J\304X<\363,\003=\363u;\275\307n\337; OQ\275A\302\332<+\250\301;\316\335X\2756R\362;\214\010:<IZ\353<QW\"\275\204\275\243\274\005i\354\274\241~$<+\306\271<\357\004\371\273\333\326\030\275}\223\'=\332\330\t\275s\272\024<b\254Q=\203\210\024=\000\366R\274\365z\204<\342\237\277<\355\313\255<E\313\016=%u\227<\177\236\022\275\364\370\\=\363\326\246\274\236\265M<\366\226\220<y=\023<\\\236\031=<;\357\274zS/<\244aL\2755\203\370\274\224\3148\275%o\252\271O\252\037=.\344.=\000\317\024\2752\365\016\275\032\374\337\274\301\325\214\274\317\304\010=\003\013\204\274\215\025R\275B1\346\274\346\324A\275\032\241\0338\030\ts<\271`/\273\033\246q<\273\304<=\024T3\275>5\'=*\332#= ?v<\306\270\304<dsU=\321\253\334\274\026\364*=r\355\305<+\004\373\274\360\313P\275\337\343H=\332\362\023=\360>F\274^[+=D\235.=\313o\335<\221\217\223\274pPt:jU\243<\3716\024\275c\240X\275.]4=\207\333N=\021\001\\=\222\206\307<\246\035\022\275\367T-\275Q\243\020\274\351|\320<\311?F:q)\212\273\224\307\373\274\026\365S=X\252K\275\001;\'\275\321d\230\272\322\354\027=\263\210I\275\212\251C=z\232\377<)\265\213<\307\215\301\274\375\303\n\275\006\2202=\035\372\'\275\035\233\374<\260\266\231\274t%\260:\270(+=\374+I\275d\366#<j2?=Qu$;\337\243(=\010\211\213<\374\3069<s\261V\275\365\3110\275y\322\3129\034+E=\276\002\277\274E[\344\274\267>\350\274\304\336M\275\037\373A\275\341\373\217\273\014\275\257<\016\304\363;\214\266\216\273)\035\331;Z\350t\274\337\'.\2757>\336<\343e\005\275\010oG=W52<H\343\311\273\250 9=\016\357\324\273\272\023\031\275\313\0070=\023\251o\274\372h4\274\247\2753\275|*\017;\026n\240<\254\333\303\274\355\333\033\275\342\240.=>\276\235;\342\334\363\273\365\013\033<\n\320F=\347f\007\273\232/\275<\326}\254<\016\250\356<\317\323\322<8\345\336\274\253\236\311<\027S\352\274\210\0013=j\312\024=\026\000\001=\304\276O=M\031\325;\233\022\277\274!\314\360<;\277\226\274*\310\253<U\241Q<\2024:\274\202\215\271;\n\'\224;e\276\033=\260\302\233\274\352]\336\273\261\322\001=\321t\035=\347\312(=\331\025#\275Sa\335\274VG\327<t\005E=\261\356\r=\\\327\001=y)\027\274\352\262\035=\357\0235\275\235\013$=3\343\"\275H\323 \274\034\344\362<\337\370\322<V\304\264;\255RF\275\264\\8\275\274\r#\274\037g\217\2748\356\362\273\346\021R<@\177\217<\3502\210<\332A`\274U`G<-WL=\262U\024=(\304/=\210\"J=\354\032#\275\362?\001\275=\312\323\2739\214\013=\346\213\323<6\310\025\275\253\036\203<R\275O<\217LR\275e\216&=Pr\247<xoI=\177\364\010<k\360\020<\363)*<\0003>\275\025\010&=r\210\270\274\272\027\301\274\321/\375\274|\206\325<\251\216<\273\355d1=\337\344\035=1m\275\274j\234\033:\371\206\024\275\177\3239=\277\030\345\274\030\255Y\275\312$$\274\3542\025\275\347\2545=2Q\'\275\352]Y=\330\210\t\275\202\025\271;w\027\260\274\355\016I\275\337H\034\275\201\272\004=!\024P\274\313\265\037\274#:\315\274\267\243\001\275]5]\2756\2409\275\253\\W=\332;\010\275\017\177\017=\342);=\255\230V<2\203\005=q\014\307<\217-\026=\257\026\254\274\006\365\347<\333\030\\\275\327?/=9\027@\275<\235%=A\024\266:\225\'\336;\035:\323\2730\303\'=\301\337\021<p\005\002=h\204\'=\r\267\001\275\r\227\334<\246\334\r\275+K\311\274\247\341T=\026\272Q\275\326\233\366\274\275\376\317\274\373\\\004\275\354:T=#\013R<i8)\275\237k\036\275\363\335b\274\264\341\322\274\307^(=\021\360\231\274C\322\\\275(\240?=25\030\274x\2332\275\235\367=\275\326\344C\275\357\304$\275o\2256\275\304\247\033\274\216H\314\274\0266,\275\377H\300\273V_I=\375\231\021\275u 2=\006P\025\275I\\\252<*]\364<\315\024\r\274\270\244\r=\004~\271<\204\330\273\274\357S\342\274\010\230Y=\\\341\033\275\373\270\360<\277\324\036=p\013\037\275\361\'U<\355\234*\274\202\020\366<|\\9;3\243==\006T\365\273e\002&\275\275\231\3109\026\3103=\306\237\030\275\250\277\306\273MIf\274FX\220\274\357v\222<a3\224\274\360}!\275\254\210\336<\001y.\275N>\354<\373\363h\274j\303\211;zWD=\255\302H=\335\345H\2759eI=\371G\337<\255\031\025=\204QP<@>\312\274\303\013X<M\003\331<\207\270V\2751,L=\377\354\324\274\3070?\274t\3155\274>*\016=\320\232\006\275\203X\343<\2528\006=\020\301\265\273*\261\001=\033\340\365\274\263?\034=D$M\275>\231\005=j\364@\275\226\305\200\273\303\334<\275T\370O<S\311\023=Hva<\360\267I<\267\377\365\272\2338\334<k\240\376\274\301\322\"<W\032\264\274)\276\017\274n\236:;foQ\274\225\237\221\274\200s\360<\323\347\022\275#\322\264\274\0030R\274D\254=\275\272\3169;}\351\310<a\372\251<?B\323\273r\227\223\274\026-\024<\034\256\227\274\364\236\354;?\261\317\274_.:=\345O\374<\370;;=\370\245\363;F\376\233\274\323\250J\275\353\211\204\273R\360\200\274\230\233\350\272\225\315 =\376\025K\274q\330\221\274\n\253(\275\021\273\204<LI#\2754\241X=\266\2220=\215\215c\274GqP\275\240\355\375\273w\003D=\225GD=\341\316\362<\350\342K=)\333S\275u\245\035\274\340\365\256\274\017\374\342\274\211\227\375\274*\352\024\275\230N\334<\r\321\316;\253\006\213<\335r\225;|g\030\272\362\214\310<\034t+\274;\331\'\275\201\215\027\275P\234\013=\177\336\017=\222\211\032\2742\177\256;\014\245\032=\304\321\017<\017\363Q<\nsT\273T\350\n=c\0061<\3156\270\2744\322Z\275\345\010\025\275\314\372\024\275\315yi\274\372\233\034=.\262\334\273\244\256.=3\314\242\273\332\\\025=\n@1=\262G\033\274\226\301L\275_\245i<9Y \275\334\313\211<>0\371<GnR=\375\346>\275E\273\370\274*\002k9\264QI=\302Y\024\275d\036\"=\367)\357<\363\034\"=\210K\257;\002;\020<)7\016<>\373Y\275\331a(=\340\007A=(\037\001=T\265\215<r4U\2753\220F\275\304\273\362\273[y\206<A\225\026= \206#:`bG\275)\0130\275\322\231\256<\341\235v\274\267\270\233\273\251?\235\274\363p\246\274\010.4=\310%<\275\337\353?\274\365j\334<k\031\016\275A\257\223<\230\\(=\351\246\215\274\220%\272<\353\354\245<\324\233=;?\350\276\274\235\360Z\275?A<<\032\343,\275\246\031\245\274^\365\"\2748G\n<\347\351\203\274^i\356\274\001\360V=D\213K=\321\"\013<\277\254\220\273\004\237<=\020\316\"\274>\246\036=\357\2679=G\3124\275\r\232\206\271v\014\022=\026+\201\274\272\213\027\275(\345\331<\254\376\305\274wO\031\274\353\316\233\274\236\004\241\274D\327\314\273\237\270\036=\004%\357<O\227*\274\003\013\375\274\374h\236<Z\224\007\274\362\360\254\274u\327M=W\020\010=\023_\t\274Q\210\333<\202\3650=\266\360\004=\344k\010=Q\340\023=$\256s\274%\372\t=3\3519\275\002\302\323<\027\340Q\275\356CF\275;\3278\275\'\301\203<\346`\233<\337?7\275\372\271\222;\273*\306<\221+\346\274K\010\273\273H\355\254\274\244\261\224;\245J\200<>\375\\=\216\260\227;:\251f\274\013S\337\273,\277I=\201l\025\275!\000\021=0\254\017\275\374@W=\315?A=\322>Y=B\020\214<Z\207\272<\323\343M\275\364&y<\222\2416=\267\362G\275\rl\341<\237\002n\274A8\216;\230\240\031\274\233e?=b\342\027\275?\316==o+\347\274m]2\275 s\002==\241:<\t\220X\275k\317\005\275/>\353;\361\033\010=\326s\315<\372\277C\275\327M\206<I\240\365<\315vm\273\032\3758=\362\251\271\274\374*\343<=\362\372\274S\350\017\274\357\3245\275\330\306\204\274 8\267\274\357G\002\275\242-Y;\023!\227<U\205O=\377\217,\274\353\252\013\275\004B6:\355\236\354\273n\267\273<\200\017\341<\002?S=P\313\025\275i\241X\275\357\027\317<\"\302\217<[D\260<\220,P=\327\023\026<\t\013\371;\207\327I=\020\177\030<\337\365\027\274>\201\260\274\217z\325\274H\3529\275\227e\007=\276+%=\017Q:<\375\301,\2754m*\275\003\2179\275\202\222\345<Lk\367<\002\275\036=\001iE\275\032n5<\2329\373\2744A\031=\312\211E\275F\360\246;A]x\274\244\nG\274\273o\"\275L\265L=\002x0<A\325\2529\352>L\273\235\262\023\275h#V\275\033\226\026\274gz\007<\017\344\031=\223\341>\275\323\376\350<\375\001>;3m;;R\363\226\274\366\3174\275\001V?\275\216)\221<\347k\241\274\234\237R=\350\304\376<%L5=\330\234\217<\303\345\031\274g\204?=q\005\351\274\302\366\035=\311\361\351<U\262$=\227\003O=\033\n\r\275\327\266\023=UwR\275]\301\n\275u\325U=\004\214\215;zG8\273\25034\275J\341\375<\363\315\226;\210\214N\275\203]e\273CU\255\274\341b\360\274p\321\376\274h\273\337<|\254\020;\346U\260<\212\262\307\274\266\266\206\274\024E)=:\365A=\374\302\230\274\352\270\237\273\245\322\275\274\227\371\032=m4\316\273f\272Q\275-\210?<\274\231\021\275F\224\340\274\002x\316\274\316\037E<\034bV=;FY\275\311J\006\275\230}\024\275]\202\036\275f\310\357; \244\214<6\361\350<\201\266\360\274\362\344\213\2748g7=\340\214\376<u\2577\275\255\033\t\275\302)M\275\313T\013=n\251\034\275\212C\306;\243 ];4n6=\246\376\335\274M\3567\275[_Q\275\300 %\274\237\376\031\275\256B\333<l\362\231<\375\242\220<j\027\353<y\235C\275\274\324\n=\264\341\357<(>G\275\351\206\317<\232\232\2058\320\023\361<\241\2002\275\256\320\263\274J\034\301<c\372\n=-\321\034=\253{#=\245;\367<YJ>\275\253\310\300<\334\214.=\251\267\337<\362\307\345\274\007\0343\274\331\301Y=n\256\275<\016\337#\275\216b\315<\322\271b:YY\035\274\000+_;n{\010\275o8\002=\3318\342\274\244\362^\274\177\312B\275\025\276\032\275B\340\361\274rM0\275\340b^<F\305\017\274\032\275(\273\227\325O\273\010&\361<j\374K<\373x\270\274\370\277\336<\335\201W\274h\017E\274\222\227\023<\007\370$\274J6\326\274\363\276\036=\325c\031\274L\3174=\033\014\242<\213GL=p\245\t\275\345\207\2409\336S+\274\036~5=\374\323\277;\311\261\350;b\2660\275%\270\273\274\024\340\346\274\213`\\==k\260<c\230\032<\200\232\232:\307\3122=\243Fj\274\277\373F\275+\240]\275\025nO\275#\331\t\275\233_)=R\304\020=\001r\216\274\325\014A\275\'\323\001\275\302w\272<\3717Z\274\237\250R=\322P9\275FR\201\274\311\211\376<jI\246\274N\3720<\212\264\033\275\355\212\021\274s\374\362\272\213M\2748\323!\022\275/.?=$\363\\;\206.6=\245\253\367\2744R\274\272X\303\327\2749\274\272<\254\272!=\351\0057=6\034\347<\022;C\275\320\366\234\274v\206\206\274\300\031\337<\363<F=5\220\323<\t+\024\273\353\203I\275U\356\347\274w\2464=m\0334=\032\323\332;]G\2408\324\267S=\212)\316<\0305\025\275\010\375}\274\023M\217<\313z\025\275\217r\353\274V~+=\032\235\347\274\277\272\014\274yG\013=\253#\016<\305\257\260\274\347\0230\273\030\266`\274\2751r\274\230g\001\275\206\275=<%\023\304<K\360q<\010\232\026\275\347\213:\275,\333\252;\366\211V\275\0268&\275y\\\273\2739\275\200\273\\\240\027<{\325\257<t\314\345<\031\371 \275g=\334<\343!\026\275|;E\275d\373\246;\276L\034=m{\376<\177\036\300\274\300iJ=\222\361(\275/\222C\275\223{\243<\351K\000\275\212\002\363<.\337\364<\344\274-\275\"\352\254\274\005\262\017=Gu\324\274\301D/<=\005\r=\351}@\275\020\334\226<Z\276\350\274\212O\214<\327\302V\275X\241)\275J\274\310;\213,Q\275\262\334V\274\2377C=\243^\"=\357$;=\210\023\007<\204w\004\275\255\214\016=\220\177\277;S_N<G\241\250\274y`)\274\177\025\322<n\235\003<d\204?=\346=\357<\220\274\r=@\304j\274\377\370\001\275\222\\Q=\227\036\000\275Kd =i\016>\275\327\335;<\301\024\227\2743\267\351\274\247@\215<\260\355\022\275s\362\213;$\2160\275\325\357;=\306CA\275\237\332\"<\005\310\230<\267\246\177<Dw\020=\3065I=\0209\030\271\334x\326<x*\273\274\341,\035=\340\340\320\274}\3300\275\025\315O\275n?s<\317\227\375<1\020Y<,\351\264<9\273\276<\240$\220:;\'\305\274\303E\370\274\273\370\000=\342M\010\275\217\220\006\275\030\376\271\274\013gY\275Jd\t\275P\357\217;\033:\333;m\270\021=Y(M\273\250\3436=e\275\344<\374\323\026\275\002Q\317\274\033y%=Q|\023\275\026\367\'\275\344W\234\274`\002 =\232\010\371<%\300\"\273\276\321\312\274q_\261\274\355!5\2753\243\370\274\\\'\233<\2377\353<\033\354\237<\000\005\337\274\277\203\273\274uu+\275\320\t$=\330\261^<\223U\352:#:\215\272\023}\225:\257\374!\273\207\253\241;w\274\032\274`\335 \275\037O\203\2748\032\372\273\261\216Z\275]\360\026<\000\237F=\317\'F\275\016.3=J\270\372\274z\336+=\3647@\275t\357T\275\006eK=\377w@\274V\312\003=Z\350H\274#\341\244;M/X\275\\\277\325\2749\274\237;A\226\\=N\rY=\3002\334<\304H)\2750\2114\275\344` \275\226^\377<\305\254;\274\272*\274\274\266X\267;\300\265W\275/\005\343\274f~\014\275\261\370C\275\037\004\264<!\010,=\216p\032=\366\250\022=\254 \324</\303(=\031x\010<\217\205\021=\334\002,=\276\260\262;\301\236&\275\212g\013\274\326*\034=\334\031-=L\002\t=@\3245\275;\213\276\274\230\003N\2751\\\026\275\337\352(\275\277\203\036=\r\260\"\275\342\3019=(\276\035\273t\321Y\275\242\305\371<A\307X=\024\002T=\324^\316\274\032\036I\275\212N5\275O\3465=`lB<\\t\366<\234\213\035=\303(<=D\264\250\273t\360\000=\246\204E=\034\227S=\256\262<=~\240\226\274\263\274\016\274\310\002\213<\023\031\313\274Y?J\275\213\033\\=\n\257+=\357\024p\274*\033\364<\221r\014=w\325G\275Tsq\272k\253\032\274d\247\346\273iw7\274\363\275\270;\327p\357<J\355G\275yo\320<\3574\022<\320\326,\275P\236\030\275\277\237\364<Z\354\361<\317\210E=\nM\t<\365\367\255;o\303|\273\035\214\n<\276h\253<M\334\256:\351\223\356\274\0067\343\274BT,\275\001\261_<\036\346\205\274<^\341<R4T\274A\277O\275\302rT=\241\321\335<\303\202a<\347\311O\273\227\211m\272\236\302+<\2570\236\272\243\215\260;\014\354\370\2740\340\322:\316#H=-\327E\274\027\2532\2757\007@\274 Rc\274\347\213\360:\r\306.\274\202D\006=\365\374\037\275\353`\201\273\227T\270:\236b\232\273\334\330\230<\326\203@=\275\367\274:#y*\275\240\237,\275_%@\275\341\375<\275J\223v<\300\204\230\273\227\352\030=Uj\234\274t\222\327<0@\020<BNd\271\202\3127=d\352F\275\256\235W<\317:\260\274\027_1=\273\213*=c\221\003\275\231?5=\236I\007\275\333\022\213<\007A,\275\336\316x\273\013\257F\275\246\345\037<o\274\215\273\361\223\250< l\002\275U\325\017\2759-\333<Co\033=\000\336B=\\\271!=>\0378\275\255\225\017\275/n\002\274\326}\244\274\273\257\263<p\230 =\351TA={\3237<\362P#\274\036\013!<\256\253\363<m\311*\274\357\004j<\336\356t;\037\'\243\274Bx\027=\254\371K=\214\013\006=\r\373\233\274J\303\021\274\267\300\215\273\360\216\t<\201\013\025<<%\224\273\221w\306\274\243\362\252\274\024\033<\275?\312:=\365\302\354\274\3641\372<U\276.\275\243\365I=\3171\326;\375\363\206\272\371\3753=ja:=\022\302\227\274%\313\235:\242\2503=!\\\273<\244E4=\220\240\241\274\353\234z\273mM\036\275f\277=<\214X,\275*`\346\274R\035\221\274o\354\032=\224R\227\273\361\322-=\315b\r=\267<\257<\204\036\302\274Kg&=\340\331>\2750\307\026<\261l\030=\230\027\333<g\341\023<\263\231=\273gt!<\016{>\274\202I?<8\037\320;\324\353I<\030\254\214\273\223_\271\274nWt\2740-+=\323\212I=\356#\205<\371\227\234\274\2005S\274]\252X=T\354\002=z\006V<\264\335\373<!\025@\272\'\230\006=lt\t=<Tb<p`\027\275\374^X\275\246{\r\275\330~\022=\336\217\033\275d\007\302\2745xO=\034e\021=\004.\315\273\376\335\004\275\375\036:\274\300[\260\274e\210\000\275\314\312/=\021\227X\274\031\274\315\274\'\030?=\322W\353\274|[\037:\370\004\363;\200\263E\275\250\241\022=S\272\003\275<S\000\2759\340\002\27542E\274\037\031\3769\366\252<=&\301\027\275\017y\210;l\320<\272\2453\016=\253\365L=\332\215$=s\357\204\274;\361\320<rO<=i\233\036\275\372\022\340\273o).:4\217\300<\0021\345<\035\306\315<\250\302\n\275H\271\010\274\262\004\326\272\377sF=\205$\370\274}\226\006;\251\027E=U\'\346\274\336VK<\366\205\210\274.\272\007=\332?U;\350PK\275I8p<\021\277\347;\007\243\234\274\376W\004\274c\322\002;\030 \303:\354\366\313\274u+\276\274\274\230\325;\034\027#\275\255\362\037=\006\376\001=,\004\037<\316\227=\2756\254\202<9\3606=7}\221<q\344l\274\246.\250<\362\267L=\256\312v\274+h\243;\026`p<f\373\006=\243\3368\2755\261[=\320nF=V\276\t< e\327;\347\302\257<\322:\207<:\'\025=\277\013/<\335l\266<\327\006?\275H\261\002;9\352\003=\025\350\256<\013Z[=Q\\\001\275z\017J=\3233\014\275\252\007\027\274~4Z<\2661D:o1\376:\340dg<\364\376\004\275L\363\366<\255$\252<\252\257\253\274g\223\367\273\213\363O\275fp\240<\213#\313<-\2457=\177\002\371\274 TW\274\312\335\016<d\336!=\260\320\236\274K\322\000=D\'&\275\013\347\247\274\347\306\037=\265\330\223\274@\330\200<+K\210<X\260C\275\347\335?\275\221\375R=i1h;8@\234\274 F\333<o&\005\275G\230\226\273\361\202T\275\242+\016\275\341\337\242<&\3122=\304\301\263;b\035E=\202j\031=\251O%=\210\242(=\365\2403;\304\225\026\274\'\033h\273\366\250\330<\334\335\210\274?\2205\274YJ\227\274,\207\002\275<*U;\207\352&\275\345\370\251\274y\363\335<\334\2620=a)4=\344\304\254<\306\306F\275\342\274\360<\0163P<\032\242\215<C\034\223\271\236\311\027=\315\264\347<\325\3644=znX\2755\377\372\274\255MI<\030\335\300<V\211B\275\317\367\273\274\347>\025=e\233\370<\314\321\245\274\316\233\323\274\210\375\030\275\312U\200\274KP5\275\037\032\377;\031\035\036\2759\313\r=\244nU\275\3677\363<\t\312\221;n\314#\275\347\244\231\273\233\232o<qk\r\275\226~.\275\t\343Y\275/3\220\274\n\r\333<\177\006\366<\360K\263\274\033F\355<\036em<K\025\003\273\207\244\333\274\376\327t;\002\nZ={\002\337\274\034W2=\264.\313<\270\321\261<\370\032\301<\3125\215<J\200\341;w\207\270<\013\365?\274\332.,\274\265\316\214<28\371\274z\377K<\212\313\210<\227\260\342\274\205\357K=\232V\314<\233l\032\275\325E\232<\2049$=\276 \314;\273\325\237<\224a\304\274\004}\020\274\355\333\217\274`I\334;|\367*=n\260 \275W\212B=\002\243\020\275T\323\000=\202\0133=\323\017\343<\272\356C<sA8=\264S\277\274\204\364;\274\022{\217<:x\300\274\226\327E\274\202\311X<i\204\303:\025\236V=fk\211;W\314\322\274/a\'=\021\231#=\341\225\001\274O\254\206<4\217\r\275Y\325\365\274\344\006\234\274\244\326\257\274\365>\343<R\2618;}\307\373\274\311\227\020\275F\302:\274\200FW\275,\347\236<b\366\252\274\362\241\224<N!S\275\245{R\275\335\325P\275\027\345\236<\243p\265\274Xw\014=\250$R8\267\221&\275M\2340=\312\006R\275\202o\353:\023U\233\274\177\214H=\351f\353<\354%P=\212\251\007=(z\230<6\350\227\274\030&M=\273u.=\214\314\210<\242\270\202\274\023\345\000:\324\016\002=\355\201z\272`\246\304\274\334\361\370\273\261\246)<\007\327\363\274Nu\t\274F.\352<WVV\275\211$\002\274!g\306<\347\361\004=\377\332m<\031WE=\376g\n=\222C\311<\035\345\242\274\354\335*\273Q\006=\2742|V\275\312R4=@R\010=\254\031\'=p\\\251<;\323E=\016{T=\351\215\376<l\0249\275\250\305\310\274\242K\016\275\t\301\016\2759\002}<\210F\271\274\251\033D=^\200%\275\035\234\241\274\373\306D\275{\264i\274\337\n\352\274\363\351\004\275\366\331b;a\374\251<\223\307\303<\243\025-=xd\250;O&(=`VS\275[\313S\275\361o!\274\"t\036=\261\'_<\266\344\r\275\206\313\000=\276>3\275\260g#\274\317yp\274\333\326)<\017>\277\2745\020\322;\036\262y\274\014\345\307;b|(\275\372\210\313<\'\366\236;|\333\20295\262\342\274Qa:=\345&W<L\353\000=Ce5\273\210\030\017<m\2052={\2741=e\271 \275\035\2342\273!L\300<\363\305!\275\312\364\223;$\273H<\244\007X\275G\232\026<e\211\254\273d\227\023\275f\272\315<\r\337\327<+\3623\275\303y3=\266\211\000\275\253\327\017=\355\262\306\274s\276\000\275\237_\\=-\340$\275G\0033<\230\201\005\275\347T\226<&-\320<\364\324L\275G\014\270\274d\020\371\274\242m \273R\357\331<{\364G=\t\343-<s\243\261<)+\030=\255\257y;T\006\333\273%\231\276\274]g\243\274\272<\"=]\233R;\356PZ\275\213g\033=5U\231\273,\222\257\274\332N\210\274\225S\371;O\206Q=\235#,\275\031\363\325:\246\356O<<\221\263\274\000\n\030<\351\010\037\272<\357\235;\335\210W=*\010\371\272D4\302;\251H\245\274\336\375\332<C\001\021\273d\260\020=\245\207B=\021L\002\275\t\210\014=\302\016\030<\361\016U\275\233\212\022=*\220\313<\203\256\033=\227\0203\274\205\367r\273\017Xv;j\340=\275~\0036=\020\3707\275Z\274R=*\2462\275)\276\000=\256b(=\005zE\275\252\323\331\274T\005<\2759B\300;_\372\002=\353\204*\275\317L\274\273\276Y\366<\307|\340\274\005Y\n\275f\231\025\275\337\315k;\303\333\252<\330N\\\275\347\274\247:vqB=\231\361\033=r\355W<\001\306\";\215\361O=!\007\362;j\027u\274\324:\226\274I\345&=\270\322\345\274%J6\274S\265\003\275V1N\275\355\014\036\274\210\322\230<\232\300E\275\017o\331<\246\247(\274?\301\035=}=\"=W,\361\273\322a&<\3511\240<\323\227&\275\313\217\355\273^\"\026\275\034\231\030\272 w\026\275\362\250C=v\266\352:\r\006w<-\257\025\275\226@T\275\264\373-=\223Z\376;\020\177G<\327\244\217<\351S\340<_ \317<w\305\271\274\005?\007\275\0246U<\036\336I=\276f\316<Z\375\024=\332`\346\273Y[%\275\2532O<\247\233\272<<\014,\275\223\007\323;\242J\211\274\327\260\203<R\370T=\177\237\314\274\2618\026\2753\013@\274\352\212\027\275\332*-=0\014\234\274#\004\'=7?(=\220\347\006\275\327!\224;.Y^<Fj\331\273\234\275\022\275\013/k\274n\271\242<\230\313\243\274\201\017\177;4 \255\274\226\263\r\274\320\026\363<\363\177\001=\333+\263\271\213\371X=\"\211l<\356\331\245<\202W\223\274{\242\023\275\005\002@=\204g%=J\350L=f\343 <*A\214\274\232\3552\275\t\373\032\274\320t\265:SG\036\275\007\244y<\t\3519=\225\215\236\274\236kn\274\232+\366\274\277\227^\272?:N=\362\342\325<v\3329=\314\267\023\274m\002#\274\004\261\251\274u\343\344\273\241bN=\204\272J\275\r\0174\275\346\370\000\274\247@9=\360{G\274\032` \275\003vM=:\354\270<\3122#=\356\034H=\375\211\307\274y\210\234\274\2273\034=H\256)\275\314\303\037\275>\237\025\273\300z\024<\035\264Q<\335.4\275Z\2169=\223\306\342<\003\325{\273acP<.\306\230<\310\276\006\275\274\347\355;!\317\353<s~/\275H\265\244\274h\247J==h \275\373(L\275\377{\321\274\247\006q;&H\243\274\344f\003=\272C.\275\376_@\275#\202\223<\351\363\205\274Rr\014=h`\'<\026\233/<\032\262\323\273\314\202l<\215g\314<\\\3128\275\222\217w\274J\"?=,\275h<\215\221\350<\033y\035;\024\277\356;9\375\200<!r\257:fj\236\274d\362\'=\272[\025\275\022q\t\275\326k\276\274>\352\000=\373J@:\033\225\363\274\234\230D\273\021\340\245<\336}\314<0\010\006\275\226\332`\274e\206\256;\310\362\313;\254ZF\275O\303\026\273>\226\022\275\316\254#\275\004\372\001\275n\231\213<;k\017=\304\224\253\274t?,<\212\306\006\275\366\354\247\274\263r7\275\356\342\274\274\003\033\355\274\2561\271\274\321B]=\300\3471=\323\223\'\275\247\337\364\274\335A&=x(#\275\376\305\223\273R\204W=\344J[\275\2025\006=\363c\000=\3702\034;\205\022\251<\317\321\364;P\014\270\274gs[\2749\244 =q\335\022\275\365\023o\274\350\030(=\377\222\211\274y\320\214<\201#7=\366\"Z=\2749J\275\307\363\352;\177\221\315<?\254\021\275\256\206\343< \3576\274P\231\004\273\232\"\004\275\0148\255;\013v\023\275mSE\274fW\371<:\234/\2742\254\323\274\020\257\005<)P/\275\235\274$\275R\332&=\210\350\320\274\313\223\251;Ex<\275\210\316\356\272\303\"\022=TI\243\273\016`a\273\026\321\251\274\211_\322<\263\310\332:;L\306<\275M\013\275\246\031X\274\272\026\217\274\371\372\375:\222\307\337<\234\0174\275p\321\233\274}\362S\275\260fF;sm\026=\275\354\354<\224\2479=\357\343\373\273\033(\262<\246\231Y\274=6\222\274-\024\033=\217\361b:\026\264\227<\370A:\275{z\037\275\233y\210<\017)\251;B^6\275,\346 <q\363\206\274&\336,=\nk\n\274\013\216+<x\314\000\274\322\033\271<\2552\002\274}\331\253\274\233,.=\302\342\236<<\3306=05\271<\361g\027\275\370\240\215<e]a\274\307tO\275\264\320\333\272\312\2642\275h\242\276\274U:\252<\210R[\267\366L\014=\275\\_<\305\252\203<s\303\222:\3035\245<\322\337\023:\343\352h<\332\007K\27445\223\274\361v\025=T3\324<\245\3133=\273!\323<\367\014\237<\022\375J\274\236\235I\275\335\254\215<\315\376\025==6\247<\330_\021\275\351^\261<\212\021\312\273v\244\000\275`v\026\274\200\355\316\274a\224s\273\217\304\234<\242G%\274Ez4\275D]E\275\340\3522\275\307\004T<p N\275\331]\'=\2376\271;\027\000+\275\333\216\274<|H\326:)o\025\275,[S\275\375\3017=!%7\275Ov\251<\377\300\023=\265\312+=\237AD<#\333\360<C-\260\274\257!\360<\226\214U\275m\2670<\214f\330<\304\351@\275\0336\303<\222F\224<\0272Y=U\t\005=\350\223\226\273\251\223\226\274K\275\240\274R8\374<\227\241M\274\014\267\265\274\2469\242<lly\274\373\3429\275\201Q\"<3\372\036<\343\354\322\274q#\003\2753}s<?\002@=d\016\001\272JV=\275W\371\272\274\353N\277\274\261\312\267<j\017\356<-bI\275q\324\033=\212\3645<\356\346\352\274o\016P=A\220\332\274)r[\275\324\3022<;\331-\274wa\226\274x\251\320\272Y\025\212\274\r2\010=4\233\374<\017u\316<\237/\266\274M\353\032<_Y\035=\245\200x\274\222\262\376\274\203,e<\030\312\035=\311\000I\275\007\330\037\275]\311k\274\260\225B\275\221\005\213\274^Y\200\274\220\375J\275)x\206:.S\271<\\pE=R*\220<H/B\275p\224\272<\000\247W\275\242\315W\274a\306G=\320zG\2750\353K<\nJ\325\274\267\2049:y\372\360<8X\025\275F\t\330<\325$F=\304O\366\272\365\354\025\2747\370?=\373\314\026\275M\243\004\275\376\343\035<\255\240I=\177\270\341\274\371O\017=\214\001\362;2$\010;\374\313\330;\364\207H\275xI0\274hrw<\267t+\275v\255\020\273\0105=;\0016\342<P\"\002\274K\002I\275\032B\371<^\221\000\274\022\376\030\275\224\014F\275E\341\"\273\027\352\n<\371\300.=\202\237)\275b}L<N\022\024=Bv\353<p\010\007=\310zI\275e\247(;\302\220\203\274\374-1\275p\215\274<\324a\227;;\0225\274\223\315D\275$\214\211\274\344[\354\2746?\337<%\276S\275:\210];\332\347Y<\217#?=\376\272\345\2744\206Y=X2G=\252\230S\273\032\240<\275\r\373\365\274\215\014D=Wi\265;\177\321\\\275_y\005=T\255:=\233\377\0169\352\032\351\274\224\013\216\274!xB\274n\027\t=\221\241\030\2747\264\021=U~&<>\367\031<\003\342\037\275\017fE=s\002o\274.\2427\274\333\377\367\273\2643(=\036\336\213\274\003^*\274o&\'=8;*<\314G\306\273{\314\375\274\"\013\032=0\017!\274\302=,=\007\334`<\333UL<a\274\234\273\322\266\000=\2178\003=\213\214\007\2723\r\006;_)E=\202\n~\274\337\374\216;)\303Y=\243\233\256\274X\\\213\274\203\371N\275\224\265*=\344\0141\275\356\016\000<\237\"\274\273\364\323\245\274EqR\275\\\272\263\274\010.\344\274\246\0263\275\261\335F<S7\037=\002r\'\274M\323\354\273\222\0066=\263\225\020=*\372 =\023\025D\275\030\032\203\274 \234\017\275]Q\001\274\340\3057=\303\026#=\033\351\245;&\010/=I\375P\275\365[V<;\245\035\275(_\333<\366I\241\274\330\346e<\013`\302;)[\254\274\nZ5\275\247-\216\274~\032B\275\272\366\256<(\365\270</-\r\275QE\335<\247\350u\274\276g\347;\357\217\031=1S6\275\277\n\210<sUD\275E\010\256\274\237)\212<\331Y\005<\311\376\004\275\316O\036\275e\343\\\275\326J!<\005G\362\274\260)M=\271\t)=0\n\270<WV\031=\025D8\274\314\'\030\275*\273\220;\234H\262\274*\321Y\275\215\322\251\274q\203\321<\332m\232\274\013u\275\274\250(\320\274\211\020\033=4\r\003\275JaW=\034\3502\275\014\312C=\263\271\271\274(\265\024\275ep\330\273\365O\235<\363\264x\273\341(\370\274\005\310\276<\025z\300<\345\0305<\\\273\217\274\036F\351<\302\2333\275%Z\213\274u\253\345<\005\377\206\274\362\273,\275\217\3623\275\270\375\022=S\256\"=)\020\'\275Q\270\334<\221 \232\274r\320\373\272\227\257\201\273ZvN\275\326\342d\273\256\026/\275\352\'B=\334@\373\274xl><\222G<<*~1\275{U\t=\374\374H\274DP]\274\036\225\306<$\310\232<\270-\017=\337Zc\274\326C\330\274L4T<\231+Z\275\354i\304<\205\243\232<o \214\273h\337\365<\370\t\277<\023g-=W\364\375\274u\304\t;\316\200k\274\254\256\233\274\334aB<\002\025:=~)\016\275\316F$=:\037\030<\2635\034;\234\025\231<\274\256\366<8\276\340\274i\014\275\274\n\336\204\274\373\020E\2753Z*=\203\362-\275\270\203P\273\241\242\327<Zy5\275K\002\304\274\241~\322\274Ygb\2741w\324\274\3676E\274W|\211;\345\240\361<\000\006O\275\267{\256;\256.(\275\020\223\222\274\004Rf\273[\310\000\275\025\342(\275\371/\t=\230\n\005\275\205p.\275\024\325\230\274\224\347[=\274\204Y=\275mZ<\222k(=\035\212\360<wJW=\210l\023=IJZ\275U60=]\366\r=*\335\224\274\370\271?\275\214?*\274\347\213\232\2746\204\027<ro\356\273k\222?\275\210}\027\275JUV\275\rT\216<\350\263\016\2746\366\353\274\343\3238=+\367\t\274 \302E\267\205\270\227\274Y,\214<\305H\335\274\210R\022\275\342\234?\275\017\250z<\223\264\205<C\017\363<\271\"*\275\352\r\263<\206u.=.K6=\323R\366\274\355+\035\2721\267\244\274\251\376\004\275Q\246\320;\323\274\364\274\326\213\000\275\226\376\364;\373\022C=\271O==\030\022\021=\020h=\275\312\256/\275\343?A=\227\235\027\275xX\\=\266\260[=1^\316\274\2774\206\273\032\027L;G$\022\275\324n\013=\270\275\343\274AKX=\275\234\253<\362\r\272\274f\005\021=dP\235<J\023P=\017\341\256<tp0=\244\">\275\022\204\377\273~\356W=\216\322\271\274k\253\306\273\242T-\274\226g\357\274HO;\275\t\333\343\274\326\221\n\275\177\342\340\274$\373\367<\350T\025<I\2006\275\225\331\352<H\337)=\212\022\314<-\256\t<y\320\340\274jK\225\274\370~/\275\211*\017=\000>L=\270\260!\275J\204\001\275\267\354\226\274*h\345<T\005*=\2379\325\274A\351\314;\031g\214\274\017\342\366\274X\343\'\275\242iT=\t\321\344\274\304\235,\274\367\303\327<\277\276\233\273E\n\331<\264\"\026=9\314\021=\323*\377<m\325\264\274\264\377\252;\215}\025\275\036\027I\275\023k\210<\014\226u;{[\000\274\307\035N\275\016\360\367\274/2-<\255\022\177<L(D\2756\340\025\275\230\231Y\274G\021M\275\021\000)\275/\314P\275v\017P=\251\343b<\227?<<\220\330\363;\':\322\274T!9\275\324\031\363<\241\330\214\274\203h\016=\203\030\\<\250F\007;\36681\275\327\306\024=\022\201\030=\330\234\230\274p\204\261\274g\236h\273/\017U\275\2179\263\274\"7\360<\232\236)=d\264\225;\352\236H=\213t\034=4\030\333<\336.\337\274\022K\325\274\277\260Z\275}<\224<\236}M\274e\244\364</\256R\275\007\356\223<\014\037A=*\355\305<\306\036q<S|\006=\366\231|\274\214\315N=Kq\244<\331\263+=\010By\274J\217\030=\304\271Y=4\377\"\275\343H\271\274\006\346\016=\271\'\367<\301y\002\274\266?\021=\246n1=C\370M\275\211\035\177\271\300\354p\274mx\265;X\3755\275\370\342\307\273\323%\343\274\241\"\205;\274|\201\273V\213\245\272/\360\036\275\205 \033\274\324*\037=\366\005\035=\363\362\023=\200\245\266;8\236W\275\303\225\006\275\245P?=\217Y\020\275\363 \365\273o7~<\036\305\355<@\340\\=\352\351\276<\227U`;\314\271#\275hF<=_\275\206\274\302\004\355<\303R\255\274.K\244<r\354H\275\025\312\001\275\271\034\014\275\253$\270<\220f\030\275r\316\270\274\266`U\275\340\220\325\274\301A\016\275\336\334\365<\365jh:\355\244\027<\214\317\"\275\200W\023\275>\221,=\331\'\360<\254\013 =\'\000\016\275\3000\235<_\016\030<]\342\321<;\243\020\274k\0309=\277\n\307<\371\316\236<\014J7=\224\355\233<\214Q\330\274\211Y\232<F\330\347\274\036\252#=\316k-;\234\375\344\273\005\250)<\024W\310<\014\004\360;dz\023\275\271\234\304;\226y.\275\304\363\242\274iT\030=q\350\025=\251\356=;5\365\311\274\321\022\013\275}\234Z=\t\341?<\244\211\r\275\224Q\036=V\213\222\274\035=\316<\235\313j\274v\336!=%\206\001<[AU\275:+\037\275\370\362\223<\323\355\024\2757\313R\275\231<i;%\346\365\274\006<#\274\022\232\357<A.\275;y\255S;\226\316O\274Z{\025<]f\257<y\022\026<\366\224\016=}z\276\273WI\036=A8$=\232OA=\214\030\007<?(\263;\317\234\304<\352h\277\274\314\t\r=\237\344u<\366t.\275\325ZS=\373\335\037=\243\ns;\027d\330\273\245\324\303\274\004\365E=X\366\226<(n\003\2732JF\274\365\350\360\274]\203\027=\353\301J<\252_\275\272)\302D\275\222\315F=\006lC<\3624Q\272\3041\027=\200\324\272;\310\3259\275w\347\n=+4/=\252\350\305\274\331#\234;\341\3542\275G\204-\275V\250u\273\243\345[<mfz\272N\003\371\274\316\340\003\275\004\251\252<\0048(\275\300\244*=\306\0303<]pD\274\243U\352\274L\271\031=\2061\353;\244\333K=\275\244 =\275\272J=\210\261W\275\3407\377;\347H\t=x&&<\"\207|<\374\224\232<\236\016[\275\324\025Y=\035/\255\2745\254\'=\310F\025\275F\026G=\014\033\224<\362\356\251<P\224\305\274\213\263J\275t\377%\275\243\221\202\274\ra\254:\212\375\'\272\007s\262\274q/\247<\373\247\036\275\222A$\274\3411\001=\005\rA=~\304\027\275UDA=0S\323;\372\306/\275\004\201Z=E@\033=GT2<\234\266\n\275\200[*\274\310v\016\275\261j]\274\217\037<\273\0059[\275\215\343\267<\223\276\370\274\320Z\205\274\307S4\274\020\210\237<\035\236@\275,\277\233\274\0106\207\274\243\352\344\2749\337\020\275l9\023<?y\241<x\370\242<\354\302R=\223Q\204\274ILY\275\256-\260<z\244\003=\317u*\273EZ\234\272B.>=\r\324\036\274\017y\200;\204\316\253<{T5=\361\303 \275\333\201?\275G\350%=\007\255C<\203e\365<s\260\230;,\200D=!,W=W\202\312<\313\034\020<_\362\\\275O`z:\346\336\037==\251K\275+\274*\274\264\356\336:+l\\<y{X\275f\344\034\275I\271\231\274\315x9=\266L.=$\334\022=\227\030$;\245oa\273\276\357E<\364w\231;\246\031\341<\002\277\034=\221\334\243<O\372@=\243\220\216<\270\n\205<!\220\355;3n\t=g\023\223;4\350M==V \275?\260)=\232\025d<\305\236\263;e`\033=\363Z(\274\r>]\274-\246\211<\353\002\300;\026\342\014\275\366\231#\274\334r\234<\346\026\017\274\377wE<\247\321X=\236\234X=Er\013=\223\272\002=\215\"\370<]\366g<\275\250i<\263>\243\274j\226\374\273AZ\226\274\030)Z=>\177\005\2749\\U=SNV=\037>\225\274\363\217M<\335\226]\275\243@f<;\203\037\275\010\351\301\274\243\302W=m\2674\275y\2135=E\274\024\275a\243B\275\274\364B\275\234\200E=\220$T=l7Q\273\267\0260=\325T\010\275hB\316\274\356\3266<k\"\332\274\3734\260\2748\274v<\247\203&\273$\005\201\274h)\227\274\326\354M=A\240\227\271\361W\367\274\356T\355\274\255&\026\275\rr4\274w\037!\275<O;\274\375}\"=\364\0015\275Y\306\023\275\030\006\241<YI,\275a\340\257\273\024s+=#\232\260\274\216\263\321\274\3473\"<\035\001\203;a\257\223\274\322\3451=\222\031\021\273z\300\253<\006|W\275\372MU\275\244\256\225<8\233\036=\003\017\023=\243\302\201;n\347\013\275\347,\357<\222)C=J\303$\274;\016K\275\310\202L\275\033\202\032\275T\242\312\274\212\200\363<\243\373O\274\202Fp\274r?H\275\016\374\203<A}\276<\330.\250<\004K\200:%\375P=\230eF<i\366\215\271\332\017\0269#\226\004\273\204\021\376\274\370T\333\274\245v\217\274\231\021\"\275\275\256\375\274r\317[\275g\212\313<\222\000N\275\373\026\320\274J\331F<\341\376\375\274\212;\"\275\2702\022;\300p\032;\264\325\230\274\226\241e\274\023\206Y\275\211\266\016\275V\257\244\274\207X4=\2575(\275\037a\3019~|7\275\256\304-=OfB\275\2232+=5\332F=\333K\212;8\370\256\274\034cC\275A\371<\275\217\316O=u\n\033=)\224/=\311\212\"\275P_%\2755c\333;\300C\026\274\227\3461;\017\244\315\274\303\273/\275\271ca\274m\274\006<\347\221\200\273\274qP\275I\231V=4\225@=\254\033/=\373\304\010=\221\212\017=B0\323\274^\032\306<\2732\310\273\026DO=\310\364/\275\231\226\'<J\264Z\275)KN=bK$=\370\367\361<\246D\261\274Ald;\034\n=\275\220\003\207\274\177\000.=s\025\224<\237\246J=\025|2\275]\311\032=\311\002\233<\356\033\'=#Zi<\373f\273\272k\251\255\274\027\020n<s\3477=\231\025!\2756\201<=o\260\355\274\277\255\317<KL\371<FPI<L\343C\274\0235\210\274\007.\325<\036\037\000\273\351\341Q=\2754(<yC*<\010\201\333\274h/\001=^\334\322\274`\023\275<d\3662=t(N\274W\254\256\273\344\277\260<\303eF=\326\352\007<\220\312\t=\202\321V=\024fW=\025\307T\275\367\244\014=\205\231H\274\010k\342\274\362\231`\274o\346\347<2U\210:\246)X=\330\3230=g#E\275\337N\303<\264\226\336\274\030|\357\274\242\366\240<\264?1\274\020\'\033=j\277\234;\031G\237\274Hx\361\274Q7\003\274\3534)\273\301\203#=\026\320\210<,\342C\275\013s\276<\355QJ\275\217\304D\275\273\002X\275\004\321!\275\315eM\273\326\324E\275\315\301\201\2742\232\216<!:\002\275\031H\'\275\033%\027\2753<\357<+\022X=\024\363\222;\\\355\256<\022\351\026<\266iW\274\233\013@=\350\254.\275\263\2117\275\033\241\030<\016\021\357<]Q\313\274\200A\020=\342\033\r=\227\234\363\274\367eX\273m\325\013\275\376:\361\274\017\0037=\020\247M\275\226<Q=~\345\334\274P)P=h\323\021=h\322\321\274\235\205\340<\261\234\267\273\275\355\026=.\026\274\274\006qj;mR?=\246\366.\275\216\300\252<\3645\362\274\311\340!\275&\005\346\273W:\276<Lv\005\275;>\2157I\275\205\274&=\377\274\026\311%\275\026\2254<|\267\200\274$\352J<<\366\367<5Q\232<\233^\n=\336\354\242\274H\033\034<\336z\001=\214mG\275\220\035L=\275Y7<\224\2137\275>m\222\274?\337\263\273s\237\036:\262\357\303\274|??\275\213\252*=\0219.\275>\242T<\004}\200\274\263\003\207<\020\335L\275Dy\260<\350\005\360\274\252\017\212<\3442\007<\205^B\275m\"\352<}U\337\274\216\004<\275\254s\007\275\346l\312<\25780<\304\203\024\275\313\375\366\274!\273X\275\215:q\274\377\"S\275\010u2=\361H\277\274\316\221Y\274\232\224\036;m*\223\274\302\201*\275\262\205\365<\223\216\"=\276\324e\274\3550\273<<\365\231<\336\304R=U\2166=\203\337>\275\362\262\334<4tY\275\265wS=\031Z\005<\233\224\235;\222|\025=\322\2741\275U\302\342;\237c\337\274\346\"\332\273\n\027-\275\346<\033<\331\303==\377\311\302<\034\020Y=\345;3\275\262\272\034<\217K\';\222\266\320;\000\302\362\274\276\267\004<\3217*\275:\341\007\272\374\316\226\273z\235\037\275\261\335\362<j\236+\274C\027;\275\230\023Y=\2249\337\274\2266G\274EU\315<G\006\t\275{\333\341<I\256_<\204\365\360\274!\177\254\273g\016<\271^\250$=H\216T<b\203?\275\322\301\253\274q\376$\275\361?\001=\177e\n=\274\312\254\2745 3=\322\003c\274H\020(\2740\367\231<\303\300\211\274\2672\000=\261\247\227<\217\345\000=d\312*\275Q;\027<\'\241m;\352R\252<\0349$\275u\205\037\275IO2<\321\324+=\'\334L=\034\332\275\274\322\361\361\274\264\251\274\274\350\266c\274\324`L\275\336\360\014=T\341J\274&\355\347\274\\i\034\275\215f\260;\361\373\200\274\327\267$\275<\260\204<h\357~;T\304\306\274\265dA:\367y/=\364\005\020\274\360\246\177\274\211\021\255<!A:\2756\025\022=f\276E\275\240\255\243<\367\337\341\273\260\177\256<zk\027\275\034\317\037\275n\361\232<\023\"P={0\342\273\270\200\301<\014N\234<\026u\310\274\330x@=\266\016\351<g\372\343<\323\334W=\206\035\347<Bt\260\274#\200\267\274P\356\014<L\256\027\275#\315D=\242\035;\275\313i#=\335U~;\246\\\022\274\356_M\275\010\000\201;\244J\357\274O!\334<Ocl\2744\240?\275\263\350\236\273\326\3576=\244\\\361<\223!\220<\017\213\272\274\321Kf\274(\372L<\365nR\274\330\2028\274e\0377\274\236x\205<\225H\036=\022j\271<<\222z\274\333\215A=\004\200w\272\363\303&\275\374\214\202\273\314\372\303;a<+\274\373/\277<\332\022\251\274\373\347\332\274`S\002=\035\t3\275\306\030G\274\361^\023=\2015\000=}\003M=\265\300\022\275hz\362\274\364S=\275\242\356E=y~Y=t$[\273p\351\232\274\245%\037\275F\366\363;\336g\034\275\267\303\204<x\3634=5i\025=\243\322\327<\"^\001\275\300s\020=\201\330e<\203g1=\203D\355\273K\372%\275\211.H<fRF=\230\210\211\274\242\022\245<j\224\340\274g\352\240:\322A\266;xO\262<\255\230\235\272>+\305\274\032y\277<\321\237\023\275=\351@\274\345\021\205\272\010\233U=\313\350\216<\016\345,\275\322\210\205;\265\272 \275\366\2560\275Z\220;=\267\207\024\275\341\2633\275K#1\275+K\331\274wP\000=\337\250\364<\020\344-=NP\222\274\360\216\215\274\0226\347<\273-I\275\360\014\r<\374\006\005=\347\200X<\020\364\226\274\273\231\363\274\346|]\2755\303\206;\r6R=\260O.=\230\260\020=\216\021?<\210ca:\345=\345\274\037\330,= \235\341\274m4\"<\020R!\275{\223W=\211\270\'=\276\306F\275\305\347\266\274\222\302\033\275\315\324\370\2741\275`<\232\325.\275\236\363@<\322\'\020\275\032wD\275\327\200M=\023\022\216<\223b\027\275\326\350\037\275]Q\036\275c>\206;%sT\275\001\374\367\273\264`\247<JLJ\275\t\331\214\273\336\274Y\274E\245\034=Sx\273<\n\r\014<B\022+\275\237_\301;\216\220\354<j\017\300\274C4\005=\300|\206\274\303\t\246<\236\330\375\274\006\277\335\274\246-<\274u\366;\275-\3216\275\374\225M\275\370\315\345<\030\013n<#\314[\273\005\325\036=\220\245k\273\241\2003=\230\220\200<\013}\n\275\265z+=\022J\274<\335\3168\271}\210\014\275\350\257l;nl\023=\020\263T=\'F\216<\341\017\263;t\307L=o\251\353<\276\261\'\275\261\022\343\273\303\2310\275\273p7<\033I\034=\211\333U\275\005\270\021=\247V\027=\220\021\000=\030\313*=:\265\026\274i\2673<\315M\006\273\"\252\241<\321\224\020\275\027U\302<B\340/=W\367\026\275E+K\275\003o\020\275\276\223\250\274\025A\017=\326\262\005\275\3148\357\274A\204\251\274\376\334 \275\373h\022<^\252\020\275u\002\365<_\204&=\352.\212\274\006\344O=\034\221\016=\367w\317<\363\245,\275\"\2366\275t\2505=\232\tJ=\304F\361<\273\374\263\274z\3327\275\225\022\357\274\360+\377\274\222\225N=\205!\253<E\177\233<\257d\341<S\274H\275M\271\024<P2S\275%\251\300<\246x):n\306\264\274\264\266\n=z\013i9\203\002\'<y\260\025=n\263M\275J\345X<L2:\273f\353\302<\023\0252=\001\315v<\255\344\224\274\032\257\031:\214\000\234\2740KJ=\224P:\275\210]Z=\364\301\340<Oz\241<lq\024=\236[\362<\253\373\027;\016\227\362\2744\234!=\036\222\312\274\027\007.\275a0F=!-\306<\266_P<`w\017;\2268\363<]U\322<\372\2537\273v\227\315<$\024\253;\376F\307<\344\221\256<\266\260)=\205)8=Wd>\274\036\276\236\274\370Z\035=\216o6\275\021\222&\275\364)\006\275\205\271<<\301\205(=?\207*\275\355\365\344<}\313,<g\224U=\367\240G\275$\317$=Y\301?=\\\362+=\375\306\006\2753\244\025\275\343\275V\275\337\221\034\275S\245\003\275y\362\247;@\035Q\275\"\306S\274\001\2379<\302\323t\274\007\213(\274\215SS=bP\321\274-\312\014=\341h\233\2748x\007<\032\306\376\274\323(\224<Z\007\t\275\304MO=\343\013\330:\347\205\r\273\375\230\346<\212,?=Jb\331<\2578>=(W\034\275f\023<=\207\245V\274\260N\022\275,\"\t\275\023\256\274<\324L\240\271\262\n,\275k\270\024=\\:%=\232\377O\275\273\341T<_Y\006<\201\345A\274\272\300\226\274 \233@=\310\321\264\274\246\326\022=\337gy\274\327`\037\275\347\304\225<\270<D\275\307>\007=\327\3715<\234\332$=v\262\242\274\353;s\273\271J\n=\2639\251\274d%U\275\370\375\343<6D\002=\006\2636\275v\t\002\274\216\371\004\275[^\225\274\300_l<t3\310:\253T\336\274\2523\276\274I\311<\275\004\272\002<@\273E\274\222\205L\2759 !<0\356\t=\344!\035=\366e\020\275\213\000\r\275\261\240\274<\371&\003\275\377\013#\275\330vM=\256\323Z=_\213o\274\n\375Y=\265*\243\274\315\301F=\037\314.<%\375\033=8\360\032=\225R\005=\323\330E<\337sA=a\021\013=\340\017\315<\023\355\242<\233.F\275S\"Z=\214\275\352\274 @A=\n\366%\273u\205;\2753\0010\275dlH=\362P\263\274\274\013\003\274Oq\003={P\004<1\023\372<\303L\027=u\"l\274\237/K\275\021P\204<\373\327\364<\346\222\035\275\216Y,\275\373\264G\275\246Q(=V\367\'\275\277\262\035\274hm\332\272\334<>=\237\221\022=O\032>\275\203\201N\2754\275\224:\337\312Y\274r1B\275\2269\020\274r\377?=dv\025;\201jD=Y\003H\274Car\274\267^\335<\241\0348=\235;\023\275\324\251\244<J\000\005\275\327\312\341<\264\207O<\362v\313\274#7\363\274R\352\267;\341\305\n=Y\036k\274\240\325\312\273>\345\311\274g\251\361<\222\023\247\274\305\252L\275\002\236\366;]\026\021\275a\270\243\274[\021\215\273$\237S=\\\250U=$\216\021\275\331:\320\273\366y\326\274\034;/\275\302O\315;\364\324\315<\271^\023=\265xN;\226WQ=\350\321\354\274\2206\005\275i\257\023=\3746?=:\234\032\274\037\205\323\274\206\330\302\274Bu\316\273\342T\255<\224\367Y=\026\303\022<\352\rY=\355c\215\274O\212M\275\214\273H\273V\377\314\274\327\246\217\274\000\232\326\274k\2316\274\232\177\357\274\025\225\266<\200F\333<\360\3520<\216\n\366\274\"\2356=\305\377D\274\260\241R\275\265D\325<\321\026/<\320.r<\035\023\201\273\031@B=\025o\\=\360=\270<!u\206\274\352\366M=zY\304;9V\330<\033sP\275\r\225\002\275)\343%=\004\336\233\272\225\3238=\357\307\027\275\323\375+=\3263/\275yF)=\331\207J=\201r0\275<\235F\275\017V\004\275\217\340\037\275\233\027\200<\361\000\027=\277\014\223\274TgR\275\266\306\344\274K\244\024\275\261\035.<\256\205\373<\223\003\366\274\276\247z\274\\\2232\274\257\n\026=\255\301\300<\013\354\363<\303\372R\275-\311z\274\331\235\200\274\337\017\250<\330\016\315<V\216+\275o\3327\275\241NR=r\237\311<\2504\372\273)RJ\2755\254\003\275F\207A<\271\3372=\022\020\004\275,\332t\274x#0\275\330\2714=^\200\262\274 \322\r\273F\307[=\03142\275\205\260\023\275\276d\034\275vw-<\232_\267<\310\340\323\273\233\317\246<\217\247\201<\305\365\213\274\332\027\t=\273\301\337<O\035\036\275&T\361\273\354\326\'<\351\3633\274\225\225\344\274\373q\030\275\2749M\274\014y6=\264\376\002<\336\245[\274V\220\321\274\2476\361<VNe<t\251\243\273K\016\242\274Lp\267\274Qz\341;4Uc<\320V\334\274\376U\256\274\243\2316=\265\227\234\273\r\255X;\221\023B=\223\n\334<\200\030M= \346\371<\325\244\020=\307\032M\275q\266T\275\0334E=\333\032\374\274#d%\275\273\016\362;B\036\003<\272,!\275\342g\035\273\307i\340\273\2235*\275\261\250\306\274\336`\007=\275!u\273\\\005\r\2758\334\363\274\274\337\340\274\350^u\274\303u\331\273s\374?\274y\232l<j\017\273;\\\252\320<\357H\034\275>\313\023=\361\375P\275T\230\202\274\000\301\021=\372\312\001\274\303\366\366\272\034\024\325\274\033\005\036\275P\260J\275\202n\023=h\013R\275O.<\275\260}\270<\350\225\351\273.\244\211:\307@\260\273\200\253R=\231\246\247\274T\253Q\272\017Q\337;m\263\335\274\250C\222\274\245\277\004\275C\265\326<\275\365\331\274,\t\007<\302\334\'<-\236\226:\324\356\202\273\325Z\345<\036\034\036\275\263\347\006=$!\\\275\002\031\255\274\210{\t\273\344!?\274\310\353I</\265\240<\210X\005<\370U\033\275\225\233\241\273i\246N=\007\200B\274\'\265\003\275\204\2203\275\002D\\=\212*A\275\023\006\327\273\\\211<\274>)\207\273\r\243\037\272\263\003\025=}p\020\275\273\371\r\275\244\322\206<\330\375c<LC/<\367\026\246\273\372\016]\275\020\367\017\275T\3234\275_\ru<\205\024\322\274\370<D\275y\201P\273~7\200\272\350x\036=\362\356\017\275\247\302\035<\227\271U\275\247\223\361\274-x9=\350(!\273 \361/\275.S\226<\234\344V=uR!=\323\t\223\274+\026\351;+d!=\223\0209\275k\227A<\2000\310<\320\267\033\275Q)\\\274\201\257\2419x0\351;\212\362k;\213\013\224<\321\343\005<\305\271K=\346\304\"\273c\266G=w\253\000=Q\206\310\274\303\n\022=\224/\214<N\213\256<\016\355\225\274\352|\034=\264+3=\362\032\r=6\013\273\272NsH=\351_\023\2754 Z\275kp\216<x~\014=a\325\311<8\006z\272\320\300\205\274\324\265\231\274\331\3639=\210\213\331\274\357\315\205;:i\350\273=\226e<\351K\361<\251\231\227\273P\355p\274\002i\031\275\334\3065\274\\\211\002=,\365-\275;\372\016<\341\331\037=\234\252\013\274\027\215,\275\225\3635=>a\375\274\002\255\217\273\\\262\233<\361\204\024=\267\256\022\2752M\024=\373g\227\274>l\315<\030\n0\275\231\254x<\033\260C\275\361\363\335\274\030\000J=\356\357\353\274\2621\227<\324\010\037=t4\206;\363p3\274\303\253\362\272\247\313\353:\375\200\202<\316\0059=fV\020=\322\327Z\275^\300\"\275V\314\016:1V\020\275\220\3341=\277\205\024=\260\313\271\274\017_\001\273\365\317V=9\007\352\274~\327\002;\351[\033\275\230\234!<\216\2717=\201\324\t\275\320\rB=\007\216\273<66\243\274\'\245\332<\226\002Y<\353c\220<\350S[\275\345\225w\274\303\n%\2755\222\n\275\243\0013\275V\026\222\274\333\251\004\275\374\320\352\274\270#\021=\010v1\274\002lP\273\320\225\337\274\250\233z;R\tY=\013a\270\274\376\331\343\274\333\\Y\274\212\t\241\274\213\262D=l\275\035\275\326\375Q\274O\320==G\306\302\274\316\265\030\275E\317\006\274\313\304S\275\260\247\001=\006\305\374\274p\340\'<\203\3216:8\274\026<13\245\274j\021\350<\231\250\360\274\252O?\275c{/\275in\220<b^E=5\272\264\274\255\0148<\001\356C=\277\266\211\274<\\\014\275Q\257\274<H\277\241;\277a\336\274\036\005\037\275\001H\t=\016b\246<IXB\275\002\204\254<s\327\222\273\315\332E=\n\255Q=\300\364_\274\227\026\224</\2433=\222\210G=\371\004\256\274C\222H=\234\223E\275R\275\311\273\362^\037<\311r\222\2738,\002\275\356x=\275x\335\347\273\016+\204<z\204\t<\272\263\014<\234}5=\261\252\236\274\252\342\234:I\3564=\214*\030\274\212j\234\274\336t\345<\326}\365\272U\260&=\026\224B\275`\r\256;`\2200=\220q{\274\370\230\244\271\277\3667<-\261*\274<\207J<\377\351\021\275\370\221\331\274\214\273U=>\210\2278\361\237\252<9\327#\275\214\230B\275\264\005h\274\r\037\375\273\277,(\275\256S\223<|\323\307\274\021\3327=\032\r\177;\266\274\036\275\265}A=\323\260\355\274\320\006\321\274w\337v\274\026\253\220\273{5\321<\366\246%\275\037\241Q\274\001z\003\275iWH\275\335|\033\275aT\037=\005|\037\275k\361\303\272\'k,\273\221\272G=\031\373[<D-d;G\343\226<2W\343<F\2109=\337\'\317\274\344\322>\275\331\034\024\274\013i*=\244V\034\275&\253\347\272=\211\265;\247\3130=\026\t\037=fT5=.&U\275N\330\371;\'\332\316\273\027\340\324\273\345\244\346:\277oN=%\0161=\2670\270<\206\274\355<\206\221\027\275~M;=\236\312\333\274\031\036\027\275\001\245\';\035\026B=%P<\275\232+W\274\n=p\2749\3208=\313\031\252<\240\000\035=\034E&\275\316y\034=k\327^\274B+\215\2744i\230<\353\201\277:\331\274\337<B\313,\275\237)\035=`\216\222<\365\377\371;\203J\'=\'k\014;W\233I\273)\303T=\310: \275\272.\025=\271\032\000\275z\252\350\274`a\377\274(\371<=kU\246<\361-\361\274(K\334\274\241\267\354\274\262\033G=!\302K\275\363\230\361\274q\247\334\274\\\300\\\275\333*\257:m0\036=}J\035\274\034&5=\006M\t\275;\215\022\275\273\036\234;\333P\010=\032O\314:Q\261\220<\003\260+\275\323aH\275n\\Z=\333e\033\275\202\220\033\275n\003\002=]\3375=\t\353\021\275\246w!=\226\305\314\274\026\373E\275\033\0270=\231\031M<\332_F\275\251\r\373\274\311\022\336\274Ci\377<\327H\213\274\033\240h\274^Z-=\330o\324<x\030N=`\003.<\224\244U\274\213\314\\\274\2351\366\273\263\223S=B\tX=&g\022\274A^\266\274\3374\022\275/\372\032=\334H\256:\036\231\025\275\304\233L=\361\013B\275,\366\007=\354\270\215\273a\370$\275\300\003]<\000\375o\273\237\225O<\356\200\265;@p\027<\270\301U\274\251\371\316\274\306i\317\274p+\037\275\370\2662\275\342)\244\273^R\\=\224\357\023\274\236p\360;\332\262:\275\237G==\224\037<\2756\357\310\274-\276 ;R.[<\370\\2\2752\223\013=N\267a\274\244\033\026=Y\'\337<!J0\275\333\237S\275At\233\273z\004M\274l\215\332<WyW=D8:=\247\352N=\234\274(\273\347\312\357<\247\016\365\274\322\216Z\275$\217N=\0235\262;\232\222&=\205\2224=U\232\023=gR\310<\177\337x<\005W\325<,