node {
  name: "global_step/initial_value"
  op: "Const"
  attr {
    key: "dtype"
    value {
      type: DT_INT32
    }
  }
  attr {
    key: "value"
    value {
      tensor {
        dtype: DT_INT32
        tensor_shape {
        }
        int_val: 0
      }
    }
  }
}
node {
  name: "global_step"
  op: "Variable"
  attr {
    key: "container"
    value {
      s: ""
    }
  }
  attr {
    key: "dtype"
    value {
      type: DT_INT32
    }
  }
  attr {
    key: "shape"
    value {
      shape {
      }
    }
  }
  attr {
    key: "shared_name"
    value {
      s: ""
    }
  }
}
node {
  name: "global_step/Assign"
  op: "Assign"
  input: "global_step"
  input: "global_step/initial_value"
  attr {
    key: "T"
    value {
      type: DT_INT32
    }
  }
  attr {
    key: "use_locking"
    value {
      b: true
    }
  }
  attr {
    key: "validate_shape"
    value {
      b: true
    }
  }
}
node {
  name: "global_step/read"
  op: "Identity"
  input: "global_step"
  attr {
    key: "T"
    value {
      type: DT_INT32
    }
  }
}
node {
  name: "input"
  op: "Placeholder"
  attr {
    key: "dtype"
    value {
      type: DT_FLOAT
    }
  }
  attr {
    key: "shape"
    value {
      shape {
      }
    }
  }
}
node {
  name: "output"
  op: "Placeholder"
  attr {
    key: "dtype"
    value {
      type: DT_FLOAT
    }
  }
  attr {
    key: "shape"
    value {
      shape {
      }
    }
  }
}
node {
  name: "HistogramSummary/tag"
  op: "Const"
  attr {
    key: "dtype"
    value {
      type: DT_STRING
    }
  }
  attr {
    key: "value"
    value {
      tensor {
        dtype: DT_STRING
        tensor_shape {
        }
        string_val: "X"
      }
    }
  }
}
node {
  name: "HistogramSummary"
  op: "HistogramSummary"
  input: "HistogramSummary/tag"
  input: "input"
  attr {
    key: "T"
    value {
      type: DT_FLOAT
    }
  }
}
node {
  name: "HistogramSummary_1/tag"
  op: "Const"
  attr {
    key: "dtype"
    value {
      type: DT_STRING
    }
  }
  attr {
    key: "value"
    value {
      tensor {
        dtype: DT_STRING
        tensor_shape {
        }
        string_val: "y"
      }
    }
  }
}
node {
  name: "HistogramSummary_1"
  op: "HistogramSummary"
  input: "HistogramSummary_1/tag"
  input: "output"
  attr {
    key: "T"
    value {
      type: DT_FLOAT
    }
  }
}
node {
  name: "fully_connected/weights/Initializer/Const"
  op: "Const"
  attr {
    key: "dtype"
    value {
      type: DT_FLOAT
    }
  }
  attr {
    key: "value"
    value {
      tensor {
        dtype: DT_FLOAT
        tensor_shape {
          dim {
            size: 8
          }
          dim {
            size: 2890
          }
        }
        tensor_content: "\320\343\026=\275|\266\273\301\3718=\216\233\"\275W\220\215;\343\373\344<>\316,=\313\032-\275\220\345\250\274\314\323\002<\271\004\261<`\3254=N\223\344<(\3700\273}\325\234<@\350n\271hV\022=\234\021\355\274\001\026\306<\200>\037\275Nn6\275=\357/=7\2035\275\020\274\240\274\014\240\014\275\320\261\275<:\033\243<\316\256\002\275\2112\006=`\313g\273\014O,=\006\200\003=<\\|\274\214\337f;\005\266\022=\236Pl<\323\203\001\275(\225\311:?kJ<\274\'\242<\335|0=\016||;6\336\314\273\361\010\004=\375\330H\273\233\236 \275i\301\376\274\207y\243\274V<\222\274\241\270\323<\317X\231<\306\020\002\275k\377\334\2740@Z;S\003\026=\342\347n\2724\312\300\274\250\207\032\275\354\335=<\262\235h\273\264\010,\275\357\374\245<<\242\333<-\3753\274ry\014\2732\256\032\275\020t\267\274ZG\002\275\250\270g<\'k\t\275\240(\372;\365\034\311;\271\271\013=\020\316\356\274\255(\334<ZX\030;\013h\366<\"\265\366<V\'\230\274\241\242[\273\322k\035<u\355\263\272\372\354\240<\205\325V;>5\005\275!\231\261\274`\027\317<\315u\327\274o$\307\274\244\233\235\273\357H\327;\265\276*\275b\340\017\275\212\0174\272[\364.<\302P#=\265/\034\275\366=\363<\363\221\t\274<\026\001=:G!=\377\273\334\274G\333\"\275\200,4=:\240Q\274\272\320=\272O\316\017\275\310uZ\272%\304.=\325[\276<\373\301\337\273\"p*;\"\325]\272\034\353\002\274\325\345\315\273\305\217\000=\243\216(\275\204\377\253<O\224*=*\214\n\275[\247\261\274\005\024m<t\341\200\274Ne\211<\316\221\303<\002.\261<\025\235\n=\242\262}<wA =r\007\306<\216\254\355<\360\203-=\345}6=\370\367\177<\372\354\217<\271F\362\274J\236\307<\271L&\275\256\223\323;\037%\026<o\017\256<_\031\212\274\010\304*\275X\001z<\254M-\275\342j!\274z\"\332\274\274\326\343\2745\177\360\272\213\275e:\\y\275\273K\355#\275\007B$=\014:5\275\344\367\324<\352[P<;\227\264<\344\277\246\273\341H\220\274L/\217\274\273u\352\274\362e!\275\371:\217\274\314I\215<M\272\001\275AB\315<\304\234\261\273\354\304\010=VJi:e>\353:\026\000$\275\0053}\274\243\261\251\274\363h\215\274\375\265\274\274\024\\\322\274\237\340_\274\223\000m\274\247\336\025=&\231\000=\232\335\331;l\262\336<\234y(=\350o\023=_\027\r\274\255\304,\274\311\362\217\274\250\266\275;h\263#\274\0071\020\275JF\327;W\277\016<4\307\310\274\240b*=#\336\312\274t\266\362<\315\3227=b8\341<\230\344\362<d\372\361\271\367\324-\275w\252\351\274\r\231\202\274%\034\004\275\245\223\034<X\227&=M\342\346;:\362h\274\276\215\356\273\357\207\260\273\371N\264<\334\277p<\013\211,\275~\275\026\275\377+t<;>@\273\335\372\003=\226\311\361<8\272\360\274C37\275\327\345\300\273?\"\026=_\363\005=Yi\030=\310\013/=\243\304\362<S\200\002\273RM$<\036\374\254<\316dc;F,\032\275\004\217\202<=\337\016<\n\3462=\271\325\221\274\376l\035\275\3163\001\275\316\037\332\274\035\026&=\352\2347=\311;\027\275\224\277\256\274=\022\264\274\242_\030=\267\332\206<y\\\304\274\004\036\331\273\023+\225<\036z1=\031e{\2744\0144\275\200>\013=\377\253{;\351\377\023\275d\021\326\274\202Kv\274\377\211\034<\332\333\r=\264\256\251<l;L<\353P\313\274\272\376\212<:\375(<\376\307\3729a`\037=\375\3127=c\233b\274TN\231\2740n2\275\317v\350<ut\223\273`\177\200<Nj\035\275|\212?<\0268\236\274\347\247\r=\276\002\333<\353X\3078~\305\330\274\220\"Z;\307(\230\274\016\254J<\"\321$\275\336\035\244<]\300\311<f]\307<a\234\034\275\236$2=\375\300\215<T\372\255\274I\234m\274\371\2529=t\0260\275^.y<\226\3336=Pu\330\273Xi#\275\340\233\036=\335\317Z\274\205\3367<\216\234\277<\010s\032\275\360\231K<\365\205f\274\355\001\376\274\364Q7\275\314l\006\275\177\247\000;\022r\003=Q\030\317;Za\017\275\177\342s<$\374\373\274\352\240\266\274\262%\210<\325\0330=\n\264\225\274\001\023\252<Vq\272<\r\356\311\273)|u\274\210\257(=hq\206\274:\304\374<J\371\251\274\243=\217<*\273%\275\211\247S<\\\227\261\274o\311\n=a\023\002\275\nJ\034\275a\177\027\275\202\236\2148\007\022#=\271\357z<\037\032\303\274\332\032\215<\245L\033\275\3021\267<\231^\267;^\204\023=b9\000\275\324\322\025=9\225z<$@\036\274ko\245\274\033t\346\274\017\0203\2747\327\t\274\272\003*\275\313\273\305<\2356\376<;\343G\273Pg\337\274L`\027\275\343\326!<Q\212\271\272@:+=p\3113\274\270(\330\273\216Ev<oT+=\317\355\203<\373\017 =p\324\007\275\216-\30296{\027<\031\314!<X\265\252;%\255}:k}\t\275\245s\n=\025\327(;\367\322\257<\344\334h<\213\340\243<\256\212\350<5\030\312\2745g\201:\204Y =\007\267\306\274\324c\026;\245\014\354\274\244\014k<\221\353,=\022\262U<\226\273\337\274\265\223;\274\352\264%=\017\347\002\275Z7\374<0\353\210<\243X\242<\264\344\341<\221g\007\275\226\324\'\275f\314\021\274@\315\257<f(\236\271\351+\031<h\236\007<6Q\360\273\222\326\334\274\343H\363\274C\307\255<\335\3272\275\252\205\234\274\024l\377\2738\251\016\275\230\374\336<l#\007\275\300\360\027=R\2513=\031\350:\274Id\177:\007\356r<\257\265*\274\347\335F<\006\r\231\274\351\377[\274.\347\301<\211p#\2753\017&\275\314\360\006=\270w}\274srx\273\215\337\341<\372\320\233;\356%\n<\307\016\014\2750\007\017=\3278\032\275\316i\005\275\253J\267;\255\347\246:\332\264\013\274\233\201\002\273\025\2770=\276v\256<\255\004\233\274\313\342\r<[\377\223\274\225\355\272\274\307\2219<\313\033\017=T\037\265;\302 $=U\263\346\274\016\351\032\275\27407\275x\022\372<\2464#=\017\242q<\221\2128\275\273:\004\2751\021w<\212\326\025<\010B\r\275\255p.\275\244\022\307<P\375\036\274\027k\332;@m<\274\023\215\363\274i\205\t\275\232\013l;\250\377\202\273\347\313\007\274e\353\034<vp-\274\236\345-=\r\244\243\273\316\210\232\273x\366\'=\346\314#=\"\335\241<6K=\274\320\2658=\223e\013\274\217\334\351<&>\210\273?\247\245<h&d<\277z\345<\234\346\321<\021\346\n\275EVP\273\333\3344\274\246\006o<\304A\344\273\343\n\316\274aV(\275\331/\236<9\'=\274\370G\033=U\t\265;K\326\000\275\213~\337;\224\306\340\273\004\245H\27440\013=\0320*=n\354\367\274\305\377\001\274\020|-={y\235<!\257?\273 )\216;;Q9=\016\351\235<\037](=c\270\265\273\371\371\027=iw\263\274J\275\006=-\205\222\273\261\347p\273\224.\013=\nx\030=Nu|<\333`\276\274_\347\370\274B\303\002=a\023\371\273\271\222\330<xO\351<\023\246\036\274y\250#=\254\346\362\273tY\036\275\214\356\201\273}\334\\;\271\274\242<\021D,\275\246$7\275V\316\002=\261\274*=GX\373\2748\375\367<\342`-<*\366#=w\200\325\274D\254\335<\222\357\353<\267L\257\274\267ET<\274D\013=\323\0232=\274\024\333<\312(\333;-\311\375\274(\313\021\275\020\036\345\272\006\037\223<c\030\253\273\313\216\325<\247k\366;\254\024\366\273\252\327\373<\004T/\275\247\004\327\274\371\302}\273\363\010\004=.\220/\275\260\347\033=\203\275\367<\3438\027\275\372(\353<\354\r\352\274\276\255\236<q\226e<r\234l\274\010\365\016\275\325\3345\275W\223\366<\273\207&\275\247\341V\271\024\267(=3\035\231\274\022X\037\273f\234\232\274\016\336\025=\216A\033\275\312\237.\275\2249\376;F(\000\275_\377\337\274\035\2749=\213\264\262;\235\340\230<\374\253E<\"i\343\274\212\036\t=\272c\231\274\"n\210<\201s\005=\222\213\'<\363\0167=B2\357\274\347\3319=\330\326\234<\"W\202<\221\214\006;\2539\252<a~\267<Xe\243\274Dl\023\275\020\224\001\275\227\302\375\274A\312\036=\r\013Q\273`C\335<hg\022\274\016\016R\273\263\305\177<\033\0348=\035\253\336<Ng\243\274K \023=c\324\307\274\320d\221\274\026\361.=\003\334)\274\354Ww<\261\250Y\274\344O$=\341\0250\275\225U\025\275\356q\037=r\211\201<\216\335\251;\314Y\234<n\026*=\344\215\t\275\243f.\275\013\345d< \263>\274\200\331\257:\213\347.<\301\257+\275\205\367\'=\\\304\271\274]\037\232<_@,\275\036\251\004=\331A\310<&\253\320\274\017\002\017=\364\327)=\360\035\230\273\021\250\021:q\376\300\274w\256\030=J\2411=\241\353\371<,\"\324;\233o\243<K\322\245\274\315,[<\345\271\006\275$\314\236;\321~\307<\202\245 =\r\240\200\274\240\3452=\275\021\274\274\016\307\316;L\2545\274&\306Y\274\n\355\005\274\360#/<\321\311\035\275\255BB;\265|\023\275\375\233\254\274+\320\274\273M\\\r;l\335\020\274[\341\317<\001&\030\272JL$=\266\237\343<\236\363#\275\217\340\221\273\273\003\250<%\0222=\344\323\375<\2723\010\275\330)E\273\2278\271<\216\276\230\274B\252&\275J\202\000\275GW\336<Z\254\034\273\316F\020=u,\373\273\206\320\004\275x\361[\272Z\2047\275b\243!<3}\221\273\350\376\035=\207\"t<\216\323\271<\006\257p\274\244]3=rM\006=\036|\305<X\261.\275\333\332\002\275\243;\316<\271R.=\303.\377\273`j-\275P\220\357\274\022s\022\275G\302\036=\354\005\177<H\237\200\274o\200\351<\317\"9\275\010\206)=\346\014\001=\260\377\"=\315\216\361\274\375\202\254:\327\271/\274\031\242\023=+\022\231<\202CP;5\003\275<q\324\237<[\016\001\2738c\032=\022E\034=\3014x<\300\210\t\275\340\3157= \200n\274\363{\324<\262\322\343<\276D\177<h\320\264\273\320\2219=\036\364G<\346d\007= \254\n=\251V\027=\320\326u\274\257\362\032=\371[\003=\037-\361;\005\037E<\227\3569\274 \253 \275\200FY\274\303\233W\274\036\251\360\2742\361\244\272\232\367\013=\223\0365=\204\237\361<l\360\377\274\203\0305\275\204\004\273<\264\247\022\275\251\\\266\274\034\341\357<\200\241\362\274V\016\376\274\032>;<\014n\033\275\245\365 =H>\r:k\254\215<wH\004<\005Z\212<d\316-=m\352\244\274\007\002\336<\'u\223<\027\366)\275D2\376<\237\354\027=\302$;\274\352\251\336<\371\021m:\360\251\230\274\213\002\027\274Y\267\246<x\2235\275(\332*=\252\312\036=\303y\334;\363#\214<\245^\321\274\3756\270\2749\237\302\273\005\236n<\365\2655<\263\334\023\275\375\2318=?o\203\273\275\315\210<4P\235\274\203\313\272<m\347\240;\"\312\000=\315\263H<F\275z\274\356\246\035=\225!\033=\213\364\242\274\226\010\260<8\353\033;:\220\013=S\377#<\254\264N\274\220\006\341;\325\211g\273\371?A;\251q\225\274\032\3759=h\277?\274\230\017\305\2720*\235<\233\357\233<T\214\203\274\332C1\275\231\220\315\274a\312\361\274\241\352\253\274A\371d;\371c\024=\016\275\332<\300\033\244;+\2258\275H\177\002=\003\242*=\3559\335\274R\253\003\275\256\224\006=\020\360\203<\205p\250<@\313\032=\257\r\004;>\252d\274L@E;\243<\364<\370\326\257\274\264\3116=\217\031*=\204\302H;\321V\354\273\217\210\022=\005N2;\270\355\025</\256s<\022\231\022=\325\037\324\273D\350-=\320!\236<J\326/=p\2122=\271\311A\274\303i:;\273\3677=t\016/\275\327\016\016\274T`\213\272\014\261\240\274\014R\275;\021\210$<\307\000\360\273\350\3336=\023]\323\274\337\323\243<N\343\331\274\343\010\266\274j\213\276\273\223x\347\274mR\253\273^\260$\274\316\216(\275\315\334-\275\354\344\266;\231\304\016=\234\333\032=D!k\274{\3766=\266\353\t\275]\257\005=;\352\023=P\361\353\274\314\206\320:\234\214#=\242\252V<T\230\357<\237\357\003=\250\336\247<&y_<ea\004=\014y\327<J@\010\275\347\023\235\274v\3354\275\226-\021\275\354\205R;A\316 ;\371\246\213;\350\3047=\350\306\001=\214<e\274\374n><\327\242\237<\361w*\275\3123\363\274&\337B\274\036\341\236\274>\260\017=\356L\255<wx-\271\333\236\344<\306\246,=&Z\270<\314\226\007=\252%l\274p\311\032\275ee\251\274\274\374\t=\311\356=;<\343\254<4\3408=N\000 \275\003v\t=\300\242-\274\033S\356\274\036\265\025\275\035\241e<v\305\005=\352j\335:J\266\346;+\026\244\272]\303\032\275\304\2719=\027\324\336\274r\026\202<\372/\312\273Dkn<\347LO:\351\2728=\316k\270\274\240\1771\275/\236\000<\344\033\n\275\323\321(<\304\367\244\274\217\304)=\201\231o\274HA/=p\353\260\273<iz<\300\241)<dB\275\274g\225-=Cbv\274O\225\023=\001z\277<J<\375\273)\271\311\274D\037\031<\n\320\374\271\016\367\'\274-\234\017\275\261&\016=\210\270\324<\253^7=\342\322y;\244\357\003\275\031\277\231\274\267*\352<\327\252\033=\331\276\214\274vF\302\274\203\304\021\2757G\016=\237\221 \275;\376\314;]\035\300<\024\243\314\274\223\373\023=\237\262\003<O\2008=\330Ij\274\031\321;;\2556\026\275R\001\305\274\334\013S\274\312\000-\274\223\366\016=\035\337y;\214\342w\274\354\033\\\2738d\'=\342O6\275uY\0369\301\317\024\275U\275\317\274\251GI\274.\302\027\275H\233\217\274\223x9\275\350\014\375<&\270\034=[\254\010:^\237\031\275\364\212/\275\006\321\303\273\310\346\205<]\250\342\274#q\246\274B9+=yY\024<\242\213\261:\204\224&=a\263\232<\362\336\230\274\251NF\274AW\037=\344\3159=v\375\177<ub*\275\322\n\201\274\370\007\227\274\253\320\231<\361V7=\355{\262<\217r,=\212\342\030\275T\305\324\274\2717\365\273\205*\355<\315\336\000\274\nZ\375\273\274\261\276\274m}\342\274M\240\002\275\r\027\037\274\2704\351\274\245\364\266\274T\312G\274\303\202\016=Rm\364<W\335\023\275\220,&\275\351\030\013\274h\322\357\274\202f3\273\360D\206<b\367\213\274\014H\315<\354\276,=t\0305=.\n\265\274\370\261\016\274FN/\275q\270\025\275\373\327\321<\010m4<v4\033=\342\370\'<\303:\365<\205\331\"\275\3779\020<+\233\'=\227.\004\275\270rB<b:\310\274\322\221\247;\321\310O\274\031x]<\332\0258<.V1=\177y\005\274\331\247\214<=[\215;\245\033%=uu5\274%\371\037\273\204\032Q<?w\227:\322\022\000\275E\315/\275\365=\r<X\331i\274c\260\336\274@o\371< \235^<%Z\242;\245\205\305\273$7\014\275v \376\274\030P\2629#i.<\347\320\262<{\250\035=V-\274\274\366^\027\275}g\367<d\243\021\275)\\\271<\tB\301<\274\024i;h\262#=I\2060<\301Tz:\375\256\253\273vt\034=\210\024\251\274:\212\231<\241\373#\275J\002\032=\275\n\037<\257\366s\273\312\334\000\275 \360\006\275\267\366\375;\010\225\221\273E\251\010=xhi\274\214)\030=\313\344\304\273)\037!\275\363e\007=g\313d<\001\300\320<m\303\033\275l\361\263\274\372\276;\272Z\340]\273o\325\260<c\217\227<\017E\"\275\250\222\216\274\2249\213<\301\2469\275H\317\177;}e\023:\323\310\315\2743 6=\266\3033=_\201\243\273\2368+=kI\261<\035\355\026=\363\010\341\274\031]\017\275\373\336o;l\326w\274D\205\373\273\341\2509=\"p4=X\033\020=\n_\333<hA\254\274\262\200\330<:n\021\275@\245\340\274\236\364\005\275\327\267\r=\341,\021\275T\037\310<\205\234\367<\263\010\237<a\212\252\274\302<\207\274OY\241<\275$\005=\003w\244<\202W)<h\357\201;\245\001v<\035\211\342\274\342\2104\275*\330\005\275;\\\"=dI\232\274!\257%\275\357\337\361<.KA<\252\232\022=\253\014N\273O\005\232;~\251\316<e\374\262<w\356\'\275\277a\314\274\250K&=\276\303\035=O\347\013=\257\344\316<\227Y\350<eC\014\275,\0049\275JC\'<\006\275R<G\337\237\274\374%$\275\211]\037\275\244I\363<\253\001\352\274_\'\201\274\373F\265<f\017s<\361\274\032=8\266h<T\212\021=\347\357\334<6E\350<;7\364<y\250\003\275\303O@<d\223\373\273\237\327\235<m\274+\275\341\337=<O5\361<\334\264-=\342\220\215\274\274a\206\273#7\217\274\020\250\031\275dI\316\274\035\336\367\274v2\313<\324\235\276\272\232Z\277\274\026\'\224\273\246o\225<\010\254<\274\\\313\006=\342\302\316<\344&\216\274N\024\205<\365\201\016\275\330\236\316<{\271\262;\227\213\035\275:\233 \275-\004\364\274\325\346\256<\212\277\357\273\304\346\326\2741\374[;\204\257\244<\212\261\t\273\006i&</G\366<l\271$\275-~a\274!\2162\2759\'\370\274`L\262\274b.\236\274RQ\340\274\214K\036;\035\270\314\274)8\330\274\3001\346\273\204,?\274\262\2510=\327{\376<i\3243\274n\343\023=\024\251!;K\262\'=\255\r:<H~\270<\216\200\344<\200\264\013=\033~\t\274\202\002\230\273$\'\232\2734\333\214<\331\036\251\274\274/\206\272\373\306~\274\321\323\244\274\350ro<\256G,\275\303\203\347\274\342\307\222\274hB\014=u\335\353\274\244\n\265;\347\2227\275*E\300<\005z\223\273)R\227<\\\257\244\274\371\005[<Q% \274\347\370\367\273\332!\247\273\030\364\000<:\353\007\275\002\376\003\275Dv\212<:\345y:\0316*\273\235\377\023:\036<\200\274!\276\320\272\263\362\205\274\303\301\001=\343=\375\273cb\234\274\0173\343<X\006\003\275\220\005\3139\001\343\205\274\264t\307<\345T\016\274~\260o<\030>\000\275\334\262\002=\250o\375\273\377\347\302<\212_\307\274\344[\377\274\231\320g;e\3076<N\311.:\334Vg\272\265-\014=\304\224/;\356l\004=\227\226\016\275\3472i<`\"\324\274\347B\237;\030\177(=\242ZH\273\352\221*\275\311\222H\274\254\206\017\275\373\303\035\275\225\014\033<`.\323\274\242\021\211\274\275\223\000=\016\333\347\273Nt\367\274\014\317\006=B\254r\273T\332\240\274\374@\347;E\200\021\275\014\233\345\2737s\n=\350\333G<\217\333\211\273\345p\237\274\201$\236\274\265\033\237\274\261M,=\014\337 =a\034M\273\017\321\275\273\306i\037<\010\372f\274\300L\223\273z/\345\274\030v\355<\237\202x\274\027\205(=\261Y\214\274W\254\r=\245N\343\274\326cC\272K~\312\274P\366h\274\365\342\025\274\260\007T\274A\000t<`\310\323;y.\215<\330\232\211\274%+\310\274Bo\332\274V\222\201<~\177O\274\352(\247<|_\303<\260\270\r\275\362R\014=\207Cx<\253\n/=R\273l\273\316\244.\275\236\006\033=7\360\033=+K#\275h\243\313\273\335n\010=9D\354<\010\347`;\361\261*\275\014S\272<\253\345,<W\000\t<\213\252\017\275p\301\337<<8 \2756k\"\275 3\010\272-Z\004\275za\3459\017\022\213\274i\316\311<\213\355\022=\033\317Z<\217\253\024=\350y+=pe\243\274\202h\211;i\352\020\275\215B\"\275\t\224\341;\332\225\264\274\223\244\241<\354P\331\274\250\305\276\274\2374\361<\273,\265<\220p/=\256\023\005\273BN\r\273P\372\243\271\272\312\"\274\254\211\323\273\237Z(\275y\274\211\273v\217\204<\037\n}\2744\320\003;f\355\025\275\324c\3619W{,\275oo\025=\017\003\n=g\n4\275\353\233*\275^\206\265\274\203\272Q\274\021\212Q\272-\037\372\274\377P#=\244#\235<\351\2103\275;K\014=\201\033\202\274\357\345\272\274\251\3105\274Y\'-=\271-\313<\333\031U\273dI\033=\373)\245<\030\213\337\274\265\240K9\351\373\005\275\305h_<\t\236\311<Ud\245\274\334N\347<\225@]\274\201\2369=\247\246\226<8/\002=\300\376\263\274N\256\200<\351\2023=\217\337{\273X\rF\274\361as\274D\353\224\274p\030\247\274\2257\0029\222i\301;\212\006\276;o\265\\\274\277%5=9\325\264\272\357n@\274C\334\000\275\030\330-<Rd#\275\277;\r=L?\274;\317b\013\275e\177\014\275J\201\004\2755\2760\2751\332\301\274\031\364\305\274j\332\032=U<#\275\227\204\345;\305\031$\275\214\220Z\274(\211\345\274\320\017\014\275!\232\360\274\223S\207:\360\234\222<\020\200\244\274\202\325/\275D6\021=\202\354\003=\000+\371\274T\241\t=|\035[\273\203\362\036<Y\324\216\273\224\204\226\273\273\273 \274\305l(<\203+\026=\250D\341\274\374\'\340<\036m9\275\304\254\374<\327|#:\260+`\274\240\004\235\273G\253\244\274k\262\320\274\002R\276<GS\203<\315\241\262<\035\353\356\273\334G\316\272gg\235\274\330]:\275!\324\366\274\251\377\"=\262\025\022=\343\3736=\336?\251<-\3556\275@E\034\27593\034\275\357d\033\275\335\361\301\274\323\035\343\274\221\235\302\274W^\026\275\035\325\200<f:\200<\027f\021\275\244\216\222<,\2239=\235_E<+w\254\274J\246T\274\221m\247<\210G\252<2[\001\275\225\310\357\274\3228\375\274`\3424\275\202j\005\275\007;\250<\367T\353:\276\226d\274\372l\026\275\231\255\207\274\316\245b\273\034\275\004=8j\366<o\032e\274[2\223:X\3360=j=\034;\264\257\022=\231\036\343\272\326\037\237<c^\207<>r$\275\375\231\027=\200T\307\274\006\202\303<I\317\023=Fi\222\274b\327y\274\001\277\314<\247C6\275\'7\026\274\233\342\326\2743\036:=|\353\245;\'\200\005\275<\355\'=\002)\247\2743\332/\275\320\035\270\274\252\360\201\274\306\232\206<\375\344\271\273\003\347\300\273\000v\t=lHZ<\270\333\017\275\n~\273;\215\342\005=\271\272.=\356-\247\273\310\204\210:|k\312\274B\271\004=\250\331\006=\317\353\355\273\371\316\033\275\265+\345\274\262$\232<\311\017,\275v\371>\273\230\227\014\275n|\270\274sb\022\275i\017\270\274S\037\324\274B\003+=h\230\272<Y\203\030=\211J[<\007\246\372\273\021\002(=S\266\203<\301\251\313<\2429\266\272]+\010<.\000\246<\236\033I<\357\257\344\274\212(\202\274\257@\311\274\365[:\275\242S(=#(\"\275^J\273\274\025\362\031=\023\211\251;\003\2640<\344\324\246<\200\237`<a\327\230<\343\322\354\271b5\263<\036\n\370\274<\314\275;\005\022\206<\334\3637\275\277\315\027\275s\2653\275b\303\261\274\273o\363<q\262\332\274J\007\261<A5\324\274w\346\030=\\\177\177\274\0375)=\316F\020\275\241\214\277:\336E\364<Uz\024\275\326\235&=\346\217\336<0Q\350<{\204\221\274\322\035\304;\241=\237<\357\023\240\274 \363\310<A1\000=\030{-=G\275\021\275\234\333\210\274\223Q\'=\"1\035\275yb\255<x=\"\275\313\361x;S\347\260<\323\203V\274+\253\000\274V\231\256\274\272Qz\274H\212\273\274\236\262\336;\'t\247\274\260\021G<\2713\373<\035*\374\273\000\340\264\274\354\234\215<B \217\274y$\366:\326A\034\274\203\221\236\274\373\231\350\274\272\341\302<\301\333r<\035\252\343<\210]\025\275\000\332\221\274=\027\213\274tc\266\2745E\026=\027\226\002\274\317\276.\2759\000\225<(\007\221<Q\n\004\275l\355\376<$D\003\275\244\251\307\273\023\215*=\313#\334\272\2777\301<\371\360%=\252*\3719\266\353\360<\344\"\304\272W\253\206<+m\243<\252\230\033=\322&\007\275\021J\"\275r\304\302<\221\366\n=?\237\035\274\253\353%\274\221/\250\274\253c\366<a\307n<\323w\334\274V8\203\273L(\303<\243\315\234<\316\362\306\274\323(e\274B\2528=\0234\337\273\013;\237<eh\001\275a+\013=\340P\001=\371s\030\275\333\374\006=\337\346 \275\375u\301\274\022\214\310<\352\262\211\274\030fq\274G\033\246\274\007\237\\;\032>5=\265}\233\273\034\351\266\2740N5<\034^\240;\3254\217\274\355\344\014\275\236\261\356<YJ\256<\334\323\243<=\232\247\274,\324\213\274\222`\004\275\357:\200\274\010?`\274\250i\357<\001\237\001\275\250\344v\274.:\327<\025w\230<\367\226\327\273\321\362#<\333\304\013;\306I/=\215\323-\275\006\355\341<\245\326\000=\233\217,\275\322\013\030=\335\245\314\274\2043\303<js\'<9\356\235\274\303X\r=\276\234\234<<\307\032\275\005\231\001=~\342/=\353\2546\274]U\315\274\333\031\326;%\251g\274mw\370<<H\023\275\322\321\302\274u\357\020<\275\\\347<\273\355\323\274-\321\240<Y\010\271\274\241\203(\275\347J\201<\343\021U<\005\215\345<\362}\362\274\204\020\262\274M&\357<U\3760\274\376\0213=:\274E<\363\363.<*\3415\275j\331\022\275\276\261\362\274\251\222\032\275\023\345\237\274&-\023=\362\222\r=\016Ve:\n\032\265\274\202\230\265\274\005j\225\273RX&=\335\260y<\n\265\321\273hEn\274\236\326\3669\267\246\222<\367?\223<\354\035\360\274\304\240\021=\331\226\177\273\205\213\276<}r\211\272\314\372\376\273xX\236\274/.i<\320\302\024<\241R\262<\r\010\345\274\355\016\353\270\255\313\253<\204C\036;\214S\272\274\245\314\344\274\035*\340<W\320\257\274\347\221\203\273\034\237\221<d\001$=.\345\375\274\251\320\363<]\322\270\274\177\374a\274\365M\024=\202\177-\275\210\340\r=\335\007\017=o\256\022<p\222\201:\366\010~<\271\3453=yy-\275&\016\361;\341n\240\274\275\273%<Q\351\'\274Bd\017\275jZW\2748\356\230<\232G\n=\251Y\004\274\312\2437=!p\313<\277F\336<g@\347;\264v0\273\003\236\023<i\307\264<\346\'f\274\263\2215=\261M\377;9\227\006\275\217\231\341\272z\037\230\274}/\\\273\310?\270<\227\013:\274\251?\242\274\273~#:L+\222\274\227\236\004\274\254\n{\274\250\233$=\261\343-\275/\345\321\274\377}%=\300S\004=\256\245\335<pG#=\207\256\002\274\267\036\023==$%=\322y\3428\342\203\020\275\246N\"\274LF\205:I,.\275\320E\365;\204b\003\275\362E2:\246^\212\273\331\242\203\274\2105k<\3455\031\275\331b\024=6B\'\275\347\366-\274\027\375\246<\275(\312\274y\263d;\263]\351\274\227\016\265;N\342\004=\3532\332\274\213h\032=,\325\337<v\350\265\274[\320\010\275\245`\371\274\212\370\010\275J\202\026<\251\221)=,Y\221<\200\262\030=\316\323\336<\221e\322\274\277@\306\274l\222D\274CO\003=\352\274><\257\217\006=\271E\231<qP+\2750~\251<\347\256\372<\265\322\016=\024>\261\274\323\314\343\272p\341\352\274\214\355\031\275\352\023\244<\033\217c<\263\275\353<\006\222\342<\004?B\274M\274]\273\001\345\315<d\030!\2748\313\020\273 \271\370\273m\252\375<g\330\367<\307\016&\275\316\342{\272}\262\270;)\316I:\004\263-=c\222\341\274\253\254\026\275\342\244\010\275\271\301\216\273\2379\037\275X\372\361:\261d5\275\230\271\215\267\326+#=\007\346\313\274g\225\366\274\200x\007<,\210\241\274\347\002.\275\240\303\205<p\244$\275BJ\323\273\376&2=K\224k<-\360\231\274\377\001\363<\263\000\302\274\276l$\275\253\215\022\275\233^)\274Y\300p<\rf\370<s]#=\315\343\303\274\026\300\r<\362\013\327\2733\021\017=pS$<v\303\376<1ja<\007*a<\007\247\306<\2717*\275\247\000,\275q\334=\274m\352 <\334\237\375<%{>\274*\2271\275\356\243\317\274.A\351\274\005\342\002\275\266z&\274\270;C\2743\031\376\274\257=1\275\351\0169=\330\273\341<\257W\326<\344\001$<\247\372-\274\371\030\316\274RX\200\272#\241?\274\3666x\274\242\346l<\274\305\240\273\005\177\337\274\336qw\274\343\202\035\275\317<\235\274\205\031\010\275h;\333\274\277\242\010=\223x\303\274\001\215\003\275H\n\323:[[+\275\021\216\031\275\203\330]\273OM\363\274\001\200\375\274\267^{\274)h\377<\220T.\275h\2753=\212\257%8aC\036\2754\002?<\234\244\024\275\224\330\"<r4\270<\262\036\266\274\355\315\277;?}4\275\211\0103\275\370s\t\275\234Q#\275\002m <\014<\211<\233\233\204\274\270P8=\232q3\275\022\346\200;\230\263R\274\317r$\275=\312\226<d.\016\274\275\273\006\275\261\313\345\274k=+\274\320 \003=\266\201\212\274\370Bn\274\336v!<\273\265\217\274M\243\021\275\315\246\214;C\033\306\274\005?\013=\315r\341<\365\207\305\274\025\303\027\275\340R\331\274\321w\303\274z\r\005=\317\036\022\274)\244\301<[\2001=\306y8=\000\347\234;\355{\214<\005\t\256\274z\000\251<{\354\374<k\007\017\275\377\260\334;\035\270\376<&\221,=\033\210\\;)D\371\274Ds\213<I\343\345\2745\213\320\274\374\312\201<\004\004\004=\245-\317;\362\001\033\275\335w\r\274/33\275\035{\t\275\306sh<\3150Q<\032\317\"=\001\211\302\274\324i\024\275\326\'G\274\335\035\034=r\310\264\2747\343`<\313\247\206<k$6\275\302\225\001\275\364\334\031=\254\277\'=\003\001\330<\372\204R;\335\271\227<\220\314\311<\t\373\204\273\266o\316\272\373\3638=\261\376\025=6\263\203<\025\270<:\315=\342\272\327\220-=\215u\373\274\'\271\034\275\306\273\310\274\243r\031\274\231\333=<\241\235\014=\361\213d<\232\272\322<\363\204\032;\306\232W\274\014Q-=\023-\253\273\305\360\362\274\300\356\216\273\014\360#\272\325\323 =\010\016\022=\354\266\323\274\367h\004\274O\332\214;\321\357\271:\310\001\221\274\275\265B<\234\233$<~\021\366\273\306yN<\262\344\321<\330u\251\274\340\026\014\275\323\310\241<\372\0222\275\222\270\243\273\305\205\001\275=\2351=R\340$=\rC,\275KT\270<>\333\274<\347\232\233<R80\274\257L&\274\026\231\205<P\311\231<\212\242\236<L\tj<\3369\036\275\330Dk<\342;\366\2740\'\033\274@\212`<\271#\016=-\337\007\2753\265\276\273\241U\'\275k\371\201\274\346x(<\252\337\334;\032$e<\031\236\223\274\327\002W;e\010^;sAz\274\332=\024\273\340\254\235<c\035\310\274\214\206\t=C\276]<\213\005`;\031\\\370<\266\255\024=\340\033\003=u\250\007\274\024\267\037;_\007\307\274B\332\023=\334\025.<\001\n\370<.\272\236<\225\352\016=\213\325\013\275\205C\321<\215s\022\275\267o\001=\355\035\314\274\320\316\257\274p\217><\302\032\325\274\267\364\303<\273\250\010=t\243\357\274\312\2608=W\2562=\177\222\352\274\312\224\356\274tr\316;\342\303\345<\264\354\273\274ult<\371K2\275\340\331\022=\367\033m<N8\"\274/J\311\274/.\370<\263\304\302<\347\2258:t\275j\272\253\2161<\226($\275?|-\275\250m\360\274);\021=\2336\357<\236\360\225\274\262v4\275P\233\245<\2751\211\274\274\347T<\215\256\\\274\030t\337<!\367\r=\332\344/\275\333\361\331\274\245\355\n\275\014\007\232<\021{\204<3\236\'\275\302\352&\272\322\3344=\t\207\300\274D(4\275\0246><\017\357\353;\033W\022\275op\036<\277\214/<\357\230\260\274\332\376L:)\306$\275\302j^<*Q\213<\371x\267\274c@\021<\240\245\037\275\374\256\241<\2043\007;6\010\031\274*\261\254\272\366}\234;\310\264&\275\353\346%\273\337\204\247\274\321\017\352\274\031\006\035<\350\372\001\274t\261X\274\325\r\272<\344\372\311<9\230\016\273\274$ =8\220\364\274-\021\334<\017\"\207\274\311\033\230\273\335\361-\2754\262\313;7\311\253<A\316+=3\234\025\275\031Z\222\274\240\\\021\275\325WI\272N\017\370\274\322\210>\273\310g9=p6\004\274\347}\003<\364\260\010\274\026R\000<\245\014\370\274\276X-=\3677\200<\224\2461\275CO\316;\216j\347\274%Q+=\n\200\333<\037J\263\274\n\215\370<4\0234=\360w/=y\356\035=_w*\274\334\301\\\274\236G\371<}\352%=W\303r;\220\025\n=\350\257X\274\351Zn\274\0277\003\275V(\010\275\'\353\370<30\301\274\312\"\006=\340S+\275Ga\341\272\367\002\234<S\227;\274\365\tP< \345\251;-\377\275<B\234\371<\324](=\334\226)={\370\004\275\305\t\236\274k\272\214<\332*\256\274\346\356\000\274\264-\216< \356\340\274\030b\014\275\264D\020\272K\364\031\275\266\227\'=a\326\177\274\367\322d<9_\r\275\204Q\252<\240L\244:m\322\031=\"\235\';1\376\364<\231\212\\<\251\314\202;<|\330<\270\030\344<\005\255\267\274R\343#\275\276h\023\2745(\332;\272h\203\2749\353\027<y\354\000:\206\236\010\275q{\376\2741\t\366<T\024\034\275\266\365\242\274\2441+\274\270v7\275.\343\230:\240J\022=\275!F\274e\330,=`\272\312\274\275\340\323<\244i\370\2721\\\300\274o\265<:1\223B<)\221)\275~\322\224\274J\230a<g\215.<\251\271O\274(\311\"\274j\317\246<d\266\207<\003c1\275\205\303\327\274\267\027\022\274%\247\031<wJ\036\275\363\027\356\273C\314\000\275\347\375r\274\302\363\027\271\220\016P<\377\363%\275#\251g;\343_j\273\304\3505\275\200\227\001<\261\022)\273\375\204\014=s\036\276<\342\344\234<\222T(\273\364Jb<\267\352\324;RA\"=\315*\036<\363]\360<\334\321^\272\355\014\267\274\251\032\225\274\321\\\n<\216E%\275\250\333\313;\323\354\277\274U\266\010=\031\342p<\267l\227<\003XB\274!\363+\275\343\275*=\361\343\021=A\332/=\343\370\022<\303\354\r\2753\372I\274G\020(\275\016\026J\274\260\232\002\275/%\374\274[\025\001\275\223\221\031\275D\236\244;-5\330<\217q7\275:\212&\275\3377\203\274\243x7=/ \004\275\022Z/=\204\334\201\271\342 0\275\030\234\211<A\013#\275\276\311+=\242\246\006=\207\033(\275\354\013\031=!\200[;=\305\001\275I\025|\274\010\t%=\311k\246\273\310\313v\274\355%_;-.\351;\257\233\020\275\305\236\'=.\036\003<\225 \023\275\324\263\354<\253\3010=\037\205\321\274\372IJ\274K\023\252:\202!\000\274E\373(\274&\2547\2755\003\222;\3550\314<0\304\354\274\3064\"<J\025\035=X\344u\274\240\200\301<\331\003\240<\305\374`:i=\365\274\340M\016=\314\010n\274\001[\342\274\006\273\250\274\335K\020<\255V\203\274\374J2<\003:\273\274\204\022\367\274\351\374|\273\001hu\274\200~\324<\274a:;\n\206R<\377c\234;p\363\352<\347\254\365\273\373\323\343\274?B\271\274\002[\005=\362\2429=%2\013=\333\341\305<^\0341=u\001\334\274[\266\341\274\367dt:5\304W<,X><\350;w\274\354\347\223\274\210\000 =~\2234=W\003\'\275ko\371\274y\221B\274\023\377];\007>\245<\351\354\244\274\341\365\324\270\"1*\275U\345\037=\'\306\'\275>\3312\274\335\231\021=\214\304\177\274k\355\342;\244b\021\275r\2534\275\331\325\216\274c\357\022\274k<\022\274\226)\017;\203P\314;\212\005><\305\2344\275\323\037\332\274\3229\203\2737.&\273\\\026\'\275\342S\037\274\215X5=\266\002\030\275L\354\221\274\003;d<V\035\035=z\327\313<&&\033\275a.\250<\253\334\251\274\324>\261<\266)M<\304\276\342<K\331\326<t\212\022=\244\3615=\341\300\374\274\202d\t\2740\305 \275{\250\315<\367p-\275\2070p\274\335\217\033\275@\203\032\275\314Y\236\274\310\306)\275\352\210\000=\325\240\027\274\321\201\315:Qu\030<\200\3104\275\253\365(\275-8\217\274\374r\330\274\253\247\263\274\202\365%\2757\266\340;\031W\016<\217\264\263<:\212\277<\302\313\320<\340\021\010=_4\340\274d\216\363\273OU`<\016g\210<jbV;\230f^\273K&\356<\233\215-\275g\212\203<\266\t\215;c\366\007=\337e\275<\345N\007\274$\032\364\274M\372&\274\261(\013\275k\2147<\007\r\372<\352\026\006=I}\243\273\331\224i\274q\350,=[4\214;\265\265\375<\236c\025\275iv\025=\253)\033\275\333\002\000=,\300\t=f\370\236\274W\362\326<\246a8=\377]\026\275\243\020\317\273\273\030\366\274\311\352\361\271lW%=\205\177\233;\203w\254<K/\350<\372\313\003\274\000\201S\274)\221%=\360\312+\275\306\351\010\275@\303\016\274B\255\026\275\275\036\236;|\360\016=j\343e\274\377\316\253<\233v\243<\342\252\352\274Et\"\275\236\301\377<\360\031\006\275:\313\217<\306\010%=\227\216\304<\345|\t\274\322(\n\275\320\377\"=Y}/\275\332\206\227<m\245\374\274w\013\366\274yw!\275Z\244C\274\200\375\003\2758\370\036\275\244\327\313<\216q\246<\000\325\307\273\345\275*\275;\373\235<.x\214\274\304D\316\274\2732u;T\202\337\274\001N\200\274\341S9\275d\240\273<L\230\022\275\226\005\000\274\370\023\241<\316\247u\274\362\236 \275\357t]<@\311\300\274\020\254\000\275/\201\010\274WT1=\024\360\026\275\311\253\330<\211\352\312\274/\026\341\273\207\216\273<)\361\003=G\265\037=\337x\262<\365\3012=3\204\327\271L\306O;e\024.=\032E\260\274\301\315\037=r\247\357<\325\3604\275\364-Q<\343R\324<\253\265\026\275\'\0336\275`\377\215<\357\3501\275b\204\010<\231\013\372\274\301\205x\274\037\233\224:\246Z\320\274\007\322\002\275\003|!\275)\305\260\274\214\270\324;\2150\300\274\034\301\010\275a\3556\275\275\031\r<\313u\013\275\001Z2\275\026~\261<1\2645\275\377\354 \2756\r\307\273\342;Z\273\022:\032\2745|\220;\'\017\266<\215\335x\273a\242\316\274b\0137=\177\235\021\275\217\201w\271I\350\231<\3535\266;\022\203\016\2756\360\024=c\375}\273\265Pg;h\343\362\274\370b\t\275\353\026\023=\277K4=\245\343!\275E\2349<\3060\024\273M\235P<\222\321\n=\275V\375\274,\262\256<X\022\230\273_\250Z:\337J\030=\220w\336\273=G*=\370\t!=\375\001\212\273M\035\262<\000u\"=<\335\243\274;\207\375\274\251\277\207\274\256\346p<\263\214\003=\356<4=\234\177a<\265#\330\274y\270B<\337\307a\274=*\036\275\304\2111<\'=k\273\346=\215\274\315Q\035\275\232\210\201<\251\030\275\274\026\261\216<\252L\223\274\332\352\223<\231!-\275*\243\016=\3034\376\274\030s\265\274\000\253\030=\\\022\301\273}\252\033\275E\213\025\274\312v0\275\335S\006\275\225\200\r=w\220\314\274\212@\037\273\224\036\371<d\002\207<\3577\252;e)\005\275r\356w<\336\025\224\274\225\205\373<o\020)\275*k$=\342\201 \274\330\276\330;\221\0278\275\024\014^\2740\204\006=\021`\022<\030H\005\274P\270\337\274^\301\260;\327&\367\274\035~\025\275\370\332\302<\'\220\257<\211e\347\274d?*=\3756^\274\335~\017=.\331\370<\364D9=h\221\244\274\254r\363<f\203,<\032\000)\275e\222\021=\350\203\"=\3017`<\006\265\374\274\2673\207<\324a\222<\007\\!\275>*!\275V\206\014\275\025\330\316\272\242\246\226\274\234\320\341\274V|\001\275\177\273\003\275g\302\n=t\326\003=\003H%=\002i\256\274\005\326\203\274.\360\030=i\353~:M\325\205\274\344SG\274R\374\321<\264+\307<\2327`:9\212\366\274\302\345o<\315\230\363<\313Y\025\275\022\036:\275\224+\037\274\340q\023=\267\320Z\273\323\020\265\274\331\351\230;\206\3538<G\002M\274\207\3325<\017\216\323<\222\026k\274\232\300\005=\343Q\006\274 \036\361\274C\324\351:\347\237\225\273\032\236\004=\304\243\324\2742\237\t<\241\222\220<\225\267\240\273b\225\220\274\034\2026\275\244\264\261\274\004\355Y<\\\224\214\274K\300\r\275\237h\314;\201\311Y\274\204\302\004\275\333\354\002=\265\020\013=\312}\351\274\355\001\031\275f\351\215\274\021\004,<Z\035\241\273\267*k\274\024\010\310<\334\0108\274\275\313\223\273\277\222+\275_\312\321<\\\025\327<\362\240\204\274\333R\203;\247v\306<j\232\030<\346I\305<r3\013=#\263\274<\224\224L;\275\026\021\275\020^s:\334B\n;\325\323X\2740\370i<(\335$\275\276\225i\274\366\200\335<0\000\n=/\223\356\274\321\321\321<\254\266\010=\032/\010\274\335,,\275\327\007*=`\3263=\3438\001\275\272\263\021=\027.\371<\366\354\257<\261\337\n<\261\262\271;\230\3774\275\352\217\201<\007y\227\274\241\225D\274\263\252\213\274c;\211\272\013\366q\274\326N\260\274^\314}\272\312i\376<N\375(=\034|7\275qP\n=>t2<\334\302\351\274\365\326$=<{\330\274\260\3441<!\240\017\275\203\202^\274\374\242\213\273e\272 =d#\236\274\316m\365\274\206!\010\275\256\267\263<\346K\004\273\261*\370\274MA,=7\0052;(5L<<U9<\2742.=5\024\035<\364\304\373;\035H\207\272\364uj;\301G\020=rv\037=\230B\340<\213\216\n\273X\233\271\274C\365h;\253 %\275\235\326\006\274\214\\a;\215\225m<^\250I\274?I:9Y_\307<=\372Y<7\204\034\275E<\327\2747\245\230\274<\202\007=l^$<$\027\331<_4\227<W\214\004=\202+\374<v\374w\272\322\033\r\274\264\261\373\274}H\222\274\005i\035\275\350\364\354\274\210\332\n=\327\322(\274=G\320\272\002\203*=\243*\335<\002\355\016=\341tv<-$#=\365\315\231\274\363*\007\275\324\263*\275\202\344\210<K\307\216:\273\r)=G\251\321<\374\2563=\001\254\326<\312\017/=\230\0144\275\203m =_ \013=\277\360\273\274&\251\272\274\370-\304\272\346\317\002=}N\037\275\335_\311\274\271\032\214\272\3164\204<\372\013\261<\203\372e<S\006\375\274\034\322\000\275\215\337\014\274\307;\n\274\210\235U\274!>s\272\236\350D\272\341\332\232\274\245\2762;\263\260\017\275\206\374\003\275\263 \211\274N\217\t=`\347\016;\204`\335\274ik)\275\357K\034\275c\365`;\330h4<\300\\2=~5\213\274\326\227\300<$wz\274V\275%<TL\004\275\017:\300\274OsE<&\3211\275to\'=\277\351\r=j1\310;G!Z\274+\276\226\273\000y\230<\331\275\033\274G~3=\270W\317<hO\236\273oP+\275]H/=\nC\001=\211G\220;\306-\377<>\252\027\275\033f\214<\200\320-=)\316&\275\321r%;\347*+\275S\325\346\2731\020\227\273\240\311\266<\324e1\275{1\254<\003\304P;\230\246\334<\203\234\364<q\325\000=1\223\231<\352\344*=\335\217,=^\353\261<\262^O\274\243\255\313;\203\202Z\274\252\026\251\273\3505\354\272m\222\026=H^\336<\255\037\265\274h)\246\274#\324\374\270(\304\207\274\340\325\314<\010\350%\275\370\007\211<C\207\025=\316\261%\275\337\024\247\274D\2431=\226\206\026\275\216\231\247;\361\244\314;\333\237\303<\024\177\240\273\276\331\367\274\'a5=!@j\274m\\\020\275]\017\016=QI\376\273n\250\261\274\334\0360<= \311<;\360D\273\317\346\n=\203L\3419\356\270/\275\2322\267\274\207\232\000\275\025\177\264<\261\214\374\274\242b&\274G\2268=Zi\210\274\210\013\312\274\343\2034:\312\201\211\274\213\206)\275W\205\363<\0273J\274\373\3450\275>`\014\275\270y\357\274\023B\"\275\023\ni<EaA<\000\200\'=\245\227+\274\360~\361:\226\351u<RO\272;\325\306\347<\021\304\206<\365\241\223\273\204\361l\274\224\342\'<\027B\211\274\345\246\032\275\373\324\226\274\205\004\004:\270\322\031\275<\350\273<O\037\316\274Vb\232<\313\000\023\275\221\361\030\275\217\277\225\274\037fC\274\007\262\006\275\002\2015\273TN\232\273\216\037\272;:6\027\274#Y\237\274\301\262\364\274\360K\002\272\303\013,\275\014\303\237\274\025\2671\274\nU\374\274\205v\251\274\271\243,\275Q\023\027\275~\221\256<\000\272\330\274A\013\241\274\ntt\274- \037=\032\300\332\273\304m\305\274\271FG\274\362\0271\275\027c\025\275\207\327\315<6\210\016\275\023c(\275\036}\215<K\016J\274\017m)=\276\265[<J\025\023\275\206M\025\275\002\312\217;(j\350;\314\315\245<\260G\372;m?\001=~\235\201\274+\304 \275\344\305\320\274\216+\370;\323\314\320<\020\236\335;(\230\307\274\020\317\031=\031\210\263<\314\305\004\267I\325\031\275\027F \275\267Sg\274\222\r\266<^|\342<Y\224\247\273\340h\302;\254\266T9fF5\275\321\334\274\274 a\036=\223R\254;j\302O<\370\256l\274Q\241V<\201\301\340<\366\033\224\272\250\377\315\2720>4\275\035\205$\275\272\203\277\274K\224\276<l\230G<%\326\234\274_\203\256\273\343\247\036;\222\320\242<\024\207\r\273R9~<\346\305n\274SZ\006<\346Y\341\274\003\001\034\275^\246\024=\360\253\355<\377K\r<\250)\303\274V\367\366<\032K\036\272\260y/\275\361\204~<8\352-=\320\257\244\274\037\215\260\274\"iV</H\030=p!\267<\302\245\273<B\201\005\275\264\3254\275@i\342\274\234K-\274\243\325(=Kr\260\274\346\377z;\215)\000\274!\224\014=\324\342\350;\017o4\275\350\221\036\275i\311\332<a\221H\274\213\202D\274\327\023s\274u\324!;>k6\275\216\247\037=|\034\325</\210\200\274\272\301\024<\2138\023=D\313\"<\016\273A\274BC\337<\033Rn\274\223Y\243\274\357Z\232\274\266bL\274\252\253/\275`\205\202<\"\251\351\274\0240\262\274\307x\035\275\206\023\342\274\355\353\024=\376\241\272\274#\251!\275\265\230\362<\203-\212\274\220\036*\270\345\370\331\274\303r\016\275R\372\314\274\305tw<?J\007=\316\274\233\273+\353\305\274\245\317\225<Oy\361;\300%\237\273K\300\317\274\006\265\257\274A\315\344\274L\"\337<:\350\340\274\237\372 \275\325 7\275\300\303\315\274\372FF\2748\274\037=\201\351y\274{\000\016=V\332t<\277W,<\300[k<\017\264!\275\231p\273\274(\222\201<(\002Z\274\210I\254\274\372A\303<4\326\377\274<\260\345\274?\332\371\273.\001:=2l\246<\235\037#=\341\214\t\275\"\3577\275x\037\202;U\364\344\2741N\214\274c\350b<\023\027\240\274\345\016?<I\366\206\2745B\031=\"\362\240<G\007\211<\212\332\301<\t[\241<\234\327\034=\006\034%\275\340\312\005\275\225\245\n\275\360\"\227;\273\334\007\274\350\027\266\274B~\033\275\343\267\320<\205\177\027\274o\246\005=A\344\340\274\270\371\247<]+\272<\340M\224\274\204\346\006\275A\002\263<\306z&\275 \337\247\274\220\303\030=\001)\251<h\224C\270\355\361\022<\342X\311\274\037\277\032\275\246\006\033=\335\221\263\2735[\234\273\243\220\352\272,\265\247<\304\344\366\274YM\302<\0212\303<\304\355\027\275\035,\331\274\274\034\325<\253t\357<\010\225Q\274.\246_;\316\340\003\27592?\274Je\347<^W\017\2753\270\324<\320\251,\275\235.\025\275\303^\201<\302\204)\275~\275\263<\256]\032\275C\307\272\274)!g\274\373|d\274MS\357\274\222i\355<\300\223\321\274@\017E\274\253\306\023=\224\350\000\275\244C:<\367\374\032<\314D\240\272\215\261]<\341\257\330:\250\035\220\274I\223\003=\004\310j<\220\247\005\275\313\272\273\274\021t:\273f\225\231\273\005\r\330\271\323\354\351\273\255\013+=\257\317\027\275\215\0160\275x\3470=\256\330\316\274\0267\305<)v/\275t\365\342<6*:=\264\255\254<\014\376,\273\025\2650\275\\\374\023=\003\037\021=;\203\032\275\241\221\035=o4\342\274:\305)\274~\357y<\331\246\236<yE\302\273\033N\026;\270r\030=%3\252\273\212\344\303<\313$y\274\033\333\001=5\020\246<u\264\037\275+\273\006\275\360\275\354<\231\304D\274\277?\033\275\316\271\025\275\177\226\207\274\257\'\325\274f\357\321\2733\2365\275p\305\t\274Ba\372\274U\350?<\035\314\277\274$E\326;aP\003=\301\003\334\274e\231\250\274\\\254\030=\305\266\221\274\006\240\263;}\322z\274\350T\005\275zo\352\274\354\236\036=\312\3273=P\2766\275\370\257\337\271\213s\005=\342\303e<x\371*\275YS7=Y\357(=\221\213j\273\304M\312;\320*\245\273i\323\326<\025\233\002=\024L\036\275\333\227\320<\250=\307<m!d\273\314M\002\275\004\346G<U\026\264\271\211\357+<\007\330\t=\3048\347\274pP\221\274\037\000\372< l8\275\231\322\030\275G\0274\275\224\177\225\274\370\345!=\257\331\024\274\014\331^\274V\214i<g#0=\033Y\273<\203\264\343<k\363)\274\223e\210\274&\3664\275\203\241\300\274t\243\210<mb\360\273\206h\260\273\001\313.=\020\017\022\274\024\036\024\275\341\"\234\274\322\233\256\274-\253(<\236\237\003=\025\374\262<\005N\264\274VB\261<\367%Z<\307\304\351\273\224\2104=\355\200\273\273:\021\307<\244\233\225\273\375?4\275\367\367\026\274\367\325\266\274\230R\317;[\301\313<\363^{\274\251P\213\274\221\312,\275\216\375\225\274$\273\233<)\271\342\2745v\367;C|\'=q\264\031\275U\032\216<\027\t\220<\014\2318\275\324\237\273\274\351\240#=\202\2012=\341[\014\275\367\020\027=\321\025\022\2735\211\372\274\353@\007\274\237\254y\274\303\035\004<\237\016,\274L\032\035=\027\235\023=\213c\352\273\360\211\346\273\306O\327\274f\332%<\364#*=\275R+<\252`0<\273A\265<2\325\306;\356\n\261\272\0236\212\274H\t\273\273\0233\347<\205\266\001=\357\3215\273\237\265\275;\242\333\013\275Tj\370\274\366\211\257<\254)\013\275\310V\002=\036L5=\022M\024\274\021\242\036\275b\306\203\274\325\263\227\274\353\2304<\267b\365\273\223a4==\302\310\274/o\261\2740\250\200\274}\226\204\272\320\005\025<-\201I\274\300\022\010\275\026\200\030\274U\256\020\274~\r\262<E)];]\302\250\273U\310\344;\253\244\311\274\245!g<\0210(<N\221\026=}\364x\274\2345\326;h\363\007\274\253\2520<\253\323\177<\210\331\317<|\201\221\274m\253/</\374$\275kj&=\210JU<|\207\022\275\014.h\274\357\010\243<\241\220\n<\027\272\031=\331\3639==q\367;\364Z\233<\366\277\252\2737\314$=\210\305\236<{Uy\274@~\343\274g\025p<\253t\246\274s\222\352\271\200\303\333;\014\241 \275}\032)<\300\315g\274LR\014=\351\177\032=\220\203\005<\217\372\377<\353\210\026=\205\030\210\274\334\023\247\274,o\316\274/\341\023\275\201K7=<n\007=7\227\315\273g\326\026\275+;\323<\023zA;\220/\310<\353\272\251\274f\243\035=c\365\r<\315\313a;d0\262\274\206=0=EF\304\274\225F\345;8\355\021\275\014\255*=\3440\031\275\302\001#\275?VI\274\356f\030=-.\244\274\222\306\377<0\341\034\275P\234\246;\316\177\357;8u\315\274\274w\232<j\342\250<\031\275\372\273\r\3748\275\347\215\374\273\270\372\367<a\316\014\275-\324\023\275\216N4=5W\343\274o\200\014=?6\343:P\367w;\361\346\034\275\177\263I<V\237p\274\211\376\212\274=T\370<n\006&\275\330\312]\274\243\003\251\2747\270\014\275T\316\017\275\211\253p\273`B\260\274U@H\274G\364Q<h\023\317;;\256\037\275\0343\'\275wu\276\274\244G\317<\037\005\270;\201`\271\273;L\216<z.\'\275zd\r=\366\271#=\250b$\274\251`;<\266\336\007\275]|\226<D\347\'=q\362\002=Y\251\277<\2300\227\273\275\341\264;N\263t<6\321\002\275\205\024\010<\347\347\234\274\275\314\255<>6\240\274\270\236+=Pt\371<\241y\232\274\370X\307\274l\214\317\274f\331%=/\367\034=\243\026\246\274&}\315<\364\224\314\274\262s!=\320\264\022\274\244\022\355<P{x\274s\374\004\275\307\300\014\275X\226\306<\020\031:\275\375\332\222:7\221\215\272\221\213\033<\000\225\236\274\346H\277\270F\005\'\275&\213Z\274\210\261\312<\335a\210<\325+!\273\232\227\013=\031\"\204<Sp\370\274\035 \255\274\024]\353\273k\307\023<\205\324\237\274O\325\243<\'[-\275\035\265\351\273\321\367&=\243hq<\312v!=\227#];\014q+\274H\234\315;.a\037=\263,$\275\307T\275\274M\034\\\274\206\347\266\273\244[\342<\021\247\000\275l(Q\274<\'\n\274\326z2\274%\025\310<\345\347\r\275\372\260\223<\315V\315<\334\233\326;\217\311g\274\306\221\005=~\202\304<\250t\276:\020\3001=\256\245\207\274yuL<}\273\270<\353e\302<@%.:\251\353\002=\005\340\347<\234\3427\275\036\226\036=\001F\213;:\270P\273z/\022=9\341\034=?[\233\273\212L\331\273+\'g\272H:\316\274(\211\311<\200\236\307\274\365\264\271\274*\204\334<y$\004\275h\034\320<\323\013\006=\217\243~\274t\271\004\275YS\236<\347\035l<\021\316\020\275rB\025=&\332\260<VT\254;\234\232t;\250\376\032\274l\301\325:&\362j<\007\2358=\350\256+<\237|\307\274\344\241`<\331c\032=\372q\271\273\202\026\254\273\332\220\253;b\215\346\273\003]\004=Gb\372\2748\347-=\337\231+=zL\331:E\251\264\274\255U\227<\365\027\r<\275\256g;3\r\314<$p\252\274\331\237\310;\352@\036=#\373(;\316:\003=\264y\305\273\341\031\004=\371\221~:{\375\001\275\320u\022\272b\340\250\274\370D\032\275a\342+=\372\372\274<\250~\002<\322\260\346<\001-\000\274\035\371\343\274\367\316\212<\275\000\273\274\340\035\336<\014\321\323<\325\2300;\220\322v<\315\224\237\274\203e\270\274\214\364+<\343\016\316\273\245\314\002\275d\243\005=\010\024\256\274\037j\005;\200W\020=\3646\300\274\267\371\004=mZ\376<\343*\256<\\\352\364\274+\214\315\274\265\002\020=7\305%=\326C#=\351 u<\322:\330<\022T\372\274y\307\200\274\2145p\274a\213F<\025\354\252<\250\356%\275D:\336\274\035}\224;\201\353\307;\327s\320\273M\357C\274\206~n\274\274\352\271<\201\343\325\274d\214\030\275L\231\214<R\354,\275b\177b;\031\034\310<\330\240 =-\241\023=\256\321\014\267\313!\250\273\360q\315:\304\245\217<\006\024g\274\272D\017\273t`\265<\002\205\023=\201(\260\274OB\002=q\036u<a\266m<6\374\211<\253\020\007\274\027\214/=p/\022=\317f\027\275\212\276\261\274\370\2542\274u\322I\274\341a\224\272z\024\274\274y\314\213;\326\002\n\274\263\327/\274J\204F\274!\320\357:O89\273;\240o\274*\177\243<\237\205\026\275\350\363\244\274_\223/<\307D$\273J\313\025\2751\367\t;\247\014\025\2753\352\374<\366\034\224\274l\271\215<\240}\373\274-`\210<\337\346\226\272\226W\'<\275#X\2742\025Y\274V\326\031=B\235\373\273\203I\220<\237\3559\275\366m\032=3\343\205\274\221\311\370\274o\310\301\274\003x\353<\264<\t\275:\n\257;\225\236\301;\005\203\027=\260\321$\275x\0011\275;\024\373\274b\330-\275\345\"\357<\373%\357\274W\330{\274\220\013)\275\220\266\032=\201\327$\274\340\363\026\274\337f\266\273g\325\220\274p\204\020=`\006\302<\362\367\"\275\246\210\361<\353\235k<\353\332\224\274i\201\014<\267M\2029J\004\317<\341\313;;s)\001<\321vS<\202\330\363\274\315\204\324\274\33512=\020\036\214<K`(\273Y\355\t=\327S\371;\271o\371\274)\242\267\274<\017$\275HMt\274\330\217\322<3\227\313\273\310Z\370\274\270\021\331<?\257U;\335\351\264\274h8\253\273\334\2303\275\244\013\277;\374\244\036=oF+\272\326\205/\275j87=N\370\223<\243\210\370<\325\035\204<}\3512<\376\276\030=\313\277\016\274\267\352\253\274yx\000\275\362\023\354\274x\n\353\273\345\324L<\2522\017\275\0137\235\274K\367\006;}\324\204;\244x^\274 Y\001=(\222\260;\232\352\215\272.\204\027\275\017\004!\275\025) =\225\0043=)\030q<\227\237$<\267R\233\274\207\317P\273\003\367>\274\316\373&=\343t\032=$M$\275\262mQ\272\212j\312:2\235\023\275\263\377&\273\010\007\354<|\337(\275\014\207-=\332\203\001\275\252\313\316<\3070\223\272\177\3444=\221\0144\275\207\324\354\272\035p\003=4\350\033\275\271\232@<\361\263*=g\356\312\274h27\273o&\270<\2476\300\274\177S\227\274\232\312\227<\020\344\004;\230\321\271\274\210\236\022\275\366l\257\274I\330\343\273G\257\355;\300c6<\253O\274\274D\367z\274\361\270\221\274>\017\217\273\325M \275\002\334\010\275\240\316\204\273\226\250\006\275k\361\346\274g6\014=\362\n8=a\222\023=\345\357\024=G\274\265\272\0369\337\274\330\2122=\033\370d<\2327\030=q+\r\274\242\225<\274\370)\002\275\255#\t\275k\245\301\272\037W\221<\340]\005\273\r\036\001=Nz\337\274\256\370\321\273%\"\217;\220\366\260<\337H\344\274\364\354\255\274t\275\304:2R\215<\367\312\354;\224\207\366;$k\036=i<\341<9\303_<\323T)\275@\002\376<\232\215\251<7X-\274I\303\356\274\310\233\'\275\230\351-\275\341=S<\037\203*\2750q+=\342\3330\274\356\360\353\274xY\337<\216\022\255;\005\246\202<\362&(=\366_\003=\264x$=\232*k\274\257\232\210\274\232S\034\275\367\250\000\275D\322)\274I\271\345:\240\021><b\312\227\274\363\337\236\274\377\264\256<7e\224<\257\2033=\205#\274<\020gh\274\270\204\264<\002v\334\274\027%1=\022\020\313<\305\330\213\274\3438\374\274\244\034W\274\350f;<|]\376<\021\352#=\017\271\353<\207\340 =/;\353\274\001\t\010=rV\276<|\241\374<{t/\275\032<\375<I\017\316\274\352\377\020\275w\377R\274B\0256=\247\234\355\274\020\221\336\274r\364\243:,h\306\274p\2601=5\346\307\274\323{v<(Q3\274\374\276\023=\272\327\272\274\376=\344\274\336wt\274\370|-\275W\177,\275j\000\016\275Z\352m<\350`\215\274\202\301\343<q\311\353<\354[\361;.\311\232<\\N\020=\276\005\356\271\273\255.=\262\324\016<\305\021\261\274\006\036\234<\323ew<\023\337>\273\370J\201\273\324\005S;lC\005=2i\375<\003\205\264<\337:\361\274\236A\020=\036\264\324<}XC\274\345\341\354:\214\212\022\275y\030Y\274\320\204\375\274\3208\354\274=&\374<\370\254/\275\253\266\025=w\2616\275\306\360\326;\363\223=\273\027\344\024<\374*\265<w#\013\274|$\033=\333P4=]\177\234\274z\323I<\231+\361\274\030\230\312<:\377\306\2726\276\277\273A\254\210<\227\026\233\273\017\347\341<\202\262V<\224\302\214<K\250i\274&\004\023=\246?\211\274\021\355\035=C4\310\272\005\303\374\274\265\210@;\221g\227\274T\375\r\274\370>\217<\327\356\311\274\325\3011\274\205QV<\3329\251<\330\207\231\274_\375d<g\261\274<\222*\235;\263G3\274\2524\244<;\006\211;<Y+\275\212v\303<\251\240\274\274\243\310\213;\370\333\266\2741\270\216<yv=\274\365\373\377\274\274a\247<\007\225\r\275H\313\307<\350\006\033\275\253\267\321<_.\232\274\254\022\346;~\366\177<a\244\025\275\317_-\273\210\324\313<\2368-\274\'\2624\275\337&\t\275\326\222\035\275\200\330\272<\252\033$\275\000\002\204\273\371\326\037<)4?<f\304s<\325\355\006=\373\275\273<bk7=\005\004\322<\261>\026\274?sz\273\033\211$=Q=\364\273n\364n<\320o\212:\314\274\307:\305\000y:\361\374\263\2742\201\202\2749\'7=\277f\034<\217\324\025\275\364\272\267;_\217\365<\246\376\201\274\255\013\014\275\232\350\206<\372\314\003\275\013\245A;\340\361\317<P\211\244<\300\236]<:\252,\275\014\026T\274\311i\364;\344\230\321\274\377\3300\275C\002\017\275\2036\034\275\022\022\263\274\342\2365=_{!=y\236\317\274/\370@\274\262\352$\275\355\221\264<%\256\240\274\212\0214=\214\346\264\274\251\350K;i\032\206<\332\235\272<=\3111=.~\004\275}\244\215<\000\256\031\275d:\025\274B\261\005\275gR\237\273\307\350 \275\031\001-=1\254\022\275I\246}\274\247f\033=\271\034\t=\314v*\274\216\022|\274\254\351\366<4\252\376<N]\006=\260TI<_\213&=\013\301\327<<\224\271\272-\014\361<a\243\036=:\036\367<\021\344\277\273\002\031\r=\263\252\036\275K\313\354<\307\022\356\274\210\233\016\275I\342\020\275e\003\374\274\241\350\036=2\2639=\364\234\207<\032\020\036<\0209\301<^\\&=\332\0019=\013/\370<\217\334\242\273\004\024,\274\274\365\376\274\217\320\373;L\240\r=7\263z\274\364\250@<\322J\375\274\376\350\000<\351(\305<\031Dk<=IV\273\336\031\200\274y5\n=AI.=9\031\357<\357\340\271<\332J2\2730\002\033=\301~$\275\207\300\034=\252>\307;RP\037<\017\2517\275\014u \275\324l\025\275\t\314\t={%\205\272\032 \345<\355G$<L\316\240;d\221\203<\317\357n\274$ \014\273,\025\212<\005\210@\274\224\260\005\275\214(\026\275)\223$=\324\217C<\374\224a<\356;\207\273\301YI\273\242:\034\2753\327\250;\007\235\203:\334\0106\275\241\332\024\274\353j\210\274\224\361\027<\351h\361\274\327I&=\n\216\006\275%\216\023\275\3275\317\274ek\262\274\325\260\376\273\240\220\357:\335\t\304\274\330_\005=D\203\026\2727\346\271<\367R\364\273\235\336\014\275\277?\036\274\277\2531=\337\2719=\220:\246\274Q/*=\346\313\t=/r\276\274\230#+=\213C\213:\303C\244\274\206\"\301\273t\264\337:\206\357.;[\354\346<=\317\024\273\350?\321\274\"\")=\214H\321<\330\360\333<\360Q9\275\001\3502\275\260=\t\275=\003\"=\262\223\211\273\231{\035\275\247\0248=\'\r\251<\211\354\272\274m\n\361\274~\350\"<\332U#\273\023\264\235\274\265\003\n\275\246Q.=\n=\223\274R\251\317\273W\341\021\275\337O\371\274\352f\'=\376n\007\275\277|\342\274\222\215\376:\276*\212;kA\007=\320\241R\273t\357\312\273\216\235\371\274\341\227g\274\357\311|<\337\367\343;\335in\274\267\210\313\274\204\021\"=k\270\342<)\311\035<s\204\026\275\322?\030= P(\274\331\220\302<\264s\r\273Cv\372\272d|\325\273G\245\271;\365\264\260<o\313\252\274j\005\036<\032\355\260\274}\316,<r\233\271\273A\262\316<\235.\024=\232f\310<\267/\340\274\271\032\273\274\275\355\252<\020\263\330<\356\265\315<\303e\223\274>\315\340\274\004\366\022=\340\352\343\274\022\220\355\273\352b\035\275\356L\016=r\352\242\274\276[\270\274\376#\014\275f{\325<\247\201\002\275`\030S<\325\2066\275\321\007\020\271Q\375%\274\317F\265\274A\022\243\273\003@\"=\343\242\323:\374\351<\2741\3762=\311\350\017=\352\2427\275/\376\306<\301\205\031\273\340\021r\274b \375<25&=-\2674\274e\315!=7\370\350\273)~\377<\005\272\243\274Dz\214\273Og\237\274\244\255+=\003\016\325<\t\261\025=\004\346\031\275\303Nj\271nt\211\2733\344\325:j\342n\274\331\r\204\274\257\026\347\274h/\305<\3264\001=B\232\270<%p\021\275\356c\036=}\013R<\332\345E<&\177\274\274q\177\321<?\236\247<u\353\362\273\262\246\263\274\310\033\250\274\003=\356<\371\020\276<\336\003\017\274J\214\250<\314\3775\274A`0=U\354)<\314\250&\275\313\371\241<\223\254\370\2742\334\216\274\303\'\371\274\235y\n=XW\273<\014\276\277\274\245\0239=\333\343\005=\025\215\262<Sv\032\275J\204q\273\036\242\223<<g/=\217\242\030=#\311\200\273]w\265\274{\030\311\274\201\213\014\275\273\246^;\300\026\022\274!\323+\2757\352!\275j\365\005<\204L\271<\037\242\325\273\257\253\010\275\222[\300<\373\236\375\274\013\254\t\275\225\n\301<\266\n\302\274\245\201\2069\037\014\035\275\332\3553:\304M\261\274j\345\032=\275n\016=`W#\275AH\214;\256\022\357<\342\267;\274\027\267/\275\000\230\373\274Wl^\274\276\"\376\273\204\313\374<r\221B<\266\245\n=\001\250\337;\345\240\272\274%\217\266<\350/\005=\'\024)\275\0009\343<\034\235+=\233(\237<\177\241\330\273%\013\302<D\200/\275L\033\235<l\177\207\274\364So<+\210\2679\340l\215<Yi!\275E\331\331\271\005\232\035\2748\255.\275*\267-\275\266B\254<\205^\273<\343\240\324<\244G\213<\271\240\236<\251\"+\273]\235\264\273\026!/=\224pP<fe\360<\177\3413\2755k\327<\t\001\271<\227y\022<\341\364\035\275\351\036S<\216\370L<)k[\273r1\321<\353\013\344\274\356\0269=\200\031\341\274\022\275K:\265\3170\275\260\266\020=\276)\034=\251\270Z<\204\276\t=\030Cu\274z7-=\366y\203;V\\\327<\0266\354:x\037\255\273\276\362\276\273\262\331\233<\263\362\213\274+D\346\274\010\343\032\275\325\007\035\275;\204\030<\350\323\331\274\204\211\016\275\213\266\027\275\345 \277<\331\024\230<F\002\022<\254\351\376<|\017-=\235\343Y\273\367-5=aK\362\272\037\315\032\271\276\325\035=\350\334\361\273\021\320\003\275\351\224\252<\225\207\022=\021\215\244<\314r\263<=\266c<zu\355\274\373\202\'\2755\263\033;*E\226\274\272{\264<\203\376.\275\345\025\336\274\2255\347\273\2304\271\273B\204-\275\260t\270;r\r\222:\237\254\020\275\247k\322\274\034\003~<\202O\305\274>J\234\273\261\255\025\274\025h9\275\254\211\226\274\374\306\212<\030\037\337<\2231\227<^2\032=sA4\275+\027F\274q\224}\273\364\342\361\274\340\3153<\032\212.\274.\325\243\274v\332\020\275\335#X<\200d7=o\037\364<+H\235;\203\310\276;u\347\377\274\'XE<w0%=\"\376\272\274~\371\017\274D\227;<_\255n\274}\240\035=\233\211\331\274)\247\036=\'!B<{e#<d\301\227\2740#\013=\036J\003\274N\262\363\273S\376\226\270\214H\304\274\351\342\317;?\256\333\274\314\344Q\274~Pp<6\323\221<\243*\327<\240\351u\274\261}J\273e\271\212\274$\033\021\275R\337\025=6\237\252\274S(\227\273B\346\244<\352g1=\265\025\375<2\206\272\274\302(\023\275\270\"\027\275\022\250\"=\263\025\014\275I\231!<ja\t=*4A\274\003\3251\275mIo\274\210\0140<\353\017\021=?\022\223;\231w\036=/7,\275\3207\347\274\203-g\2722\266\303\2745\007\034=8\346\240\274\371\033\036=\001*\317\274zT\000\275#\257\365\274\203[\220<q\351\034<\246\3667=-\302\327\274w\t\035\275\020\362\341\274X%5<W\210\031\275\030\230*\273;/\327<\205\277&\275_\202~<\2335\374\274q\254\025\275JX&\275\242\275\036=\323\215\023=\250\321\213<{d\014=,\215\006=\322\217\020=\270\371c;\272\277\035=\324f\226\274Y\330\030\275\222;\023=\330\236\302<\347\212\364\273@\007\366\273#\016\366\273\337\347,={\330\022=\234\226\251\274\332\352\343\274V4\004\275!\374\314<,\013(\275bb\007=]-@\273\242\222\211;\3142\017=\353\366\335\274lp\247<\364\305\350\274\302;6\274\304Fm\274:f\204<\216;\267<\217\220\033=\007\367B\274\307R4=\177\264\246\273\216|\305<\216\236\377<I\2762\274\223r\241;\302\014\333<\014^c<\006\355:<\335\346\361<L\375\271\2746\237\\\274\364\0348<\206\257\033\275yw\204<~8j\273\324\250\351<PR\275\274\374S\n\275\355\307\002\275\230q\035\274\324(\027=8V\006\275N-7\275\0149\'\275\216\2029=]KM<o3\005\275\371-D\273\222H9\275\220<\264<\240\215\327<4(\317<K\270\023\275\351\375\342;\271D+\275\222\360\013\275W\343\341\274B\315\007\274\014\267\211\273x\031l<\346\031\t\275\226\201\020\275Q\r\375\273\325U\356<\007\020\010\275\035\241\350<b\257\205<\222\254\341\274\333+\231\274\277\367\303<\202\017S\274+8\005=\270\003n<jr,\274\276!?\274u1\254<\317J\372\274\202\316\234<_\367\036=v!z\274\242\267U\274\203\2627=\243\214\016=\211[\t=\r\270\254<T\353\"=\032\327\327;\202\370$\275&6\253\274S\3376=\303x\004\274\227\211\331\274\030_\335\274\000\025\262\273\367\321\315<\256\177\276\274,Ta\274\370\006\020=Km =5&\001=\021\272Y<\313\3531=\347<\022=\337\334\006\275\331`\211<8\331|<\225\034\205\274\260\360\261\274Ci\260;o1\307;\302\001\262\274J\033\270\274K\366\231\274\022.\372\273\267+\256<\246\254\'\273\1774\376\274\347\360\024=\377\320\005=\235\3279\275\024\232\223\2736;b\273Gd#=\227\341\327\274\221^\021\275\001\322\254<0\341V\273\337\356#\274\224\177\177<{\245\314\274\337\036\314\274\321\317$=\241*\231;\225\210\000=S\206)\275\210R\253\274\363\013n\273\230\270\001=6\005\000\274H\337\201<\243-,\275a\261&\275\347\n\010\275!_\007=\260\020\241<\260_\367\274\3737\333\274\241\215\020=\236\035\005=y\236\262<C`\342<\nh\337<\006\266\250<\262a\213<\326\236\222\274\201[7\2756\207\024=\212\344\200<\206\352\023;\254\227Z\274\231\202\3639\352\365\034=\251\243\027\275\227\310(=\243O\202\274*\365\303;j\324\205<\246\010\013\275\250\021:\275\312\350\014\275M\300\003;E\237\006=)\263\354;\352\205!\275\223\374W\273a\214\t<\365lb\274-\014(\275\352\016\211\271\016\274\\<\263\324\277\274@\370\035\274J\264\036\275qy,<W\232\032<\211\366=<\353\206\212\274\271x\376\273\347\',=v\367$=u$\373\274\177\316\202<j\270\010\273\363t\323:4\205\004\274}\331\3209=)\366<X\232\323<\371k\342\274\017\221\241<\\\310\322<V\026\261\273\372\212&;\224\315\n=\204\273%\275\002\271\343\273\222\215\344<5p\005<\221\023\351<\023\372\007\275\260\351\270\274\333\177\031\275RRP\274^\0270=6=\250\274\301v)\272uY\20299\360l\274YC\013=\266\3212\275\002B\344<\326V\006\275\370:\032\272\213\3356\275\206\r\351\274\252w\310<\025\234v\274\3032\213\274\223@\303\272+\275\270\274C\037\266<\321$\201\273\373\233\301\273kk\250\274\201g\321<\320\322\336<\026K\002=\253\210\365\274\037q\235\274S\262\000\275\021\313\336\274\343y\261<X8\240<\017\350\033=p\0132=\371s\'\275^\r\306\273\010\240\220<\367~\034\275\330\303\034\275\033\371\333<ixM<X\212\n\275\232#:=B\355o\274\013\360T<\263s3=\342\266\3159S:Y\274\250t\275\274m\352\203<\354#+\275\345\"\255<\037\336\213<\255\037\003=\205\224\220\274\272\227*\275\323:=\272dn\031=\257!$\275MR\272<]\255\013\275\006y\"<\362\177\304\273\0005\030\273],\245\273\305\032\033\275cX\344\27465\355<C\240/\275\030\317!=\215\207\370\274\232oy\274\032\317q\274/f\356<B\212\014\274\372\243\255\274\212&\031=,\3037<\343\2008\274\223\022\201\274\353\327<\274\356\356*=\221\336\277:\037E\007<\336u\343<\31470=\233\347\267<u\223\367\273Yx\335\273\235\316X\274\326\371\021<PR\332\274\356*4=XK\232\274\274\243v\274\372\030\305<\'\331\326;\2461\251;\313<\256\271\211\345\004;~\276/\275l\246\301\274\004\314 \275\233\226\021=\034R\255;bW\372;\204Q\025\275;-I\274f\273\276\273\274\t\270\274\306\367\025=\0313\334<:#\014=\377\333\014\274d\377g<\220\251\354\274\375/v\274\r\303\'\275\257%\002\275J;\"=_\334\"\273|[\303<_\277\356\274\217\002\267<G<\025\274\362f~\272(E\335<s\036C\274fI`:\000\211\031=KX\254\274<\365\360\274\024H\314\272P\361\342<\273\226\257<J\224\346\2748;\227;\341\270\253\274\321\314/=\013\036\200\2747\244\002=?\2360=|\301\257\274\225\025\306;\366>\020\275c \233<w\320\364<I\3628=4\3327=6\216*\275\302G\022\275\263\0317\275F\266/\275w\245\023=\007\355\314\274\350\241\305;J\226\253\274\323\375\337<n\254\335\274?=[<kr/\274DVe\274\267\334\264\274Gkt<\247\303&=\266\332\3019\374J\362\274S\373\t\274\310\201\023=\334\353\310\274n\332\000=p\337&\275\215\361 =\234\200\357<2\373\270<\n\234\376\2730\361\373<\324\n\272<\372\026\303\274\177\263\260\274\';\034=Ne\200<z\221\275\273\373\0305=CK%=\341\200\034=\331\207\320<\343\n\370<\215T?\274H\n\262\2720v\026\275(o\235\274\211\207\240\274&\322\351\274~^\n=\332\273\260<\241\235\361\2735<^\274h\217\023\275>\351Q\274\024\350m\274)\356\365;BD\233\274\312W\321\272+\2145\275\000\371q\272&\252\357:k8\025\275\311!\234<?w\"\275\206b <7\334\233<\203\323\037=#\2430\270\371\333\033\275\273h\300\273\273\3054=\255\364)=\003\362f\274\204/\360\274\375\035\243<R\356\030\275\031\027,=\343\361\r<Z\372\017=$\364$\274Ju\216<0\353\305<\2520\034\275?\247\357\273E\375\023=\215\"\003<\341\220\202\274\311\255E;\220X\223\274^r\001\274P\340H<O\320\006\273Y\247y<\222\020$\275Q\3363\2757k\020\275\276\316\264\273\324Y(\275\253\2762<G\343\305<\311\200\265\274~p\355<\010\313\'\274iS\004=S\026\"\273\025j\301<8g\371\274\375\r\357\274\276\347\356<\211\217\002\275=}\364<nP6=n\030\024=\200x\331<\017\324\250\274P\000.\275\"\177f\274\320\262\013\275\255\333\004=\203\006\024;k\241\255<(|\355<\224\222\320\274\302\037\211\274J\343\031;x\264\265\273\327}\003;\215\317\000\275n\213\253<\307\345\323\274AR\363<\277\206V<\317?\034\275\377\316\370<\202\332\227<0\370#\275\313\032\023\274)A\323<\335&\024\274$z\010\275\033\207\241\274QV\251\274|\276N<\370\272\010=\220\227\330\273\334\030\005\275I\005\311\274\232\372C\274\261\243\231<\273\3559\275\353\341\311\273\010\323\n\274\213r\275\274`\270$\275\331@\203<\201\255\322<\273\356\024=\363\310\344<H\035\005<\000\340!=\233\233 =\242\346\007\275\226\233\201\274,\014\035\275V\251\003<,5\024\275<\226\005\274\221\212(=~^\003\275\372\034\022\275\266\207\304\274\314V\225\274N\001\032\275ya\206<V\365\2049\007\367\266:}j,\275\213\324\344<\233G\357\2738\242\244\274\246\033\311<\n\262\345;0w\333\274B}\305<jq\r\275\021h\034<mQ:=\371\0260\275oB5=4\345\257\274% \030=Qw\025\275\225\224\r<./\t=V}\023=\275\365\371<\303I\245\274\330K\321<\322?\300<\214\023\375<\334\336\006\275t\325+<\320 -\275\242\366\362\273\235\350g\273/or<1\275:<\301&\017\275\031\'\327<z\267\205\274\317\014\327\274\373\361A<\264V\341\273\330\020\324<\265E\010=\013`+<\032>\200<o\022\351;\003\231\022\275\270\262\252\274\352>\177<\243\256\304\274\266\246-\275\362\334\265;g\010)\274\026\244\374\2737\3261<\036 %\275.\212B\274\227\3038<f\216\t\275\261\007\206\272\003J\000\275I\021\361\274\211?\254\274\207M\352:\366\213\017<\344\203\260\274\270\251\032\275\212\264\'\275\261\237\316\274k\273/\275\036\037\306\273\030\317\002<\234\334 \275~6\314\272\300E{\273\177J#=\310\326\353;4*\302\274b\255\023=h\"\305:\335\371/=0_\224\272pj\362<\355\203\361\274zt\005\275\023#\231<jc\261<e\224\"\275\223\352\213\274\371\260\277\273d\230\235\274\301\253\244\274U\257\263\274\320^4=\255\247c<A\366\306\274h\300\"\275\036\235\234\274\200\305\262\274c\016+=\336\345j;\354\260\353\274\333\017\242\274\316\366V\273+WL\274N\223\230<\213\270@\273\021\304\033=\205\365\002\275\214\300T;\373\272\177;\3047&\275;\025^\273\017\323\n\275\364V\213\274\2232\224<M\372\t=\333$\313<\317\341\034\275AA\247<\0010\017\275lm\352<\252pr\273\273\021\316;N\314(\275\223\255\014=\252g{\2749\261\317\274\303\357\2267\334N\237\271\2565\020\275\242\302\222<\325s\303<\351Y\335\274\257\tS<h3\267\274Y\323;\274\277\003\224<~9(=\361;\370<\357\"\327:\005(\275\273\352\331\271\273\026;-<E\376\274\273\214\356\264\274%\255\000\275\271\302\271\273/:\344<\007\3544\275\272\357\030\275Q\303\004\274?N\241<R\311-=\315\321\025\275%s\365<\2423:=\332\231\275\274\270\3430\275\203\036\t=\227\361w\273\263\263@;\312\3642\275\313\\$\275\262?\001\275\207\032\335\272\"\005)\275\264\005\330\273mI+<\345pc;a6h\274\316\360\003\274\351\254z\274\3676(=\255\347\311;\262\214-==P-\273\374Z\034=L?\264\274\266\220!\275\210\3028\274\37541\275\033]\013\274\331o\032\275h\257\373\274~\333\326<\207M4\274\226\333\\;\036)\204\274!x\374\274\220\3040=:\340\"=\223(\223\274Q\315#=D0\322<\360Fm<\177^\236<\205\034\261;u\224\023<P\254\366;\270\362\216<\344\016\225<\327S\203<X\256\305<\\\207\324\274\210S3\275\211\300\017\275\201}\256<\324\206\311<\336\257\024\275\274\330\377\274 \002\256\274b\3244\2753\020\240<\374`\253\274\353F\360\274\344\023\000:jB\320<\372\262\315\274\226\\8\275;\027(\275#\035\014\274\266\267\002=\220\020\014=\327g\027<\245m#:\373\212\366\272\177\033\234<\264\247\355<\244\200\304\272\204\2061\273\017\312\264<B\3200\275k\3429=\2165\216<\215\3633=\213\2732\274\216\352N\274w\"\n=uj)=\004\031\274<^\335v<m\251\334;\234\236\330\273\314s\033=,\260\360\274R\020\227<\0340\027\274,\270\213<\016c\242<\263\347 9\223YV\274\371E8\275F>=;U\301\332\273w\215\035\275]\252\227<\303w5=#w/\274\026\013}\274\260l,;s\346\334<\016#\256\274e\215#=\234!3=\201|\022\267\277\345\024=\033\343\006=\254\264\371\274V]\035\275\310\007!<\322\276\002=(\227\270<|\306-=\214N\256:\324\002\335\274\325\0207\275\357L\027=\362\307\022\275\341A\372\274 }\016=\266\364-<w \315<K\300+=\356\221\210<H\366T<\326\207\327\274\034r#<P,(\275\347\t#\273\311\"\365\274\232\377.<\204(,=mK.\272\366Z8=\013\231\236;\326\377\213:\224<\363;\247\275\314\273En\013\275\321\250\"\275\2075\364\274\241\202\007\275\322\237\311;3^\225<\246\243n\274\n\350\252\273S1\000\275n\353\005\275\037T\'<\373*\317<\206:#=\277\3200\275g\306\001=\226j\003\275k\357\n=\322,\022\274\274\324\377\273\240)\325\274\316\246\313\274\267(\300:F\301)\275\243\2755=\270\350\322<\213=-\275_&\323\270\322\337\023\275\233\023$=\377\355\366<K\377u<%\001t;#L =\301)z\274\"\256\275<\350\224\025\275\323\034\026\275\277\217\026=\304\2545\275\361\\{\274\251\2007=\377\036\213<\376\351\225\274Ot\340;\216\253,=@\201\355<\272>\024\275VW\014\274\215\306\013\275\212\352F\274b\034\004=\275\350\335;\014\024\227<\211\310#=V\270\014=\007R\025=\316\336\366<\250\0267=}\236\341\272\266\031\233<\335\247*\275\262\035?\274\313\376\241\274\360k\216\274\351 ^\273\204\'\\<\207O\371<U(\346:t\230\037\275O\316\312<AH0<0<1=x\311g<)$\024=\211\253\010\275\021\234-=YV\211<7\252\003\275|\222a\274\340\327\375\274\300\343\333\274\337\032\031\275\263\272\031<\354\325><s\3466=\270\334-\272\232\222\312<\223\325\365\274.\240\356\273&J\321<2k\007=\3706\200\274\014\004\232\274\025\2277\275\226\265\200\274\256g9\275\355V\031\275\313\0345<g\246\303<\276?\307:\354F\217\274+bF<)\'\370\274\001\355\227\273\3434\356<\240\030\363<\321\303z<\006\326\300<b\365\340\274mz\335<\230\256W\274\310\242y<\302\343\027=\317\252H\274\234\342\033=\231\366\217;\207b.\275\003\205)9\372&\207;\214\003\023\275\240\307`<T\227\022\275\370,\025\275O\330\037<^\023\344;\222`\023\274\031v\273<\304\2620=3N2\275\326R\006=\370j\206;\037\3423\275\375\307A\274\244n\031=Pg\344\274\302\220\265; \222\210<wh\266\272\373\302\213\273[\034\370<\227\262\010=\366o\030\275}z\010=h\035\250\274\010H\332\274\036\034\222\274k\300\260<5f0=\030p\304\274\366\342W\274\002!\320\274\244\024\330\274,\035Y<)\n\021=Z\304\313<\336O\r;hpL\274\342\016U<\347%\031\275H\346\"\275&\331\372<\277\035l\273sb\266<\241\020\002\275\017\274\032\275H(\252<\034\353\267\274\177L\003\275\351\362\023;\261\323\223<)\023\276<\n\337&=7\177J:\247\254;<\'\337\340<\267\246(\275?\026\204\274D\022\006=2p2\275\246\304\037=\201D\332<\312\265\032\275=\3425<\\\315\307<-!\227<I\014\017\274Um\026<&:\004=O\351\204<>O6\273\211\305{<\3730\037=Q\t\031\274\026\225\003\275\214\201\244\274\207\317\350<k\313\313:N\354\t=\216\277\262<\026\367\363\274\251P\035\275\020q\000\275\010\343\014:\257\324\240<fN\213\273\'\021\337<\364\021\257<s\353\214<\204\312\030\275\010\004U;q\272N<\374\353\024=\020\n\n\275\r7\006\275\242|\321\274\3557V<\021+\2729m\300(<\337\034\206<m\001\374<\n.\347<\024G\215\274\020\367\205\274v\354\247\273\034\003\232<\307\354!<\275\310m\274\270\007.;\314\267*\275k\3718\274B\004\356<7\263\004\275\373\323c<\262\213\260\274\005qx<zb\253<\006|7=\305k7\275\375\272,=\377\245\302\274[\254\221;\203\227,\275/\0225=\222\302\t\274\037f\362<\252^\307<\r\313\350<\350\0352\275\200r\362<\350\331\007=u\273\267\274\303\236F\274I\247\271<~q\340\274\027kM\272\311\213\261;R#\022\275\255\003\024\275s\315\224:j\325\203<\0072\212\274\252\366\025=\352\036\312\273\376\222\236;u\3672\275})&\274\357\3059<\245\354#=\360-\263\274\251\233\031\275ll\021\274&\226\315\274\242\016\'=\337$5=\223p\363\2743\034\002\275j7\341\274\224\215\034\275\276\365C\274\2172\025=&\214&={\272#\275\260\233\317\274W\226^<\376\213\221\2733\2103=\322\3333\275\273\212\365<\356\004\316;^\243\2729\250\333\373\273\031!_\274\271\001\311\274\302I\347\274\370\177\371<>\301\323<\033\366\201\274]i\014<\311\310\277;S\013\316<\360v\017\275\257\316\210\274\304^\225<1\271\262\274\037<\326\274G\200\247\273\036\373#=\203\255\031\274*\222\035\275\273j\027\275\020o\366:P\344\036=/\tx\274Q\206\267<\225S6=F\244\203;\325A\210\274F\201\253\274\310mE<\232=\023=l\260`<\030\306)\2733Y\325<\013v-<T\350\003\275\314\211\332\274!\230\331\274\354\020\013\275T\327\315;\377\026\221<\365\017\327\274zC\225\274\010v\027=I\276\235;\353\277\260<^\327\312;N \253<\0248\313\274O\341\326<\273d&\274nq\000=\331(\025={\254\242<\n\311\364\274\265v\271<G\177\205\274\017\352\031\275!K\312<<\235L\274vF0\273\205t!\274\362<0=\350\014\010=\330]*\274s\221\020={?\337<\211\345-=\361\347\224<\2402\317;\367BV\274N\033S\274\324YU\273\007\212Y\2740\225\334\274\314X\030=\347\353\335\274j\265\312<FXY\274\370\204\266\273\321!\254<\355\226\007<\000r\201<\2165\321\274bR\251<\3052\n\275\212x\t=\035\245%\275\007\0332<\017\023\017\275I_\236;\230\372\334<\230\335\004\275\205]1=\311\250\341<\324\355r\274\356\325\264\274\021mN\274 \300\007<\302}\321<\026\r6\275\237@\220<\036\336\322<\375\017\306<\312b\237;\321\243\023\275A\307#\275\372U\207\274\356\323[<\263\266\326<\304\022\005=\255~\031=;\245&\275i\262\'=\275y2\275W\0052=\234a[<\272Y\311\274\re\000=Y\265\363;\312d\006\275\304I\274\274;\202\224\273l\255\377;@\2406=\374%\346<\014W\005;H\2652<94\231<\301\215+\275\036J\342;\326U:\275\t\036:=\377\235\237;\251\374\036\275\271\377\013\275\275\275\216\274E#%\2756|\372<\225\3101=\316\177\016=cY\335\273;I\020\275!g-=?\330\017\275/\0370<\243h\223\274]R\267\274\243\024\032=>\207\366<\365\277\250\273\276H\330<2k$\275\236\026-=,\205\t\273\325\241\262<\207\005&<:\333\024\274\322\003\202\274\314\273\265\273\260\252\202<\331\371\001=NWm\274T\3423=\302\311\363<\276\224\347\274\024\332/<z~\\\274\242\225\257\273 ?w<\265\254[<\210kB<u_\351\274\260I\315<\315\233\032=D-\267;c\215}\274\246\216\262\274\335X9\275_\022o\274\037\033\265<%\363X<?\316T<c\2404\275$C\325<\203\244\025\275\374\350\241;\337\272\007\275\374\016\215<\273\3704=\005\025\361\273\034\371\026<\007\265\241\274\274\200G<\231\n+\275\262~\257<VP]\274\302\277\214<n\314\311\274\212\\\225<\003i\235<\3331$<.-\254\274g\3471=+\2374=\304\204\332<|\362\211\274\217~\245<\211\tM<q\275\356<\247\371*\274\200\305\2769\273\177\337<!\t\024=tK#=\340\367,=\033>^\270V\276I\274\026l\225<\t\252\032\275\"\316\000\275\246\262\357<~{\010=+\006\332;\2637F<\031\316\006\275\245\306\260\273`t\007<GK\323;1\3175<\301;)\2759\332j\274\266\r\205<\002\001.=.\t\212<\246\2027=\353\250e<\273y\255;x\271\016=\'\274\312\274\263\036\226<*\212\031\275\353pQ<\271k\006<\230\364Z\274\235\205\201<z\215P<u%\004=\367\225\357\273V\255\334<\277\\f:\376\325\024\2740\'V\274\242,\341\274/\207\322\274\314\335\024=}\037\213<\034\346\301<,\356_\273]b\371\274\343I,=\027|0\275\21456\273R\271\331\274\302\343\274<!\263.\2749\312\353<\375\306.\275G[\010;\"0{\274\202r#<~\024\r\275\264G8;p\345\026\275\321\214\037\275\305\355\324\273m\350\000<\334\202\226<\232#1\275\242r\216:\276\027\242<\0202\326\274Z\3707=\277\313\224\273\327\377\267:w\244\020=\036\253\017\2723\275\376\274uD|\2749\333\333<\n\3430=\211\032 =M\341:<\304\317\t<>\024\361<\305{\363\273X\017\227\273*\032\334<\026M\301:G\3759=S\266\001<=;e\274[7q\272\211\356%;\033\251\006<\331\233\321\274\276\314y\274\026\2061=\013\202.= y\321<i\271\235\274o*/\2758.\317<\037\001\317<9\315\027\275\207\377\001\275\224z\337\274\326\216\037=\327\304\000\273\331\250\257\274h\017 \275\224\300\345;+\\\274\274\233f\315\274\371M\007\2736g\017\275\210\311R\274\'\357\363\274\006\340/=0\251\205;JF\032=\022\010\331\2740x\034\275Q\327F\274J\256\337<\234A\237\274\223\270V\274,Q\207<\243i\r\275\262\313\323;\370\021r<\010\245\305\274\020\027\022<\346\204\321<\010N\n=\332\021U\274\nT\t\274{r\230\274o\316\352<\353\244C<\025\307\'\274\257\035\226<Q\362\245\274\t\311\205<\272\007\033\275\321\006\341\273\307!\022=\000\002)\275(\340\032\275\303\370\314<lI7\275\033\016\235<\216\363\226<\320\330\201<\334\326,\275P}\236;\304(\030=9\344\366;`\301\263<d=\371<\352*\210<\032U\344;hro<\360*5=\014\223z\274\377\257\002=\357\250k<1\366\273<\t\014\007\274t\252\026\274z\373\237<q=\226<yZ\276\274}\000\366\274\027%3<F/\333<zFA\273/\277\352\274\272~o<\000g\336\274\377Z\334\274=\301\007=\033\324\266\273\211a\223\274\004\244\345;\313[$=\305\027\013<\213h\274\274\364\220\025=\334\2025=\004\252l\273\220w/\275\037\324\"=\262F\227\274\032\265\315<\273$\023=\017xS\274\261v\266\274!\350\007\275~E\036\274\206{\260\274z\334$=,\276\215<e\002\371\274(g\n\275Rb8\275\332[}\274]\\\236\274\222\014\244<_\240\031=\275\317\025<\354a\n<L\230D\274\234\261\204\273LG\330<\341\336\324\273\346\364V<F\374\354<&~\'=N\351\024\275\376\343\034\275X\313\273;\214h\301;\347T\221<\313\341-\275\352\315\205;bU\221\274\211z];\000a\254\274\200\234\237\274y\206/\275\324\025\267\273T6\320\273>K\342;p\366,\274\377\322\253\274\302\353\"\275k\273,\275\205\323&<\262\242\036<\305\010\006\275\244\002\035\274A\245\360<\243\262/\275\332\330\305\274\314\230*\275\301j(\275\322\346(\275\035\330\205<ZI(=b\234\373\2726\257\364\274\016A\026\274\355\341\014<\3064\227\272\0218\310<\244\275\032\275\372\305\344\274\027\003\n=\271i-\275\357Z\017<\234\214\314\2732\377\305<\230\333>\271.;\370<\272v\341\2746I\014=\364\343\363;\233\231\252\272\330\331 \275\004\351\343\274\327!\006\275\315\003*=\234\001\201\274\303\201\017\275\374\\\036=\342d\002\275\226q\257<Do\000<\311\007,\274\354Y8<q{\273\274\236\354\306\274&\036\024\275\221\355\010=\314D\221\273\022\371\274:\341EG<\034@\033=\344dD<\324lw\2746\366D\274\017t\272<\021,\020<\266)\204\273\372\330\273<\256\204#\275j-\267\274\310\3226=\376\356\217<\260\3039<\371\352t<\231\211\'=\264\343\023=\311L\316\274\347M\331<\037[$\275\260\333\276\274\321x\322\274,\244\006\275\177\217\367\274*\nY\274\207k\016\275\215(\231<\332\341Z<}%\000\275\235\0325=\246\3568=\247\240\016\275kR\002\275\031\252\242\274\270\323\314<\340\014\t<\352u\272\274]\233\003<,\010\026\275\215\306\330\274\356\335|\274\310\365*=\223\n\364\274\225\345\230<\232\341\375\274\037\355\276<l 2\275)\004\271<\"\234\364<\216_\032=n\352\252\274z*\270\2748j\226\272t\276\016=\314\206-=VB\021\275TG\301;}\277\235<\277v\214<l\330(\274\2514\360\274tu\201<V/\371;\004\210\324\274\346\t\251\2742,\326<\rO\274<}\'u\274\250\272\355<\311\316\035\275\010y\311\274\233\340#=\364V\331\274\016\2472\275\254\243S\273\234\035\030\275\330\376\234\274:\236w\274\307\000\375<[\242\254;S6\211<\2420,=\240m\242<\001\177\352\274~>1\275\374\245\377\273\347\2009\275\037\3513\274\304\234\240\274\361\314\";\257)m<\352\024\t\275\246k\261<\202A\317\274\304\315\035=\242\221\020\275\306\025T\273\024\227\254\2746\232\030=H\211-\275\024(5\275\014\311\320<E\344\301\274\357\364\253;^\336\271\274\360\265*<c\337\273<ww\317\274\221\237;;DU\361\2747\242C;\232\276\263<5q`<sx\002\275&\211&=\316\200\031=\327\333\276<\342\370\234<:w%=\311\356\337<\004>\303\274\216\267\373\274\231\032\363\270\'l\030=\206\004\331\274\274\321\035<zT\272<j{\225;\177\1770\274\337+0=5m\222<\031]\356\274)9/\275.%\341;*K\027=l\315\201<\323L\027=\311\230\023;\273?\017\275g,\340<\207l\242<\030\363\014=\273,\006=\211\355{<\270M\235<\362=\257\274k \253<x\305\272\274\375\345\210;\276C\237\273\024<\021\275\236\034\207\274\250\0255\274\001\273\211<\022\373b<D\346\231\274*E\324<\'\2047\275\213\366\371<rV\272<\022t\032\274l\233\225\273\212\203\232<\224]\211\274\221r\017\274\223\003/\275u\261e<\263\364\020\272\223(\337;\203\231\301<\373\301\032=\377N\016<*\347d\272y\315&</\235\217\274IR5=D\0101=\221z\010\274\375\355\203;\177\263\002=c\330\021\275\235{\316;_J\030=\235<6\275\010\212\315<}wv\2749\231~\273\240cU<\250\346\326\274\250~>\2740\344\323\273\202|\315<\340\212\r<\317r\356;\224\237\t\27317\264\273\201\342\235\274\372G%<L7\210\272\0317\335;\245\2067\275\263\237\273;(\3165\274\320n\006\275-{\033=\324\2403=\230\343\006\274\025m\304;\2336\333\274\0254\320<:&\032\275\310\332q\274\247\326\034=!\2228=a\355\016\275\357\354\216<%k-=@\357\035=4\353\253\274\220\000\310\274D?\t\275\001i^<\312\342\220\274\376\0170\275K[~\274Z\247\221<\302\345\302:\231u\244<\217\255+=H\002\350<\261\364\255<\225\007\r=\340\'\224\273\332\365.=\272\216%\274\375g\001\275\2329\366;\325\0302\274\027?\355;\263\372\022=8J1\275\005\205\375<\007\233\010=\330#\r<\033`\032<\321\212\330\274\022P\003=[\t\364\272T#:\275\261\034\023\275E\247\006<\327\340\010<:\030\031\275U\272\025=\177\251\231\274C\r`<+,\322<\261F~\274-r\253\274\366B8\275q\263\270\274\222y\027\275\332\022>\274J0\215\273\267J\365<\364\360l\274\2329:\275+0\310:*\361\2439\363\362\222\274=R\205\273\221\025\030\275\335\000{;\245\302\305<\005\007\241<\354\223\241<\201\350\031=\340\225\261<\235\310\263\274:\017\316<\213\270\216;\210\007\313:\026\242\310\274\362\323\034\275\337\347\014\275\357m\232\274&\247|\274\341\236\375\274\026\244%=@)\010=\362\311Q<?\355\032\274\213\367\355\274R\tA<\022\330\331\274\220l\276\272\211\3246\275\0207q\274\000sV\274b-4\273C\366\330\274n\226(=c4\334<\340w\343<M\026\246\274\224\314\017\275\240\020\342<\262\\\202<+\014\r=\270\211\372\274\336\026\305<Zo\354;Fm\034\275\231\262\014=Y\252\317<\037P\t\275\027\214\3019\361d\322\274\004\342\343\274F\000?\273\013}\371\273\362@\021\275\257\3701\275\260\0202\275\035Uv\272&\324\006=\341\023\234<\312E$=\203\177\214\274D\252\033\274\0321\373\274\037\014\030\274\243\206\310\274\315\374\233;\316\r\276\274\352s\024\275\"A3=0\214p<\035B\002=\315\214\013\274\222\367\354\274\226\013\037\275\301\251\363;\nN\220<5i\007<\244d\215:\220-\000<\224\2279\275\342q\367<\354\375y\274\033\247\347\273g\214S\273\354\3421\275\325r\216\272W\003\356\273\300\020\307\274Yb\003\275\316\353\345\274\361\204\036\274\374\277\227\274\310\220\373\272\362\233A<\264.\225\274 9\362;T\203\303<\253\251f\273d]\205\274A\300\226\274\000\347\345\273\357\276\212\2742\304\025=\331\306\307\274\242\340^<\235dm\274\331\013\n=r\223\375\274\361\302\034=\375\230l\274X\352\315\274%~W<k\223\026=\022\235O<n\3005\275\311\346\215<<\277\207\274\346\2768<~\207\354<g\363\241:\036w,\275X\3641<\313\345\350;\266\347&\275\014\256\025;\230B\267<\340zC\267\331r\033<\355P\264\274\335\335,=\204\240[\273\304\241Y<\234\310\262\274\022\312\021=4]\002\275\361l\003=\262..=i\017\257\274\274\277\361\274\335\205\000=S\235\207\274\363\274\363<%X$=~\014\033=\344\233\272<\264M\336<\177\177\362\274\375\0351=A&\211<\264\363\016=\230\256\213\273\305\025\273<,\347\224;[\243\014=\277\315)<\374\2262=\016X\313<\226\257\217\272\"\352\002=\335e%\274\005\2470=/\206\027\275\310t\n=o\t3=\330\2510\274\216\031\252\274\341\264\337<b\245\340\274\277*\241<@\177\264\274\r\305\366\274\322\222\026<\335\002\n=\321\232\014=\306\357\220<\t\030\010=\005@\223<4\3238=\333\214\224<}`)=\334 \230\274}^\271<r#j\2748\0176=nk(=\003\271\'\275G&\200\273\352L\313<\356%\021\2754\312\336\274\020\351\n\274F\223W\274e!N:I\0104=\255\n#=\203\301\'\273\227@\326<\021\016\010\274\255\000\315<g\014\037\275\na\221<G\310\272\274\267\005\033\274\366\324\321\274\230\371\243<al\367\274\002\273\036;\322\251.=\220{\254\273\260\272W\274o\310\355;\200\266\005\275\016&\353\274<Ua<\261\235\203\274\360\273\004\275\231?\003=J\374\332<\276\031\353<\300I\212<\023\3462=$\276\n=\004m\340<\213?y<(y\216\274\331U\265<\0316\010\275\311O2\275\330\206%:\017/\366\272\017\252t\273C\317+\274m\036\227\273\017\354\321\274\307@\025\275\235$\261<\352\366\344<\217\036\000\275\237z\335<C7\325\274&\365\230\274t\301\006=\336\t\t<i\037\324\274R\013\227<&\371\314\274\340cr<J\247\216\274\001W\354<\335\372I\274P\203\263<\226\362!;\221\365S\273\003h4<Ty\356\273\250\363l<\367X2=L\264\305<n\r\010=\2754\347\273\206p\220\274\310[6=\303\266\035=\236\317s\274\rNq\273\023?\254\274n\211\220\274\200\331\276\274e\2026\275\004\337\373\274\213\372\333:\257L\002\275Iw\347;6\373^:Ds8\27430\307\274\341\372\036\275\014;\311\273\306\314k<\313\246 \275\315g&\274\345\264\265\274\214xa\274\356D\327\274.\376\274\2733\341\210<V\2632=\243=9<\031\'\223<,2w\273\330^\026=\376\025\233<\3769\033\274\274\371Y<\027T\317<\017H\342\273\245\250\237\274\263\\|\274\232\344\326\274P\275\300\274\225\330\001=\263u\216<\223+\006=\343R\317\274r\350\377<T\277\001\275\252\341[<|_%=\365\234\332<\306L\031=G\252\257<\334\016o<(E5:Un\333<`\002\330<\362\260\363;\320\344\241;\341a%<<\235\335\272L,\347\274\007k\254\274=5\237\273\371\307\005=\326\007G<\032\005\356\274*\236\007\274\200V\256\2746\377$\275P\364\2069%\357\220<:s2\2756&\002\275\260\317M<:\360\"<s\263\256;j\211\216<\0024\226\274\005<\237\273~\r\342;\n\354\361:\345e\202\2740k\037=\214\253\316\273\255\030\345\274\004Y\330\274GG\'\275\333\363\270<\362\036\236\274\266\221 \275\246S+\275\326\366\346\274^#\017=\000\242\014\274\246\243\270<\027\301a:\361\3366\275 y\340\274;\314\021\275\337\211\r\275\212X\271<\222\2474=|{\246<aQ8=\373\022\034\275|D\034\2750\005.\275K\201#\274\241<\200<\\\240\204<\001\206\033\273\311:)\275\024\346,;c\330P<\215r\021=\210\001\'\275\207\233\264\274&a\025\274T\373\200\274c\023*\2750\3714=\373lD\274\016\024,\275U\356\033=3\0205\275\306x=\274_l\316\274\203\0178=\326:Z<8\266\213\273\000\340\013\273\310B\213<\002c\000\275\243u\262\274N\026\233\273\005*x<\375\213+=v\334\354<\340\2158\275\242;\311\274\244\234&\275#.+=\213H\313\274\034\026!=\r\255\355\274\0264\035=\274\324%=\344\300\006=\272Z1\274\352\376\"<\203\315\310\274\322\231\023=J\217\353<(y9\274]\204\365<\004Z\313<\256,\005<\202\272\272;mZ\261\274\014t\354\274\212\366\275\274\237\265\363\274\365\213\202<\337\303\373\274\250\340\001\275\226h)=\351\221\333\274\177\252\020\275\241\225C<\2536w\274\215\2218\275\226\031\341\274^\261\374\271n\343\342\274\372\211\305<\254\037\300<\300\350\334<x\020\307\274\010N\024\275\2066\352;F\247*<\022\227.=\360>\000\275\226j$\275\242\317\246\274\245f7=\037\264R<\250\337\024\275::\355;Ht!<c\347\000=/_+\274?\365\267;\177\210\032<Jr\004=@\263\274<=Z\034<\017;&=\210\037\337<\306\311\026\275\001\'\016\275\373S\275<\243\275\025\274\013\361\305\274!\300\240\274\3028\024\275\330y\310\274V\231\254:\225\377\330<\306\3665=\205#\304<\316o\003=vj#\275\330\036\332\274\2768\205;\027\375\374\274<\370\260\274p\003\032=\350Yq<]~\334\274\361\255(=\r\262)\275H\302\361\274xO\220;\320F?<\332\263\221\273n\256,\2742\241\221\274m\234\352\274n\330%\275\212\006e<\\\247\250<8\362\302<$1\032\275\3104\025<\301.\217\274S\276X<Vd3\275\231\344\304<\216,\036\275(n$\274\212\2758<\005\036\247;<\274 \275A\251\026\275\307\315\027\275\003\346\233\274^\272\251;G\302\000=l\027\311\274\214\\\320\274\257\215N\274\255\340\243<-#\332<\227\237\036;(\252(\274\241![<Ir\020=%J\302<)\215b\274\006\334\351<\206^\363;\346\0372=5oO\274s\376\026\275\200\276\326\274\\\372\354\274\341\245\030<}f\244\273\r\265 \2752\251\307<\366\370\357\274\213K0\274*\315\341\274gZF\274;\247\334\274\274\354\213\274\260\242!\274\260\227\243<J\361\226<\304h6\275\360\343\027\2750\256e\274\366\270\216;\270l\254\274\224p\251\270\235\345/\275\360\310\313;)\3645\275\357/\313;\004\205\032\275\307$\002\275\026\205\370<\225Jz<\233\025e\272\351\241\325\273-\013/<-\333\313<~]\203\274\335\211\316\274\341\"\325<\336\203:\273\310]v\274\367t\252<\205\260y<\203\002\356<c\031\337<\265J.\275\346\2733\275(\354\204\274\307\031!\275\003J\004;\025\255)=|@\334\274\204D\t=e\033\336\274\213\257\023\274\342R\000=\365\200\300<\335\337\022\274%\007\021=\224l\270;\273\235\246<\352\245c\273\322\207\336\2742\344 \275\373\341\034=\037\2217=\212>4\275&\360\265\274\326&\243<ycI\273\360O\321\274.\316R\274s\372\367<2}\210<\331^\217<^P\342<\202\315\235<\020{\216<d\252,=\035\3778\275\021f6=\373\203\341\274\377\250\345\273\234\010-\275V\331\r=\345\2242=\331\354Z<\nm\016=\214X\001\275\327 \332\274\'F\261\2727\323\355\274\3415\360<-\027\224\274\312\264\351<_(\010\274\316\252\256<~)T<\006`\364\273+\022_\274*\204\013\275&\336E<\254\253\217\274ST\246<\n\376\021=h\372\231\274\177\037\035=L\020\201\274`\001_\274\363i\010=\017\212\370\274\352\337\212\273\270\270\205\274\231s\216< \231\n=\231\337\221\274V\242#\275-\226&\275\231M+=Zr\340;c\306\362;\211\3671=\332,\025\275\237=\210<\025\270J\274\362\027\205<\213\265\340\273\330*/=\352\304a<\'\370_<s\304\353</\202\262<1\0029=\274\311N\274\224\230+\275m\233\233\274`\227x\274\303\257\000\275\315\217\322\274\351\344r\273\325j\027=\3072\351<\037\253\264\272\336\374\350\274\217\247/\275\331/\235\274\254:c\274\347I\016\274\252<\305\273D<\210\272.\252\221\274a\000\323;\300\377\345<E\3073\274r\034\024\275,\3108\275\002\340\231\274\315\001\'\275\333\266+\275\245\034\302\274\344\035\377<\037\203*\275!\243\025=\177n\"\275q\247t\274b@s<\366\254\'<\375\223\016=\235,\251<9\225\276;\252\320\335<\025$\n=\302\233\324<\010\367\n\275-\026:; m\033<\337)\241<[\211\335<\200\330T\273\315\326\332<(\367\351\273\n\306\211\274S 3=\231z4<\374\205&\275\030\013\267\274)\3643\275F:\275\274>\017\340\274\310\331\302\274+\020\006\2751\013\204<V\344\300<8b\302\273M\257\026\275\221\360\321<pd+\275+\025p\272\246\355\216\274\333\362\244;\364\354w9TiL;@\212\257\274-C\270\274s\2440\275\336\215\326\274\230n\365;\tjl:\223$&\274\340c\374\272\372p\034\275U\212\307\274\335\035\322\274M*V<Y,(=\353\367\023<\275\300\005\274\026t\375<\327\274\226:\022\276\016\273=b\005<\005\2145\275\301\221@\274\356\022 \275\204b\361\274\273\361%\274%Z\001\275U\2679\275qo\230;!4\036=\204\375\206<09\023\275\243c\"<\023>\036\275\275:\331\274,\220\255<.\202\224\274\031\322\241\274\366\214\344<n\321\030\275N/w<u\001k\274\263\330i<\247\241\301\274u\312_<gh\'\274\215\205\013\275,2V\274\206;\377\274N\032\037=\235\375\357<\035\'\232<\224\246_:\261\003\005=\343\347q;\231\0337\275\211\3515=8\013\014=Ez$:\332|+==r\367\274\340\307\"\274\023[\212\274{{\265\273\203\3617=T\253\247;\250\260\326\274\270\317$\275\205\007\n=\230p\212\274}\344^<\355\237\202\274\331C\317;Y\331k<\025^\020\273b\362_;\'\035\016=\0200T\274\017\n\244\274N\246j\272Y\330\010\275\216\332\373\273K\037\026\274\013\317\010\275M\346\'\274h\331\365\274$[u;\022>\273<\210P\357<\357\223\222<\217)\214\274m\022\340\273\315\250\032<\331\025,<\020\336\361\274pw\034=\247r5=\rn\013\274\232\333\024\275\0373\376:\025\\\315\274\211\'+<|N#\274o\310\222\274_I\016\275\333\375\000=5?\031\275\214+\020=\245A\023=\t\343 \273\013,$=G|\000\273\220Z/\275\376\256\305\274\'\243\347;\267c\333;V\010\317<\366\010\314\274N\341\350\274`\313\022\275\333a3\274\260\0219<\233\'g\273\022\3131=k\363\246\274jc\243<\252\026\004\274m\2723=\007L\266<}T\023<\237\343\206\274\017\t\372<\237m\001=\374\247]<<m\376<X\302o<\274o\272\274\000\353#:\200\3042\275v_\007=\365\004\244\274-\226%\275P}\256<\346\377b\272\036\345S\273\344\226\346\274?G\026\275499\275\260\200\007=\022\177,\2751\004\262;%\365\034\274R\206\332\274\356\314m\273\316\214\241\273(\272\217\273H\372\025=x\234*\275\352\255\002\274\233\247\315\274\030\316\242\274\366z\217\273\262f\321\274\355\323\020<\304;7=\031F$\275q\357\213\274\202z\377<\334\017J<\321\246\000<?\245\262<\272\255\221<\267eZ\274\315\020\023<H\316\035\275\345\316\222<\017!&\274\002c\033\274}\277\202<\273\303\201\273QB\204\274\323\363\017\275\3436\237\274\355L\336;df{<m\243\031\274n\021\304<\236\\\346\274\271\'\377\273\273X)=8\272W<\276\332.\275\335t\'=\332\356\027=\005P\005=\311\022\020=\347MU<\3459\017\274-\014!=MV5=\373\022\235<f\363/\275\233\345\"=\320\344\357<\372\200\376\274\314\277*<\026\356\231\274\244\360\367<\225\317\034=y\254+<\376\237\274<\306\007\250<\233/2\275\246>\222\274/\352\347<\352Z\347<\270\214\376<&\2459\2750K\010\275\316\n-=f\233d<\203\002\272\274\3043\024\275\226\313\214\273\000\261\365;\203^r<8\206)\275\n\346\311<o\202{\274\272\010H<\000O\033<\214\005\234;l}\231\273E\314\351<\037\036\241<]|\035=\304k\360<K\201\024={1\003<k\200J;\205\331\'\275\346\257\255\2746\370\210<\322\320\303\273\202J\315<\326I)\275\343\324\240\274\224\227,=|\374j\274\275C\026\275\276\243\372<h\245-<\326\337\013\274uo\031=\341A\255\274\323F\376\273\303\226\034\274K+\237<\230\031\261\273\226%\252<\325[\r<\224#\267\274\023\325+\274:\345(\274\217?$\275\237\032\n\275\245\024\006\274\020\n\302\273\003L&\275k\302\302<\316\306\007\275U\204\035<,\177\017=\2759\245\274B\376\323<\363C\020=J\321!=.@5\275\\\263\335<\375>\000<?\n3;\377fK\274\363\n\021\275KN\375\2745Le<\237Ec\274a\334\017\275\230d\343<R:\025=\013j\006=8v\357<b\t[\274\234\037/\274\314\r\273<W\251\375<|\237\207\274N\n\334\273?\314`<\'M\006\275v\313\301\274/\253\306<\343b\223\274YJd<\356E\036=\341m\363<V\247\016\275\'c\303\274j^7=\377\026\325\274@\351\016\275\242\3432=\177\314]<\313\260\245<1\364\311\274B\364E\274\260\031#\275\276\003\023\275\031\003\361\2740\234\024\275u\210\023=Da\276\274\335\273\357;6\224\236\274\255`\262\272\336\223\274<\200\2458\275]\336\013\275\371v\214<\0321\027=}\037\271\274\312G\306:$L\237<<\275[:\240Lx;\026\246\352<\220n/\275Mk\231\274\245\3577=\365\005\366<zh38\343n\311;&\204V\273\201\020\031\275\204o7\274\334\356s<q5\252\274\022\340\017=\210mM<)\262\330<\345\'\010=\203\010\306\274X|\272<7H$\275\372 \'\275w\331\027\275\036>(\275\346\365\377\273hp\023\275X\270\035=t)\342\274\237M\262<\214z\241<\nG\257;\211\365J<\325\020\206<\270\215\002=\344\031\034=\225\240\024=V\367\205\274`s0\275\330\361\244<!\220\202\274=\2162\275\232\301\036\274+\232\364<F\262\225:\004\314\033\275\022\006\377\272>\r~\273\026\213\033\275H+\213<$l\004<\314\214G\272{\201\204:e\325\n\275\276\347\226<\220\325-\274\0161@<\337\225L<\240\310]<@\346$\275\306\202%<\276N\357;\027\217\265<\336\237\302\273L\364#<\226%l;\256\216\010\272\332\2478=\272_E:b8\004\274\375r\033\274@d\241\274\203d8\275[\271\016\274^@\026\275H\201\240\274\246}\325\274#\001\034=\344\'-=Z\305\275\274\312\274\310\274V\030\266<9q\017\275%\227\031=b\374\000\274[\236=\273\220#\377\274\032\3349=\"M\r\275s\300\365\274\232\370\352<\220-\n\274\331\2138\275\277\277\231<\021\315\002\275\240;\016=t\365/\275\247n\014\274<\0332\274\314\221<\274\222S4\275\241\3253\275-\351\010\274\254\314\353\274\201\232\353<\221\236x\274\010\205\237;kq~\274\227f\365\272\266Z:= \331\322\274\177\266\225\274\242-\014=\340\333\350\274\350HI\274\033t\034\275L\353\240;\010\214>\271+\253\317\274B=3\275]\317\304\274\035\252l\274\244\035\323<,D/<\210\201\330<J!\216<I\333\010\274I%\026\275Up\310<n7\342\274\016\265\004\275\333\221.=\211\232\223\272\263\227`\274\0312\301\274\323\247\300\274\2423m\2749\237\260;\276\323\026\275\263\222\001=B\205<<\305\356\033=q\251\243\274a\372\375\274\363S\220\274S\342\251;{\0255\275}\2626=\371\222\373\273\016j\324\274\267\2021=6u\014=\275K/<RX\340\274\230(\023\274\022\310\217\274w\324\311<\2167\t\274\275\023\325\274\313w0=\3733\247<\231\311\322<\236\036\t\275}y\327<Uq\'\275hq-\275:\223\017\275\211n\231\274I\260\217<\242\276#\275\267\354*=jIX;%Kh\273/\003\277\274\032e\277;\026a(\2755\250\361\274-\006V<\341N`\274\3001\331\274\0139\266\274\005\347O<M\327\346\274Z\207\023\275\257A0<\314\020\027\275I\3546=\254\303\276\274X\"\356\273\202\"\376<d\364\t\275\364\211\237<\221\'\367\274\227]\262\274R\377#;\337pO\274%9\017\274\250\332\364\274=\322{\274\353\237\202\273\345\037\016\275\233\273\032=\301\002\240;` (\274\001\305\303\274X\2563=\217\200\021\2759\247%;>\222\270\274\375:)\275\336\226Z\274N\200\227\274\025\377!\275\362\273\272<\003\371\267<6\3567\274\215\201\250<\031\217.<\210\020\306\272\362w\242<\257\035=<\2264\367\273#\301k\274z\211!=\225K\000\274\327p\372<hV\235\274^\023\343\273)\257\252;L\014\221<\376v\002\275\213e\357\270bI\351<G\223\022=2\300\032<A\025\275\274\021\'\356<\2510\3168m\252\300\274\232\354\032=\203\022\313\273\262\007\r\275O\010\323<\001\210\217;\310\252\334<r\2572\275\2146\233\274;*\317\274\240\t2\275\227\027\222\274\253\243\000<#,\021\275`\355\232\274\310W\240\274\307n\251\274\375j\014=\002\241\240<\253)\'=\233?\253<\021\350\177;\333\221\027\275\376\274\367<\323\020V;*~&\275\373X\026\272m\335\277\274\362N\033\275\363\375\251\274\323\022\365<@\261\240\273%\262\'=\r\270\251<\016\031\341\274\017E\365\274\237VM\274b)\033=\253\253\211<9 \206\274K\270\207\274)W)\275\224O\001\275\013\024D\274\264C\244\274\270\352/<}\r.=/\027\333< \022\306\274g/\333;Q\031<\274\022\211\262\274+c\367<\255\222\365\274\343\336\020\275\200\210\000=\t\016(\275\274\030\024<fD\222<&2\236\274nK\210\273\304`2=\367\351A\273\343\017\024=]\020\003=\255\207\020\275\221\310\014;\272\2557=\322V&\275\302\025\302\274}w\006=\016\251\313<_\264\347;#X\273\274\224?R<\304\251.\275\203\257\276\273C\252\275<T\356\002\275f\230\020\275\310\232\203<\002\343\321;d\3574\274\\\350\226\274\022k\t\274\200+%:^M\034\275\345DQ\2748%\333<\316\2776=P\311\342<\345\300\213\274\220\320-=oq\030\275\314Y\370<\334\262\225\274\224m\232\274VN\312<<+Z<\000\264\300\273\346\222\313\273\\_\315<\317\226)\275C\227\276<a\211W<\21728\275\032\005\216<5\347F\2745\026\366<\'\352\242<\345\2343=\210\271e<\354.8=P\344\005<;\3346\274e(\340<\033\274\325\273\035\302F<\251\373\335\274\001\317=;\327Sv\274\301\353\237<3\213\270<\357\347\017\275\350\3337\275\360\2161<CC\340<\343\353\024=\231\225\023\275*\234\"<\331\017\256\274h\272\027\275\316@\026\275cK\255<\210X\001\274\013\000\177<E\000-\275*\273\354<\356\325\014\275\256\014\213\274\035\356<\2747\333\017=\312\255\016=\177\230\332\273\333\214\345;\235A\227<29\320;\202-1\275q\271\030=K\323\307;&#\'=\023!z\274\224,\340\274\265-\336\274\272\325\362\274\343\361\364\274\271\264\'\275\253/\021=\275\265!\275`;,=\304\203\373<Sn\013=\366\220{<\313UT\2742a-\275\305p,\274\351*\360;\372$\224<\332XM<\026\360\211\273a\376D\274\020)\022\273+\240\362\271\005\265\n=\3622\210\274b\312\224\273X\034\203\272\367U\204\274K\230(\275`\206z\274\030%\035\275\342}\r\275\253%u;\2159$\274\350A\007=hr\230\273\313>k<h\316\245\274\212C\'\275\023\265\031==g\306<\247s\305\274\354P\002\2750g-=\025\224w<\230C\n\275.\364\212<\234\260\336\274\352\255\017\275\2637\334:\244Y8\275\302\211\226<*u\003=\230\237\270<\220t%\275[Vd\274T\262\027\275\3734\021\274\274;\005=\361\303\207<\n\270\275\273\303\220\352<\356\204\001\274M\0172=\t\017\r\275\216\317\020\275\270\357\020\275\371\035\304;L\313\030=\'+\001\275\376U\214\273\236\307\026\274\310\336\240\273\323\375y;\017\013\271\274\220\254\237\274\323Q\005=@\0071\275\r\362\370<\307\037\226;G\305\037=\314I1\275|F\347\273\251p\007<~\023\032=\231\211\t=\331\3239=b\214\267\274b\330\365\273\376\350\244\267\267-\370\274qQ\320\274Et\241\274|\201\014:\300\\,<\376`6\274\240\001\217<\347@\r\275?\300\026=\210\270\371:\202N\231\274\361_\331<\350\264\253\273<\022W\274Ih\230\274a\201\025:\354\317\232\273\374\255\'\275\362\024\276\274\230\007\013=\314\263\242\274\220\356.\275x\277\337\274!\375\234\274P\243g<\245$\244\274+\300\031\274\017\360\032\274\\\361\334\274.\003j<|a\254\274\212\017\271<D\267\223\274\002\241\313;\236\004\253;A\240\215\274o\303{\273n\347\232<\243\335b<Ih\003\275\344M#<\361\354\006=\034\331\241<\265\272@;\\0\221<\233\016\014=V\355\363\274q\3209=E6C\274^\347\"=\t\253\317<F\251t:\216\360\246<\273>\010\2759&\004\275\302\375\'=/\221\343<\340\364\303\273C,\005\275\257\373\355;/\0058\275\223\022\373\272\202\221\207;B~^<FjZ\274x\r\300<!\212\346\274\266\rX\274s\221\214\274\347\037\315<\367^(\275\264\212$=\214\356\036=\210\311\007\275\242-\360\272\316N\255<\035Kt<E\236\002\275\242%\032\275\261\224\376\274\215\300\206<~\340\323<fc<;\326\236\221\274b\0219\275\016\000\n<\332\367\331;\'\257\217\274\005\210\251\274v\322\244\274\211k\033=\262\324\222:.\356\203\2743nw:\360\353\376<\n\007\276<~\250X<\220\353\351<\257\244s;\336\001\331\272VBR<z8\323<y\013[<c!\003=gN\262\274\302\352\033\275\252%:=\346\327\325<\352\355\014=L\0047=\005\320%=i\303~<\304\341\031\275\374\215\356\2746\345\360\273d\363\221<u\354\313<[\'\032\275\246\202$\274\227\005l\273\225\323\205<N&\227<9\2668=\250\261\324:!\252;\274Xe*\275\206<\333\274\025\257\207\274\303`]<\251\345\n=\342V\330:\335\216\214<\377\244\031\275\004\234\022=\370\217\352\274\324\245\330\274\202\251\213<\370y\213<Sy\305<\0323}<\334\030\230\273\220a+\275(\376\273<\252\255\021=\364\264\004=i\211\027\275\300\221\002\274\025n\030=| \035=\364\\\007\275g\310\000\274D\302\244\274\2105/<\203K\016\275\336\177\000\2758\016\246<(T\335;U(\027<\327&\000\275L\360\205;CD\276\270My\312<\\n\305\273\206\205\010<\002*\213\274\264]\365\274\247@J\274\206\006\027<\013\240\327;\351\363(<\357\r4=\214\023+\275D\325\020\275\005\'\r\273p0\376\274\220\260X;\3772\273\274\260E/=\240\033\370<D\362F\274\3322\214\274I\274\024\275\324k\323<\277B\252<T|*\275\207\307g\273\322\316\014=+\257^;\027\213x<\263\007%;\034\327\014<5\2507\275\231\365\353;<\272\004=?[\031\275}\316\341\274\022v\353\274\264\325\205\274\3533\272:\245\340A\274uzX<\370}x\274\371\372$=E\014\313<\323`\000\275}\371\235;\034\355\237<\231f\005=\363\361\003\275\335\007\000\274\345\r#\275\223d\264\273\330g\270\274\276\314?\273OJ\307\273\216F =\027*\346\274z\257)=\252\216\005=\007N\265\274}1\233\274v\366\375<\270\035\267<&^\004\275\230\325\327\274u\367*<+\320\033==\313\307\274\026\003\366\274\217\314\264<A[5=)\362D\274\366u\033=l\032\206\274\373\266\010\275;\tI<-A\030=\355\271$\275w\270\016\275\030\026\357\274\357\222\324\273\027\301\037\274\301w0=e\232\037\275f\264Q\274}\361\321<~\233*\275\277\317^\272%\253\034\272\030\327\217<\236\345\261<\021$\361<\346\327 