node {
  name: "global_step/initial_value"
  op: "Const"
  attr {
    key: "dtype"
    value {
      type: DT_INT32
    }
  }
  attr {
    key: "value"
    value {
      tensor {
        dtype: DT_INT32
        tensor_shape {
        }
        int_val: 0
      }
    }
  }
}
node {
  name: "global_step"
  op: "Variable"
  attr {
    key: "container"
    value {
      s: ""
    }
  }
  attr {
    key: "dtype"
    value {
      type: DT_INT32
    }
  }
  attr {
    key: "shape"
    value {
      shape {
      }
    }
  }
  attr {
    key: "shared_name"
    value {
      s: ""
    }
  }
}
node {
  name: "global_step/Assign"
  op: "Assign"
  input: "global_step"
  input: "global_step/initial_value"
  attr {
    key: "T"
    value {
      type: DT_INT32
    }
  }
  attr {
    key: "use_locking"
    value {
      b: true
    }
  }
  attr {
    key: "validate_shape"
    value {
      b: true
    }
  }
}
node {
  name: "global_step/read"
  op: "Identity"
  input: "global_step"
  attr {
    key: "T"
    value {
      type: DT_INT32
    }
  }
}
node {
  name: "input"
  op: "Placeholder"
  attr {
    key: "dtype"
    value {
      type: DT_FLOAT
    }
  }
  attr {
    key: "shape"
    value {
      shape {
      }
    }
  }
}
node {
  name: "output"
  op: "Placeholder"
  attr {
    key: "dtype"
    value {
      type: DT_FLOAT
    }
  }
  attr {
    key: "shape"
    value {
      shape {
      }
    }
  }
}
node {
  name: "HistogramSummary/tag"
  op: "Const"
  attr {
    key: "dtype"
    value {
      type: DT_STRING
    }
  }
  attr {
    key: "value"
    value {
      tensor {
        dtype: DT_STRING
        tensor_shape {
        }
        string_val: "X"
      }
    }
  }
}
node {
  name: "HistogramSummary"
  op: "HistogramSummary"
  input: "HistogramSummary/tag"
  input: "input"
  attr {
    key: "T"
    value {
      type: DT_FLOAT
    }
  }
}
node {
  name: "HistogramSummary_1/tag"
  op: "Const"
  attr {
    key: "dtype"
    value {
      type: DT_STRING
    }
  }
  attr {
    key: "value"
    value {
      tensor {
        dtype: DT_STRING
        tensor_shape {
        }
        string_val: "y"
      }
    }
  }
}
node {
  name: "HistogramSummary_1"
  op: "HistogramSummary"
  input: "HistogramSummary_1/tag"
  input: "output"
  attr {
    key: "T"
    value {
      type: DT_FLOAT
    }
  }
}
node {
  name: "fully_connected/weights/Initializer/Const"
  op: "Const"
  attr {
    key: "dtype"
    value {
      type: DT_FLOAT
    }
  }
  attr {
    key: "value"
    value {
      tensor {
        dtype: DT_FLOAT
        tensor_shape {
          dim {
            size: 8
          }
          dim {
            size: 2800
          }
        }
        tensor_content: "\214\243\014=\307\201/=$\332\225\274\330\256\016=\251o\000\275p\306\036\275j\327\367\274z\270\005\275w\023\252\274m\372\334\274\245e\213<&\377\266<^W~\2749\002\003\275\300s\005\275S\213(\274O\307\304\274\355\224\254\271$s8=;\013\354<x\0137=\201D$\275\343h\021=\324\3204\275/a\245<\326\213\333<\377\301\014\274\316V\233<R\262\002<\213n\260\274j\237\300\274\267\025 \275\027\265\222\274g\210\013=(\217\022=\261\351&=_\337\351<\363\213\026\273\331\313,\274Xy\354<Q\264f<\234\235j\273X\2359\275\204\016\"\275v\220\206<\026\240\007\274\024\2600\273\233\001\354\2732\223\351<d\027\357\274\345\312h<\326\225\010\275N\363\177\274\244\241\001\273\205\177\371\274\302\216\343\273b\254\177<\rd2=\276s\261\274\330\334\227\274\357CJ\273\321\203\215\274?_-\273\020\322>\274\026\3574\275\201\233\001=\3008\321\274I\223\365<S\330a\274\\\317(=-\244\224\274\352\376\n\275vu\212<R\371`;\300%\252<~4\262\274\247\267\200\274K\n\274\274H\246\034=a/\034\275e\315\016\275\2072\3279\312\362\206<|\247\016\275\350\304\007=A?\365<\365\366X\273\1771\255<\305\207\237<\321*\335\274!2/\274\201\271\306\274\331\\\221\273\207\0275\275@\034\311\274C<\027=-;(=\025\';=|\335\225\274\337x8\275\341}\352\274\306\017x\274\232\217\010;\022\213\304\274\233\247\260\274\0268Q\274in&=\005\004W\273x\207%\273\367@\332;\303\252\n<\253\206\017\275?\036\376\274\324h{<\361H\276\274\324~\005=\'\332\221\274\221\245]<\271\337\300\274\2553\037=\342\215\337<\334\236\036;\021\325\027\275F$V<\357@t\274\0343%<\326c\266\274\200\336\017=Z\343\025=\257\360q<\345\260\210<I\343\246\274\265=N;\247\272\013\275\342\337\356<\341/\307<\254\371\027\275\014\3645\275\211\3143\274v\363\211<\356\r6=`J1\275\230lr\274\217%\232\273\235\201\252<\367\225\345\274\002\033$\275\343\026:<\031\313\332;N\005;\275n\346\304\274\375\240^\274\034O\257\273<R\326\274l\014\241\273MP+=J\337\245<@\375\024={\3331=\332\367`\274\370\273\351<\014\016\245<\026\032-\275L\247\356\273\373J\032==\304\314\272/\266\374\274K\263\315\274\'%\226\274P\322\266\274\367\343\276\274\203\022\004\274\321\204\245\2743\'\260\274-{\030<\332\254\327<\262}\036\274l\300\030\275z\346\241<\237!\"=\300.\016=1\252\326\274\210\300y\274n\364\363<}\343<=\314\333\215\274\314\342\024\275\017b\346<\315\371:=y\2165:\312\027\004\274\023\364\341<\215:\263\274b\356\004\275\33164=pVg<\335\240+=A\221\336\274-ys<\033\312\345\274Q\377\343\274\001\202\353<TM\321\274\242\372\t=\246\361\000\275\324\257\300\274u\265\251\273\365\222$<\217Y\035=\030\002}<\252J\204\274A\256\207<L\216\266\274{\323\204\274\211\315\031\275\315\3360\275^I/=\330\212\344<\004\213\002\275w\333\240<e\353\253\274;\311\237\274\202\003\r=\023\007V\273\225\305\203\274r\210\243\274\216L*=U;K\274\361\243\306\272j\t7\275\257\245\215\274M\316\364<?\247\020=\345\0269\275a\344-<\277\006\016\275\3014\257\272\220\265\037<\2375\023\275x\370\n\275@\340\035\275\0034\035\272\t;\256<\262\252\036\274\330\220\367<\302$\316<\n\337\245<\241\202!<\260\204\260\274\035\211\277;\010\312\024\274S\330*\275tl\335<\202\3568\275\263\272%\275\234&!\275\262q\246\273\244\232\273\274K3\344\274d\330\202\273\271\r\252<\211\004\313\273\242x\003\273\376)/=\204\332\357\273a\201\004=\252\266V\274\227k\n<\331\333\r=\nQ\363<\222L\030\275\344\024\212\274\370\341\003\275s\237[\273\250\230R<\357\237\247\274\037\347\276\272\374\231\351\274\3105\221<P\327\344\274]\252\270;\354\037\306<iA\000\275\037z\027=X\350:=\352\001\036\274\021\0004<\277T\305\274#\"\353<\340P\325\274\374\003\026=k]\n=\357Y)\275\365A(\273W\271\227<\373\341&\275\305\254G;\r\323\337\272\232\213\2159\036\202\235<\363\3741\275\253{8\272\017X\227\273\345\271\233<b\351\t=\005_\000\2750\017\003=\004\250\351\274\326b\335\274\3601[<bL\357\274$\376\306\274\366\276!<\363\010-<\037\026\262\273\nb\374;c\301\031\275\326N\216<\206w\263\274\270\263\027\275\241E\017\275V\010\003=\007\251\004<\\U8=\252wj\274\305\200\277\274(\204\203<d\005\330<&q\025\275\001.\022\275\2653\331<\217\355.\275\3745\n\275\201S\020\275\222\224\226<\314\247\323<u\211*\2743\273\\\274)_\030=\217\276@<7\336\263\274*!<<\217\357\211\274F\332\023=$w\275<\345\0330=\237x:\274\271Cv<\377-\367\272\270\236;=4\r\201;\235\227-\275\315\332\305\274\227\030\322\274P\255N\274\177~P<^\2428=\026\244\337<\256-\344\270\343\\\266\274\010\325}\274:=6\275\342;\014\275\017\220\025\275\020\3568\275\334\304\321;\327\023\221\274\014\330)=\035\"\036=g{\243<\312\022\016\275\0374\301\273\271-\262<\014g(<\3747;=\340\276\332<\322\007<\275\302\241\005=\377U\022\275\021\214\264<\216\3354=&\306)<\257\021o;\246\245,\275\233\265\347<\302?\016\275C\376\021=\'\251\217\274\367p\305<mu\344<\223&\206\273\275t\367<g*\025=n\345\312\274\327\334\213\274\352\313k<:\2068=\313\226w;\237\275\224\274E\320\250\274\200/p\274?\034*=N7!=\025\300\345\274\315\224\314\274\214w\252<\250\342\025=\203+\t\275\01777=\023\013\033=\231\225\345\2747J\355<\000\264\272\274v\205\267<\371\271\017\275\235\353\331;\231\3556\275\301\247\225;\311.,\274}\004\317\274\035\025\3129\2309*\2754\251\025<\331\231t\274\000l\240\273G\212\213\274f\213\335\274\256\322#=\236-&=\247Ey\274\371\300e<\327U4\2758\234\246:^F\250<\237/A<=W]\274\007\344\222;\0226]\273ww\"\273\246y)\275\"\2626=$\317\020<\265\2322=\315U\025\274t>\307\274]\272\\<\235`\200\274M\236\024=S_\316<a\235L<\305\244\022\275\222d\033=\271\014\3619\256\302\022\275\273\031!<\rN\0009\333\266\026\275\257\004~<\rs\236<\361j\027<lN,=\262,#\275\346[\260<\325\316\231<\031\3408=h\005+\274\303:/\275Y\235\025\275\273\3114\275\336g\277<S\252$=\207\003\016=2\371\000\275|kl\274\213_&\275\233\230\030<\230}\223<Z\031\275;\325\366\324<\310/\253<M=\037<\312N\254\274\310\357\204\274\265S\n=\337\3772=_L1=\251/\021\275u<\027\274c\n\225\274~Cd<\240\232\001\275\022{j<ulr\2737E\277<8\344\376\2741\215/=N\276+;\n\315\t\275Y>f<\255\253\004=\215\344\252<u`\013\275\204\002\'=)q\'=n\303\365\274\260\272\305<\354\372\247\273\221d\027\275m.\006\275\375\013\367\274\270i4=\267\340\n\275\305\270\016\274c\037=\275\215\361\216\274\352\227\004=\234v5\275\355#\036\275\261\337\037\275+`\356;\271U)<\314\201W\274\212=\033\274*\325\006=/\202\255<\377\034\022\275\032\200\335\273\247\252\210\274\276\2708\275\214O\275<\302y\016=u\2378\2757$\252<]\035f<\336\330\002=>\273\234\273\252\331*=\324\341V;\001\007\361<\022\350.\275\312\261\014\275\207\332\317\274\317\222F\274\3061\264<\004T\020=\214J\014\275\214a\247<j2\246\274(\203\212<\024x\005=\0177k;\301\033\300\273c\025\277\273{Z\251\274\356\\\226\273\235\376\322<f^r\274\253\321\024=\257\032/\275\343\242\037<\303h\255<\1778\342\274\276\004\310\274\331\326\327<\'\211(\275X!5\274\010\035\022=o\221\236\272\201`t\272\326\333\207\274\363\217#\275Dp\017=\000\364\205<\352\2370=\315\221\t\275\3035\250<\237e\376\273[\245\004=^\307\352\274\230,-=\372\007\336\274JNx;\357\037\023\274jR\215\273\241\370\241;\327e9\275\346O\203<\310\324#=\033\377\006\273\222\357+\274\003\306\317<h\013\364;&\373\314\274\364\315\306\274\255\340\214\273\310\331\203<>\232\244;o\0362\275\366 2=\273Z\303<dYb<\210Y\243<\241e\275< \203z<Y\251\017=\203\227+<\250\ne\274\255?4=f\"7=\343\355\234<X\255#\274\244\236\271\274\361\256\022=y\245\005=N\313\"=\341=\017=\334|\256\274\266\273W<]\350z<q\374&\275)\025\006;L~\223\274\260\'\005=V\222\327\274\335\0068=\370c\253\273\234\262\347<\315l5\275U\353\022\274\375*&=\325a\247\274\307r\310\274\330\333\342<\"\244&\2755\\\330\274\007\tq<\030\215\241;\311 \003=v\262\220<\263\351\241\274\253\026\003\274\257g-\2726@\"=hs\265<vl\014\275h#\026=\243\331\370\274\244\325 \275\226?\037<\244o\n=o0\177\274\332\215\320\274PC\0178P(\336<\r\324\227\274\244l5=2\037\204\274=\242\3639\223(\274<\014\r\332<\310L\362\274\351\324%=$\3619\2752\374\213\274R\361\236\274\002\3629\273lq\271\274\264\375\334<\013\013>\274\214\211\257:\346\211\246\274\023\033\000\275\025\235\253\273Iy\007=*G\325<\356\3671\275\002\256\201<\010.8<e{\350;\r\035\036\275\'\256\330<yy\376\274w\377\225\2743\262\353\274\t\263%\274\315G\032\275\237\212\017\2757*\244\274\006\314\303\274\220O\344<\220(\020\275\372\271\260\271\037\323\366\2748\364\002=r\353\344\273\252\217\216\274\340U\023\274/I\010\275Zq&\273\032\026\031=\031~\303<\023&d<Ik3=\204P\322<\367\331\013<w\321\255;\374L\343<\235\314\"=\354/O\274U\324\262\274\364v\224\274\271\363O\274\\\236\342;\310\003\005=\213/8\273\324O\037\274^>\316<\271>\374\274\3058S<\306\022\306\274<z!\275\236%\004\275E*5\275\037cE\274-\260A\274\264\325\203<\263\233\347\274\033\204\323:\305Q\321\274\374\376;\274\244b,\275Px0\275\362\317><(\322\007=\372R\036\275\371\264\317<\244z$\274$`\022=\235\257\333<qz\313\274O\366Y\274;Y\005\273\262\035\333<\237\322z\274:\330\334<+\020\023\274\222|s\274\214\310G<6[\237\273^\255\017\275\320\031\"=\224\202N;\201Y0\275}\354\310<[\020\021:\177\020\374\274q[\234\274\357\212\001=\361:)=Q\0056\274\nP:=f\303\002\274*\2753=o-3\275\210\332\230\274c\013\250<\220wF<Ep\263<qA^\274\271\347\024\275y#\023=\233\351\326\274\236\034\272\272K\256\324\273}\0350<$\347\031=\336z\'\274\206\002\377\274L\310\003=\315\216m<QuF\273L/&\275\226\376E\274\3744\313;\2758@;n\024v<\263uG\274\253\033\377<i\306\014=\3454)\274\330\232(\275\t\364\023\275\303\264\303\274\370\315\276\274\234\376<<\366_\007=\210*\016\275@\273\034=z\241\366\273\261\366\322\274\377\243\001=\252\260\315\274>00=j\000\304<\213\206\250<\341\005!<\354\271\305\274\255<\200<\316M)\274\210U\025<\200\3647\275\235\000\321;\253\r\020\275\2554&<\352\345\241;I\321*\275\237\311n\274G\330+\275o\376\017\2744\376}\274\232B\341\273\340\337\036\274**\"\274]L\017<\211])\275\2736\241;\201-1\275P\371\007\275\204o\023=j\211 =]\030\341<\377z%<\020\2139<\343\031\342\273\363N9=\203\\\000\272C\t\303<t\367\201<M\301\261<\227\r\310\274\257\325\010;p\203\t\275\033\243y<\204\372>\274\2007\244;\317\366\034\274\304\004:=V.\243<\303\0054\274\021\360G\274(\371F\274\225;,\274\331\211<<\360\264\303\274\027\032e\274\025i\274<T\377\017\275*L\030\274\331\032\222<\022f\363<Y!\031=ra\362;t\314\317<\312\3016\275\213\324\310\274\275!\325\274\360x=\274\036\201\316\274\035\332\026\275=,==\005\021\001=\246\007\320\274\370n\334<\303$\301<\343L\260<\021@\262<p\3233\275\227\221$\275Wg\356<\344X\'\275\327w\303\273rj\262;\362\350E;\214\342\"\275\t;\004\275zc\037\275\227\330.\275\224@8\275rSV<Qc\237\274\371\237-=dhE\2741\246\211\274\267\020\024\275-%\333<\250\025\027\275~\004\362<{\310\267\274\362\r\017\274\301\346M\274j\024\227;\371\206)=\r^\361<\324\326\025\275\353=\210;\002\307-=&\027\332\274\277\3718=6\307\327<\367\016\353;C/#=\365\234k<nc&<\306\375\000\275V\354\314\273\200\037\206<\255\267\000\275\210_S\271dL\025<\325[\326<i!\301<\247\225\347\274K\261\210<\272\177[\273!A\203\274\"s\305<\0225\262\274\366\310\370\274\227}1\275BV\023=\201R\000=\034\233(=KG\317\274t\257I\274\272w-=\372)\222<\241\343\355\274\177\0213=S\351\326:\3435\355<\030\241\371\274\237\225\333<\177\027\036\275\261\214\202<\274w\035<\221\"\311\273IK\346\274\364L\313\2743v\240\274\276\275\016=\300e\243\274<\324.=k\374O<\305\247\310;S\261\301\274\233\035\034\274u\320\t\275\t\251m<\013\245\016\275(\333\225<\261\360\333<(\356\016\272\177&\032\275\217\220\270<\360\265\030=\224\013\032=\001\375\006=\264j\231\274\330\203\227\274\340)\311\274v\224\026\275\311\2321=\0363\267\274l\241\366<\"\2053\275`\030*=L\252\304<DW\"=\3269\247<^\3233\275\314m\033\275\224K\242<\311\025*\2752\305\361<\037t[\274\270\250\003\275z>\367<\216\3050\275H\333\2718\223\365\\<\263\000$\275o\275=;\363\3224=\251\361\021\275\356\335$\275\255\305\356\273\304\342\014<\26281\275>u/=\226\251\264<8?-\275\'\257\030<\350\367&=\337\271\337\274\236G\010\275\301\235#\275\215\367\372<\365\345\310:\376!\r\275\226u\003\275x\2336\275\363\223}\274\333\003F9\321\200F\2747\223-\275\344\237\232;|\027.\274\377\206&=\266\227\214<e&\027\274Ww&\274\005\205=<\203\2477<\200[\234\274\020\036\207\274?\262\320:6\254\023=\351M\r=\312h\232\274\373\327\001=A\232M<-b3\275R\217x\274\217:N:3\253\020\274E\357k\274\022\3758\275\352\345\254\272t\233P\274\210]\303<\233\204\004<8\235\277<\311\370\246\274yD\254\274&6\310;\265\013\340\271\016\356\032<\300\007\203<}\216\226\274\362n.\275\350l\351\273\356\207:\275\372\352\206<\372Nj\274\211x\210<P\311\357<\261\020\303<!\377\034=\230\254j\274*\233\336\273\001EL\274\362\371\212<\\\024\031\272\206N\202\273\226\013\235\274\022\276W<|\302\034=\376c\001=\267\022\004\275\345e\'=\260\373H<\002\221\377\271]p-=\322\371\014=g\237<\275\304\227=;\274)\215\274A\243\342<\222\215.=\374o\310<C\363P<2\363\342<\304\231\032<\254`\321\274\037\323\273<\232\204\377<\013\354|;\\.8\275\270d.\275I0\352<Y%\001<\000j\006\275\303Xs<\200\311\002\275m\033@<C\253:=\"\361\267<p\006\003=\217b\231<\336\271\024=e9\270\273\n\323;=\2428A\272+\214\203<\373\272x<A\265\016\275\214`4\274\337\225\210\274p>\020<U\304\230<-\250\340;\t,%=Yt(\275\377\323\231;\036z\n=\365\374\266\274uM$\275\315\255\205<!\370c\274\260\371\347<Dv\214\274I\327\357\2744IC<\337\260\031;p\377a<\205g2=\310|\003\275A\213\235<\264\272\036\275\032\022\023<%V\312<\026=\r\275\240\350\212;&~\026={\345\240;9=\317<U\222\316\274\005h\267\274\315E1\275\240C4=\327\000\276\274\034G\020<\035^\316\274\361O\007\275_\2045\275B\366\340\274\226w\027=\273G\274\274\252\033\005\274.~;=P<\000=\252l\264\274\260\025\347\274P\033\004;&o\343<\272)\313<\321\010,;>`4\275\374T\300\274\231C-\275V\030\311\274\337\004<\275f\023\301<\036\352+\275S\274\272<\325\037\004\275L_\252\272\260y\016=\nt\251\274o\353#=\366\254\347<\247\024\000=f\363\026:\317/<\275\330q\211<\336\003\026\275\213>\t\275\354\307\030<\3638C\274\000\236\020=\324-\226\274S[#\275&\'\264\274\245\237\351\274\361d\'=6\275\263<\247T`\274e\3761=\223\342\311<\205\207\236\273O\013\036=\226)D\274F\375\324<\031D\265<t!\214<\313]\031=J\344\t=\212\345\321\274\263I\032\275\262\203%<V\356\210\274\013O\316<k\366\007\272\322\305\270<\031g%=t\265!\275\217`\351\274dK\356<\210\324\333<8p#\275)\232.\275\310\246\200;\317lw<6\260\376<\375\227\034=./\327<.\034\256;\323\234f\2742\272*<\021\202\253\274\273+:=\326\301\211;6\2038;\247PS\274\303\266\314<\013\272\030=\032F\000=\343\202\266\274\177\003\263<&3\202:\256J!\273\315\313\2179r\300\022\275`\256\017\275J\263\231<\356|\t\273g\262-\275\025\366\345\271\030\374*=\374q\036=\266o*\275\275\317#;J\230};\030\252.\275\241\3420<\017\353\372\274?\323\022=u\334\270\272\'\367\216\274\273\374\002\275\361$&\275\000o\016\275\234$\201<y\375%\275\304\035\365:\340\212\352;4\032\301<\303\005\016\275\273\\r\274N#\334<\336P\246<\033M\237<\214j\303:\327\327\317<P*j\274p\203\351<\364;h\274\177\256\231<\225\264\322\274\016Aw\274G\332%\272FR\r<\356\"\360<X\201\331<\356\243\270;\026\374L<<\314\016\275C\351\204\274qI\332<%\324\304<\305\325\226<@\312\267<\251z\203\272wQ\016\275{\217\207<V\035A\274\221\215\031\275\271\033\001\275D\374j\272\273\246\276;h\214\244\274Z;\252\274\0050\332<O\347\037\275VI\263<9\007\236<\243\3647=\323\200\236:\006>\255\274W_\336<\321e\373\274\361@(\275\363\"\325\274\014\356\'\275\352l\033\274\032\314\304\274\320\0201=(\237\025\275\007R\032\275<G\336<CqQ\274\207\3446\2752\354\266\272.\230\002\275o\256w<\233\367\t=\223\002\025\275\354\375\246<\3442\020<\201\210\254<\024\363\255;\374/:\2747\004\370<\312\3742\275\250\025\337;\266\022\366<\242\002\343\2749)\222\274B\347\216:\302\220\000\275G\344\250\273\305=:\275\211\350\220\274\313m1<\366\003\002\274\323\031\314\274\303\331\242\274\311[\273\274\345\3647=\356$\234\272\302\010(\274\211\237\252<\0329\216\274\330{-=\354{\301\274?\266\223;z\307\372;u0\275\273u\252\257\273\352l\323<\\s\024\275\322\225\371:V\261\021\275.\020\317;K?\016=^W\013=\376\372\022\274\013t%<\"\'|\274\033\032\232\274\216}o\274\376\273M<\263o\260<>\331\034\275\2355\255<\365\325\226<Ti\030\275\316N.\2750\177\205\274\353\3346\275\033\341\321;k\306\021\274\2378\t\275\006\203\263\273\270:\340<9\215\204\274M\216R;_\027\037\275d\316%=\236v\035\274\266\372\021=\2122,=\354\222\343<\212\2604\275\021\265\327<Aq\'=:\264\235<\331\316\021=k\026\032<#_\030<\250$\262\272j8\017<)\321.\275\205H\005=wb\264\274\027\215\273;\375:==%\233\375\274><p<\203\233o;-\377\364\274JW\251\274F\347%<r&\215\274[u\304\274A\n$\275{F\251\274\222\345,\275\301Hu\274\273\370\355<\234\252\236\274\311\310\010=\336\n \275\203V\374\274\263R\017=\362\034\020\275\014y\031<\340\247b;2\277!\274\336K\032\2754C==9W\212\274YN\323\273\267N\035=\204 \"=!\323>\274\316\356\222\274\230\030/<\020h\206</v\305\274E\364/\275\310-\362<a\347/\275\210\354\270<J\3301=j<\205\273\234\201\367\273\323\"\310\273Q\232\270\272E\335\336<\\\340<<\215\257f\2741s\210<\343[\020\273f\010\225\273\243\310\024\275\243\241\003=(\2727=\325\227:\274\026\007\261<\022\304\342;\272\221\342\274BG\361<7\022\370<\362\376J\273\206\2461\274G\014\037\275jt6\275\343f)9\215##\275i\033W\274\357\221\245;J&\213\27306;=\332Nn:T\240\024\274\316\250\254<\rx\260:u\364\366<\000\214\252\273Mt\364\274!\363J<\365|\220<\354Z\024=\374s\251\274\275p\t\274\322?\244\2747\304\212\274\031\006\274\274M\367\210<j\206\342<\310k\026\275\313\214>\274\253\020\342<_\335(=\346\351\373<\255\000\232;\243\301\245\274\271=\311<\333\342\006\275\002\2656\275C\301\277\274&_\034=\036G\031\275\336\274\201<\203\t\314\274\211<\324<\236&;\275\317\345\371\273z\223\016<r\244\262\274\334\337\345\274\234\265\243;\266[8\274R\251\221<P\3576\275\355\2466\274\375Q5=|\243\t\274\207L*=j7\202<\023\341\2149B\240\250\274\250\262\304< ;\003<!\033\232\274\006}M<\273\027/=IN1=[|\267<I\205\026=\'#A;\352\036|<\224l\355\272ld\245<\334\363\265;\n+\020=\361*\";\360y\316<Y\277\316\274\237e\373;\256zy<\036g\366\274\3578\023=\340&j\274\\\013\023\2756y\345<\321\r\217\274 d\344\273<\331\215<x\230%=Q\205\234\274\240 \244\274_\n\376\274\355\027\240\273\334\357\014=1aB\274\373\203B\274?v+\275\013\353\"=\240\253v\274\177\'\273\2741\2744=`\324\002\275\327\3019\274z{c<\027\303<=b\236#\275+\210\026<\2263\006\275\272:\340<\030x\227;0=\037\275\361+\375\274j\325\n\275\214\352\004\275\021\364\237\274bO\016=\252\355\034;n\306)\275\2741/\275\331\021\002=?\016\215\274\203\232\237<\344\311:=?r\263<\254\364\005=U\224<\275|\377<;\357\010 =(\263\377\274\320\017};Z\317.\274\367.\254<\324\331\000\275W\325\372\274\223\274\267<\315\236X\274N\tG:A\321\246\274\216\3606\275ow\324<,}\222\274nv\"<\317\321\035=\323\363\300;7\332_\273\177\177\233\273\241\200\372\274\2474\205<No\375<\306\245\265;\322,\022=\2614\004;\370d\201\274[\352\306<\220\005\021=\023\017,=\263\334(\274\251\332,\275\215`A\273l\r\221\273aY\340<\n\347\225\274\373\r9\272l\365\207<-\353\016\275\227\3537=F\306\200\274h\022\366\273#* ;O\370\247\274%\371\324;\206\317\013\275\3129\004\275\365\341\023\275\325\"\227\274\305\037\312:\224\022 \275\303\0141={\227\325<\345\231\211\274}\263\312\274\234\246;=\360=]\273\027\210,\275{K\300;\251\246\314\274 \273\024\275\033c*<o\351\307\274\001\036\254\274\255k\323<x\010\322;\000=\301\274i\2025=\027\315\213\274\265b\021<\024\022{<\014O\370\274\230yK<d\271\037=\305\023\020\275S\367\363\274\024\351\271<\277\3762=C\360+=\374\3750=\n\336\346<\241w3\274\343\007\r=\337\337\027=\225\234u;\224V\022\274.\330\027=\r\300\021\2750<\374\274\217\213\202\273c\212\006=\314J\346<i+\030;\201\267\031=I\326\315<\022g8<B\370\022\274\000\262(=\214\302\246\274(\n\220\274\365\2510=`\025\322\274\372\274\037\275E\305U<ex\310\274\233H\024\275\257\303\020=\265\324\375\274\332\246\367\273`\2004=\206\030\035<q\370&=1\376\267\274\203\363\004<\\\233m\274\367\257\n=\232u{;i\302n;\003\333\205;\021? =\017\317\'<\332\362\225;\'i{<O7\r\275\317\365\216<\013>\360\2740k\260\274\363\207\351;c\212\006\275\237s\241<Y-\036\275\247\216;\275&y1=\346+\r=\332\371\033=\357%\260\274\276\235\365<h\255\001;z\213\013\272\030\002\320<\307\217;\274UfM\273eZ\033=\302\252 \274\243\265/\275s\300\241<\222\250/=\270>4\275;t\217\274\010k\264\274\002\304\334<InG<\371\247\300\274\034\355\035\2750\377\235<\026EW\274Uo2\275\'o\366<\001`W;\tK\361:\221\363\025\273 \2648\275I\256\004=\213Q/\275\272\375\330;\362\010>\273\357\004\261\273\2448!=\255\365\313\2732+\032\274\010M{\274\242\356\"=\013T\n\275\364\301\223\273\200kq\274\005j\351<\257\261/\275\306\242\034<\007\361:\275\354~\352\273\227\370\317\273\235k\240<$pI\274\366\314\254\274\350\371\350\273\324g\377<|\347\223<\nY\307;\352\205\233<`D\010\275\355\212\020=\217\244\005\275\233\376\002\275\247\333\022\2757\245\002=.^S<\344\241\277\274\234O\253\274\204$\016=&i\242<\273\006o\274\267\240\026=\247\366Z\274\200G\306;c\025\3469^\341\036\275\345B\014;\357/\276\272\242\205\007=w\304\215;\250J\207<Ke9=}r\001\275\246P\025\274m\030:=:}2\275\207{<\275D$\214<AX5\275\347\226e\273\005\254\n\275\031\357*=Sj\032\275\031t2\275\331R\027\275> \306;[\204\222\274\'\300\263\274WV\360\272g\250:<[5\216\274\250\231L<oE!\275\347\236U\274\225\030k\273?*\371\274\336a \275\026\320\034\274H\251?<\036U\236<\334\224\314\274n\2430=i\035z\274\322\t\013\275\212~\t=\323\264\306;\354@$=\306A\021\275U\345\301\273\262\234\303<\304q \275\240\202\"\275\270j:=\242\277\235;\323N\023=W\361\251<r\335\255<\341c1=s\354\241\274\000H\250;\310*Z<\212\013.\275C\255V<\356*\344<D\367\200<\306\326\224\274\263~\373<s\314\000\275]\034(\275}s\206\273\356G(\275A\014\002;\201\036\034\273\272\274\242\274\316\244$=\024Z\277<}\306\214\274\23554\275\030\276~\274\210\223\313\273F;\r=\226\276<=\252`\231\274zn\027\275\222\306C\274\252\245\032=T\340\301;-\003\021\275\\\026\362\272;\247\344\274\264o\212\273r\274\316<\334$\014=\351,\005=\2175E\274\374.-\275\025Q\t\275\365\371\031\275\\>%\275u\300\006<\230\005\244;>=\317\274\232\010\323\273\020\t\021\275\302\370b\274~l&\275\025\354\031=\365N\327\274df\037\274\354\343\310\274aF\022=\014\000\376\274\265\004N\274\236\277\261\273\344-\254<\'C\262\274\032\313\007\275~.`\274\311\267\251\274\301\273\032=e\334\354<\3340 =\017\307x\274\276\317-=\210M\366\274\007\372\004\275\312\206\035=\241\355\261\274\255n\216<2\002\237\274ct =\232\r\026<\tQ&=+\240\240<\003nC\274\210\342\022\275\202\3421\275m\211\241<\302\375\364<5\230U<\"\033!;\261\262\312\274@\0211=\036^\006\2751%\001\275\353\214\023\275\327f&\274\335<\037\274)!7=\300\217\202;ZQ\020=\374\373)\275\2255&\275\017D\221\274\323<\026\275\327r\347\274\201\322\031\275\244O\326\274uX\340<\341\272\034<fm\025\275\307K\3029\3117\233;\303:\350\274#:\203<\221\314\244<fV\030=g3u\274\3661\362\274j~\000=v\311\031\272\"\273\355<\035\350\265<\241\005\335<\267\225\247;\315\'\301<\244\016\326<;\370\306<\345\0131=~\204\314\274\305\264\000<D\304\247<\255\313p\274\231\343#\274$\034\210\273\026\177\346\274\204\3074\275&\275\243\274Lj\217\274\211:\274\273K3=\274\311\177{\273D9\034=\006e\n\275\232_\326\274\273\2756<\326v\254<\321S\346<\216\200[\274\2160\024\275g\276\334<{\017\242<\361\366Q\274\004\210\334\273\343)\200\273\270\313g\273\005P\001\275b\232-<\363H*=\241k<=\214\230\r=u\347\036\275dn\216\273\216W9\275\235t\006\275\262\361\264<\000,\267<\346\262\212;\327\013\254<\323\005P\273\234\016\316<\372\036\301\2743\335\342<\342/\025\275&\277\t\275\357\336\020<\240C\341<\224d\376\274{\326\006=\374@&\275\246\2564=\260\205\273;\302I\n=\027\366\327<\376\244\n\275[]\231\274\221r#\275\206\374\266<\202\202\005;\217\246\254<\264\305\025=\237\3721\275\245\221\223<3\317s</\003\245\273O\024]<\216\340\320;\263\313\211<hD\030<\035\3157<\250\343\354<=\301\246\274\236\212\233<\350S\001=\221w:=\215\2171\275e\230\035=]zv\274l\217e\273\357\025P\274]\333\036\275\243\337\213\274w\345\347\274\231\004\343;\315\322\017\275Z\271\202<\3157!\275\323\004\013\274\233\223\007=\241\2109\274\242D`\274\010\371.\275\230\000!<\265\023\256<r\023;\275\267\237&\275^m\251\274\177\272\354\274\315\333\264\274\234k\326\274\036\2069\2756\201\353<\016z!\275\354\271B\274\242h\\<O\312<\273\235f\324<\333\"\305\274\020\230(\275O\202\261<p\311\026\275\306\340\007\275\255\272\033=\332\354\236<\344\236 =\377\257\345\273\216\226*\275\237\252\255<\250\214\002=5\322\366<jR\306\272\2038\213;h\312\261\274\363\347\327\274{\020\001\275\366p\251<\202\376\316;\210\336\r=\'\374\242\274\331\241\227:\311\016\321\274\230\334\020<\275\006\024=|\027 =\360%H\274\232d\002<G\271\002=\326\246\017=r\005\253\274\n$\241;\010\t\224<\323\333\204\274\'\027\210<\213\277\004=\026\334\r=fj!\275\312y\310<\260\220\303;\314\277\275<8\376+\275]p8=\023\234\007=a\367.=\267X\266\274x\004\374;\254\364)\272A\356\027\275\031\235\201<\374W\027=\220q\030\275p{\031\275exr\274\351\201,<\250\333 =,\304(;\330\204\211;i\214\331<\013b\t=o\2234\275D/\026=\345\375\320<\257K2\274X\035\375<\002*\362<\223\177\265\274rb\311\274\313\035\236<z\340y\274\r\335\351;d#\006<\261\013H\274\235\321\005\274\315\202\210\274$q\"=YD\"\275\236\365/\275\004t\204<nI\353<\203\253\350\274\355\357\225<\200&\231\274\031\313\363;\262\363\365\2745\303\255<\214-:\275\355\230)<U\322\020<\323\303\324\2742\337\365<\341\030\320\274\227\327\220\274\005Y\304\274\242\350\276;h\016\371;\305V\337:\232\363\024=\327\360\016:\376\321\215\274\346\023<=*\\\003\275\312\352\310</\336\"=J\224\324\274\300\374\304\274\344\265\301<U\n\376\273\3335\267<\301\270\014<8s\265\273c[\027=\213\343\031=\226\225\"<N\300\227\274\310\327\022\275\270e/=W\020\026\275\021h.\275\016-5\275\361d\n\2753\354<\274z\'\r\275,\306\2749/\253\234;\337\247=<\260\300\236\271\262i\250\274\010\333\252<\347n?\2735q\321\274\321f\007=\357N\315<@fW;\222\311\000\275C|\370\274F\020\260\273~\0237<A\013\021\2753\223\315<n\247\002\274Y\247\260\274\310\363\247\274\213\341\222;\217h\220\274\033\3549=\2334\370\274\n\312p\273.\201\346\274\005\344\022=\270`X<D\363\345\274,\305\274\274g}\205<\230%\000=\277t\003=\310\3177=PY\177\272\375>%\273\253\372\316<\3651\t\275\314\266\265\274\322J\350<\326\262\277\273\314&\275\274\311C\351\274\257\252\250<\'\201\37090\337\214:\273\224\332\273\250\2232\2758t\r=\007\252]\274\373\260(=\357R\331\2742\331n\274\2201\254\273s^1\274\277\005\221<\027>+=\273\367\303<\232\'\020=zV&\274r+\034\275lt\034=g\022\335\274\25137;\374\210\004=\352\'\364\274\302\253\"=\350\032_\274\033\2612<F\232+=|\344\324<~\362\320<A\276\333<\363,)\275\331\262\020\275\267\t\252<\212}\236\274\373\n\035=m\226\222<\371\027\026=\224\277L\273vs/\275i/\335<*[~<\374\316S<\333T\'<\372E\014\275\343\216\020<\313\006\303:Q\255.=\371\004 =\272m/=\013T\212<WPy\274\357<\326<\202\000\276<\3305\375<\204g\206<\263\330\357\273\306\341\213\273>0\230\2740k\273\274}<^\274\252\007\023\275\030:\017\2759+|<*\037\312\273\237\342\270\274\375\275\'\275\341\2371\275\276]\343\274\231\005\026=4\025\252;|\356\027\275\372T\344<\313\266\032<\272/\364\274\222\276L\274\032s\'\275r\221\022\275,\224\202\274\225\013\030\275N\3312\275\216\2454\275k\377\034\275\2228\024=\0349\016=\020\277\301\271M\320\037<\353\352\037\275\325\005\317<\332\337\020=pZ\026=\202\0317\275\265\276\036=d\000\020=\003r\032=:\357\006=\341\360\"<\313\263\037=\273z\033\275\374k\325\2742\352\030\275\213\343(\275\230\312\004\275T\344\032;Y\256\245;\260\263\350\274rn4\2746\3526=2\344\347\274_f\003\275\372\024\316\274p\253\210<T\333\205\274\006\033%\274\366|\022=\007\023\200<\256\255;<!\316\346\273\373\333#\274\336>\333<\n\276\265<2\244\220\273t\004\037=\321DV\272Aa\271\274\323\257\240<\227\370\212;\320-\324:\340\3019=\022\253\273<\003\013\344\2732Qe<\037\'w\273]\'\021=l\256\242:;\277\003=_L\334:Zv\304\273@\001\203<\361\030\035\275\350:\032=\2064\003=w\212u<Kl\3549h\353\222<\254v\320\274\376\275\t=\344\241\311<#\340\304\274\242\355\305:\325&\000\272\005\224&=\020\2154\275\334\n\306\274\360K\004\275B%*\274\376a\255\273.P\364;9Fm<\241\216\364\272\342\240\273\274B\316$=c\333k\273\307Q\003=\356\316\366<\035\223\n\275@\303\332\274j\334\027\274\210\001\372;\367\366\005\275\373\3509\275U\363\035=\360\2351=%\247\265<\362\347\255<\244\247\351<\213uR\271QF\000=?\007\020\275M\035\303\274\204 \351<&1\033=\255w\225\274y\027\006\273\205w1<\337\203\210;*\026\262\274b\350\027\275\303\202#\275\017EC\274\245#\202<\257\345Q<P\'i\274\273\240\357\274\323\177\007<\324\013\331<\2338\303<\023\254\004\273j\\.=?s\034<\314PF<{\222#=\347 \275\274\314\037\264;\350\233=\271\264\377\020\2754Dj;jP#\275\271?\350<\\\343\274<\207\275\354\274\347\271\021<\366\252\345<\357c\027=\223\374\206\274\233\n1=\334\264\302<\204\225\023\275=\331\037\275\270\270\001\275&\326\336\273\006\032#=\335\035\235<8)\207<o\307r9\036O8\275\363_\273\274\317\234\375\274\345\267@<\2712\373<\350\253\\<o\253L\274%\201\n\273\034E\222\274\032A\306<\177t\027=_\264\363\274\007\234\341\274\333\305\007\275PQ\004\274\273\302e:\234\266\235\274\372\014\221\274u\235\371\274h\306\206\274\032\337a<\362\211\033\270\005,$\275{Z\205;\374\216\275\274\313c\006=\250f-=\006,\266\273\230S\022\275\353[1\275\253\233\320\274:\3154=\302\334\n\274\000E\033\275x\361\367\274h\2231=K\r\364<\306\023<=\001y\276\274DO\225<\340\027\303<\361N6\275?\330k<\"\213\032\275?w\221\274_\212\001=|\013R<3\345\013=\330:\331<a\216\264<p2\370\273(\347\212\273w\325\007\275\370h7=\371\003\332;\372]\034\275,\245\241\274hc&=\033\\\027=I\025\373<\340<\352<\002\233\017\275\215\206<\275\020\2451=\2037\240<q\351\207<c\236N<\356h\332<\016\317\001\274&+\\\274\033\223\343\271\"\321\017\275\224u\253<\210f4<\277\207.=\317D)\275\020\235\343<+\004.\275h\036\n=M#9<7\250\316\274\252\232#\275\2352\222<+\025\215<\noI\2721O\021\275\271`\217\274\"\266\030\275\331\224\026\275\3270Q<\022[\234\274\017\345\237<}G\202\273\024\211\034=\236\323\301<\375\273\347\274\363}\003=&\314\363\2748\334\204\274\223\255\331\274\252P\202\274@&\010\275>B\377;+\245-\275v\227\230<_\307S<96\255<#\246\305;\035\024\301\272\326\226\'=\003($=N\2246=\270A\356<\214\204\322\271P\000\363<fv&\2732R\022=\207\016\316\274\216\n\332<_\270\227<\242T\013\275\364[\246<\013<\\<\335Y\222<\222\206I\2741t\023\275)v\262\274|\025\371<t\267\271<\361|6=\240\323\013=\\\304+= \305n<\304\037\310<i\013\022\275\213k-<!\237\021\275\2400\256<\237\004\314<\322\357\244\274G4\216<\344\324\246<\003q2=\337\242\177\274J\345%=\201\302\314<\357\\\035=,g\t<\327\347\255\274\216\305\253;\t\2039\275Q\013\322\273\376=\205\274S\351,\275\252\243\337;\232\3369\275\216~*=\335\267[\274\213\204\266;\273\247\372<v>\004=%F\023\275\362\315-=\267F\016\275\241P2=\326\232\352\274i\265U<oc\345<\372lw\274\231\362\377<\226q\003\275\030%\336<\375J\241<\276\236\350<\236qW<\351>\220\274\261\023\032\275\'\322(\275\320(4<8\311\030\274G\326\365<+\323\357\274\373Ds\274\354e\317\274\005A\352\272\364#\010=\006\033\301\274T\311\241<$\236\300\274\302y+\275\276\270\210<\345w\276\274\363\215\016\275I\355 \275\265H0\275,$9\275\341\207\035=\001)\357<\376I\030=\2252\353;-7<\275\333\372\256\274B\006\021\275Js\004\275O{\032=?\235\n\275q\327\230<\215i\020\274\036w\006\275\220e\351\274<wx\274\370.\006\275\257ci<\031\204#\275\261\007\210<\271$+=\317o\022\275\241\302\326<\024\252\362<X\317\321<g\252\272<\236\003\250\274\235\350\006=D\363\311;~[\024\273\301|2=\200\001\332<6\272\204;\2365\351<\311l\330;\202\236\231\274q\310\";=\247\225\274\206\000T<\014N\n\275L\n\204<\001/6=&\031)\275g\013\272<\3334\266<\330\217\321\272\257\207\321\274\361\002\274\274\234k\r=@\3172<H\237\254;_&\210\274O\236\365<\371C9=0\t8\275F\244;\275\251\026\323\274\304Y\315<_8\375\272\322\017\310<>p\026\275\304\327\250\274\352\215\346<G\302\022\275J\326\034<\310\376)\2730\243\377\274\260\346|\274\235\020\240< \370:\275#\340\023=Lw2=\225,\245\273Q~\360\274\367\3237\275G\370\336<\357\305\036<\n\014\\<\300\340\232<{\227\334<Y\037:=\233{\000=.\323\'\274\270x\2647W\223\201\266l\360\346<eW\277\272+Q\203\274{*\002=\322\031u\274\207\373\026\275?\236\316\274(\232\227\274b`\227<?a\335\274\347\'\300\272\320\322\"=\030\2344=\014\3415=Ik\224;\"\245\006=@\031\327\273y|\266\274\225\306\325<\00544\275\217\220\260<\246\001\021\275n\266\366<\363-\r=W\344\262<\022\224\322;~\\.\274\204\300\317<\357\276\373\274\021\034A<Q\217:=\001\203\371\274M<\t<:o\014\275\323\314E;H.\t<\nO1=S!\266\2749\334\r\275\255\016\275\274sV\236<J\330\215<R\3339\275\327>\002=\026~\025=\030u\370<\010!Z\274\241\232\202\273\220\204 \275%\276\005\275\336\364\372<_\2240;\324\241\204<R\266\007\275L\254&\272\252\027\004<\014\372!=*\267\201:AY\251<\312\245\353\273\202\274\010=\303\033#\275#\177\024\274\n\337\031\275\307\372\355<S|\'=D\260a<\377\252\233\272\320C\346\274\333\2742=\301\035\314<d\336\250\274\202\0219\275\306\241\000<\375\206u<\032\177\261<Z|\226\273s\3019<\004\016\232:\023\026\213<\254!~\273\005\272K\274\374\332\231\274\232\311!=\301&\252\274FN2\275\021t\234<-.\000\275\330\356\t\275\306\342\024=B\215\240\274\236>\320<@!+\275^\3472<d}\000=+\305\277\274@\2347=k]\014<9\357^<\366F\007\275\034\355\031=\363\346\346\274\227\366\220\274N\001\305\274\237\031\241<B\002$\275(W\024\275\325\001\306\273\372\271\372;b}5\275\035\374\357<zQ\031\275j\307\250<C\320\352\274=\024\034=\377\247\311< \217\277;\237I\306<\023\204\330<RT\370<f\305\"\275?C\325\272u\003\320<\243\343\221<\360>\333\274\213&\034=n\335\026\275\231\216$=*\261\003\275\201\365\220\274\t\202-=Y\3146\275\031_4\274\2263\206\274.\016\t\275O\247\227\274\215Z\204\274\240VY<\326\203\010\275T`\333\274\213:\004=\2400j<\220\337\265<\010\210\022\275\247o\'=\244Q\362<\3306\240<\023lQ<\362\245\243<L\266\'<\343\266\237\274c\225\350<\272 &;\035\366\"\274\206Oe\272\351\177H\273\202E\333;s<=\274\023m\r\275\276Ar\274u\035=\2755\315\010;\275qO\274\\\313r;\312D\256\273h\212R<\213!\304\273P\0229:\3137\334<\265m\242\274\002G\376\274hW\357\274t\026\241<\250C\236<Wl1=_\t\342<\222q\355<\254\347\212<sJ\334\274\364{4\274\254x\276;=\226\224\273\262\336\237\274\355\364$\274\027\0279=t\007\231<,\334.\275\302(\023\275\246\025\002\275:\223\221\273+W\256\273\n\201\t\275\320\257\371\273\021\276\344;\232\210\322\274\027\314J\274?w$=\375\260\032\273\312&G;\373\340O<\234\210\213\274%\277P\273e\351\037=\213>\352::$<<\364\347w:\017\255\335<[\321\034\274\223\352\204<\247C&\275\010}\273<\366\343_\273\376\036\276\274\261\307\222\274\"\016\366<\251\217\236\273- \244<\245\014\r\2742l=<(MJ<\374\303\270<\237w\224\274B0\277\273U\201\350\274%\260 =\034@\340<\301;\307<\320j0\274k\016\001\275\253cT<\327$\033\275\237\224%=\255\272\022:q4\235<\267\243(<\017\200\005\275~s\021\275\001co<\367\255 \275\010\334\255\274w\346\374\274\302\330\365\273\026E\024\275\027\242\032<\341\307\350\274\243\236R\274eh\244\274=\270\352<\340\021:=\251K\261<Z\267\217\273I\247c<\237\200\035\2756\310\264<J\024\024<\230\027*\274\272\247\341\273\252C\323<\312\362\370\274\324\227\030\274\315\300\n=\334a\010=-4\037=\274\334\367<\030\236q\273\323h\031=`\323\221\274\375\2023\275\367\216\360<\327$\353<\212\340\022;\313\275\346<h\231\013=\021\243\037<\377\3552=v\\\222<l/\243\274\302\037\373\274rH\221\273{\023,\275\2656\024\275D\360\336\274\273\261\231<\232wq9\246\021\010\275hm+;\377\271\257;v\373\234<\336\001\322<\361N\026\275\222\271|<\256%x<x\210\377\274\347L(\275\237;!\275\246B\010=q\341\013\275\'j\216<\005\275\227\273z*\321<\330\"\251<N\2771\275\010h\225\274\220\333m<\270V\033=\005\003\037\275\322e\235<\327\017\237;: <=\016\203\030=\230\347\t\274\037\000\347\274\024\264\313\274\331\277\024\275s\336\000\274\222\0211\275i;\343<:3,=U\264\271<\352\2500=\336\237\010=\2479\"=ew+\275H\271\016=d\356\374\274\r\226\026=\013\022\247<\332\222\032\273\000\374\002\272P\016\307\274\273\331T<\212<\020=\303\3272=\306\n\373\274.\356\021\274A\346\r\274u\007\321<b\232\003\275\273\265\305<\301\354\254\274\235\310N<(\007\267<\261\035\321<\002B3=v\253/=\005C\235<\360\211\323\274\271\t\220<\264\016(\274\376\022\343\274\n\024\326<\363u\n=\312\304\010=#\342\312\273\216@\035=>\310\372\274\213\350\271<\217\264\r\2754\367\215;,o#=\357\205%<\017\013\214<}N\236\274\231S\377\273C,$\275f\376\000=\230\364\004\275\327\201\203\274\312=\321\274O\2345=\3451\300\274\222G\322\274\365$\035\27542 \275\210x2\275\372\247\340\274\306>\262\273\332\361X\2748\253T<\353<\020=\221H\260<2(\300<\357\002z<\034\373\346<\030x\014=\267\223\013\274i\0002\275\204\344\350;\313H\2179\203M\026\274}U\266\274\363\330\317\274r\036\024\275\266\020S\274E\223\317<\366\216A\274\342\273\025\275q\262>\273\242\222\036\275u\301A\274\274T\027=a\347\230<^\344\321<\274\200E\274\0103k<r.\026\275(z\214<}\343\000=\303\200\"=\350\004\333\274K\236\177\272\t\241(\275\317p^<\373\324\007=\232a\001\275\006,\031=\033\337\026=\304\225\014\275\366o\017\274\331\271\226\274\355\275O\274\373x\322\274\251\202t;e\020R\274\232\025i<\350,\2549\300D!=\245\021\261\274\232A-=0\370\337<\316P\317\274\302w/\274\230%S\274a\306-=\364\310\367<\016R:\275tJ\242\274AQQ<\375\306\327<\347\371]<[(\327<#\3721\274\014\275\272\274\363\352\223<\350\271\365\274\301\244\001\275T(=\275>\324z\274W\037\023=\010\315\374<\355j\010\2759\222\277<\330\351R\274tJ\002\275Z\220/=3\354\321<!z\301\273\320\200;\275\206y,<\365\367\324<o_\234\274B\363\335<\274\n\214<\274\3117=\277\233\301\274?t\035\274\253\341\246:R\351-\275U\230\023\275Bo2<\236F\363\274#Y\022=\223Q\346\274\225Z\222\274j\324\207\274\256\250\'<\003<g\273\020\020\370<b\031\271;\353\\\211\273F\304\027=pR0\275Q\260\224<\377g\005\275\265uX\274\243\251\'=\240w\302\274\253\331\363<3\363\346<1\022\262\274uZ\232\274*\036\336;N^\240\274\235\244\232<\244P\025=\0059U;u\212\3349\345O\006\275\222\262!\274\312?E\274\353\374\014\275\374\024%\275L\265\212\274\250m\312\274!\210\203\273\364\310\354<\253\201&\275\265\231\305\274\203\317g;\025\021\321\274w\201\210:k\000\252<W\202\233\273\304D\312<v\3470<9\201\035=\315\235\255</Y\200<\357\347!<\033\304!=],\212\274\014\023\021<\255\324\330\274\316\255\3309\n{\021\275$\214\212<\342\343\316<f\360\010\274O\340\337\272\322\371\312\274\021C*=\006\002-<\2553\327<\352\374\033<A\t#\274\023\266}\274Z)\033\275\010\210z;\000P\022\274$O*=l\032\203\274O\260\202\274\"\017\251<x\356\272;\306x\302\273\010\375\354<\036\270\374\273\003\327w\274\333\rZ;-\250*\275\207\203\211\274\000\022\313\273\220\263\035<\255\354U<r<\t=\006\215&=>\303\230\274\230\262\337<\243\031\243\273\022E\264\274\271\370\007\273\337~\232<\312\257\211\274\222\3709\274\362\317\352<\006\255\360<=:\243<\326\243\023\275\262\2768=\016\253\226\274\340\3416=\217U\035<\2561s<\311\203\341\274\346\304\014\275\222|D<\372\313\n\275!\224i<5$9\275\205\314\212<\221=f<\216%/\275\375\023\201<\033\232\022\275\001\014\331\274\353\237;=G\302\r\275Vu3=W\264\272\274\035\033\t=K+Q\274H\234\341\274D\n==\251\006\217\274\316W\310\274f\316\251\274:\016Y<\343\t\275<\314\206\326< 5\275\274\366\312\334\274\334\350\316\273\205L\351<\376I\221<\333\2228=\030\344o\274K+\320;E[7=*\205/=\354v\230<U\027\021\275+x\251<0\2233\275p\340\313<*\352\336<\216\343\251\274V\230q:\000\310}<,\201\013=\326#(=\307\201\026=Q]2=\2248\206\274c\253\036\275O\310\265<\253\255\224<f)\347<\221\321\215\273\t\253\037\275\250\342\010<\305f2\275\331\200\363;\375!\'\275P\246\345<Wx<=l\004*=v\330\257<j\201\343\274V\366\212\273<(\000\275=\'~<\177\007\301\274\n\275\213\274\304w\022=W\037\306;\367\271\220\273\215|2\275\213\361`<s\256\366<\257\251\016=\037\351\341<<}U\274\276\215\002<+\365s<\346%\032<ME\010=\235\342\362\274q\274(\275\337\016\215<\023*\213;#\017\343\274\213\"r\274\251\202\355<\361c!\275\024\031\004\274n\242C\274:JL\274[R\350<{\267v\274[O\264<M\017\367\274\330\216\010=\376j\234<=\245\006\275\330\303\031\275\362\272\303<\323r\025\275x\2154\275\262c&<\270\363\361;\327$\250<\264\355\212\27478\000=\217\277\266\274\212\354\204\274\202\262\004=\245E\273\274\345\246\t=\270,s\274\364n\254<i1e\273R\351\'=o\347\344\271\215}\225\274v\245\034=_\324U:\026\352\300<\376\362\r=\275\244\313<N\037+\274m\350\374<0\251\233\274\243\016\243;qu\360\274c\355\n=\363vR\27402\246<\365@<\275\327\033\'=?%\302\272(\331\031=\3517\327\273V\337)\274\316V\254\274\374|\035\275d\237\215\274d\351\331\273\253v\222<\003\252\270\274|[\321\274\340\351$=\024\337\215\274+\030;\2751\017!\275<[1=\003\344\032\275\\k\034\275{\214\003=1| =\022\326.=M*;=\211\327\251;\257_7\275\214=\352<c\016D<\265S\027=\377\334 \275\231\032Y<q\322\250\274IY\323\273\323v\377\274\ti\2069@h\n=9\370\210<e\260\207\274\250\2712=\353\271.=\016\023\342<f\327\307<\274\334\032<B\004-\275Q\277\312\274\275\331\242\274\3265\270\274\364\034\004=\34377=2J[\273\342k\036\275\376\032\224\271\373KA\274\352\265f\274%\010 =9\362\377\274\n,-=\270l\346\273\2268%;X:.\275\265\325\310\273l\345\275\274\321\352x<\322\023\300\274\221f-\275%\254u;}O6<\213\242\237<A\367\240\274\227v&\275\034P\023\2754F\317\274\341\t\320\274\254O\246\273\031\237\315\273S/\027\274\346\300\300;\010\271/\275\243J\"\274q\361\367\273C\304a<\262[\315\274.\335\t\275<r\243\274\346\330\372<\035\016Q<k\360w<\235\363\n\275s\237\250\274I\004\364\274\271>\267<3\345O<\266\237\'<\025\264\t\273\3241/\273?)\031\275i\355\003\275\003\204\t\275u\\\235<\326\020B<1_\271\274ZI\230<;\347-\274\032\345\035<\330\372\354\274J\0327=hb(\275\020\336\315<\355\010\007;t`\336\273f\336\372<2\213\365\274}\323-\275k\300\366<\026q2\275NF\213<\360\203\034<\260\320\036=\204\324\007=\342\313\326\274\233+\321<j\254\177:\223\313\n\275\3202\003<\240\350:=\211:\371\274\004\337\t=5\"<\275p\206\371<H\025D\274\023?/\275|[\357<\374\266\032\275n\001\306\273>\345\264\274,\3150=:\316\322:\375R2<U\214\246;\002\271\007\274\021\300\260<S\256\303\273\325<\n=\260t\300<\200\251\004=\375\323%=\010\255\277;\356\034\255\274F#Z\273R0 =y\3331;5\257\254\273\273s\'\274Cpu\274\243\006\350<!\203\236\274\341r\227<\032c\233<\301\360\334;\202\275j\274\215\2537=<\3414=\351\356\276\274\r4<\275\000\\7=\010\025\217\274\321\331\230\274\202\362\303\274\234W\357<j\217/=\326\200\037\275\377\236\231\274\215\232 \275\226BH;0b\307<\305\236~<\2037\344\274\250\306\001\275\243\333\345\274\016\271\353<\210\"\355\273\313\244\240<\004y7\273[\024\022\275\372\\6=h\t#\274\205\355*=\360\3710<F\000\023\274\201\315\014\275)\342\034\274?\006\362;\207\345\311<\332\361\005\274%{\024\275\304\0305<\267\240\035\275My\002\273z\000\250<\025\213\022\275\206\336\021=\t_\013\275d\221\347\272\214X$\275\332\255\215<\246\231z<.\227!=\210\0234=+\352\246<\365\0276\274)\231d\273.z\277\273\233\214\365\274n\323/=+`\016\275u\002\347<I\020\367<+\221\215\274\006\271\243\274}{\225<\236H\324\274\355p\260;\'\212*=\324J7:\336R <to\014\275\261\025\316<6\313\301\274\244f\003\275&\020\017\274\030\300\210<M&\014\275\013\206\322<\333\3112=\2425\205;\266\264\355\274\205\254\374\274\355p\013=\377\"\223<\351=\303<\364\255Z\274\350\027\342\2741\304\n=\347\314\r\275\377\367%\275\026\241*\275b\271\207<\003\306?<DJ\177\273\177Lu<Pe\343<\344w\330<\273\031\027\275\3458\372\273\270\352s<40\367;P\274\264<\247z\225\274\320\255%=\235\257\340\274r\357\317\274uO\325<\265%\277<\214\330\365;\300/\201\2747\320\234;\224\006r\274\270\373\321<x\223<=\200s\220;\331Fh;\367\313\004=w\333\244\274\024\214\026=m\267\236<\014\365\367<-O\"\274\275t\177\274~\362\204\274|\234\267\273\034:\017=\030\313\255<\305\357\005=\036\202\021=\017V\232<mG#\274G\260\010\275\365J/\275\021\370\035=\\\237\014\275\270\357\006=$\220\333\274\257\017\250;\334\305&\275\365\211\353;\375Pj<GF!=3\220\005=r\325\003\274H{\266:E\201\r\275\357P,=\312\211]\274G\3714\275\036\373\346<\245\005\023<\245\0232\275\325i\026<\356>0=cE\025\273\005\363\n<\314\356\'\275f\307\356\274 \245&=\240\006P\272\231\320\324\274\301\023a\274>\217I\274x\251\212<\366{\035=\nR\022\275\271\240&=;\230\"\275r\303\'\275\275y\324\274\327\355\355\274\253\034\331\274\341J1\272vB+\275\255\266@\274\264\3662\275\247\357\240;\344\235y:q\001\236<.-t\273L\004\024\274=m\023\275VT+\275\002N.\275*\261q<\224r\201:\332;\"\275\302\362s\273}q6=/\036\312<\357U7<\311n\216\273\355\317f\274\364<!=%\230\037\275\2366l\274\010\nD<\332X\332\274\230j\246<\350,H<F\352\265<\332\037\363\274B\212\217\274K\231\277\274)HV<\264G\365\274\374\3759=+\241%<\017\205\334<1>\033:S\262\000\275\260\341$=T\271q<\270\247_;V\2557=\361\337\223\274w\230\247<\233\336/=5\333%\274z\321\303<\351*\376<\225Y\177<L=D\274\336z\232\274F\327\345;\364kJ<\270\273\246<\200\013\373\274\344\227\343\274\262\360\004\275\021\266\006\275\227\242\'\275\243Zo\274\320\233%=\370*\243\274\325\231\206\274\234{\212;6\014\210\274\026g\264\274\222\276\254\274gA\234<k\000\276\274\274X<\274\253\335\322\273\371K\360\274\266\025\236\274U\326\324<<\201\354<i\346\232<\302\017\277\274\013\241\014\275=\321}<\256t\202<\331\260\366\274\247\341\016\274\231\215\373\272\022\260\225\273\331\0353<\362\004\271\274\023\324\301<\205z\364\274}\005j\273r\020\"=s\n\005;\020D\023=H\364\032\275D@\033=\245\277&\272\3331\242\274\372\237\363: p.=4w\231<e\177*=L\032\032\275\233\253\223\273\324\224\201\273n\014\327<j\326\016=}\007\022\274<\247\260<\277\366,=\003\271a;\313l8=K-\224\274\236\277B<\364=\261\274XY\307;\306JF<!\250\230\274\"\245\234<\276\254\357<\246\024\275<2\332\025\274\"\326\t\275\360\"*\275#]\033\275+\275/\275\357\017\360<\203#:\275\200\225\300<\007)0=\222\203;\275\245\3769\2751\275\253\274\375\177\300;Ff\232\274d\344\205\274\261\305 \275\204\351i<\217\266\206<\376y\200\274N2\377;o\273\275\274*p<=Vj#\275\352\013\237\274{P\035=\010\244\327;\341P\212<2\237\360<\201\212\003=\024\237\331<X\332<\275\264V\211\274\255\004\031\275\332\330c\274\r\202\360<jF\347\274\360\373\343\274\330\241\360;\003\335\320\273\371\0133\275\337\371\030\275\031l\215<u\210\t\275um\217\274\375y\254;\367?R\274\346\313\331<\360\305s\273\326e\263<\013f\320\273v\277\023<\242y\206<K\007\377\274\323\003\354<\265\016\317\271L\037\313<\236(\022<\240\332)\275\207~\230<\002E\221<\007\223\353;\020\200\307;`\363\317\273\335\300<=T^\226;\350\303\020=\201&\310<\2514k;\204.\347<G\374\001\274R\3509\275\221\255-\274\216\0244<b\326P\273C\023=\275X$\016\274L<\333\273\275\243\010=\272P[<\"\330\370\274\300\2300=\240h\033<\002tg\274\217\236\030\275!\037\234\274\347\362\314\274\340\275^\2748O\354<\330\350\020=.\217(=\325e#=!\007\321<Gt\317<\1778\212\273\235\001\377;\214\342$\275\223\370\331\274n\235\236\274@y\206\274>+\243\274\230\352\360\274n\007\255<=*h\274{;\001\275E\306\323\273\234\022>\274\260\206\234<\2554N\270\276\267\254\274\347$\031=\023e:=\306]:\274@\206\277<\227\341\367<\037p~<\005\2671<3\306\301\274\034\033\030=\253C\017<\227\330\002=\226\232r:M\307\272<wA\227\274-~\027=\212\221;\275\313\010\276<\371w\334\274\233\224\255\274\253\340\326\274Mm\r\274N\236\241\272\353\002U\274\010\026U\273\300\325;\275@\026\334<x\236M\274sm\021\274\255x\300<\260\332\036\275\333\016\'<\374\254 \275V\245,=%\365\213<h\246!\273/\332\020=?>f\274\201|\276\274\270i#\274y\3346\275\225\340\301\274c\262\347;>_&=\361\331\375\274yP\027\272\016q\034\275\032\367\036=N\254.={\363\240:\332\331\025=\231y\370\274A\220,\275K-;=\000c\322\274\365\306\347<\322\223\333<\254\2552\274Kc\250<c\270\004\275P\n\306<\273\177\327<O\255-=\240\253\220<\334\221\037\275\316\374\307;\216\3768<\355(\361\273\377\tI\274\257\321\266<|\353\024\2754\352\031\273\206\227\037=\333E\036\274\024\244\303<2|\352\274|1S:4\361\303\2749h%=T\356<\275\274\326\331\274b\035\037=\255<\031\275\t\336\"<\007\030\226<Y\300\376\273\032E4\274\r=4\274A:g<\264\013\270<b\273\303\273a\315]:\327\242\030\275Jcx<\332\'\270\274S\331+=+\267\276<[\302;\274\362vH\274\300\212\217<]\013)\274\210E\026\274\347P\035=4\027)\275r9!\274\264\r\016\274Sj\323\274`\207\245\274\330!\036=u\301:=P\354 =\n\2702={\347f\2742\220\200\272j\310\034=\311\346\320<+\376\020\275\007q\316\273\3702\204\273F\265\356<$\212#=!\250p\272\350\254\031\275\327)\365<L^j\273\213:\360<p(W\274\005/%\275S \203\274#\342;=#\177\002\275\\{\006=\377\340.\275\345E\004=\342\347\323\273\220\232-=\351l\t\275\200i\006<\307\222\n=R@\021=\360v\033\2752\3553=\353M\354\274UF,=\336l8<\302}\377<\344\323\033\275+\033Q\273%\276\214<\317\271\337<\003w\014=tAo<2\252*=\215\3349=\232;y<\230\266\262<3\327\266\274\252\270\323\274\026D\240<}\254\020;r\nh\274\217\243\024=7P\017=:L\014=\230b\204\273\321\270C\272\213\276t9P%><\213\354\270<\312-\n\275\350\337\030\275\252_l\274\314\330\005=M\351\245\2749\366k\273\347\254\325\274\200\0275=ar\356<w~\213;\034k\276<.\362\"\275\206\300x\274UV\241\272}J\232\273EG\376\273!\323\337:\312/\025\274\304\013\324;\225T\016=\376)\306\274wyO<r\220(=\007\263#\275\223\245\242<\335nj\274?\343\021\275\025w%\275\3623\256<\0160\016=\376\3547=\244\251\n\273ge\'\2755h\n\274:\005\327<\334\247%=\246\241\303<\341\030\037=\270\022\273\274D\212\037<J\356\202<\326\263\377<g\312\374\274<*9<t\343\016=\337\332n\274B\276_<$\203E\274\253!(<\316\215\037=\273E=\273l$\325<\215\211\247<\036\237\307<\353\277\354<\210\345\006\275\205\260\021\275\340\223\235;\276&\306\274g\215\025<\330{\221\274\256\233\"\275L\224\344<\262\366\t=\326g\263\274\353\241\006=\303\265\323\274\340\007\266\273~\366\242\274\341\330$=\276\335\036\275\246<\253\274m\274\000\275\033\270\307<J\240\361\274f\203T<\021:\370\274\301\336\274\274K:8=\275\343N<\376s$=*\300\031\275\351\200D\2749D\225\274\273\360\006=\215\3470\273O\336:=te\266\274\362F4\275\021\222\271;\'\026\273<(\0237\275\002\341\276;\370T\225\274\213\316\264<H\2663=\346\370\245;\354ZJ<\366@ \274\373c\022\275\253c.=\200\303\'<\301\314\023\274@\271\212;M\247\014=\023,\335\274\'3\200\274\021\3103<\233\243\263;\273\362\315\273\002T%=\257\370\310<V\3462\275\355\331;=\036\t\026\275I\327\275\274\374\317\351\274\222\311a\2742Wi\274|\034\346\274m25\273if;<\244\030\307\273\222\222\036=\234I\216\272\2520\250\273\020\321\326\272g\025\010=\375R\372\274\264\n\037\275!\336\211<;f\264;\"S)\275+\036\000=6p\212\273\267~\372\273\020\316z\273\r\r\346;\264\236\363\274\345\177&\275Z \027=\231\031.\275[Z\361;5\3517\275945;\311\336\365\274oi\006\275\223\205\303<@\226\032\275x\"\331\272\247w\3539\005\034\005\275R\364!:!)\205<\010\335\027<=\3446<M\225\0219\266\344\224<C\235\274<D\036\020\275\347O8=\2255\322<\315J\354\274\037\3606\275\352q7\275j#\023\275\261\231\205<\214\3401<>\223\260\274<@\201\274\010V\006=\206Z8<\027\365\022\275\\\2738\273\240\000\346\274\nn]\274\302_\035=Ed\001\275\231\227\220\274`\020\365<\252\3431\275\023\311\245\274g\004j<m\355\t=\242EZ<\317\333\t<\007O\227\274\271\212\341:*@\321\274\rx\020\2749\2662\2755L\003=Bt{;\"<\261<wV\236\274q\242\254\274#e\004\275\244\316\031<\306\376 =]\027\332\274\3435.\274m\350\352\274\266\325\213<X\346\027=\315\016\363\274\001\263\320<\215C\262:\240\305\014\275\203\032\200:\371\354I;\332\r\233\274\'\3072\274\330\261\034\275P/a<\037B =\3278\270<\323\206e<\341ml\273Y70=x\300\355;\211?*\274\000\247\n<+\373-\275\322r\253\274\006\242/=:w\266<;\212!=%\350\235:\t\003\370\274G(\375\274\035\244d\272,\331\375\274\025\000\271\274\362di<\255\366\030\275x!4\275^\3125\275\"\231\213;\000\220V\274_\251|;\034\235\343<\367\030\214\273\226\230E\274\361\257C\274\270\032\022\275\n\251\316\274\016\263\327<\254\236\250\274=\3123=\tN\006\275\201\373\201\273K\021\'\274j\334\t<S\2261=U\323$\275\307\010\013=F&<;\217Ft<\022J\315\2747\234\253\274\323\260\022<M\207\217;\211P\214\273J\271\003\274\222\225,=\250S\305<\031dd\274\357\254\260\273#\036%\275\302\230\275<\275Z\335<\006\305\201<C\307$\275zw\241<\200\237\372\273\226L =\363\273\316\274\270\0068\275\002\214\344<\026\220\003\275\363\263\207\274.P0<j\'\267<;\255b\274\221\006\"=\300\363\014<\230\241\336\273\026 b<\371\007\017\275\364\007(\275\272I1=+\255\274\274\017`\200\272\325+\302\274\335\252\0179\331\345\035\275\216\342\033=\224\031\375\273=-\206<\014\000\347<\177\371\217<\363B\030\275\364\344\210\274\006\345\r=\n\013-=\334\254J<\211\017\020\274\356X)\274\340\352\234<\242\221\016=]`2\273A\376\300;p\262\203<\275v%<[^*\275K@D;\20480=\0171r\272\212E\356<\026\366\217<\324\333\224\273\325\3506\275#3k\274\244\273\333\274\014v\016;\252\370b\2743[@\274\365\352\337\274\332\333\031=\035\235\013=q\030\300\274q\365\205<\207T\324\274j\332\336\273\363\346W\273\270h*=\"\2560\275\027\330\017\274A\367\353<\263\n\016\275\254`\'=\301<\001=\244U\337<\021\241\260\274j}\332\274\001M\205\273Q\2436\275\236\212\007=\373\005\t\275\016A\367\272\025\375H;q\363\013=U\014o\273\264\007\023\275\302\023,\275\030k\305<t\001\022\275\272y\262<\022,p<\373\215g\273\330\2101\275\300N\351:\254\246u<\032i\361\2743u7=\306\210p\274\013uR<\020\367\007\275\320\252\021\275\365\317\332\274h9\332\274\274D\354<\351\0247<X+5\274\234`\237\274M&\241\274r\320\217\274F\360&\275iX\236<\226\273\r<\334\226\357\274v\332\367<{\317\304\273]\213\353\2738\302\357<S\212\002=$\215e\2744\021\006=\264\r\271\271\306L\306\274\016n:\274\260WH<\237\340\031\275\215j\005\275\033\250m\274J:\314<\246-\222\273\362Q\307\273d\003=<\365e\262<>J\221<\007\010\304<\276\225;=\032\020\212\274\353\'\215<P\2611\275\024E\"\273\351\024\200<;\032\347\272:\036\201\274\244V\340<?ds\273\251\010Y<\2433<=\316\335A\274\362\000=<\363=!\275\313\340\016=kdl\274\010\2720\275pr\370<\013\350\346<\356,\002\275ba\356<\352\337\030=4\200\020=\001\004\262\273Ou=\274\322\030\201\274~\307\333<\226\233\210<\213?\3779\203\342\372\274\240\364v\274\231\345\034\275@\375)=l\277\330\270\326\023\360\274\234,\032\2756xW<\231\246\323\274\332\243 \275\260\302\021=?\364\243<}\205\032\275\257Cb:f\226\271\274\301\272\344<I%\006=R\3238\275ie\343;\203\214\204\274p\263\224\273\004\273|\273$\256\010=\300\033==\227*\344<\"\237\002=\355\306#=\000l\220\274\357\327\005\275\247-\364\274\302a\352<T\254\251<\023x\006\275\031\251J<\302\313\212\274\204D\347<\35745\272D<\213;a\253\247\274\3508\277\274/+5\275\022\203\322\272\034\352)\275$l\005\275\225\201\341\274\204W\030\274\375\273\033\275\022\357\265\274\373\300\360;I\276h\272\177~O<\272\026\210<\256\201\254<\363\323$\274\372`\005\275\340\215\370\273\237\033;\275_[3\275j\270\020\275\370\347\017\275>\253\007\274\034\000\026=\345h\370\273aGr<\247?3<\207\215[<)\371\265\274\177\304\357\273\246\233\332;\3001\220\273\260\t\223\274%\0264=\322\374\030=Z\007\030\275X\013\006\275%\202\300<\355q\010<\227z\302\274^\032\265<\301\360\313\274+\032\375\274\231\311\006<y\263 =\3147H<o\243\356\274\3075\223\273>\322\333;\274O7=\265\222\342\274\023\013\220\274\300\031B:!\034\214\273=\222\262<y\255\016\275\333\036\342\274w\266\243\274&\331\233\274g0~<\344\246\034=\007\004\271\272\354\360\221\274\014\2035=\331\237\327<\031`\250\274\225\022\027\275W\010\201<e\001\r\2746\242\226\274=;E\274\221F+\273\264D(=]cY\274\037*k<v\205\021=\365$:=\311s8<\340\020\365<\225\003P\272\021\365\322;l\377\310\274\330\230R\273\203\266\010\274\216\331\200\274\377\226\250<\031\254\200<\215\225\204<\353\224H\274\"\3267=\034u\023=\200U\014=)\323\232;\205!*=\227\370\034\275\215\370\031\275\001\"\255\272\275\2071\275\363!\336<\314\3622=UG\251\274*h\022=\250*\'=Cc,=\254\364<\275\237@\277\274\355D\304<\3332\352;Bxg\2741\317\216\274\000\373\005=6\335\036=\340x\352\274\020 \"\275I\310\260\274\361\354Z\274F\"\"<f\371\022\275\027c-;\335`\334<\345\022\225<\232\211.\275E\340Y\274\210!\234\274C\207\016=\334\005\352\274i\245\221<\230\341\224\273\033\220Q<\273\032\341\273E\307y<\352\224o\274\363\357\323\273\300\342&=\324\255\010=N\262\372<\233c\004\274;\302\033<\352\004\376;2z\026=DV\357\27499\t\275}\332\270<\022\325\275<\347\216#\274\270\007\201<j\340\026;`\334\017\273\030\366\000=\303\252\236<\234\2655=`\2438=\335+=\275\333c =\333\035\264\274\215\'*\2757@5=\033\031\023=\000\313\0258\231P\265\272NX6\274\261\266/<\361,%\275Z\3161\274\366\237\013=\034\302\220<\374\333J<\315\023\370;\343\225\240<\223\261\326\274\334\017\213<\310\224w<qv\357\274O%\216<\202\226\223\274\244\001\013\275\203*\227\274Y\177\020\275\271J\252\274\266\032\365;\233\243\214\274\376\035\364<Jw(\275C \007\275\334y\207\2748`2<\302e1\275r\341\\:\003m2\275\200?\361<\213\\\005\275\375\234\354<\303\024\007=\307\243\2369\232\361\330<oA*\274*6\327\274\205&Y<\315\024;\273\373\254\333\274\316\263\001\275\235\2461\275AS_\274\260\315\323<\242\"\230<\325\357\316<\271\200,\273?\0177\2755\3308\274\024~\276<\203%}\274\316/\236\273\007\374\255:$\216\036\275\303\216\227<2\305\236<\344\370\270\274\374\370\356\274\344\252\"=\375\236\004=,\335_<\343\272\036\275\325\371\300<\236\246\003\271\207W\333\274/\303/\275\214Q\230\272\266\022\214\274\351\036\013\275M\304\007=H\005\"\2748{\221<\360\236T:\300\377\227\272=X\241<H\314%<\256\201\240:\225\245\004\275\277s\231;(\233\377<\362\230\301<h\344 =u\255\232<|\302G\273\345\321\023\275\263L\022=~\333\021<\265\327\375\274O4\232<*\255\343\274\311\216\363\274\207}*\275\246\263\'<E\204\353<\22246=\230\204\035:\215\256\023<S\375\316<\216L\343\274xR>\273\177\232\310\274\265H\264<\004T\361< \216\357< \024\004=\333\"\032=\270\2658\275hC\003\274s\3245\275\332\366\002=R\261\"=5\236\000\275\344\222\243\273\347^\007=\006\343+\273/\254\252<r5\003\274:\310\306<\007D\010\274\200\212\320<\2266\023=c\007\017\275c,\261<\332U\022:\217V\004\273J\342\341<\254k\357<i\374\276<Rv\333<N\324\020\275\322,l<\274\301\'\275\200f/\275-.\204<\215\341\305\274\3565\020\275\030$\242<M\376\t\275\330\357\000<k2\340\274s\225\233\274\203\204\023\275\030\257.\275u\353\333\2749rH\273\233\226\020=\371\272\275<ur\374\274\360\035\210\273\227\035\252<g\032\253<\016\'&</\027\003=/\362\031<\234\241\322\273\246\001I<\271\351\275<h9\316\2733\204b<D\265\336\274\247\337\222<\020&\237\274\267\212\206;\202/$=\022\004\244\274\334t\360<#+\227\274l\001C<\227\232\027\275\rW_<\211\036\353\271f\303\220<\302r\367<\305\302\022=[\212\034=iI:\274m\003\362\274\036\307\212\274\366\210\001;\007- \275*\272\344\274#\331\035\2752z)<\220\240\017=\345\306\317<\272\206\220\274\350\006-\275%\350\257\273\230\341@<\t\t\'\275mV1=\206q\205<\274\357\005\275E\002\260\274 \330\212<\245\324<\275\202\306*=\323\270\n<\354)7<\367\230\246\274\230\370I<\243$\306<\332\335\352\274J+\030\273\201F$\275\375\322\031\275\314=\016\275\307}\370<Q\262\037\274\325\332\325\274\t\3753=\304\363\355<.\277\006\275.\207\002\275\026\303+9l\255\t\275Is3\274H\357\001=\252\032\";\241\327\226;m\335\324<\260\266\035\275\240\321^:Q;\350\274\271j\003\275O\364\332<M\240\036=\242\206\002=!\337\343\273\340`\216;\034\254k\274Zs\236\273\014\035\273<\375\317\016=1db<\361a\273<\275\013\026=\251J\313<\322F\341<\326\220\301;\217N\001=\3748p\273%\214\205<\'\233\207\274U.\"\275I\001\327\274>6\301<\262r!=(*\226<\324\331\375\274u+6\275\325\243\014\275v\257\335<\2772\314<)\201\351<\24063\274\353f\235\274\344\236\346\274\021\242H\273I\030~\274A\2767=\231v\014\2756\n\263<&\311\316<\343\235\010\275\246\231%=\027M\001\275>\221l<dk=;`\315S;\271P\221<\242\2158\274.\214c\2730>\030=e\234s\2747\221\306\274\303\270/<q~\270\274\215s\307<\"\n\022=*W\333\274\205\362$=\257\3315=\307\375\005;]\343:\275E\202\300\274\005\034\017;e\266\352\273\376F\034\275&u \275\331\000\021\275v\313\216<$t\220\274\000p\210<:\275\232<\334\207\236<\213]-=\317\021\030=\230\232\022=\014\003\230\274\024|*\275VD\304<\312Z\t=X\271\266<V\221\n=\323\0231=\037\0021=\205\023Y<\253\366\371\274\032\315\022\274(&\264<\\\2179\275\205A\350\274I+!=M:0\275\t\270\001\275r\311\267\273Q\3412\275\370\346)\2743\356\243\274\250,\014\275\322\023\336\273\353\0040\273 \025\373;\2050\253\274\332\333\215\272mB\r=\243\302\332:\313\257\364<\001\023\272\274\272Bh\274s|\034\275D\016\206\274\256\314\267\274\264\371#\275MQ\010\275v\303\212<\305\307\355\273\n\213\021\275u`\315\274\212\375\225;}\373\324\274\223\240,\275!\367\271\274\013\224M\274\371\370\027<\212\001\022\275H\222\322\274f\305,\272\244K\316\271\024\207\013\274_\3716\275\363\277\266<-X]\273NR\255<\3255\016\275\026\371\255\274\221\212\260\274_\021n<\037\0145<\013f\"<\244\245?\274\003\374\374\274\341\036\021=`\267\212<\007\3604= $*=L\225\220\274\006,\3179\217\001(\275Z\256\224\273\007\324t\274\025\232\007\275\264\035\036=%N#=\177\313\354\274\005k9\274\362b4=3cr\274\337;\017\274\246,(\275r\367\357\274\374\232=\274 K0\275f\'\201\274\233\017S\274\365<\003=m\032t;~\257\300\274\373\356\320<EW\222\274i\016,=%W\376<\243\201\002=\223\330\357<l\334\022\275\0014\n\275\363\262?;\335p\375<\363\307\200\27408\330;\261\355\344\273\3739\226<\310\306\326\274.\037\301\274\231@z\273v\2023=:\3175\274#VQ;[\324\345\274LX\037=\350\003Z\274\313\300\310\273\234\"\306<y\020\252\274\017:\226\273 ^=\274\033\250\023=\224\026\244<\346\320\005=r,\005\274\371\005\266<\363p\337<%\2075=\374\222\267\274Y\341\r\275\035`\013\275\205^,\275\220\027\035;\267|\211\274\254\332\325\274\317\345&\2754\377\254\274\271\353 \275\345W\304<x\221~\274\376\257\352<H\226\004=jA\371<\377\255\370\274\034\363,\273\275\260\275<z$\001=\002a2\2755m\221\273\276\262\210\274\'\2257<.J8<\265\037\354;n\336\032<\t\264\000\274\352D5\275\202\306\257<\256\003k<`\313\316;\344\266*=Rir;\354\2528=\227\251\254\272n\353\026\275\255p\n<U\344\025\275\203\224\262<cM\227<\034\333\275<\270\333\334<\223\360\320<\251\322\030<\373!\327\274\332\320R<\353q\t\275^2/\275_\213\n\275\274\321\035\275\333*X\274\016\2402\275D\206\346:LB\002\274\271\235\341;\341\016X<\260\002\203\274\262\004\370\274<\027\257\272\245]\266<\337\3624=HLQ\272R7@\274\321?5<\332\351\003=\024J\"\274\300\350(=\310g0\275\343\037-<\227d\003\275\377To\274\331\347C<[\r5\275?\n\326<\226<\277<\356\022\213<\320\262\354:D\024\021\275\376\273;<s\353\307<\215S\030=c9\315<$\261\233;\362\246\223\274\022P\017=p\01739\247\002.\274\324?&<\211\246\270:u\253\271<r\214\252<\263Y\271\274l\342 \275B\324\006\275=<\317\274\027\236)\275\251\2420\275\345\354\004=\260\r\'\275\225\'\022\275<\367\241\274\375\204\036\275O\376\237\274\361V+\274\007J\206<\345ze;.i\013\274\266\343?<\276\274\250<\302l\016=A\030&=`i\301\274b\237\367\274k\365y<\312\034\213<\300\253\254\274\207\3062\275\035\027\250;\345\213#=o=<\275\356\0238\275u&&=\203\260!\275\273\243\316\274\247\275\353<QV\322<:\006\203:\363\001\024\275\2063M\274\034\032\265\272l\\\322\274\206\240\024=y\210\354<A.\215<5-+=2q\030<I\341\036= \310\025\2742X*\275\221\025\000=\366\3219\275\316O\364<~m\333\274W7\326\274\035%\216<\315\200,==\321v\274\273\214\332\273vp\333\274\277\354\236;\",\267\274U\037l\274\022\2631\275)\357\007\275\224r\014=\225s\343\274\'\252+;\227\333\373\274ZJ\002;W\3331\275^W3<\037{\372\274\370R\032\275\327\321\203<o\263\237<\260<\201\274\rk)\275\204G\302\274/\354W\274r\372\024=Cn\000\275\303p\014\275;c\316\274+@\356\274\327\007\376;\264n\256\273\265\277\266\274\230\331\251\274\035P\r=P\014$=\307\304\206\272\356\2173\275\335,\330\274p`t;\332\313\375<{=\232<\352\3404=\021\203\241<\343n\034\275<\034(\274\247\251\376<a4\025<\030\247%\274#j\324\273B\364 \275bk\010=D=\347<\002\206&\274\214\270\035=<\207\013=+\263\374<w\371\250<D\375)\275\r,?\274\205\021A\274G\316\213<\304\217\237\274.\3509=g\001r<\032^\022\275Q\354Q<\272lv<\006<7\275\315\357\222<\265\030;\275\026\270f<,\273U\273u`\267<M\356\021;\r\226\032\273\371\203]\274I\234\321<\313Q\036=\213\222\306;]o\203<A\003 =,\320a\274\376(\025\275\240\032\023=\t\033\221:\333\264\221\274\027\030\211<XA\222<q\020\007\275\306\300\307\273$\345\272\274\216\370><\212\367\r\275\031\032\360\273R\357\202\274\276\t(<\240\364.=0\020v\274\203\241\021=\332\373\230<\014\337o<\246\0363\275{\023\r\275\203\216\310<\377\346\267\273\252\316p\274\224N\036\275\347\003\037\275\3060\031=m`5\275;\264F<\016Q\024=s_e\274\234\310\242<I6\007=w#\024\273\007\214\257<}\033\200:\245\'+=\206\354\361;\351\215\374\274\251x\355\274V\272\007=\373\344\267<\227E\245\274a\242\312<P\320\216\273\0300\366\274a\0303=\010\375\332\274\0235\t=\024\331\006\275\326`!=\310C\n;8\013\320\274C\273Q<\265\230%=\302\202\307\274\226\366\331\274\233>\302\273\032r\235<35\323\274q\025\037\273\306\245\002=\320\232;\275\243\265\257<\352\212\273<}\216y<Xn9=\327\366\206<<G\276\274\213\340(\275\031_\330\2749a\324\274\261\020\014\275\332P\036\275\002\350\t\274\302Y%;+^\222\273\361]\357\274X\373\003=\374%\370\274X\314\034\275\254\206\246<n\367^\2743\231\367<\274t\244<\256\013:=\225\242n\274\037\304*=\377[8=s\262\307\272\324\230d<\256V\225\274I\210\013=41s\273~\225y\273\240=\271<\311\377/=\334}\001=9v\"=\217\350/=\363\347\336:\223\365\"=+3\212<\330\361\021\275\364\002\035=v\220\255<v\234:\275\247\233 \275\311\232\200\274\336GM\2740G\352<\336\334\342<G\271W\2741\343\t=\206\026\373\273\321\375E<\352`\271<\307\r\272<\"\204%\274\356=`\274x\267\214;\345\334 =)\001;<\207\023e\274=\212X<\263\032\032=\262\265)=\355\2743=I@\330\273\nL\024\274\354\247\311:@\260\226\274+\355g<O\246\212\274\345\264\302\274\351\333T\273dk!<\2475\263\274%\225\223<\017\262\241\274\346\326,\274\025/\270\273\250\207\000\273\356\317\355\274)c\013=1\256\014=\n\361\241\273\0108\327;\374{\n=\202^g\274\023\362&=\255\032f<\222\001\373:d\363\220<\216ru\273\241})\272\330i\321<\2350a<\337\017\036=\306\242\335;\2511\264;\247b\331<vG<=\354\251\007=\374\213\243\274I\2619<\207H\003\274\272\254\254\272\250\334%=\267N\036=h\210\247\274\271\0323=\273\013c\274\004\371+\275\206UN;\360\3322=\227\207\005\275wv\t\275\252\221\252<\250T\007\273a\341\214\274\036\202j\274\341\257\350<k{\327:\3149\037=-\376g<\347\303\255;M\260$\275\211\315\304\274\027\240\214\274\230m\031=\n\3664\274\325\274\021=\032\361\273\272&\274\022=\2139T<\0206\330\274R\222\306<=77\275\343\365\313:\233Vs<\247B\330;|q\022\275J\347\354\274~\314:\275\242\325;=\304\343\204\274\367\273\221\273<U1\275[?\366<$m\366\273\314\302\007\275x\321\324<\020\261\332<j\233\205\274\236\301 \275=\362\230\274\242\353\273\273\3644\021\275\311\2632\275\262\336\024=Xj\017<\307J\222<)\227\213\274W\372\017=\007\200\267;\230i)\275\364\301<\275\353\023\334\273\001\323-=T\316\034\275}\225\n\275\201\376\230\274~\265%\275\245\354\"\275\035\322\026\275\005\241\323\271Y;\013=\007\374\250\273&$\022=\263\340\251\274\035x\304\274\241\024\013=\223\343\032\275g\301\233\274U\0214\275\005\277/<*>5=U\233\206<\323\030\"\274}\020\307<\331_\r\275|?\250\274\353\3475\273!\2118=@\260C<\263\246 \275\354\255\323:\303h%=}\3759\275y\363#={\273\227\274am\007\275\030\331\230<~\0176<\303\320\367<\010\216\003<\304X\375<%\331\033\275\020\023 \275\206o\027<\213\3305;\273\255\006\275G\252\350;x\274\336\274\211\211\265\274\006\252\017\275H\224\007\275\001\013,\275%\016#=\374q\376<-d\017\275\265}\3069\216\031K\274q\345\014=9\246+\275lg0=\223\226\244\274\267\372\021=c;2\275}I{<\301z8\274I\217\376\274f\001w;t\315\246\274\225\326\217\274\372\314\376\2742\245\325\274\004\231Q;\237\200\354<^\371\274<\001\235\036=\354\014!=\265\277}\273\331\036(=\027i\273\273\327\357,=\245\314\030\275\225\0216=}e(\275\177q\223<C!\032\275\257\334\204<\327\360*\275R^\t<l<7\275\215\003\320\274}$,\275\3201\274\272X\023\373\274\003jQ<\335\014\036=\347\360\331<\302\362\230\273\002\327\013=\200\2622=\254%\025=\366\211s:\005!\306\274gn\300<\361\241\332<,\3429\275>o6\271Bf\337<{\303(\275\t\024\021=\307</\274g\0173=\332\224\010;\004\233\027=\227\300\036=\177\330\200<\317\2608=F\275\313\274\324g\237<T\t\035=\311u\235<\375\037\231\274\312\227\002=\244\273%\274\2119\227\274\350\342\022=\222\345-;\333gw\274b\211)\275\023\024~:\226\267\363\274\307X\246\274\260b\201\274\375\256 \275\022#\356<hA\261<\335\330`<w\2521\2751\362\036=\256\316\214<\034\261\232<m\032\237\274\374\321\337<\217O\031=\360U\001\275<\256\263\272C\340\307\274\245E\241\274.L\372<\377\216\210<^ \215<\003\353\r\275\360\367\211<-\214\275\274\331\005\037\275\233R\222\270:( \275\271\2512\274\032\353\023=\343,\305<\021\3433<hn\267<\213C\322;q\231\361\274uW\376\274\373\223\254<\035\035!\274k`\343<\314\215\021\275\337\306h<.\031\036\275\212\010\016=\220S&=\210\203\003\275\006}\273<%)!;\257Y\241\274KA\327<\033\343\016\274N\031b;r\273\322<b\212\031\275\315\013\025\275\025\206\300<\321\330\307\273^\374\276<\030\030\014=\345$\371<\365&\231\274N\260\212\273\265\243\325<\326\006\206<\023\205\000\275\004\333\367<\337\271r<\003\332}\274\262\253\224\274\314\207\314\273\305\177\327\274\3712\001\274=A\027\275\022\035W;\334\205!=}\247\344\273,A\014\2759\347\267\274\3337\274\274\232%<\273V\250p\274R[>;\266\320*=\367\027\306<Y2P;K\300\335\274/\354\037=\026\305\006\275\2769\'=\321\024\017<7\014\316\274\252\2540<\000\203\010\275\240t\300\274J\364\310\274\026m\265\274\002\254\024\274\237\271V\274E\204\244\274\333@(=\237\253\000\275\231\225\356<\236u\213<\271\275\004\275\346F\014\275\332[\240<\247u\325\271\344\324\001=\256D\314<`y\232\2743\363\017\275&\207\341<\021\257\366\274Rn;\275d\356\257<\002\323\021=_\033|\274\\\021\026\275Sq\270\274\205l\006\273\014-u<\364\016\264\274O\244&=\271\270\267<\265t\236\274\025\205I\274K:\331<aM\304<\370V\000=a\005\333:\305\337\025=6T\237\274\334\322\204<\234#\354\274<\2244\275\202[\233\274\240\274b<\037j\"\275>\377-=\333\021\334\274\374\3076\275~\265\372;_N\355\2733\2028\275~\2411\275\244\370\205\273\034n\251<(\017\\\273[\300\370<W\201*=\215\265\362\274\270\236,=8\"<\275\330j\374\274N\275\312<k\2744<\3032\256:\034t\021\275Z?%\275\232?\315\274\254\320\004=\017\302\320<\355\271\267\274{3\273\274I\004\304;\n#\223<^\2741\275x2\001\274\034\2275=V\225\r\275\314\010\030=\373\301;\275\376\241\233\274\026\033\330;\360J\025\275\350\031\265<\236\360 =\265\037:\274\261\020\351<\221\310\306\274\303\212\034=G.7\275\310 9\275[\244\355\274\254\036\201\274\006\207\323\274\373q\210\274\355\376\260<Xm\241\274W\'^<\357\3123=\251\2132\274j\3760\272\306\343:;UY\265;\300F\207<u\364\353<\016!\027\275\312\270\022\275cdC<C\330\025;:\343w<\345\020?:\221\365,=\217\026r\274\031\211!\275\335\027\005\275\204\034\021\275\326\321\263\274\024U\366;\037\002\350<\273+\022=\016\271\365<D\313\324\273\317_\346<3\026\r\274\332\240\327\274\314\254,\275hx2\275\014)\261<\233|\024=\004\352\t<{n_\274PE\031\275xQ6=\245_\211\274\005\343\275<\254{6\275\022\235:=\276\2156=41\r=\036\242\222\274J\032h<{\251\006=?\347{\274`!\035\274\316\247\037<\200\373D<\324\031\322\274\235\004.\274\264\006\336<\220\351\233\274J)\022=-\027\371<8,\360<__*=\023\313m<\230\304\255<\363{\371<\310\324\264;2\300\257<\316\306\215<gU\320<&[\344\274:\234\312\273\\\377\033=2\377\335;\260G\303\274\206\252,\275\253\"\025<\220&\r=\375\223\033\274\337\244\243\273\0246\255\274+l!\273\036\251.\273\\\t\361\274\252\363\037=;\2006=Vv\203<\030\2432\275\000\316\026\275\345\322\021\274\305Z\027\275\00566\275\251\273\337<\227\3424\273\222y\266<\371O?:\342)\211;\255\3053=y^n;0\016\'8\306K\013\275\013[\024=\314A\013\275\341\252\264\274l+N\274\337\352\234\274\346\224\224<~k1\275\257\317r\274\005)\304<\315\230\353<\334~\003\275\020\036V<\371\322\210<$\332\344;\321[\006\275\3432R<\210\251\0258\235\273T\273\311,>\274_\330\260\274\362+\252\274\3027P<u-\003=b\005\340\2748\336\210\273\362?\236<\201\206(\275\010\006\224\273lHf;@C\322\274\341\251u\273zb\005=\354\024\005\275\224~\333\274\347\345\367;\016\2455;K}Q\274\215\333<\275\207\262\003=\035\3475\273\225\315\276\274\276\2057=\212y\271\274&\216\023\275\374<\006\274\nNf;\303\177\020=y}\206<\020+/=\r\363w<_\266\333\274\272\207#=\327,\376<\267B\266<\334\365\031=<\312\266\274\276w2\275#\016m\273\001\346\236\274\014\005m\274\260\345)\275\207\221\316;\264h\002=\\X\200\274\252\3755<\211\247\365\274z\255/9I\007,\275nw\205<72x\274\341\365\345\274\r\325\007\275\237\305\212\274?\256\031\274\274\223\034\274g\375\037\273\314\310$\274\255\247\371\274\304p\007;\r\246}9\234\013t\274\027,\236<\3007\211\274\261T[;\377\016/=\332G\216\272\323\231\307<\273K\376\274\025\310\253<%\336$=k; \275e\005\325<\340E3=\311$f;\313\204\363\2740c&\275kZ&=\233J\035<\345\233\367<\337\344\\\274\222\325\027=\330:L;\241T0=\367\343\355\274\2336\340;\244\254B<4\026%\275\'@\273\274!\340\367\273>\004\273\274}\300K\274o\366\234\274\017\252\004\275\022\224\003\274\266\332:=\264\232a\273|\006\366<s\267R\274\222@\016\275^\234@\274m\251\354;\363\376g\274<c\245\271\273b\\;l\205\226<(\215:\275\364\254\302\274\2170!={6\306;8\261-\275\203\307<=c~\226\273\353\325v<\306G\300\274M\216\272;\313H\251\274h\014\024\275\234\234\034\274\370&<\274\274}\242\274\207\244\030\275\231\'b\274\350_\235\274\016\357\265<\360\233\"\275\256\223\'\275\337\372\341\272\245u\243\274M\364\016\275;5\361<\230\017\302<\247T\002\275\346\034\350<\313?\317<\303\313\273\273\360\327\317\274\367H\251<TK\031=,\332\352\274\001\356\007<\240D\240<m%3\275 \355\t=z<?<\324\340\005\275\330\3527=k?\027=\300^|<\203Q\243<x\363/\275\262\0065\275\240\245/\275\020\317\246\274~W\027=]\270\010<*T\375\274\023W\3168Q5\343\274\200\007\341<-\023\246<i\346#\275\237\224\004\273\355\014\246\274`\007\243\274\364\177\201<c\020\017=\212\211X<`\301\271\273\364\231\352;Yi\341<N\317u<\030\3036;p\210\225\271\254\323\r=\271\242\210<\241\223\264<`F\007\274\010\031\034=(\256\022\275E\326\265<\016\244\207\274\"\330\371;viY\274\210\025\305<\317W\030\275\021\342\020\275pU\376<\260D\325<\\[\330\273\002\014\006\274=\331\315\274\272\nb\274\207\344.\275 S\300<\357 \035\275\354\373a\274\024\036]\273\364.\247\274\341\337\317;\"\216\216<\004\337\232\274\244\2570=\241t8=\3260\276\274\264\200\030=q\331\371<>\t\214<\332\201\002\273\370\326\"<k\245\016=\017]\336\274\375\377\356<F\327q;\017\3211=\002\177\250;\236A\007\275h\353\342<n{\232<*\326\002\275pq\260<\374x\022=\340ow\274\365H6=\224\200\350<n\220!=c\323%<-\260+=\370c@\2748X5\275\'[6=O;)\275\240(\256\274^\300;\275\243\t\242\274\326\342\034=\364q\327\274\313\260\351;lz0=\315)\235;=\013\220\274#\273\r=\010\302\001\2754F\017\275~\000\371<\234\302\262;`Q\276<\205)\355\274\n@\007=`\300\231;\263k\n=\266\237\r=\216\001c\273\254\007\352\274\376h\226<B\314\n=-.m;q\302\375\274\336\346\036<\\i\257<\322\002\315\274h\250(= \241\026\275\'\241y\274:\177\334\2747\242\262\274/\201\373\274$\032\"=\257\231,\275\031\313\020\275\273O\020\275\231E\235\274X!\014=m\250\320\272#\264,=T\206=\274O\'\244\274<\3311\275\256Z\215\274[\036\355\274\201\270\236\273\361\324\251\273Fs<=3\037\005\275\266G4=1\332#=\340H\260<\2575\024=\274\353\337\274\253\235 \275<I\221\274\335\272%=Y\0350=m\357q;\213\3351\275H(0\274DS\031\275\016\247\227<\302\224h:[\016\260<jK2;x\375\n;\014\243\201<\017\331\273<\002\352\201\274|R\033=\003\267\323\273\372\352\250<\307\237\037\273\273n\206<\342\022\033=\350Km\273\260\030\254:J;&\275\253/?\273\263%\347;)?\031\275\275lE\274\224!\215<\205c\347\274\2564\004<\234~\034\275S\365\222;Q\245\017=\"\364\021\275\207?o<\271\324\275\274&B\233\274+?\020\275\177X\\\274\333\374 =\361\217\024=\347\210\357<\373k\210<\001Hk<\316\357\347\274\014\024\001\275\244\352\360;\013\322\016\274\356\007\025\274\023\275\226\273v\347\355<\204>&\275l\336\260<Tqw\274\004\311<=LA*=\rb\027=v\237\214\272\001(\037=\375\321\256\274\264\230#=\t,8=\203\274;\275\265\321\036\275R\004Z<\315\002k<\314\317\306\272\266\277\241\274w\036~;S\207\230\274\020\354\366\274\200U\031=\307H\321<j\230!\274Fn\2679\363\274\026\275\204\234p<sq\010=\247\031\242<\340\350\177<\217\231l<;6\n\2757V/=<X9\275\026\377\211<.Q\022\275\322t\260\273\214\310\345\274\371n2\275I\227\331<\203L\033\2751v/\275\260\363e\274\010\333\255\274\347qI;\322\324\030=\365^$<\360\347!\273\033T\233\274\"\036\273\274\337kl;\244\313\334<,\344\267<\226\335\376\273\002Y+\275\027\2650\274\336\367,=\360\032\354\274q\242\246<\022m#\275\250\223:=\0263<\275\366\251\221\274\370\010\007\275Ly&\275\023\241\302\273\343c\027\275-\003L<\336Y-=\257\"];}Z\033\274\342\361\251\274dG\275\274\212B\007=\346\\\024\274u\242\327\274/\330\307\274\\D\245:\037F+\275\006\333\027\275\2126\263\274\300W\"=\266\300\r=H\213\036=\231\266\273\274\310\217\006=\3609\034\275#8B\274\013V\232\273B0\036\275M\356\317<\000\341!<\013\205\260\273\230X&=h1\001=\023\215\374<\223#\304\274\014\306\017=`X\r=\323\214 \275;\276a<&5\237\274\026\337)\275\256Z\214<\300)\352<\377D\317<\343\303\345<\304.\023=5\316\020\275\271b8=\"\nH\274:\270\234<%]\031=T\342e\274\322=\010\275vD\307\272\315\363\007<\313@\301<4\025\201;\017\355\014=\231{%=\177O\214\273w:2=\355\372\035\275\335\231\256<8\334\221\273\217\031\332<\363?%\275\260\220!\275\322\205\006=t/\371\274\326\324^<\004\354\205\273\225@0=\276\274\317<\266\202:=Z\023\023=\021}\313\2747|7\275\003Y\000\275\252\003\t=G~\276<,\275.<6\353\r=S\327.\275\252m7</\030\373\273\345\236h9,\263\244<\203\245\202\274\020V6=\357h\235\272\252D6=`\217\302\274\370\2547=%B:\275\344\233J<\252}\257\274\317\213\365<\255\233(=\375*\314\274*+\372\274`\3266\272t_\031\275:\260\337\274\001\036\033\275\272),\274\320\353\021=$\241\n\275\310q\032=Nl\310\273\3536;\273\300N\033=\254\316\013\275\263\372\323\272\313U\246<\'\2567\275\227\323\275;\257}\003\275I\377\371\274*\367\202<4r\024=\344\364\216\274#\'$<\207\222\"\275X\037\271\274#a{<\345\267\364<O/x\274\255\037/\275\275y\024=G\246\364<z,\007\273\361.\234<\177\375+=z\364\037\275\244`\273\2747\210\337\274\016;\230<\231\3603\275\327\234\302<H\304\'\275X\367\211<G&D<\217\363\266\274\325\327K:\024\237\363<\330n\025\275c\307.=}\327\374<\262{\234<\235\262\036\272\n\003\001<\267\266\003\275\235=\242\274\212\257r<\334\306\033\275GQ\322<+\3667\275\237\"s<\351B\217\274\275\203\353\274\367\352\034\273\257\021\330\274P+\t=\336\002\007=\0136\306\274\021N+\275\250\027~\274~\216!=\211\304\374<Nw\227\274\017\315\345\273\026`\312<Z\367\002<\375\377`<j\225\005<\337F\035\275%\271+\275\373\177.\275\344\307\250\274#\\\242;\205\233\310:\227H\016;\320\231@\273f\201\232\273\t\0347=$\254q\274\221B\027\272\266\317\374;\233\311C\274\250N5=b\0306\275O\345\263\274\372\024\371\273\240&E\274\321\375\346\272US\016=\231P\333\274q\351\300<o\342\252<\343\255\211<\342#\352<\303\373\202\273\004Xb<\000k\022=Ei\202;Om\270<`Z\363<\240\335;\275\010\240\006\275%\244\360<83h\274(\223\302<s\370\'=\355\261\313<\020\020\014<\020\021\315\274I@==\241` \275+;$\275\256\202P;#\312g<\000\344\002=\372\250\004\274\377\344!\274\333\215\265\272o\033\350<_\177\311<t!\272<^\2441=\252W\227\274J\202j<3O\357\2748.\025\275\002\3214\275e\227\216<+\010\r<\342\274i\274\324\265\246\273\242\005~;\252W\326\274y\370\260<\032?5<\rI.\274H\271\305\272\014n\214\274\254A\233<\036\222\216<\363\326!\275\217\'\302<\366\300\t=W\302\"\275L\035,\275\031\216\240\2741\350\001\274\177\177\003=4\325\334<\0274\225<:H\006\275\217\034\022=p\327.\275\231\245\375<\356\374\014=\t\347\005\275\3562\345;/\330\004\275\265T\220\274\331#\000;\001\234\366;\227\232\374\274f\202\373< \025\210\273\032`\016\275!\211]<\311L+\275\265&\330\274\360\260\247<\351\023\253\2733\2009\275\245\325,\274\310\006\237\274\030\334\220\274|\346\354\274R\2070<\305P+\275\335\367-;5r\305<j\3411=\010\316E\273,\231b<\311\231\036\275\201\336#\272\266\250\251\274,\t\213\274\354w\004=\014`#=1?\231\274\003m\236<)j\205;\330\306n<!q&\274\320\314\026\2749\273\266<\377\363\030=\263\007\303\274\026\344\230\273\367\241\000=\213\254\367\274\351\210y<\n\366\231<\341M\r\2740{\324<\344\253\274<@\226\340<\307W\270\274-\251\213<\234K%\2755\003\225\273\007\214\024\275,\324\332<\340P\270\274\376\0105\275|\212\201<\3570\004\275\341t)=\207\322\330<\217\250*\275\37501=q\340F\274\255\304\237\273`\010,=\361\010\016\275\261x\021\2754\276\342\274\214\225+=\030\230\n=H\317\023=\021\2608=O\204\2324\032\tT;BC\271<}\024\372;\034?\347\274\305\211\246\273tk\254<uH\t\275\215\351\331<\375}\207\274\355Z\344\273\\\376\212<\352V\037<N\346\034=_\342$\274\352\224\235\274\000*\231\274\255\2623<\336p\246\274tR\035=\267\022\025=|\3439=l\215\260\273\257F\206<\325\370\264\273 \333\200<Jg\262\274\341>\203<*\001\250\274\241\376\'\275\270\226\001\274\323\023\246<\372|,\275\213R\374<\305\373\001\275\320(8=\243N \275\226\207\211\274\030\364\300\270es\373\274\361\351\323<\3133\314\274\212Lw\274\305=&\275\366U\373\274\276=\207\274\261\321><\210-\020\274\201q\377\274\020\235\017\275\211\"6=n\324\366<6\214\376\273!*\213;y\274\354:?\004,=\030L\305\274D\r\033<\004\231,=c\3619\2751_\007=\206\346\363\274\006\301\326\274\354)\337;\324\r\356<\347F\027=f\024\3578\226\276\035=\301\021\252\272\036\343\001\275\255 \300<r\035\020=I\251+\275\217\362\323\273Y\002\242;}\024$\274\276\342\034\274\373\3536=\302\275c\274\"H\315\274m\213\244\274\207L\016\275\316\354B\273\360\177\243<0\365\365<_~o<\025\206\021=\206\241b<n\302:<\266;@<\307\343\333<\027\2627=\005\273$=\317\220\330;\023\203:=\255,\230\273\223\331\002=L\212\361<\213\300\350<\025\251!<\347\236D\274\002\\\n=\020\0310<\206\241+\273\253\271\030=\231,;=\214\304\257<\220\362X;\332\226\331;\036\312\032\275\025~~<\276\330\t\274B\342\247<~\244\260;\344\360;=i(\031\275\217G\213;bj\335\273C\014\271<\206\263l\274\353\203\225<hE1=_\307\223<\335\250\t=8\004\234\274?B\275<\023\'\355\274\330E\370\274\263\303\016=\211\245\3349\207\326\365\274/e\217\274s@\271<\255il\273\333\242\023=~C\337\274Gs\205\274\202\2310\274\270\315\003\275^\031\246<\022\307\340\274\332\352t<,:\371\274\364\014{\27334\222\274\232a\313<\377\315\"=\331L\302\273\201wH<\002\376\232<\261[\000=\352s\"=\234y\217\274\210\234\210\274\022\277\200\2745\261\037=\261UP<\341\305;=\271|\207;\304\\\267<\342^\023\275\207\036-\275R\330\027\275N\370\017\273\366\333\326<\224\326E\274\231\266h\274\340\022\372<\302\303\350\274h\177\201<\005l\372\273\210\206g\274\332;\032<M\20708&\335\353<\335+\t=NU6=7\221\024<D5\022=\260\204\006\275\2116\324;\033\273/\275+\274)<\232>\363<dY7=\010x4=\017\302\370<\260\227\t=v\034\034=,\010\363<Jz\266\273&,L\274\301\215\361\272\336\205#=\300=\365<\016\341\205\274\037z7=1\375\030\275\317+<\275\004\222\263<\372?\363\274r\036g\274\370\007\375\273\334z<=Br\033\275\352\222\367<O\2710\275\233\003\267<\275R\026=;\300\013=\033\016\022=4II\273\264\355\213;\205T4=\375$\372<_\260m;\310\222(=\371\372\377\274\215Q <\307\236\006=\243\211w\2732\t\002=\343u\035=\215\323\262<\313~\024\275\037\254\026\274f\r\323\274\245\373\315<\241\177(;\037\277\022<\227\220\300\274=\236\223\274\235\262\364\274\210d\315\273A?\023=!q\316\274\261\230\224\274\343\320\274;\350c\026<\222w\222<O\2301=O}T;`\305\036<\246\251/=\361\321*=\033\360\301;\270\215\226<[\014\000\275\024\252.\275\210\267\371\273\216\003\026\275\321\"6\275\361N\017:\203\267\000\275\356G\347<\035t4\275K\356\266\274\312\031\355<\305W\341\273\tp\227<t\232Z<\006W\241:\2263!=C\004\340\274\234C\330\274\337\r6\275\350\014\334;\225\227K\274\357>6=\023\347<\275\233\003*=\344!\365:)\2501\275\227\206u;6\333d\274\301B\367\274\321Lx<\3073\322<\033\2209= K\313\274z`\024=f\350\315<\251\0043\275\325\302\271\274\242\307\220<b\254);\225\014U\274G\007\230;\000\252\'\275\025\273\263\274\237p\022=A&5\274\010\217\344\274\225\374\324\274?U\002<\362\355\035\275\214k\350<E\327\002\274/\315\022\274\270\305\250;|\236\035=\206\333n\273\342\357\010=\263\255\203\274{G\363\274(\235\030\275\376\247\"\274Mb\303<.\322\272;s\034\353<\216\200\037=\357[\346<\335a+\275\330Sb\274J\352\360<^\301.\275hK\246\274\211\2519\275\225)\r\275\255\367\020\275\264\310\024=\211\336\312\274\264\201$=\3671\003=\024\272\022=\252A\221<\230\3531:\020uC\274P\375U\2735\370\313;\241\230\020<\3528\030=W/&\275Cw\345<&E\322<\311\3137\275\260\274\353;\217~\223<\r\271\005\275K\263\'=|u\004;\226\2632=\200j\274<0\r\204;\360\241\314\274\371F3\275x\2330=\335\357*=\2073\311<\322o\027=\ts\326\274\205\301\t\275Z\314\235;\225\223\327<S\313\373\274u\3150;h\3419\275\262b\307\274\202\217\305;\352\026\343\274\302\275\273\272\3443\246;7e\030=\030\341\346\274\213J\377<\026\360\036\274\354\367\000\275\270\224\006\275\014\2308\275\277\240\017\275\264\235:=}1\211\273|\366\'=\2343\275\274\337\3113=_\232\315<\035V\202\273\350[\263\273\003\332\201<\345\036\200<]x\345\273\010\214\352\274\2729\025\274\361o%\274\277\373\312\274\206z\320\274S\314$=\377\022\023<\271\223\017\275=\264\026\275P\1775\275\327\004\230;\326S\026<\033\330\231<\007\250\326\274\347\324\014\274\233\030\371:\\\374\021=\364\325u<\321\272\273\2726\r/=\320\034-=\277\\+\275\326Y\223;\357\315\306<\335\3640\275|\251\251\274\316\276V<\020;\213\274/P\000=e%\006\275\223\272S\274\232\361\304<\014K\036\275n\322\210\274ckj<\205\2020\275_\220\314\274\0168\027:<\263\202<\001\235\202\274\203\031\030=\352\211\002\274K[\003\275\370\262\037\275\222+\021\275vo\323<\337z*\275u\355\207<\277]\r\275\222S\020=\261\230$\274\344\2507\275\317U\376\274\023\357\361:\304P\316;g\3617=QH;\275Gy\324\273\272\2646<\302=\321\274\321Ih\274B\312<=\247<\334\274\221\330\317\272\213\r\032\275i\322\225<\324\\\200<\326+\034\275\035\212\021=%\313\226<3\247\020\274]\343\265<N\266\220\273k+\373\272\357\026\255<\034j\021<\326\311\306\274.\317\003=\200\354G\274a^\316;\217\260\334\274\266\320;\275_7\033=\332\322\036=\201?\017=\n\240-<\357\347\016\275i\021\016<^\025}\274\336\3374=^\372\026\274B\'w<+\370\266\274\343%\216;b^\347;6*\005=]\366\277\274m*\356\274\025\372\310<\253,\315\274\354V\t=\177U.\275t\037\205\274\327\3732=)7\312\274 \304\351\2747\314\300\274(E#=\223AS<\325\205\022=\035\377\330\273y+\032\275A\001\022=\204/j;\346\272\021=\224\335$<d\244\304\271\020=\216<!Fv<cO\000\274S\0038\275.;\233:\334R\000=\023\322\273\274\374\013#\2755\3134=\235\346\256\274\377\2077=\270\226\215\273P\243\266\274\247\255\010=\313\316\252\274\200\244\026=b:\270\274i\357\014=K\227\271\272\002:!=N\3704=\316\305\331\272l\364\337<\3050\036\275\234B,=\346H\353<]Y\361\274]\360\023=\340J\025\274\205Z\211<\343M\261<\037\313\234\274\315$\330\274\231\247\260<t~\252\273n{\027\275W\347\002\275Kb\031<\304^5=0r#=\214h\347\274\365x\360\274\350i\324\274M\341(\275Z\356\201<\2716\027<\004\2441\2756n\371<\224*\031=:\324\222\272\027\346|\274#\247\007:2\357\035\275V\007\244<\032\363\313;\357\307\312<\021@\004\275\350\030x<\250\323\216<\036N\035\274\214\254\025\270\323\277o<\304\263\256<\207,y<4@\377\274\020s\317\273\244e\036=6\016\013=Pb\311\274\033<\206\274\014\326\243:D/\337\274\0238\247<vK\312<\277W\025=\"73<\256\032\264\274%G\251\274\214\311\370<\307\354\217\274\205\233\026=\224H\014=r\327.\275\352\374\211<\364\022D\274\341\245#=T\312:\275\374\232\271<K\376\003=y\002\261\273\023\245!<O\024\303<\337\3313\275;\315\270\274\'\243\026=\341%\231\274\330\035\245\274&\265\365<\305z\233;w\037\203\274\310\024\023\274W\231%<\375\316\002<\300\332\200\274>\273\277\274\217\352\036=\237E\216;z\177\n=-\tc\2747\002\333\2743\277<\2753\260\242<=\232\334\274\031\025$\275\330@\005\274\220\006\266\274eV\261\272\212B\305\274hH\337<\322#\221<t\262\030<+\037\261<|\374\244\274\013y\n\275\"\310\017=\246\241v8\254S\230\274AS(\275vI\006\275\321\273/;\032\024:=\242\343\276<\330)\205\273\244`\244;h\017c\274\265\024\373<\016\210\267;\310K&=\r\253\004=\024K\032=\263g\304:\005L\321<\2512\276\273]\333\025=X\336\216<\200@\227\274\r@\022=\312\256\200\274D\263\000\275\312x\002\274qUi\274-/\017=\270\360\025\2745Zh<\335\336\203\274\362\321\366<\234_\225\274p\255\351<\344\000\r\275`\255\037=\344\254\341\274\"\301\035<NYI;G\327\315;\252\276\002\275p\223;\273\277cX<:^J<Z\356b<\351\337 <\373]\013\2754\367.=\311qA\273A\2150\273\302\362\016\274\031\004\037\275\336\267\003=>k\t\275\031B~\274\2406\340\274\202\003V;\347\264\020\275\023\217\013\2751\345\365\274\027\264\361\274\374\3047\275~\354\217\274*\003\265\272\240\240\r<^b\324;\324\210\362<p\260=\274\275\361<\275\235:\211<e\374\371\274\363\205\302<\231%\230\273\257\3155=\365\0168;\347\340\006\275\344E\212<r}\237<Tf\002=\341\366\347\274\370^\265\274\205p!;\024\372\336\274\241>\002\275\030TN\274p&2\275J\352\307\2749=0\275=\030\324<\177\t\364\274\0163\305<>y\016=\264F\036\275[\335\237<\253\310\002=S\003\262\274\r\316\224;\202X\000=&H\024=\365b&=}\t\344<p\010l;PZ\375<\000\200L;\227j\014=1\320%\2757ph<yZ\036\275\262\237\351\27484\342\274M\3052=\336\334\"\274\257\331\016=\2550\245<3wZ\274nl\310<u\273\360<v\014\344\274\205\002\316\273A\240\r\275sK\373\2740\335\273\274\337\376\n\274\321\232\353\274\0240\236\274\177\3104=T\303k\274%\332-\275\345\254\244<m\r\303<(\260-\275@\352\214<\270\032\031\273\345\215\376<:\237S\274\034\251\200\274\302E8<\3260\007\273U@\234\274J\215&\275\343\025\017;p\005\n\2759]\225\274\343\032j\274\301k\200:\255\022\030\275\206x\225<-\365\036\274\210\363\337\274\332?!=0Y,=\336\031\243<|\247\272\274A\316\274\274)h<\274/y\333<\220\356\t=\344\200\307\274NW\027=\326\232\225\274X\257\252\2745+\314\273\271\2327\273\306\242\366<a\3356=F>(<1\030\211<\030\314S<\302\260\224\274\030\301\302\274\t\240\201\274xQf\273)\216\004=\263.\306<U\021\010=\034\202\273\272\333L\013\273\343\320\366<\023G\026\275\245u\302;F$7\275\014;\340\274\261\017+=\360_\033=\365\031$\275\211\r\201<\372\205r\272\\n0=\270a\177<f\3338\275\340\002\247<\345\3269\275\221j\010=<\323$\275\213\304\003=\245T\203;\204\342\243<\023e\331<\271)\304<\331\005\177\273:\033\362\274\316\360\240<\320\014\343:r%\035<\373\241R<\317V_<z\313\027<~=\r=X\\\032\275\343\305\241\274t\023\302<\024\tq\274\323\035\355\274\330/\226;\317\307\357<\371\007Z;\304\355 \275U%\037\274\266\032\231\274\312\302\031=\034Q\366<\2565\313\274@\232\0229\332\325\255;>\240$\275g\230&\275aE\376\274\353/\367<bm\274\274r\347\n<\234\324\353<:\270!=\t\326\254\272\212\0316\275-\263\242<\221y\316\274\327\202\016<\307\216\031=\022\251a;\22293=\361c5=\307\260\025\274M\252\317<\003? \275\361\377\223:6\275\326<\"\345$=\376\241\273<\310I\344\274bq\031=\375\357\374\274[\177\225\274\272c\307<\243\266\000\275\344\213\261<\275\261\241\272zI\354\274/@\020=$\203\316\274\355Y\337<\270\242\265\274Z\3765\275\344\222\276<Z\227\003\275P\\\326\274h\377\002\274{z%<hc\342<\217\030\244\2733\354]<R\254\'=\026\254\227<Vt\246:p|\004<\3104\022<\005(\326<\267\270\006\2750K\275\274\272F\307;\242\033\025\274\021\320n\274L\3765=\317[\212\274\032\204\300<<\263\025\275^~1\275\204D\257;\255K\202\274m\221\240\274\013/\330\273\236O\274:\363)4\275\210\006\002\275sz\001\275\373\030.<T\n1\275Y\212\016\275,\302\'=d\034\024<\n4\315<\367nV<\232\007\010\274\031}\373<\024\003\347<\254\250}<d\013x\273\350\0251=d\343\001\275\"?\335<9U8\275Y\216\020=\211%\014<\3612\235;\247\016\354<\006H\343<\005d\027\275P\244\270\274z\321\222\274\266\327\207<\327\207\202\274\026\233\345\273=\244);\033\270\267\274\352\024\343<4\254\343\274\013_\304<K?T;7\356\275\273\220\376\007\275\004 \346<\241\213\362\274\267\201\226\274M\304\r=\037\016\352\273\220\'\025=\303\361\245<\255i\225\274|\013\312<!\341~\274\"\301\016\275\200\347%=;de\274\203\202\211;@\003\r\275\354\033\333\274\216G\376\274\024\224\023<]\006G\274\032^\241\274\301\260\360;\tVz\273\222\306$<\213n\320\273\213\211)\274\301\002y<\325yX\274\275\207\361\273&\351!\275;r\261\274X\242\257:O\231\326<>G\026\274\342a\030\275\037S\017\275\356\222\251\274\302\226\245<\263\326\002\275\\\233-\275+K\377<AI\023\275\311\375\211\271\225\222?\273c\241O\274\311\373:\275\271\356\023=I\024\257\274\271\2148=\376\247\234<\360\020\246\273$\374\347\273\325\035U9o%9\275gF\266<W}\252<oh\306<i\202\253\274\352=\023\275\035\327u\274\036\355\263\274\245\317\300<\223\221\033\275&/\313\274J\0222=\351}\234<z5\035=\214\313\356\274%\272\013\275\234\272\016\274\221\233\225\274\370M0=\354K.<4A:\275\2217\030\275\037\271\365\274\034\3407\274\203\356\325;\355g\210<\r\350\366\2747\033f<Y\316\247\274v\211\344\2732\326\223<`\023(\275h\351\234<\254j\252<\263\332\006\275\374r1\275\000\333S<R\007\030=\232{\321<\340\300/\274\232y\203\274)\206\r\275?j\334<4\177\014<\215K\027\275H\215\314\272`\242\344\274\270m\357\274\264\255\345:\302\323\364<R\002\023\274Q\324\340<\324J\360\274\361 \036\275\307\244\036\275\311\230\361<.\307\025=\224\3378=\327\200\356<\216T\013<\212\374\024=\341\236.=4i\006=\210z\037\275\312\362z<\303\263 \275\373\2751\275\025\013P<Go\353\274Pg\235\274R\357\225\274\250\214-=\3055\275\274}\014\004=b\031u<^\372W\274\342\253\377\274\2449\232;\3343\355\274\352F\217\274<\315<=\206\202\260;\251\250/\275\360v\255;\373\205\034=\"\317\207;\031\0068=\370\310\276<\306\325\262\271\255\237\212\274\371*\202:\217@\031\274\0205\032=?g\240\2743/4\275\037\261\350\274\356\334\316;\300pY\274\374\341\362\2747c\347<\024o\r<a\324\211\274S\r\005\275_#-=\257\317\004\275\365W\370\274@\2013\275\254g\341\274\336z\246<\353\226\';\257n\026==z\277\274y9\266<\224\014\245\274\364,\254\274\304\311\305\274\227\211\227<\362\240\230<z=\037\275\320\253\200\272\337\236\326<yw\023=$M\275;\365\253a<=Z9=\307\021 \275*J\332<\233\217\014\275\341\221\254<\273\201<=\206\352\n\275\031\240\032=\264\372:=+E\002=I\332\030<\373\374)=\230\250B\274\226\350$=\225n\026=\224\222\255<\232\274\245<DC#=A\013\021\275k\270\335\274V)v<\316\371\307\273z\367\016=\232\377\323\274 0\213\272\343z\311;\022\032\267\274\342[.=\231^<=S\375\250<\nR\300\273e7D\274\266c\034=e\340s\273\022\033\t\275x\3617\274>K6\274a\366\303<\336O\341\273\200z\222<\026\377\324\272jS\001\275\276\333)\275\222\311\000\275\006<}\273_\345\224<\177\220\354\274]\245\003\274t\303a\274\356>z;g\346 \275.}\034<\2229\020=\364\r\263\272\271\340&=g\266.=B\201\336\274\215f-=\002A\017=\223\232\270<\275 \370<\342a\"\274\036`\240<\214\276\030<\324\245\240<\006I6\274\006\303_<@\357Q\274\353Cj:\367?[<\341\013m\274\205\350\340<k\260\204\274,jo\273\202sz\271.\032 <x\210!\275\267=\3659\350\251&\275{O\257\274\341f\004\274\233\220\237<\267\325\314<\340\017%\275@99=\300\324\270\274^g\247<\256T\216;U\202p\273\263`+=\365\347\000=\2214 =\021\370\017\275f\266\321<\203\206<\275\3531V\274\000\252\002\275\233\372\t\275\201\3552\275$ \031=\320v\226<\r\227\031\275\225\306^:\271C-=\353\275E\274\375\354\345\274\240<6=\373<\306\274\343\371\211<\224\224\363<Dw9=t\270#=\204\265\222\274\333\250,<\247\277~<\311\242\202;^\314\006=\362\177\237\274E\t <Ru\301\274\360\250,=\002r\032=j\204\213\274\204_\332\272\237\016\251;\307\346\301;>B=;M\310\325<CE\263<j\201\000=\313\033\242;\244\243\360\274\256\272\265<\2616,=\303.\353\274\256r.=\017\310 <\022P\022\275;\301\006\275\355\007\353\274\214?\021\275\353\363V:0\n\262\274\313+\220\274g\334\r=\217\242\342\274!\004\324\274\275P\021<N\331o\274\017\362\020=\003\305\034\275\254\355\004;2Ug\274\024\247\367\274\344\230\252<{\007\271\274a\177\356<uJu<\262\262\230\274\207\007\004=\033\265j;\276\246\264\274\0140H\274\001\303\002\275Y\215\002=w\307\374\273\335-6==\214\325;n\2265\274+E\205\272.=\317\273\030\016+\274@e\367\274_\252u\273\236\005%\274\206\3465<\364+\305<\013@#\275\340!!\275e\\\031=\320|,=\366\244u\274\337p%\2751>S\274\227z\370\274n\\*\275\215\270\301;\255\271\014\275\324^\020<\356\246\037=\213\\\314\273\370A\023\275\310\317\036=\326\230#=\276\255V<(\350\262\273\235\3221\274\346\377\314<t\210\014=\303\241\002<\005B\010\275j\336\230\274\251\030\243\274\010%\000=\372\3608=\330\031\272\273!\027\005\275=\2553\275V\024\031\275\257\351\251<u\214z<\310\367!=\360-\236\274\264\244\245<\242\267#<\332\234\317\274\367O\274\274*O\221<\006\024\255\274\002>\233<\227\034\377<\'h\001=\031\334\006=\267j\226\274\226$\363;oY\311\272\356\342\201<\247)\373<\226\252\032<\334\321\252\274e\004\030\275\310\201\330<\nb\264<\252\354\031\275.h\274\274\327\221\305\274,\017\022=\375dJ\274\267\200\003=\314\326c\274S\035\031\2743\r\322\274@\255;=I\332\305\272\255\035s<f\333\361<C;6\274Sh\030=I\257\347<e{\210\273\366\250\262<\305\177\315<\250z\277\273~6\300<\332{\370<\274\356\214<8\035\307\274w>\346\274\020\361\311\272\337o\315\273^\340\026=\300\010\006\274\336\337\247\274\227\331\021=+\217\356\271g\311\026=%v\336:y(\013\275\225|9=\304.R\274R\375\327\274\250i)=\306b\230\274\210\212\317;Pr\356\274\270\207\351\273\2611\363<\211\247\r\275>g =\352\321\311<7\265\230\272SM\026=3\221\253<\350\246\311<\363h\t;\201\206\303\273\242\335\224<\262\221o<\375\224\260\274g\177\214\274m\2755\275\353\354\002:\356\207\033\275Y\325\327<\362w\014\275\034\303.\274\253\232%=\355B\365\274\025\352t\274\245\357\357\274(\234\263;\335\240\000\275@\303\274<U\212(\275f\326\346<\314\252<\275\232\362\023=zx =\335\207\327;W\226\002<\225c>\274P\206\034\2751\016\031\274\255\253n\274\037\222\014\274\220\307N\274\373\362\357<\247\264&\275(\'#\274\367\n\006\275_u\265\274\217OR\274R\274#=\370\215\326\274m\354\025\275a\313\304<z\023|<\0271\214\272\317E\030\275\324\3147\275XS\010\275\366\363\364:2\237\323\274\021\235\314\274\373q\023=\241\331\007=/\267<\274\216\324\001=\211\277\025\275o:\354<\0208*\275\245\2070\275\367\2559\274\375\246\023\275=\036\'\275\320N\"\274\021W1\274\257\334\254\274J\022\306\274\251\235\212\274\200\322\205\274\347\306\004\275\317\350\027<\330\277\261<Kh\t<\311\0205=p\270\215<\322v,=\205Q\000\273\256\347\237<\366\350\345\2749#3\275\317]\021=\022++;Ws\217<F\327\227\274;\361\004<ex\334\272P,\340\274\356\021\010<)\322.<V\355/=\267\014\035\275\226A?\274\333\350\034=\370!\001\275\",>\274\365\235\213<w\014\232\273\253P\342;:\005\257;s\230\232\273}^U<\325b\300;\323t\027\274%\331\r\275\264\205\354<\374Z\363\274B\'\025=si\017:}\225(=\247\222\306<\256\224\t\275\347\007>\274lH\000\275\210\3032\274\344\206\244;\027\262\215\2743\214|;\266\227\217<\212\023\255\274e\223\242<\310\276:\275\251\3632\275w\341\266\274\347$\243;lY\024=\331\244\277<\211\307\032\275\250\361\177;@\2653=\333\333K;\'I\236<\t\002\327<p\246\022;\231\0071=9\302\035=0. \274\302\210\010=\314n\023\274\271\355\211\274\004\336\214\274\020\326\323:\'y\027\274i\3663\275\001\\\032\275\332\276\253\274\316\331);\247]-\275*,\r\275\367G\020=\036\177\374\274\346|\333\274A{\016\274)\031\020=|\306\325<\220\352\357;{\263\340\274}\247\262\274\340L\253\274gA\026=S\320\240\274\240d-=2\2609=\323s\030\275Js\035\275\032R\370\274Z\3404\275hE+\274\333\212\344;\343\242T<3.\004;\366\305e\274\314%\302\273\376\033 =}BK<\330\214\217\274k\033+=\030\230\273;\326\323)\274Sh\006\274`\013\375\273\206zU<\300\273%=\212SE\274\300\314\007\274;\227\322\274\234\3020=\226H\r=\032\312\314<\301\257D\274\226\"\323\274X#\307:n\024v\272\277h;\274&\324\261<\016l*=K\232\247\274_\234\013=\003|\264;\013\241\216<\334(\351;\013\347\224\274\360\030!=\351\r\277\274\343\227.=R\223\202<7\335\260<O\213\036=OK\300\274\324\246Z<\366\246\373;F\320\353\274@v\366\273 \220 \274\224.$\275\374\317/\275\237d\335\274\027\371\210;\002\247\311<PU\241;K\\$\275\277\3460=\226\031\354\274y=\243\273\267\034f<\342M\372<\220\020\007\274\215\366%=\355D\274\273\\g\222<\006\020:=\202\302\333;\270V\352<7q$\275\276\335t\274,\344\262\274\237\2428:\200t\242\274\342}\264\274A\250,;\357\303N\274\255i\241\274\262\r+=c\251s\274\333Z\241<\031bz;\256\3125\275\331\036\230<M\265\026=N\003\322\27450\254\274\223\265\264<,s~;(\325\243\274\260/4=\236m4<\031Is\2741Bw\274\246\034\313<c\226:<\222\364\206<\307\211F;\271\262V9b3\341\274\010\273\3539\000+x:BT\004\275\373\267\375\274\345\214\210\274\303\326\352;\r\325\335\274\357\202\t\275\245\215\250<T\234!\275\220,\367\271\243~\242\274\"~\324\274,\261\306\273h\337\340<#\266k<M\002\332;I\306n<Z\315\275<X\270\326<_\026\217\274\201\236\301;\277\221\223<\032\032q;\244N\367<0\234&\275\372\031\334\274\203\222\230<\350>\320\273(s\251\274\\\2214=\'X(<\312HV<=\262\010\275\264C\033=\212\326\002\2756\231:=\374\201\205<\223q\261\273+\323#\275\035\202\252\274\274\325\275<gP\261\274\200D\016=I\'\376\274\273h\n\2753Cs<\216\277;=\267\021\263<\370\361:=@\254\010=\372.\244<\232B\361\274\364\0233= \007*\2751t\333<%\275-\275\\W\217\274o( =>\2475\275\003\331)\275\323I0\275\006\237\001=\262\037\305\2745\304\010<\272\375\353<\3660\316\271\362\350\316\274\245\357\276\274\324\253#\275r\243\317;\030\021\000=Vz\320<\302j)=\n\361\330\273%_K\273A\216:\274\001\2557\275\366\205-\274\220G\037=\352\331\314<\243\210\005=g4\016=\350\373u<\357`\250<\255j\313\273\\\002\234<\226$\357\274\212(/=\345\023\201<r\343#\275\340\243\034=\037! 