node {
  name: "global_step/initial_value"
  op: "Const"
  attr {
    key: "dtype"
    value {
      type: DT_INT32
    }
  }
  attr {
    key: "value"
    value {
      tensor {
        dtype: DT_INT32
        tensor_shape {
        }
        int_val: 0
      }
    }
  }
}
node {
  name: "global_step"
  op: "Variable"
  attr {
    key: "container"
    value {
      s: ""
    }
  }
  attr {
    key: "dtype"
    value {
      type: DT_INT32
    }
  }
  attr {
    key: "shape"
    value {
      shape {
      }
    }
  }
  attr {
    key: "shared_name"
    value {
      s: ""
    }
  }
}
node {
  name: "global_step/Assign"
  op: "Assign"
  input: "global_step"
  input: "global_step/initial_value"
  attr {
    key: "T"
    value {
      type: DT_INT32
    }
  }
  attr {
    key: "use_locking"
    value {
      b: true
    }
  }
  attr {
    key: "validate_shape"
    value {
      b: true
    }
  }
}
node {
  name: "global_step/read"
  op: "Identity"
  input: "global_step"
  attr {
    key: "T"
    value {
      type: DT_INT32
    }
  }
}
node {
  name: "input"
  op: "Placeholder"
  attr {
    key: "dtype"
    value {
      type: DT_FLOAT
    }
  }
  attr {
    key: "shape"
    value {
      shape {
      }
    }
  }
}
node {
  name: "output"
  op: "Placeholder"
  attr {
    key: "dtype"
    value {
      type: DT_FLOAT
    }
  }
  attr {
    key: "shape"
    value {
      shape {
      }
    }
  }
}
node {
  name: "HistogramSummary/tag"
  op: "Const"
  attr {
    key: "dtype"
    value {
      type: DT_STRING
    }
  }
  attr {
    key: "value"
    value {
      tensor {
        dtype: DT_STRING
        tensor_shape {
        }
        string_val: "X"
      }
    }
  }
}
node {
  name: "HistogramSummary"
  op: "HistogramSummary"
  input: "HistogramSummary/tag"
  input: "input"
  attr {
    key: "T"
    value {
      type: DT_FLOAT
    }
  }
}
node {
  name: "HistogramSummary_1/tag"
  op: "Const"
  attr {
    key: "dtype"
    value {
      type: DT_STRING
    }
  }
  attr {
    key: "value"
    value {
      tensor {
        dtype: DT_STRING
        tensor_shape {
        }
        string_val: "y"
      }
    }
  }
}
node {
  name: "HistogramSummary_1"
  op: "HistogramSummary"
  input: "HistogramSummary_1/tag"
  input: "output"
  attr {
    key: "T"
    value {
      type: DT_FLOAT
    }
  }
}
node {
  name: "fully_connected/weights/Initializer/Const"
  op: "Const"
  attr {
    key: "dtype"
    value {
      type: DT_FLOAT
    }
  }
  attr {
    key: "value"
    value {
      tensor {
        dtype: DT_FLOAT
        tensor_shape {
          dim {
            size: 8
          }
          dim {
            size: 3580
          }
        }
        tensor_content: "\261\313\331;\317\241\246<)\023\352\274\355\212f<\274@\006=_\231\374<\377\024\254<\333\n\326\274\342\251\010\275\n\010\236<\237\274\226</\010\235\274\260[\036=\347r+\274S\323\273\272\345:\014\273\n= =\262y\303<\352\242u\2720\026\363<\341W <\372\351\242\274u\006\351;fi\277<\010\343!\275\302\"1<5\\\262;\022\377\205;WV\026\275\030\r$\273\213\200\346\274*d|\274I[\000\275h\350\253;\n\214\233<\005\313q<\263\002E<=\235G<\275\263\212\274\376\251\022=\231\355\322\274R\326\312<\220\366\322\274~\241\333\274`\320\305;\312=\"\275\024\036&\274L0\t=\024\317\313\274\371G\243:=3#<\330\235\346\274%`\020\274\372|\004=3\211\210\274\305W\200<\332>&\275\233i\347;?|\236<\376\023\346\274[\367\016=\317\252\226\273\233\177#=&-\364\274\254\211\206\273\270)\017\275\232\321\357\274\034P\212<>\275\261\274v\336\004=\366\261\373<\372\254\341<\023\227\364<\210\230\313<\356\2043<\336x\2129ET\243\273h\210\010=\236\223\007=\221J\020\275\365\373\\<{\312W<\373s\036=}\272\016=N/\007\275<\033\021\275\223g\036=J6\023\274\372: =\247\220\362\273f\313\262<\013\010\315<\206\315\360<1\226\027\275\200\033C\274L\355\332<\353>\225<E^=<L\241\243\274?\366\r\274\372\333\346<\361z\014\274\031\200\037\275T\376\200\273\202V\375<\260\006\222\274SH\030<\375\330\"=\2413\360\274\275\3569\271$\300@\273\273\t\006\275\375\332\"\275u\250&=\223\242\017=\021U\343\274\370\\\002\273hm\336;\3564\376\274\2670r\274\276\307\355<\272\343O\274\207\2547<\031L\254<0\371\253\273\266@\375\274#\375\024=?\267:;\242K\313\274\tU$\275Q};\274\311-k\274!\372U<\001\333\333<\374\347\2629\003\364\350<\205\243\370\273\335\247\332\274o\234\t=\370\351L<\304%\021=\362\377\003\275\227\363\342\274\242\322\336\274_n\313\274E\025 =\223\233\360;X}%=\337\366\233<x4\340\274\367\013\006=\243\331\366\274\302\325\3769oO\222\274c\\%\275\003\331\352<\263\266\300\274N*\327<\010s\355<\217>K<\217\246\036\274\334\352\365<\243h\246\274\265\321\014\275\205\372\225<\230\336\357\274\204\177\266\274\000\304Q\274fPi\273\037\367\376\274\"\317#\2742\006\020\274\305\301z;\234\332\350\273\033\205\236\274B\034#\275\204.\177<\232\321\n\275\301\361\217<s\332E\274p7\n=\332\354\303<3O\t<V\001*\274_\362\265\274\014\256\"=\362U<<\232\303);Z\241\335<X\3536\274\221\275,<\302\261\324\274\331V\207\2737q\237<E\001\361<\365\\\032\275\336\r\017\273\320\311\276<DG\201\274\207\321\301<\301\200\006\2758\356\007<(\345J;\225\350W<\n\003\346\272\346\372\333\274\031\355\330<s\301\312;~Q\001\275;\004\303\274\010{j<P+\354<Z\234\217;DK\026\275\237i\'=\001Na\274\024wt;\371g\316\274?\371\032\275\245\342\272\274\0369\266\274\201\000p<-\233\363<\265\264\204<\313V\274\274[\237e<\376\030\033\275h\330%\274\200J\366<\217t\'\275\357\025\310\274\376D\320\274x\2514\274d\354\237\274\206\262\254;:\245\r\274b\332$\275h<\032\275+k\336\273\002\214\324<\236\301\010\275\334\374\376;\211\305\013\275\352\274\237\273\262\375~\274\363\354\226<\215E\032=\374r/;\254\251S\274d}9<\325D\341<\277\371\274\274I#%\274\324\203\376<\226\017\344\274\345;\252<1\3471\274\25351<\264N%\275x\"\342\274\227\266_\274\004\"\023\275\300]\217<\302\360-\272q.\336<vp\034;+\261I\274q\250\365\274\205\333\031\275~*\332\274\326\223p\274\337g\036\275\270MD<}\356\254\274D\203\205\274Uz\007\275_\200\027=fx\211;\253V\345\274\032\232\232<\241!\017\274\206\265\347\272M\223\005\275\023\326\002\275\233*\232<\t\351\003=\343~\t\275>t\211\274:\277d\274\323\307\354\274y\016\025\275\373\273`\274\250[r;\310.\'\275\344\366\004\275\310\352\242\274_\023\016=pe\330\271\324\216\007<VA\017\275\237\n\272<\'\361\315\274\276\206\022\275\265\356#<\021\337\206\273\325\026q\274\202\030\340\273n-\234\2731\341\025=L$\010\275\212\250\341\274s|c<m\315\253<\252\234\024\274\330}\022\275h\002\035=\266B\233<_\003\n\274+\263\362;\202!\321\273M)\367\274\350m\312;\010\375\243:;\2453\274\342\024\233\274\265\270\t=\330\205\000=v\213!=\334\202\320\274$\311\250<\226t\360\272\026\274\273<\nG\345<];\313<\335\025\306\274\316\006\025< F\247<\372\375\336\274U>\336\272\235\325G\273\332\310\327\272wG\035=\226\024\022\275\254+\205\274\307\320#\274\355K\373\274\217\211\032\275Y\337\016\273\243\\\355;2\361t\273\322\'\232\274=\274;\273\227\240\200\274\353J\246\274\207\271\327<\247P\312\274\r\263{\273\326\201\256\274M:\271\274`N\352;\223t\327\274=\235\252\274\275\320m;\2656\376<U@w\274\017\020\243\272-\035\r9\030 z\274\352\361B;#\031\337;\223\2444<zX\204;6W\250\274\007i\033={\251\343\273\315\377\";\315\027\347\274[)\023=\034P\014\275.\350\371\274P\005\225;\221\360\233;%!\255<\222N\257<\"\233\003\275B\375\037<0\242\025=\224G\216\274\346l\271\273PT\231\273\300\327\271\273\237\374\364\274Z\365\350\274\033\026\223<\310m\037=e\322\346\273Z\r%\274\370m\235\2736\313\024\275\266\236!<\352b\'=\362D\376;>\360p\274\036l\344<?\007\203<\211\307\025\274\014E\022<\267\352]\274\225{ ;aE\214\2731\336!=\023a\021<\310qv<r\347\210\274\227\311\222<\265\360\330;\305\313\232<\201;D<\327\006\274\274\272D\020\2754L\273<f\234\364<~\277\224<&n\t\275\306\315?;\237t$\275\n7\037=p\250$<\233\261\325<zt\314\274GS\004\275\206\036\213<Z\032\307;\335\377\270\274|\'\347\274\237KH\274k\344\033\275\351\307\013=\3004S<\r\257\357\273\316G\334\274\310-\n\275\242\252\007=mKN<\000.\032=\266v\021=^\030R<FD\201\274e\240\254;b\014\'=\226\031\333\274\'_\311<\013\342\242\274\301W\364<\026\331\356\274\252\356\006\275\225\373]\274\365\266\376\274\223\313\010\275\030\361\210\274F\267i<\202\321\234\274&I\023\275\250U\326<\024\223\374\273\000vr<\334\004\237<y\351p<\246\020\010=*\361\031=\347v\267<\251\232\330\274\313\216\260<\321\210P\273]S!\275\3203\345\274\252\021\376;\346=\034\275uB\'<W?\013\275o9\'\272GM!;&\214\320\274\310\352\003=t0\033\275\003\321\034=1&5\2746%k<E\314$=\305E\230;\002f =\375\023\000\274\210\220 \27477\205<\203\nh;\333\313\257<\177\243\025\275\362\216\357\274\177\320\365<\374\353\246\273\202O\305\274\350`\264:a\300\317\274\2208\203\274\232\377\177\274\202F\336<\215\014\224\274x\254\206\272\367v\000=K\321p<\327Ie\274\266\210\002:%\026\215\274\032\007\027=m\037\030\275w\317\300<(U\204\274,}\262\274\326\225\305\272V\311\341\273&\251\254\273Sy\342<\342h\023<\232\261\037=&\376`\272X\323\320\274\256r\013\275W\227\347\274\331\261 \275\0146\006\275\223\264\223<\024;\033\275\304\024\204\274\321\375\253;\203\240&=i8\t=\263\306=<~\365@\274\re\007\275\362# \275\227E\t\275\254\'\251\273r\3063<\255\352\362\274dI\252;\377\322\304\273\355\311\032\275<I`\274I\266\010\274\256\245\353;6\0366<H\252%\275\253Q\374\274\202v\346\270b\320\362\274\322\370\000\2759\335\256\274\372du\272\244\367\316\274\207w\007\275P]\211<\335o\254<\264\315\336\274\205\020\214\274\024l\016\275qZ\207<\307\356\022\275\024\200\253<\210\330\017\275#4\326\274l\232\016\275Q\325\331<\264W\314<I\010\312<\347\357\257;\320;\374<\335\024\013=\367A\241:\330\213A\274e\241\235\274\361a\022;G\225\202\274mwm\274z;\363<\025\223\362\274&y\034=?\337\016\275p\350\303;V\273\213\273W\266\304<\377\323\231\274\251m\2426\374\020m\272\230\242\352<\370V\360<N\t\377<\'\362\322\274h\250[\274\2478\035\275J\374\004<\216pn<3\010\013\275oA\251\274\034\240\035\275\215d\221\274\001\027\n\275\341g\312\274\220$\024\275\037\377t\273B\227\253<\245<\021\275\262\337\213<\2220w<\230\260\002=0\341\316\274\240\365\000=\034\372\026\275\231\203\267:\323R\302;\021\206\234\272G\344\315\274\265N\005=\326/\232\273\247g\242<\035\234\250\274\304F.;\360S#\274\200\347\375<\355\373\300\274pT~\274P\233\004\275\034\007\352\273\257\301\317\274\314>\257\274\020\374\212\274^\310\217\274c^o;\200\274\331\274G\370\302<\r7\325\274\2260\027=\007Qr\274zU2\274\347\267\026\273\004T\024=N%\331\274\373\235\007=6uh\274\367G$\275\306\235\033=\342$\367<\302p\022\275\274\264\021=\244;\021\274u\210\236<\237\265\327:\305h\037\275\023oH<{\373\022\275\"9-\274\2460\034=8\331\255\274.\271\302<c\342\013=9\330\346\274D<\013\275\365\005\035=*\214O<|7y\274d\257\307\2747\350\244<\010\345\001\275\".\017=x\302#\275\207;\223\274u\276\356<\025e\230\274\362\241\026\274\000\r\023=\246\351\347\274\206)\t=\r\031\254<9\037\237\273\366\230\316\274\356\362\247<\347`\244\272\201\024\250\273\260\355\361<5,\000\273Q\025\300\273\237\213$\273.\301\325<~\026\362\274\361\362\303\274y\320\251;\217}\363<\311_\"\275\231\363\245;\224\277\034=\316\034\350\273\257<\354<\376\373=<\324e\"\2747o\023=\232\230\t<\321\323\026;\341\020\025\275\260~,\274\3412\360\274\241Ap\273/v\316<\220r\246\274wu\213\273\337\2455\274\031c\021\274p\312M<\025\350\222<\306\242\366\274\210^s\273\006W\034<\267R\207\274\025\037u\274co\021=\037\022H\273\336\242];e\242\t=\361\266\203<pY\027\275!\200&=\204\350\021\275\002\220\256<\013\265%\275\271\266\210\274\304V$\274K\036\014<IP{\274\326RT\274%\001\333<0\017\010\275\377\374\306\274\354q{<\323\344\347\274^\\ \275\303\335\265\274\265u\025\275f\n.\271\273\304\375\274)\327w\274\376o\030\274\327\034\200\271\000y\261;\355\350\345\273o\345\326\274\365u\177\274\310\2670<\240l\243\274\357X\211<Y\024\242<8\315\354<\265\263\335\273WQ\\;\315O\017\274\002\273\206<c\226\243<\010\266\003\274\327>\347<O\266\321<\252D\001\275\245\252\205<M[\271<\224?\026=\213\325\361\274\226\214\355\274MF\005=\240j\304<\250\315\347\273\212\245\376<zf\260<\3167\223;\007\341\000\275:\233(\274\331\211\330<\265\3631<Qa\266\274av\336<S\360\330\274\2345,<\336\350\010=H\333\312\274]g\274<\236\376\253\273a\t-\272hA:\274\031\364\337<\001`\376<\247\234$\275\307U\020<\215\334\240<\357|\235\274N\177\3719@\345\334: \002s<\345\2273\274\246\251\031\275\347t\220<\206\200\003=u\361Z\274\250K\276;\246w\025=\350\320\t\273\310\376\364\274c:\215\274\265U\306\273\002\330#=\335\n\311\274#\344\372;\344\262$=\346\233\"=\3571\026=eV\320<\006\375\307<:x\306\274\254+\221\274I\363\215<\314\242\304;tC@\274\243\265\"\275\311\271#=\267\264\350<=\226|<\227\201\005\2730\017$=d\253G:\333\311\330<\304\314V;\254\313\341<\327\371\016=\311Z\377<gZ\002=\334$\323;\240;\373<\003\224`<\033S\335<5@\237\274\241\217\312\274o\210>\274\352\321\335<\225E\300\274\035\023r\274C\273\356\274\352{\031=\324\312\007\275\367\256\263\274\001R\243\274}\360\261\274tM\037=Y]\372<5!\310\273\271\354\031=\352\271v<\271\340\303;\021\363\373\271\013\325 =\216,\247\274\317\036\222\274\021e\'\274\214\247\322\272\031g\021\275D\201\006=\246%\014\275\237\377U\274\335\356\342\274\320\206\016<\216\330\010=\253\371\317\274gW\356\274\"+\025=\020\0040<)F\347;\023\003\036\274\237\006\'=\212\330\"\275\202\331\307\273x\272\002\275m\375\361<U\371\325\274\033%\244<\207E\263\274\004\340\177<d\247D;\034L\201\273k\231\000=Uv\311<M%\023=|\327\021\275v\206\360<\005\013\355<]\030\373\272\343\227\035<\350#\030\275\317\017\357\272\202\352\032=}\314\025=\206\263\204<:$N\274h#\021\275\201H\273<t!\232<\353]\236\274\343\214\235\274\374\t+\274\225\221\375\274\372{\376<\365#\'=\303k%\274\244\344\r\275\264\306\267\274\333\306(<\372:\t=}l\003\275\036\343\005\275\273\370\010\275\361\261\236\274\2638\027={OK<ww\321<\351\355A<\230\253\013:\277\272\010=\225\020\212\274u\013\033=\341\300\306\2748\317{;\372\000\253;\247\260\024=\264\253\252<{\320\301\274\376\236N<dw\371\272\017\204\020=\357V\365;\347\377\322\274\365\374B\274N7\243<\203U\325\273\254a\266\274G\212\224;\335\333\273;bg\335\2747\327\t=\021\366\014=\347x\271\274\341\272$=R\377\363\273\"\023\017<\017\177\335\274J\344{\274\027\205\020\275^;\354\274R9\267\274\233\025\360<\000\032\037\275x\307\346\274\000\312\271\274mV\016\275!e\275;\263\347\264:{~\215\274S1G<\225\243\351\274\225\027\355\274\023\215\215<\030\360\355<\003\\\017=<\367\215<\347\205\t=\352\232\362\274Y4\216\274iQ\267<VL\277;\231\361Y;G\0059\274\312\261\201<H{\335<$\007\371;\025\324\342<\002\273\254\274\254\352\361\274D\363\036\275\272\332\014\275\222\333i\274\237\240\024=b\004\014\273\226S\n<D\007\234\274\262\301\355<\200rA\273\013?\237\274`\323@\274\201\243&<%E\234\274~9\374<I\t\260\273\244\241\031\275\030\332\030=\321CA<\351\317\374\274W]\031\275\367\026\347\274}\316\'<]\265\223\274\255\273\t=\225\016&\275\244\347\327<E:\212\274c]i\272Z\335\307\274\244\353\313\273z\214P;\254\235\001=_\263\n=L\"\301\273?\313\274\274\362S\373;j2K\273\353\017U\273\317\251\225\273\302A\376;\256\220C;\210\262\217;\351M\300\274a\340\261<\246\267\003=\027\220\246\273\260\221\001\275M\245%\275lr\007<\216?\005\275\025\256\t<b^\374\2745a\347\273\004&\237<$W\311<\364\207\370\274\224\322\233\274\3312\227<\206n\026\274\312\204\254\2739\335!\275I6\002\275![\023\275\242\303\243:\017\247\031\275\324\223\272\274\314\242\234\272NEn<\336\007\337\274\271\035#<tW\215\274\266\224\242\274\303\327\351<\313\367+\2736\315\202\274\321\226\036\275m\227\374;\351\213\346<\267X\270\274\254\372\311<\303\353\003\275\021\251\236<6\336\327\272\325\307r\274W\242!\275OK:<\010\376\227\274?\345\021\274Q\262\002=\200\004\024\274\327\017\232\274\233\275\220\274\225\277\220\271\034\263\307\274\355y\351<\\q\311<\263\"\331<\231\270\034\275#Fr\274\377\351\001\275v2\362<^\317\305\274\017\324\030\275\037D\260\270\325b\341<C\017&\273\376\305\264<\031\234\303\274%<\036=\027\347\315\274\345\251\333\274\244\n\264\274\031k\323\274\205\005a<\005\323?<\306t\227<g5\027=\2543<;\356\227}<\010(\357;\221%\315\273Xw\330<\2155\330\274\250#\t=\377\251R\274\250\331\202<\240\324\367<\373\216\223\274\307Y\021=X\375\236\2748|\030\275\334S\007\275\315\363\262\274\327\301\032<W\200\257<\256\312k\274\307\317\262<\332\253\347\274\n\205\372<m\272\370\2743@;\274\373(\207;Si\342<\314\361\020\275\321#\206;\242\214\014\274\261d<<w<\265\274\357\234(<S\321\030\275]\232B\274{\326\017=\002\256\371<\310{\326<\010t\371\274\365\257\021=/\013\000=\230\221_<c#\023=\310\267\324<\225\021{<f\264\014=B\334M\274\254\233\356\274t\212;\273\220\372\306<\236m\322\2748+\324\273\302K\264\274<\250\032=\337\305\030\270\373\324h<\314\266\001\274\006\202S\273\234\366d\273P\307\211;\314f\373\274\021t/\274\351\321\341\274`\2218\271G\301[<\314\225\023=3z\244<\307\216\036\274.H{\2741y\231<\240\260%\274&\333\231<9\016\253\274\314\035\005\274;\370\201\273\235s\003<\031\370O\273\244?c\274H\337\005\275\252*\246<c\035\r=M\350\275;4\036\242<\217\001f;}\376\306<\351F\315\274\3403>\274\312\022/<E\363L<\216\0300;\203\023\202\274k\232\021\274\240\037\206\274\200\225\370:A4\205\274\367\233{9\274d\365;\244\333\351\273\021\251p\274\002S\026\274\217\265\255\274J\307\245<{,\377<\211\\\313\273\361\301\001\275\003>\361;\256\"\256<\217(Q<\3772o<\217\333M\274\354\007\236<6\314+<\275>\261<\241~N\274\036\001/\274kT\350;\266\215\344<\031\371\264;a\241\001=\020\254\342<\344o\036=\206}\n\275a\014\242\273\375\001\255;\032\252u<\253)$\275\200\022\365\273\017o~\274\372N\333<\363v\362\274\276\"%\275\364P\032=\313\373\023=ZQB<\363j\357<?\341\262\274\037\270\366\2742|\333;\200\236\213\274\252\247\253<w\232\260\271\355\207\r\275\214\334 \275\340\255\251\274\327\021R<\222(\304\274]+\004\275O\254\311<\3559\226<\335O\307<\n\t&;\271\210\033\272\037\361t<wI\'=\276\333\277<\345\364\r\275\251\335h\273\317\3407<-\340\356\274\372\177\014=\201N\340<\\\202(\274c\320\262<!Y\013\274\367\306\207\274t\333\333\274\265\007\330<\267\337\000\275\3671\351\273\021#\353\274\373\224#\275D*\301<\213\216\036=QO\333<\373&\303\272\207\\g<\210\177\016=U@R<d(\365\274\272\371\262\274\240\227\303<F_\017\275\212D\230<E\014\033\275i8y<Sj\344<N\233\021=k\013\003\274\301\2312\274W\340\351\274\201\025\207;\037\246\354\274\256\030\255<*\370\"\273\325\265\350\273\256\310\360\2748y\303<\216\237#=3)\217\274.&\231\274\347\357\211\274\373K!\275\020\'\325;\007V\002=\224\226\372\274\274\246\371\274&\270\244\274LB\264\274c\222\254\274\232A\203<\"\243\236<\351\034\360;!n\365;\025\303\251:\341\330\342\2744\377\212<\365d\360<\325\365d\274?La<Hg\252\274\375\r\002=\220\004\357;\322E\023<J\366\032=\304\031\356<\276y\255<\260\246N;7\340\315<\207\241\r\274\003m\202\274\313U\017\275\324\037A\273r\366\244\274\334+\243\274\346U\247;\305P\322\274\354^?\274\007m\221:\t\227A\274[\261K\273r;\332<\347*\376<r\354\274\274\350C\363\274\340\"\200\274\031/\277<\307\253a\2720b\224\274\305\376\017<\300\315\035:\353\"\377<\301#\006=\250\254/\274\270(\341\272\373\311\266\273\261^\265<\000+\013<\313\247\250\274q1\366\273\321\326\311\274H\256\351\274\236\235\370\274\236\343\237\274\340U2<\177\222\037=\345\014\231\274\006\273\024\275b3\342\274\255\032\021=ISE<s\254\307\274\204#\360<\035\237\340<\036_\213<.C%\275\262\024\265<\"%2<\013\352\217;\374I-<\326\020\024=\237\236\226\272S\3404<\256\2639<\221\357!\275\231\264u\274\216P\253\274\221R\023\275\332 M;\316^\264\274\221\332\036;\377e\023<_\200\245;\361?\212<_\235\373<\217\241W\2742\242\024=R\205 \275I\220u\274\3723\374\274\n},<fu\251<\234\256\234<\273\304\033\274\315\313\037\274 s\227\274H=L\273?\354|\274\231-\024;\327\337\021=\2535\214<H\263\243<\324\376\344<( \206\274~)\336\274\3721\330<#R\275\274\244\223\365\2749\373!\275\210\206\003=\327\017\013=\231\250;\272\376\240\276\274\317/\254\274,.\023\274\234\363\005;\014\216\271<\334\002\227\274\206\314\224\274\361\364\017\274\2476\006\275]E\032\275}\"\265<s\241\340<\204\217\224<\310F\314\274\276\343#\274\340\222\004=\255\276&<\314\267\004\273\003\020^\274G\263\276\274P\000\'\275]K\372\273\234\371!\275\242\315\222\274\003\222\014\274|\251\232\274\267g\256;5\204C\274\000\202\326\273\315<\343<\313u\t<oY\344<n#\037\275s\024\036=\037>\344\274&\037\031\275\342\306\336\274.\305\216<\275\036\265\274/Zo<\346\021\316<\211a\"\274\231\332\027\275@9\006\274\025\202\356<\335C\r\275,\010a\272\3609o\274\245\315\244\274\361\322\016\275\322\226\232<\304\361\202\272,y;<2\360\276<\3436\265\274\370\261\021\275\373\277\017;\027{\350:\376\274\032\274}\330<\273\325\252I<\254\221V<E\366\375<\034H\026=d\374\362<w\017\034=\323\206\213\273\253\314d;\240\000,\274\256\201\332\272g\303\016=\253\267\307<c>\310\274[U\262\272 \257\035=g\274\367\274T\375c\274\0258\373\274\336q\002=\337\323\273<\340\314\033<^\372\032\275\210\177\235<\236\230b;\217D\024\275\365\222`\274\177@\031\275\035\020\"=\274\371\032=\347\321\246\274\311j\003\275\300\216?\274\237\272\351\274\216 e\274\331\024\010\275\277\304\335\274\236\335\001\275\034\276\n=\205\036\031\2747\016q<\331\226\272<\276\352\202\274f\024\341<P\221\226<\371m\007\275\257\364\2619{Bj<\226\261/<X\227\255<\267\327\037\274_\333\257\274w\333\250<\303\364\017\274\002U\217<\001\214o\273\n\215\027\275a\360l\274\321\256C8\246\n\376\274\3572#=\0165\371;\003\306\274;\264\317\3609j\315P\273\373IA:\270g\005\272\370\021\037\2755B\361\274\253M\320\274\335\246\251\274\2524P\273N\005\230\274\017`\023\275\375^\274\274\325\353\232\274\"\207\022=\264\0374<U\242\216\274\262\206\023=\020\234\324\274\000\256w;p\361\331<\317\001\245\273\201j\233\273\237}\007<r\007\006=h\221\325\274JM\373<\013\374\361\274\360\235\327\273\nh\313\274?b\260\274 T\021\274\007\377\350\274\237i\004\274\367\263\027=1\300\231<)\351\201\272\207\366\022\275\244D\264<\260\317\347<\3167\007=\214P\236\274\355\362\244\274\221\351\221<\204D\017\275}\3319\274\332\020\300<\241\013\377\274\222K\272;\302\362V\274NY\334\274\2308d\273\307\210\261\274\026[\365<\357\242\243\273\341K\005\2759s]\274\'\274\026\275}w\240<B\220\017=]2\213\273\030d\005\275\302\257\202\274S\207\252\274\332\363\021\275\331\344\307\274u\212\037\274\031\371\345;7\337\037=\001\300\261:\261\247z\274q\262^\2746s\010=\273\315\236\274\370\370\351\273x9\227<\220z=\274\033\022\341\274\356\033\027\275A\333\344<ZD@\274\3209\253<\032\234\000\274l\035g\274@\035\026\275ve\260\274\3677\024\273\271^\336<\341K\032\275\211{\005=\376N\370<\302\226\360\274{\254\021\275\350S\250\274\326\327\303\274A\226\235\273\232\317\206\274y+\253\274\223\035\223;\3017\033;\013\327\241<\304&#\275\350\020\001\275\212\302\241\274\\>\357\272\0211[\274g\241\303;\203\"\004\275I\r\320<9S@\274\225\003\211<\316\013\357<f\307\027\274W\266t\274\025F\224\273\276\331\026\274\377\220-\273\313\320\323<\350/k\273\224O7\273C\274\021<\370\214+<\000L\211<\240\335X;8N\302\274\254\027S;/[i\274}\206\303\273]\n\030\274\001\312\354\274\352;\311\274m\037\"\275\177h\353;yB.\273?p\036;\306\333\220<\207\013*<P\275\345\274\355\221\0268se\376;)K$\275\221\346!\275+:\027\275{\304\277\272\223P\253;Z\216\010\275G2\364\274\320o\323\274\310f\024\274H\030\006\275\361dR\274F\013\363<\264\207\354\274o\321}<Q\251A\274K\002\343<pg\311\274\366\362\003=\330\014\024\275|\340\277\274\003\251x\274$J\006;G\204S\274\'\242%\275o\361\024\275S(x\274\206\034\006=\334)m\273\253\364 \275x+\"\275P\253V< i\021\275^:\213\274\310\302\356<\255\'\021\274N\033\215<\366\007\000=N\245E<\2645\003\275\272\255\2038\363\214\234\274^N\001<\353\210\213\274UK\003\275\374\202\206<\372\377\017\275\347\204\013\274\\\370\023<\371\336\301<.\235\016=s\325\232<\232\246\205;\021\352\257<\274}\331\274-\277\301\273f\317u<\200\210e<\313\353\001=\025\201\217\2742D\310<\217G\246\274\261\344G<!^\263\273HL\343\274\345\303\256\274\013\213\204;\260x\212\274\311\261G\274\346\311\r=\341\002B<r`\\\274\213\\\223<\030\035n<\002^#=\346\306k\274\216\327\001<`\020\002=\347\375\n=K,\001=}\\\377<&C\352<\326l\356\274\'<\010\275a,\"\275\002)\267\273\207\272\n<\0308\263<\223\356\034\274\257\325\005\274\362x\305;7p\246\274\027U=<<\233\302\274u+\n\275\265\351\004=fs\256\273\226\273V\274\226!#\275t\206\222\273\026\332\203<g\023\345<\000\362\362<=jq<\376\256\n<\230W\005\275\221\246&\275\231YY<-\315p\274p\210\336\274!\266\323\272g\232g\274\224.z<\307\205\337\274\246\007u<\321\211\355<\204\325\366<\177\305\227;[\357\277:0|\221\274\233/p<\271\214\270\274\345\376\272\274\242\333\2579\177T\345;8\377\364<\274\306\341\274\211+\317\274\244\330 \275L\223\035\275M2{\274\256F\227;\211\263\017=\000\301\007<q\020\n\275\037\362\351<\372\331\240\273\352\246\005=e\343\'<\304\342\017\27402\257<\375\240\322<\266\310\344< }\307\274o\354\250\274D\270\002<\025&\251\274\277m\037\275\362\373\207\2746j\332;\235\\\306<\254g\321\273V1\254<\224\020K\274\332\352\326\273\221\277\271\274\213\351z<k\351\026=\301?\220:\332\001\334<\"\307\037=\021\000\002\275},\240<\305\335\312<\300 N\274\020\206\374\274\237\355\022\275\206`\333<9-J<\343C\036\274|\266\310\274\264\315\223;\026G\030=\201&\262\274\306\375\234<\357z\241\274\324\363\376<Lr\276\273\340:\021=\3272n;+\231\202<b\374\312<>\213\257\274\356\326\374<\217&,;\216\304\365\274;\201\026\275 \317\021\275R\223\331;sL\373;\316\227\327;S/\200<\204\211\030\274\261\355\232\274)D\246\274\030\361 =\020\020\t=\013\017\254<|\266\376\273\240\t\320;\240z\"\275\341g\330<\330\024\005\275[\362\000=\361\230\013\275\261\022\270\274X\2316<z\324\004=\351\353S\274\270\034\023\275\277\264\230\274\007/\200<I\261\375<\251I\000=\332\312 \275p\3479<\357\345\234<\322\272\204\274\211\335\306<B\023\327<\377H\203<\t\032\236<\006\225\n=7\270#\274\366\n\236\273\276\352\370\273K6\375\274ew\325<l\274\r=j\271\255;V\026a\274\274\321\025\274\373\366\244;9V\334\274\321\371\016=na\371\274B\345\317\274\316o\263\270)u\030\275.\337{\274)\360\n\275\342\247\302<\004\372h\274\350A\002<\331\212\271<kV\035\275\327S\355<\231f\241\273I\224{\274=x \275`\340\247;A?\232\274\206(y<\347\327r<\357\213\246\274\241MF;\357\177\322<t\371\231<\001E\245;\226\335\311;\241\306\027\274\3408B\274\211\212\214\274\217\372\275<#\017\373\274.\256\243\274\010\271E\2735!\376\274\211\332\300;l\004\003;\024\\\006\275\223B\016\274\336=\237<W%\242\274\236\024(<\270\270R\274\252l\017\275\276<\t\275z\212\013=<\271\n\275J\244\254<U\021J\2727m\'=\317\367\252\274Ud$=bn\026=6\253V\274M\252\306;\204\363 \275uS\223<~\037\232\273\305\303\335<\252\300\013=/y\313\273\211\201Z<\033\207\320<\362A+\274\242\231\354<\314z\210\274\005\246\314\274\021\201F\2729\037\267\274O<\306<\311\016\323\274\300\251\202\274\326C\"=\201\276\216<\247\365\004\275\033\324\270<\250\270\250<Z\250\334;\000\201\007\275R\355\032<\303r\"=\027\031\266<O\022\007=\2536\352<D2\225<\235o\"\2748\274\034=~U|<a\030\240\274?\307\217<\377\225\021\275$\240\027\274\316\224A<\311\332s<\'\350\230<1\235\316\274\367N\265<\3615\232<\264>\001\275\353j\016=\333\270?<\241?\250<\273z\273<\001\022l<\3167\001=\005?j;\n\250\244\274\014\367\373\274\027\226\372\274\242\252\346<\312\345\275\274G\323\020\275\321\232\235<\204\321\003=\024\"\342<\272\353\264<\232\357\262\274\031\342\220\274\270\262\022=\205\220\007=2\033\313<W\336F\274j:\317;TQ\310<6\033\272\272\214!\202\274\334k\260<\227\274\206\273\013\001\247;(]9\273\264\220\302;\022\266@\274\031\277\244\273Z\024E<\307=\227<)YW;s\205#\275\305<V<\352.q\274b\257\2079C\024\003\275\272\265\023=>;\273\274\234\243/\274\364y\014\275\004\026\375<\304\351\022=k\\M<q$\027\275\220?\017=\364\361O<\365Y\267<T~\357\274\033\377\024\275|\032\332\274\233\264\312;\206\310\023=\322\016\'<\237\237S<s\207\323\273\006\215\300\274\305\301$=\275.\013=y\010\034=\301\360&<\360\325\030;\025\251\r\274\210\306\230\274\031\363\311<wm\031<\352\275\023=\206\033\017=\332\357\205\274\365\233\202\274\326A\275\274\002W\304\274 0\1779^Q\341\274\307\336;<\360\020%<\005\262\037=\226\312\335:\312\020J<\301\254/;~\260`;\257\016\371<\304\351\014\275\246z\327:F\334W<{\312\346\274\315\204N\274\254\n\006\274\252+\275<\005\r\256\2743\033\025=\004\345!;\251\346\277<\023\313\324<Pb\234<1\000\221;\266\347\027\275,\273P\274\272\277\206<\312t\365<\277\310Z\274\2625\342<\264$\345<\310\006\001\275\231\373\314\274e\007n<\351\361\221\274TQ\246\274e\n\005\274w\010\n=\355{\342<=u\330\274\276\354\013\275\334\216T\274\212\304#\275-\330\310\272Tc\222\274z\030g<\310\211\322\274;*q\273=\252\007\274\363\222\276;I\247\033=8\333\027=gX\t=\300\277\356<u\034\035<\336\352\320\274\002\374\333:p\341\244\274wvN\274\230Y\273\274\006/\236<=\027\037=\205\023\341<\330\373E<\325i\361<\304\327\263\274\330\210\010=/\364\006\275h\323\215<ep\232\274\340\033\000=\200\257\337\274}\350\212\271\"\377\343<>/o<\226\360\016\275n\226\026\275f]\002=Sz\366\273\320\222\002\274J*\270<I\035\333\274\322S\022=\235\030\307<\201\352\030=\202\3411\274\261\376\017\273\037\004\272\272\355\232\000=\375\326\030<?L\316\273\337\206\377\274\3402\306<1%2<j\371\005\275\254(\220;\303H\023=+\212\365<\273~\267\274\214\335-<\342\021\n=\207\002\022\275Fj\347:au\\\274\332s%\274\034\221\004\275\352\242\t=\211\313\006=\372\300B<]\352\034=S\0207;\254\006\334\274\024\356!=]\233\354\273U\177!=\252\246\221\274\254I\221<5\000\376<\003\202\246< \\\007\275c\334\333;[\231\252;m\310\257\274\343uh<U\330\026=\275\002p<\316\nl\274\362g\177<R\224$\275VD\301;\\E\334;\331d\005\275\324[\306<\027\363s\274\204\263?<H\035\002\275\031\361\272\273\202\216\021=\300\035[<R.\217\273<7\346<\340\243\007=\002\366\315<\024\205\237\273{\220\002\275\217\026\004=\177\3331\273\213\315\020=\350\247\010\275\332\037\363<\201\204\311\273`z\273<\3307\246\273\252\351\333\274\0038\374;\\\001\340\274\034\n\024=C1W\274\250w&\275\201\231\020;\260<\203<\200VB\274\033\377 \275\225\212\020\275P\342y<\210d\260\274\005\352\360<Z\340\245\274\200\373b;\222\207K<\221B\366;\026\321\254\274\032\377\025\275IK\335:\226\275\030=c\360&=!\016\036=\357\003L;ji\327\274\304\"\347\273l\215\337<\374\033\206\274\222\000\016=\207p\357<)H\n:\246Y\363\274\232\205\333;Wo\t=\217\345\r=L2x<\177\302t\274x\353\n=\360\345\002\275\032& =\242K\304\274\336\303\242<\327\275\322<\271\305\205<\241\023\274\274r\nH;R\346\002=\"\037\203<c\317\315\274\244\200\347\274\216\333\365<\305\275\230<!\n\'\275\227\226\033=t\367\026<A,\270;E! \275\250\022\321<i\"\224\274\375\357F<*\365\225\274\353j\036\275\3061.\273\214\206\027\274z\300\272<P\275\022\274\306\233\006=\315\236\342\274\231\370\246<\027\373>\274<\351\374<\300-\214<k\215\005\274\365\206d\273nS\030=\007\006{<q\333\327<\350\000\017\274\277z\021=o\035\005\275_\244\363<\326\234\007\275\010_>99F\010\275\004\357.\273\030p\014\275\370\233\200\272\321\363\373;\231n\371<\034\201\000\275u\342\350<\033\266\017\275\017\030\234\274_\360\236\274\305M\310;\373`\n\275,\356\021\275\351I\250\274\202\026v\274\2708\035\275\203\033%=\226~\215\274\371\033\211;\267\016\034=K/\014\275-f\254<\031.\341\274h:\227<\332,\230\274Fu\240<\236r\376\273X\360\352<\203\250\360\273\022J\242<\275\030\375<\010\323%=\177\005\203<\240>\035<v\"\035=\276\035\276<$\017\251\274\357\367\026\275\361-\271\274\025\221!=\327\225\\\274\352 \027\275\307\247\032\275\261\264\243\274\213-\347\272]\342v\273\332\341\217<\271\241\211<K\234\267\274I5\014;\007z\234\274D\215\370<s,\364;(\360\000\274\320?\207<H\324\001\275W\336\363<C\231\212\274;\330\"\275\367\365\006=\223\023\242\274\234\333\242:\031w\034\275\237\177\357;0\270\242<-\275h\274\2065\037\273\206k\246<\303\024\032=\253K\222\2749\237i\273\026C\216\274`\327\374\274\347\311\002=x\301\335\274[71\274\306\250\004\275\001\221\'\274#;^\274\r)\335\274\301\026\"\275\025\310\023<\252i\003=\325M\027=\353\304\"\275\202C\030\275%\237\\\274h\206\033\275}hk\274\336\353\200\274\371\0068\272R\340\202\272\340\234\362\272\010\304\223\274nfg\274\204\372 \275*q\266<\342z\r\275\274\340V<w\030\334\273\217\2230<9\337\010=\000\252\220<\316\"\250;a\177\341;\267`\261\274\235Y\177<kf\275<\375\210\005;\217/\334\274\024\347\037=\270\211\351\274\221\242\030\275\365\225H<j@\004\275T\306\005:2+=\274lt`<\3137\356\274\030\362\212<)\215\331;\007\334\037\275<\317\317\274d\236.<\227\326\021<\305\252%<\315\233\000\275\023?\255<\202\236\200\273\3378\007\275\261*\327\274\356l\376\273\000z\364\272\216d\335\274\311\010\034\275Te!=>\202\353\2748W\001\275X\203\367<\243r\214\273\354\336\021\2752\363\311\274V]9\274\323Y\202<\224\201\337\274-N\025\274\344\311\021=\371\274\326;\361\314\372\273_\307\006\275\332\247i<\023\254\204\274\372\252!=c\320\233<\022@\2209 \013\306<\201!%;\016\024?<s/\014\275\272\321\002=b\252~<Q\364\014<\336\216\303<\346\335\033\274\014\235\206;\323\341\2018}\352\273\274\031\261\007\275+\264\004<\024\350\023\275f\362\314\274\275\201\026=\301\264\003<\000\n\316\274<\325\312<.\276\234<\234JB\273\375\003 =\241\336n\274\326\375\275<\342y\221\274\262\242\254<\262\270\373<\3328\270\274\221\227\016=\225tx<\263\026\325;\233YF;\364\264\023=\217\024g\274\031\223\014\275\361\232\000=\367I\021\275\317\255\363\274\256#\n\275J\2631<Rq\024\275\006\311\233\274W\347\203;\202n\252<! \254\274z\022\202;1S\227<jy\377\274\315P\203<g(\215;\350O\035=n\327;<\357\252\244<\372&\205\274i\230M<\310\305S:\0050\210<\221\337\213<K\360\314:v:\246<\215\277k<.\305\207<\233OS;A[4<R\260K\274\240\217\226<{\370\220\272\007\223\007\275\337\017\023:\351\340\226<A_\337\274\204w\223\274\272\016\3728\n\231\001\275&\024\326<\253\327!\273\305\236\004\275?\231\005\275\"\235\377\274\203,3\274F\223d<$\274|:W\353\020=Z\261\014=\253\tm:\360\356\207\274\025A\367:\273\tE:9\006\036= \0262\2743\257\202\274Bp\356\274\347\243\234<y&I\274\2631\r<\0141\002\275\014\354\244<\211\320\262<\364`\022\275\336\310#=S\204\3139A\236\031\274}\317\020\275\2141\022\2756#\322<Ux\367<B\364\323\274y=D\274\225\345\255\274\037\235\360<\321bf\274\305\252\"\275\255\027\312<\254r\021<\362\234\031\274k\334%\275I5\010<in\004=\354O-<\220\235Y;\316\320\321\2745k-<\250\017\254\273\030}\341\2739\026q<\202\366\245<\376\210$\275\210y\275\274:\3361<\314M\335\273\262\034\357<]\306\263<\261Zs\274\3227\375;,\034\313\274k\353\270\274\311\271 =\350NL<\n\373\272<\024\312\222:\031\'\221<\315g\336<\023\027\254\274\223\014\337<\243\320$=n\351;<\260\236\265\274\224\235D\274\270\014\035<\342_\226<7\002\240\273\255uB<N2\217;\3139\353<\366\nH<J&}\274E\252\323\274*]\310\273\240\024\237\274\302\344\026\275\350\276\240\273Z8\"\275\333\003\226\274\032\213T;vc\021\275\335\247u<\315\357 =9\330\217\274\315l\037=\031)\312\274\376\223\037=\350\335\331\273g\321\271<\372\t\230::\004\337;\"y\261<\311\016\214\274!\263!<\343}\273<\351\345\017\2750\025\300\273\223\026\224<\021\322\361\274r\025:<\232\373\272\274\031\254\261<\203\371\227<\361c\036\274\246\247\222<6\202\235\274\300\261\310\273\317d\022=9o\013\275\356\257 \275\334\260#\275~\227\255\273;\254\337\274\360\266\363<\034S\365\274W\320\322\274c-\035\275\252\337B<\016\240\033=\307\033\223<9\203\220<G\300\262\274\272u\255\274\251\251\245<\262\312\034=\367C\257\274\251\264\272<\377xu\274\334\341;\274\261\357\245<\364n\n=\306&\n<\247c\321<\362\327\225<\315\215\277\274\270\000\267\274\027p\025=\307l\304\274\2410\217\273\212\357\326<jC\273\274\014\235\215<\\\245\010\275^ \320<\352\001\353;B\017\271\274Bx\026<n1 =\3571\020:\017\335Y;\335]\304\274\246\225\224\274\331[0\273\t\351\350:\237\002\033\275y\244\325\274Eo\024=\305Z/<7\260\252<\314_\373\273\275l\207\274\214n\270\274\006@\307\273\233\356\332\273K\220\300:\365\345\023<\2513\376\274\331\306\025\274{Q\214\274\215\2264\274\014\351\370\274b2\227\274\021Yq<s\264V< \244\234\274\327\314\337<-q\317<\212\030\357\274$\324e\274O~\364\274Mc\026=\031o\021\275\'\032A<\361y\300<\345\223\273\274\375\013<\274\325P0:\257\025!\275\2434\024\275p,\314:\362\r\021\275\030<\356\274g\361\242\274\226\r\001<\207(\031\275e\\\261<P\273\203\274m\003\223<o%6<s\006\005\275l\251\026\275\227Z\t\275\366\226&\275t\013\301<@:&\274cY\245<\326Z\317</0\027=6\250\331;\205\3015\273#\"\274\274\210K\"=R^\367<\205`=\274\301\'\025<\312\023\346\274\261\230\344<\333\365\352\274\252E\324<)C\277\2743\323k\274\000\235\031=\317\252\327:\230\033&\275\205\357\351\272\255j\346:s\205\013=\234?f<\240n%=\'z \275\204^_\274\006D\337\274\275\236\201\273\255\333c\274\327`\216;\263$\327\2747,S8\2657\334\274\013\224\301\274\371\262\212\274\375\315\320<c\341\323<\371f\254;\2557\t\274K\027\276\274\036\334\267\274\207\177\372<Q\235\247\274}\303\303;\213w\355;\234\"\312\272\347\301\244\274\230\200\205<\2424\367\274\010\032\010\2736\316\032=\346\266|;t\n\007\275b\001d<aE\200\274\363\360[\2743i\004=\230\320\306<\316I\322<R\201\037<\317\360\214;[p\213<\320\207r<\234\371\274\274e\254\257<gg\217<\342_%=i|\326\273\361\240\033=\324\337\004<B;\300<\013\326\243:\333J\036=\"\363,<\224\027\336\273\322\325\334<z\370\270\274\213:\300\273\020\263\024\275$K\271<\3173\271\274\030\037p<_fv\274\237\004\335\274\240\376\227<9\331\"\275\020\211\027\275OZ\014\275RM\344<\303\256\313\274\033\006\345\274@V~\274\243\204F<\360F\216\273my\r\275\351;\014\275\364\037\212\273\322\323\023\274(&\310<\355:\364\274\014\275\330\2737\232\001<VC\003\275v#\021\275E\230\220\274\364?h\274\t\031n\273\245%\000\275H\024\021=o\253\020\272U\303\n<\311\250\256<\222\266\026=\232\223\317<m\001\214\274S\244\037=hV\252<\313\232\335\272\317!4\274\221\244\364\273\356\320\202<\007\017\362<:\302Q<\215v\032\275\357^;<\311\374\030=\243\322k<\023\303S<\202Pl\274\026\026#\275y\023\204\274\371\000\270<\020\330s<\242\253\023;\222\032\346\274B\233\n=\200\'\r=rw\233<l\364R<\227\207\034=3\0375\274\016\216\222<\225\230\303\274$\364\361; #E\274\210W\030\275J\020z<\017\004\004=\026\226#=,G#\275$\337\"\275\252\372\222\274\261\027\200<\333C\036\275\004\342\333<U2\364\274\255\240\313\274\020\345\360<\025\325/\274\010}\201\273\373\257[<\237^y\273\344f\254;\323\354\256;\350\014\310\274\312\324t;>\312f< 0\301\274\334\371\022\275\252\300\r\275\2757\033=*j\321\274\325\210!\275\226?\312\274;\271\327\273\360\352b\274(\331\200;{*\213\274\223\257\271;h\210\"\275\230\303\214\274O_\023=\364!\374\274\006\033\016\272\265\324\014\275\216\250,\273\025Y\351\274\223\326\014\275\261> =\212\211\003=W\364\206\273S\333\246\272)\323\014\275C\303\250<\300\225\257<\340*\315<\355\303\244\274\232\365\370<\220\206\003<ZkD\274-\317\264;r\021\244<gjz\274\371H3\273P\030#\274\233\315L\273z\365\257<\204\357\342<\364\213\022\275\021\231R;F\222\313<\333H\267;\204!V\274\302\n\305<J\337\303\274k\313\017=\277\236\215\2737\343i\274/\357a<\373\006\000=\340;\023;>\315\257<+Z\213\2747u\010=\360\273\327<\374\025\032<g\233\367\273\352\312\204<\022\243U;\030\370\242\272\004 \225<\233K\266\274\316H\223<Z\326_\274o4\354\274\257\014\231<\303\365\301<\227\002\035:\310\300\305<\207\333\364<\235\334\313<\231\342\303\274S\007\327\273\007\023\034\2757x\003\275N\277\241\274\317+\370\274\320\323\035\273m\006\'\275\376X\007=\252\376\353<\016\327\206\274\332o\000=W\252\274\274o\274\030\274%\367\026=`;\366\274o\345\017\275fa\230\274\3421\233;\335\243\002=]Y\214<\027\205\277\274\241\235\243<j\256\001=1\273\025=n\310\226\2724\330\202\273\005\303\035=\023\333_\274%\351\r\274\300<\003\2755\374V\273\271\235\017={\326\t=sW\264<\005T\002\274\262\360[\274\212\207\361<\346\0106\274R0\021\275\025H&\275\231\335\032\275\236\324T\274\007a\014\275={\227\274\330\277\314;V\021}<\350I\034;\303\224\316\273\313\264\020=\242Y\355\274\245\031\001=Q@\211<e;$\275P\255s<\314\343\001=\"3\201\274\227i\001\275g\033\322\274\264\200\017\275-\211v\274\\\310\007=\215c$\275m\335\356<Vb\374\274\\\035\t=a\010\201;]\'H\274\305\014}<K\374\262\274\260s\374<\300\260\224;\250bZ;GW\016</A\301\273 V\277\274\350\344T\274x\031\026=`\326\034\273\\(\022=wz\250\274>\374\311;\376\006\023\275\236N\340\272\217\240\001\275\021-\r\275\023\204\266\274\255\323\272<\301\352\204< \270\020=\222\266\274\274c\273\311\274f\227\233\274Z\036\303\273U\376\201:\361\256\313\272\236\234\240\274\2147G\274\032*\004\273}%\272\274T\030\354<$\3469\2747z\r\274d\333o\272q\264\245\273\347\314\021\275\2173T<\033W\307<\223\363\255<w-\351\273\022\336c;\006\216\340</\207\306\274\260\344\014=\321\311U\273\2020\326<\364>\344<\377\316\351\274]\276\263\274\006\214\311\274\231C\027<\266kL<\220\021\302<\346?$=B+\332<:\325;<S!\263<M\361\356\274v\267\3428@\260\022\275\007\003\342\274\356w\261<\354\270\020\275\337\264\002\275;\307\264\272\250\264^\274\342z\r\275\337\250\326\274\327&)\274\3565\326\272\226m\314;ag\355\273\313\306\025\275HQ\024<P\341\306<\304H\230<\035\353\347\273=d\272\273 *\330\274\362p\313<\320\330\361<\246\216 \275\234l\032\274\0204\361<\007\035\017\274\336<\272\273\226\212\031<\275\237\247<x\301\246;\353\240y\274\240k\200\272\375\375\364<\210\020\034=\177X\321\273\376M\021\275\364\000\014<\\\037\017==\313\362\273Y\\\313\274!\004\305:r,\307<\372U\006=i\'\246:\273\310\242<\275\275\261<\215\266}\274<!\252<qP\312;\227#\371<\272\"\220\274sz\017;\354\352\302<\347\323\305\274M\216\274<<\257 \274/,\346\274\203oz\2739\226\276\274\260\215\304\274%\257{\273\025\343\220<\336\367/;\355\n\311\2746\313\002=\374#\204\274\333\330x<\t\332A\273\315k\353<\234W\r=<!8<\244\033\257<\245m\342\274\273\n\236<\317\t=;\016\004\224\274\246\360#=.kF<,\336\320<\346&\021\275ER\214<\245Q#\275\244\304\n\275\355\214\004<\266\025\020=\350\014\220;\277\004=\274\014ao\273]\001\267\273\204\254\262\274\340\313\261\273\342T\220<%\237\321\274\031\362\246<\253M\020\275\003\244\004=\270\005\023={\262\306\273\246\206\234\274\351\206!\275D\'\321;\005\256M<_\332\332\274g\235\247<tOP:{A\360\274c4M\274\025\230&\275\327\226\241\273x\022H\274\304c/\273F\005\212\274_\202 =\272F\346;\263\3566\274\275\252^<:1\243\274f\341\022\275\340(\024=\217\273\204\273\000A\364<\337\214\002\275rFf<\333wW;W\336%\275+k\n\275#\372\366\273\026d\023\273\323\204\343<\333\343\336\273\226`.<\211B\304<;_\013=\306\255|\274u\215c<\241.\377\274S\351\270<6\251c;s\321\030=\300\344:\274MBy;\343\035\t=\237F\"\275B{\177\2740%\207<\245\202\300;\021\005\275\2745L\307\274\355\223\326\274\270\266\026\275\210i\021=\347\207\010\275h\273\020=\034\367\234<b\301\037=\004of<\231\324%\275\025\306{\274\331\362>;\236\326\315\274\007\333\322\274\023aa<H5\363<1\207z\274\312\255\035\275@\202{\2748Ch\273\342\024\334<\220\033\034<qv4<\370\250\376\274\245z\261<ZsB<\276K\206<\330\211\023<\375\337\374;8\341\255<Z\213\213\274_u\225\274Qi\033\275K\214\230\274\244\353\346\2741\326\016=\363\353\350<F\033\034=\000~\017\275J\330\024\274\340\211\002\275\355c\303<\323\305\267\274.\037\036\275\206f\035\274\267D\257\274\204\020\001\275$\210\037<+\\\004<Z\370\326<i\216\252\273T\223\214\273q`u;\203_#\275\306\002\202\273\256\032\357\274\253/\370:>\374&\275\272?\361:\322\367\345\274\022$\200<\231\251\340\273\377G\370;\365\324T\274\315\343\376\274_\243\031\274+L\344\274\t\347\276;\240J\004\275\277\374\202\274x\337\036\275\021/\374;\2166\020\275\014\256\031<\203\334\002=\367e\241<\330\341\024<\207\021\005\274D\326\005=y0\321\274|{\247<\337[\360\274lb\320<\370:\357\272\026\313\306\274\211\3529<\257\305!;\212]\010=\210=\020\275\264f\031\275\"\334\030\275\320z\224\274\352\250\251;\364\267\n\275\352\301\032=H\020\324\2748,\'\275\262\374%=\373\036k<\000\374\274\274RC\033=^\025\321\274\251\306\017=\236\032\t\275\207\263q<\241\204\314\274\037\217\271\273P\252\304;\353\231\241;\331\225f\274!\254$\273e\234\203\274c#7<\333\315\311<\2663\230;\201\361\033<\3618\360\273LCR\272\315\203\252\274\303\305\264;\222\037S<\364\220\267\274IIg\274s0\024\275RQA\274\265\342#\273L\210\024\274\327\014&\275\354\354\036\275C\243\354<\353\234$\2753\255\351\274Q\035E\2724\\\307<\217\222\323\274(f,<\271)\304\274;\340\260;\204\240\004=~(\002=\017\264\267<\265\233\271\273\247\375\2109\205\227\331<\271\314\331;\215{\214\274\337\322\251\274\306Q\003=1b\272<1E\027=\014\0364\274<\377\254<\002\327\245<\243\262\374\274\310\276\023<vr\245\274\342\263\363<\217\204$=#i\373<\205k\225<_\351#=<\242\017\275\355\0332<\"T\022=\206\245\242\272rT\010\275\355\325\"\275\244a\231<q7\036\274\335)\204<\nT\205<\371\350\355<I\312\204:\3072\022=\366\n\234\274\240\t\205<\016\366\262;&-\037\275\223\340\210<}U&=\302\334\250;Q\001\010\275\204b\315<.j\363\274nW\036=\251\014\333<\024p\010\274\313\311\000\274/\326\001\274\264\216\201\274\017S\231<\036_|\274jKK\274\243_$<\237\336\325\274\001\245I<\341\337\330;dF\214<\001]\025\275\354\327\242<i#\225<1k\327\274\324\317\267<$P\005\275\000H\230\274d\032\245<\030\017\025\275VR\263<\264\214\255<\324\016V:mp\265<\253C\367\274\266\332\006=\343}\247\273\031\344:\274\350\320\362<=\363u\274/\316\005\275\021\326\243\273b\342\277;\322\300\236\274\264\333%\275\001\301\330\274S=\216<\255\013O\274E\n\\<Y^\031=\344\330\257:D\241\365<\010\226\374<e\003\036\275i\332\017=\270\274\006=\030\231\r<9\032\032<\0276\037\275J\017.\274\021\272\211\274d3_<\221)\262\274C\026A\274\204m\253<E\036<;\365\256\343<\231L\356:\205\230\343\274K\360\247\274\255?\000\275}j\326;:\221\246<\233\341\205\274\232\"\3129\276>\220\274\003<\352<\271h\223\274\321`j\274c\024\013\2757\233\225<\245K\322\274(\036\221;\373\037\301<\202@\005=PZr;\010\201\010\275N\210M\274\223=\303;%\366\034<\226#\376<Y\370r<L\300\272<Z6x\274\000\312\r\275\234\017\311<.\257\342\274\"\254\027=\356\331\262<U\264\210<\001\357\211<mC\244<\333\247\351\274\320\375\204\274\364\342\014=Y7\337\274\356\332\025\275\316a\237\273\3557A\274\233\216\037=S\026\255<C\344\261;*8\177\273~da\274*\337\355<\301\202\\\274\033\317\001\275\332\037\017\275i\232\205\274S\'\202\273G\343\207\273\2615\t\275g\223+\2736\031\000=\243\217\303\274\232\351\n\275\200S\326<\021\241\024\275/\243\262\274\334\302\327\274\327\\\034\275\273\342\303\274\277\251\353<L\360\304\274!/\037\275I\357\347\274=@Y\273\2507j<\014\276|<\304\306\"=5\377\372<\253B\270\272^\313\033:\202\257\004\274\264h\036=23\023\275H\221\032=\342a:;e\221\252\274\213\335\376\274H\n\t=\331p\334<j\211\347\273\326E\214<\344\240\223\274\227J\374\274\'\253\375\274Q\353\206\274\312\213\024\275\307\260><\226P*<.\271\205<\303\006z\274\275wF:a\004\031\275p\222\261<\256e\301<W\231\001\275/\356\177<2\217\022\275\262\350\023\274e\324\002\275\276T\017=f\213\001=\026\023\361\274ZM\203<\007H\344\273\316;~\274\340\232\324<\005\010\t<\345*\001=\323\337\020\275\007\203x;\025-\377<F\r\261<\260\242\354<\251^\265<\203\331\027\275\010\"\'\274}1\365\273\370;\320<\214E\330\274\236\'\027=2r\231;\323n!\273\357\227\326<\014s\302\273!z\341\274\375%\377\274:\373\202<\213\r\002\275\273\262\277<|\301>\274ay\007\274\327\205\004\275\177o\013\275Yq =M\361\271\274\037\203\000\274g\322o\274|\013v\274\273\261\353<P\031u;\376\366\216\274\250\252 <\242P\333;Dj\2509\244\272\004=H\207\002\275\361G\002=1i[\273\035t\254<\256\366\244<LLF\274\237\266D\273\325\361\035\275g\371\205\274\226\342\373<\303V\250<\235\235$<\025\232\251<\320^\304<\023\031\317\273%wd<V\213\323;\032\265\235\273 \265\025=E\270\310\274\030{\315\273\303\214\320\274\331\301\373<DR\n\274\250\322\260<\336\027\300\274\207\301M<\363\232\222\274\343W\310\274U\021\303\271\207\017\336<d\252\002\273I^<<B\377\365\274\362\005\303\274s\373\344\274\032\003\223\274\221\322\304<\341`\035\275\277\033&=\377\365\252\274\0334\247\274t\027\000\275\321\004\001=\307\340\2708j\370\371<\370\'\301<\217\022\002\275\274M&\275i\310\372<.K\020<\3311\232:\330\001\241<\271l\324;u\346\235\274\367\360\2509Q /\272@\000\351\274\335b\024\274F\355Y\274\2031\017\274\326\272\377\274HT\306;Gw\275<\007,S<\326&\034<_\000\001\275;\211\245<\3027\250<.]\307\273\035\301\002\275\273*|\274\310\375\360\274S\237{\274\341\245\036\275F\375i\2741\311\364\274\236\315\347\272w#\014=W\202\226<i\002\237<\252%\203;G\246\365\273\2261\311;\271\241\023\275Q\212#=sxC<\345\030\233\274\t\301J\274\366\366\317<\376\302\366<\202O\354<\355\342Y\274\253\275\344\274\350_x;\336\372\357\274\025\203\310<|i$=Q\026\n\275\313T\231<\210\341\335<\001\323\247<0\376\253<\r\210\245<\237e2;\003\220\034\273;\222u<\027\360\031=P\322\324\274\345\033\022=%i\210\274\226\205\214<OE\032<#Q\004\275\214\t\'\275\254\270\037={\306w<\214\"\035=\036\270\001=/\313\010<\353i\016\275\032:\017\275\013\315\217\274\233\232\252\273C\254\037=;\234\037\275\345\026\r\275,\021\200<r\323B\274pcq<\312\202\302<R\231\346\274~\221!\275\316\347\205\274r\327=\274\014Y\"\275}\233\314;\037~\001\275\006\327\004\275\373\364\221<\335\275s\273\266dz<-|\007<f\366\313;\212Xv\272Ou\356<\352\247#=\226\214\036\275\266e\225<6]\335\274D5\230<G\370\320\274n\004\333\274\376\264\020\275\205\027\247\274\263\035\321<\004&\325\274\261\205\322<g\211U<\252\253\324<C\004z<=F\016=\2771\362<\203\321B<\361\214\212\272\342T\225\274\232\254\361<\001\247\005\275b\234\024=u\375!=x\263\330\271\272\340\236<\027: \275u\255\207<\030\361\346\274\211\350\322\274]\303\232<~\315\233\274\023\353\272;\272\261\210\274Y\313\033\274\210u\232<f\327\343\274\214\241#=\250\332\335\274#^\022\275n\244\247\273\264\376\217;s\326\356;\266=\023=q\360\002\275\001m\236;\266\215\346\274,\267\251\273&\022><_\263s\272\367m\273\274\375\325\n\274Q2\004\275\340\336\033\274q\203\277:\336\030\327;I\016\347\274\036+\322<\010X\322;v\353$=\"\217t\274}\270]\274\257\251\010\275\220\333\370\274\246\265\333<\372\265\216\274YO)\274\352X\335<\215Rh<]\257\244<\223-\343\274\'\333\343<\024x\001<\021n\002=\312t\377< \237\202<V\004\244\274mI\267;?|\276<\033\267\016=w\371V<B[\005\274\324E\242\2742G\311;\200\352\r\275pa\354\274z#\345<#MK:\351}\373\274\022\\o<\247b\314<\317\010V\274m\225)\274\365\255\010\275\243[V\274\037Tp<(\226\207;\201\377y<[\240\201<\213v\243<\247\376\360\274\362R\213;\032\277\001<\343\364\261;\277\317\346<g\326\004\273\333\322r\274#$\333:^-\t=\255\317\315\274\004\232\212;\326\337\037=\316\360\261<\270\372%:\343m\020\274\3752\031\275y\035q\2745\315\204\271`\036\245<\321R,\273\014@\320<=\337\306<77\330<\317\000$\275\215\365\014=M\260\356;w#\014=D\332\030=\335\351\034=\312K\240\274%\000\346<\356\020\357<\331\217\260\273O^\004=\322*\031\275\335\037\023<\2724\200<\351\261\027=\361\224\027=`\324\\\274\222\375\254\274\025g\035\2750>I;\031\005\272;\301l\013\275\317-G<`I|:E9\206\274\311\360\024<\230\242\335<\020\341\337<\321\367\r;\027\227\265<\312\346_;C\212\030\275e\r\225\274)\364\340\274\230\274\220<\352\362\010:\212\260@<\275~\302:\344\202\343\274\355\177\201\273|\227\001=\272y\203<\2468\273\274A\033\370\273\223\275\020=*\260\030<\2758\306\274\345\224\217\273\007\376\3629\332y\033\275s\007\317:?\270 =\307D =\267J\353<uZ-<\250\222\007=3\033\020\275\326\251\342\274(\253\241\274\272W\026=\321p\037=3\207\330\274\243q\027\275\277\373\3519/b\275<\354\302\221;\2703\034=\312\370\021=\200\264\376<1y\'\275\210Rq<O\334\335<\213\202\343\273\241e\372\272\216\364];\230pK<\336\3174\273\024\332m\273\326S\324<\274:\250;G\231{\272\372\301u\2732{\325\274#=\"=\316$\001\274\271\210\023\275\001\240\242\274\213\307\344<@\252\203<\013\370\375<\211\321\004\275n\333\220<\2554\372\274Ci\330\274H\373\003\275\367\014\265;$\303w\274*\361\252\274\031q\005\274\017\320\035\275U\354\347\274`V\212<&\344\354<\274\316\223\272\242\346\003\275:\224\006\273S\254\372<\336\237\344<j\036:\274\007\241\325\274|\231\336<%\222\264\274\025\276\255\274\"[\343\274\310Jv;\324\257\001=F(\374\273=\227\035\275h#\'=\036\351\345\274Ud\036\274\331t9<\301\013\241;1\036\017=\371,\022=+b$=Td\001<\215\221\010\273\3515\265\274\347\251.\274\220\330\350<\027\254\014=\t+\014\274>^\021<\030\313A<\245\220s\274F\217\215\274\023\260~<B\\\n\275\306\3508\274\2426\t=\344\227m<\247\372\000\275+}\202\274#\343\003\275(\310\013\275m\357\312\273!\324\001< s\307<5\237\347;,\374\004=T\234Q\273\322\237\370\273\374\033\020=\3126\347<!-\275<-F\263\273b)G\273\205\270&<\245\331\324<\335.\034<pN\014=\312\034\037;A_\340<\267\177\033\275\3318\211\273\320cI<l\000l<g7M<}\376\276\274@ r\273cO\335<\256`\213<\327\255\024=J\024\004\275\245\247\303;\0243\253<\343\303\020=I\004\032\275Mk\352;\240\271\030\275)ld\273K\375U:\304\032\010\274\252@r<|\333\032=\277\310\237<\257\273\237<\362\215\320:\340&\031=:\022\035\275\310\262\312;\341\320>\274\337\021\016=\010X\314\274`\020D:J\000\236\274\331\212G\274\263\270%=0r\273\274\377\034n\274%\023\347\273\\\345\250\274\354@\203<R\305\376\274G\335\017<|(!\275\270>\230;\344\265\024\274\216\275\007;\333)\361<?\001\367<\370\t\344<*\270\347\274{\225\235<$W\037\275|e\374;g\362\203;\247\347k\274\211\350\021;\306\377\336\274\007r\306<\223U\363\274_\221$<O[\227<i\000\364<GN\316\274#\355\310\274\n.\306<\200\261\346\273\330\203\246\274\020\r\"=r\202\014=2\0147<\206\t\214\274\255I\215\274Q\211\370\272~\236\207\274Xqf\274\375r\241\274V\017\231\274q\332&;`\301\333<\267f$\274\374D%\275\202\2609\273\\,\022=\302\014\010\271\006\241\276\274^\354\250<Wh\010;l\331K\273\331\220\205<\347\321#=\216\312\314\274TRI\274\275\367\346\273\315Zo\2746;\340;\033\0331<W\310\312<hP%=\314\343\310\272x\t\236<\355G\244\274n&}<A\274\342\273n&7\274\322e\377<{n\364\272\004l\222\274\320\255\017=0\332#=H0\331\274\003/\300:\245/\024:IE\010\274\007\001\n=\3255\270<=\323 =T\002\234<d\\\031=\331{\032\273l3\310<\034\347\251\274{\256\017\275\300\342\325\274\2355\265;\246\3765\274\333\t\277<%\237\001\275\024\314\257\273\240\364A\273<\007\241\271\273\350_\274\330\200\224\274\252\241!=\243\300\013=L\301\033\275\332\261\031\275\341\314\024=\0209H\274\024\n\362\273\260\022\016<Z,\020<\0054\251\274\256\\\357\274\201\021\345\274W\263m<\203K\373<\273\372 \274\262uu;\302e\245\274\247\246\215\273\322q\212\274]\275\313\274\320\345\275\274\022\225*\273\271\224\257\274\003\342Y\274\004|\275;\240\257\240<\317\344(\274\334\234\276<\205\354!=$_\000<=\322\211<\"\310\005=\303\3230;\322\300e<C\345\314<\374\200\224:\026\367\356\274\321/\211\274k|\263<\367\003\"\275\013\322\250\274\374\005f<\211\333/<\272\202C<\031\317\026=\'\0225<\272\004R\274\222\302\007;\223\225\204\274\0242\256\273tk\207<\n\271\364<\201xx\274\313\350\306<5\374%\2754\037/;\251\265\343\273#\345&=\007<\017\275n\211\024\275\ry\006\275\273\256\332<0\036\225\273\232 x\274\034\327$\275N\266\224<e+\220<\350H*<\314|\206\273\216L\275\274}8\r;\nM`\273=[\022\275p1\006=CP\024=\030\243\206\274\302F~<\350\242m<E\204<\274\213[\351\274\213\2675\274!\224\t\275A\372\367\274\372\230\206\274\255\237{\272\215\026W<d\316$=\333 \273\273\235I\004\275\346c\333<\224\261\200\274U\264\204<tz[<\247L\362\274\303\355#=@)\020\275\270\316|\274\262\334\210;\326E\376\273\301\202\017\275F}\322\274\270\252\337<\326\263\t\275MG\277\274g\004\340\274\3219\336<-\220&=\212\370\333\274\262\275\300\274\257\311\010<\2227\274;\354\275\006\275\265\315 \275z\353z;\266O\317<\365\371\036\274\250\264\355\274\014A\315;\263\277\343<\246\002\326;\336\253$=\210*\325\274\3464\324;m$\275<\006\230\016=O\233\221;_\306\315\274\216\226u<\360\367\226:\026\254\340\273\301>\240<\336\303\210\274\351G\261\274\324\272\026\275\005\020\030\275\004\357\034\275\304\327\357\274\277\244\";P3\345;f(\227\274\336L\272;\377\010\357\272\253\027\357\273t\021Z<<@\032\275\026k\224<\312\031\251\2741\032\020=rr&\275p\350\347;\300Z\340\274\215\357\017\275=\354\016\275\004\331a<\276=\267\274!\244\213<\'e\"=}\265\013=\212\225k\273\016,\013\275\234\000#\275\'6\n\274\321\211\352<B[#\275\320\024l<\325\331\014\275\244\345\377\274g\203\232:\322\267\373\273\252\033\036<\267\336;<< 4<X\266\n\275\366G\232<\"\230\020\275\3103\026\275\004b\236\274-\035\034\275\303\363\030;Z\210@\273\343\032\356\274\201yK<\312w8<\240:\340<3\241\031=\255\032\322;\200\377\223\274\0301\213<jax;\360\036\325;D\264(\274\362\353\335\274xp\247<\037p\274\272\336F\224<\\e\366\274\010\224\343<\347O)\274\212Y\266;8\373C;\2131\000=y\001\220\273\'TJ\274\233\177\321<\332>\350:#\023\347<\351\320\010=\342^o\274]g\007=\n!\221<\222\351\235<\013\372\010;\2367 \275XV\366<\250g\370\274/\227\036\275S\206\026\2752\360/\274mp?<A\344\344\274\025\366\333<\245H\254\274\337\"\362<Wi\026\275J\211\200\274\216E\254\273Ry\005\275\3141<;-\273\023<\225Z\016=NP\352\274wk\245<\210\255\023\275\034u>\274 \272\245\274\037\272\'\273\242\246\030=\373(\034<\254\"\263\274\273\261\0169\025]\211<\215\221Y<\361\023\004\272\377yr\272\216Q\276\274\252v\000=\347&\347<y[\234<\367\235\"=\220V\302\274sm\322\274o\036\313;B\361\347<\253V\023\274\340b4<\202\254\301\274\024\312v;2\323\267<\016\213B;\006XN<\261\374\020<\017?\244\274MS\010\273\352c\245\274\271\344\020\275tE\342\274\'\'\033\275\231\340\022=.\325\005=\034l\373<63\246<\246\231\"=>E\277\274\036o\021<\356U\222\274\014u\023\275\005\010w<\020\"\r=\274\177\007\275K\356\"\275$\304i\274\320\271\214\274\265-\032<h\025\241\274g\003\225;2\361\037\274\006w\357\274\272\211\334<\243\377\232<cD#\2751-\300;\200\376\215<X1\302<q\027\037=g\225\330<F\224\"=H\344\016=\320\032i<^\351\241<\334\344\345\274@\370\302<u\025\377;/8\241<\2163\022=\206\205)<Z\022[\274V\013\251<\255@_\274\035\355\351<\243\306\213<\353\244\264\274\2406S\274\323\226\261\274f\337&\274\365\372\302;&\210\302\274je\013=F\006\027\275\257fg<I\265{\274\246z\003\2747bT\274_*\013=a\026\332\274e}i\274H\202\376;\203\370\310;\344\262_<\365zk<>[\201<]\010b<\003c\\<aw\236\274\":\031=ZX\005\275F<\031\275\017a\034\275v\305\354\274\353\333x\274dP\214<\t~D:\224l\027\275\376\017\321\273.#\313<\305J\235<G\013I;\332\246\344\274\371\231\325\273\317\3139\274\n\203\200<\330\343\005=\325m\003=\2362\330<\002\223\326<\021>1\274\335\232\245\274*\247\347\274\341\223\017\275L\302\037=\312\365\321<\252\3628<\363\001\236</\347\253\274YG\024\274T\257\261\274\254?\t=\212\365\374<{$\004=j\222\332<~S\036:\374\344k\274:\226\010=AH\313\273\202\t\231\273,\002.\274\204\237\317\274\204\265\357<\307\201\"\275w\341\200\274f\367\341\274WW!\275\275\030!<\352\347\316;\353N\007<I\201%\275\227\203\277<K\276\n<\300\257\321<w\007\006=\374X\020<\370E\317<3\265\310<\007Y\r\275&!R\274\263M\220\274\036\233\366\274\205\333\006\275\227\213\312\274\333\216\004<\'\312\230\272\222s\301\274\030,\001;8_\014=\342v%\273\373\263\350\274I~$\275\006\2113\274\345o\027=x6\t\274\016y\226\274t.@\274\335\201\032=\254\225\260<#\263\215;^\275\220;\007os\274\n\0266\274\026\301\277\274\373\242\256<\345\347\353\274\027=\030\275\270~\360\273\031A:\274I\220\n\275\274\261\311;:p\235;\017\252\314\274p@\266\273vq\204:\030\243\010<\237\355\256\274n\027A<\005\226\275\274\252*\033\275M\332#=\354\340?;\234(\257\274>\214\342\272/\003\"\275\216\250\007=\272\023\032=|h\006\275%H\214<\240\021,\274\251\246\222\274\316\034D;\317\322q\274\264\301y;]\237\025<\355a&\275%\253\313\274q\036\023\273M\352\376<\004^\250<\343\357\031<\352\353\223\274\327\031o\274gzn\273\tX\3409[\263\313<\022\n\371\273\301\374\025=<78<Md\022\275\nl\017\274Qb\236\274C\006\261<^\261\217\274\241\246\000\275\251<\214:;h!=/\026\354\274\022\315K<}\026m:\244U\232<\264\266\366;\341;\353\274\362\307}\274\326\354\357<\3208\n\275`j\355\274g\304\201<\343+\232\2742\273r\273i\035{;\264\r9<\306\235\315;\006\236h\273wv\260<<\267\262<+\234D8\303\344C\274\301\327\035=\357}\'\275\036\236\001\275(h\335<\222(\211<\343I\265\274\363\3578\274\251{\202\274\030*\345\274\355\340\236<\263`c\274\031/\222\273\312n\373;\243W\035=\004\201\357\274\037p$\274\215\331\303\273\235b\215<\275\336\242\274\377\316\212;&?\212\272\227U\034=o\267!\274\001M\001=\342\241\332\274\2205\266<\341_\201<\3036\004\2759_\000=a\262\017\275\241\\\236:w\'F\273])\017=\320\216j\274\223\327\273\274\323\265\324\274\234\306\005=\010\340\362\274S\3404\273\254\361\n:\205\371\006=\321\257\321<\247A_;\243\375L<G\\$=\\\327\021\275\263\200<\274\345\251\243<2z\346\274\\pq;\t\352\320<\267\246\352<\030\311\"\273\337Y\027\275~ZM\273O\315!=\304\335\024<\217\016\035\2759-!\2742Tn\273=[\037=\t\201\257<\241o\347\274\350\005\216\274Ka\364\274`\007\034\275O\230\007\274\327F\177;P]\231\274\t\220\010=;(\025\275n\301\t=(\305r\273\'\256!=w\216\222<\007:\262<\327H\020\275\265\345\035=<:\233<\201\204\032\273{\216\000\2750\353J\273M\230*\274\265 \213<\227\261\034=n0\037\275\375\345&=\241$\302\273\027\363f\274\254\275\306<V\316!\2733\243f\274\272\205\351\274d:\242<\3275<\273\245\220\231<\326\201\345<\213\260\007=\030\226\026;Ck\211<Z\001Y\2745\034\003=\371\263\246;y\351\351\274H\252\000\275\000\222K;\254U<;\034\026D\274\006o_<<\023\366\274\214\322\354\274\215\214\320<^\3670<\314\242H\274N\273\220<2\252\301\274\021\232\366\274fP\027<\016a\023=\237_\271\274:\324\364\274\204\206#\275\360\320\215\273]\324\251<.\331`\2747W\262\274\266\375\246\274\346\272\322\274\034\324\213<\343\004\247<V\305\036\275@\343\230\274w\003\036<\264v\362;\217\342\002\273,\244\265<\025g\263<\347\310\013\274/I\000\275\"3_\274\250\370\"=\240N\025\275\220\204\030=e\2252;O\212%=\322U\320\274\2258\016\275Q\206\023={\017\022=\256\220\020\275\\\305\022\275\007\304\200\274\267a\005<\242\022\365;\201G\3378x)\242:Ox\261\274`\357\226<\223\020\r=\311\013\245\27235\323\274\031\372e\274\207Y\027;=\001\346<\224N\311\274\262\257\251<#vJ<\001`\023=\353\3029<\315\321\031=\331f\203<\241s%\275\2767\006\274\035\360\005\273\276\322\006\274\313\275n<\334|%\275j=\216<\261\222\030=6X\205\274\354\233\343<\n\232\242\273\307\366\313\274\311\255\305\273\313\345V<\330\276p<\370\346\311\273\024l\332<\234MD<Z\230\262<\215\266P<\013k\021\274\013\277\034;\364\276\343<\377/\213\274@\235\253\273\212\344\271\273\361\023\231<\n\230\260\274\304\210\352<\026\357\326<\237x\341\274\355\036\257;\224p\200\274qh\246\274D\304\030=,\244]\274U\021\300\274\274\225|<\352\263\200\274BO\363<x\245\212\274y\366!=j\242\025\272|\'\347;(\230\177<\252A\001=\024J\360<F\177\033\2756\025$<e}$\273RF\327\274\304\002\"=\3512\'\275\270\222\315\274T\202\373<\013\370\347\273\027\260\027\275\264\261\275<\321\304\006=!\211\016\275\375\206\007\274\t\305M\273\005g\250;[\027;\271\206\333+\2742G\024\275E\314\020<\307\020\332<lSi:\232\301u\274\375U\225<]\ny\272\177D\343<\032{\236:\305\263A<.\360\375<\274\\\261:\024\217\373\274\260\202\231<s\214\305\274\224\315\357<\335\254\331<\226E\001\275Cn9<z\001\227\274\004\025\267;\377P\335<_\200\375<g\314\316<Y%d\274\252\226\025\275\362\206\'\274\346\334\027\275\345\234o\274\\\343\320;\035\372\354:\301%\262\274F>\336\2736\360\276;6\026\002\275T\277\r\274\265\230\263<\032\237\323<L_#=\324O\014\275\246\026\327<\322q\265\274j\220\305<\"%D;\257\227\273\273\256\327t;B*\326<W\271r<\022E*<E\025\232<\177\310\253\273\005\265\027\274\246\363\026=1\301\217<qX\243\273\364\"\024<e\n-<T_\031;\3506\364<\330Z\002=\206\271#\275V\236!\274\306\210\037=?\204\014\275\312q\003=TN\330\273\240\237p;?u0\272[Y.\2735\300\375<\312\266\364;\244\343\327\274W\345\235\2745c\210\274jN\353\274\367\036\311:\310\360\327<\371\277\003\275\273@\367<<\371\374;\353o\261\274\2533\275<\035,\200\274n\370\365<\214B\333\274\023\346\316\273\210\354\234\274B$\341;\020*\312\274\'A\016\275\255\325\327\274\234\020\325<\360}?;M\006\024<\234Ib;\211\312\314\273\271B\2448\257@\313\273\'\271\233\274\245\356\226<\325+\025\275\274\377\223\274\357\364\t\275\227\331T\274-\007#\275\213e\333:\257n\355\274H\320\272\274\375\224\022\274\203)\003\274\0007\327\274\364\000q\273\016\377\326\2747\304\340\274\370i\300<\004s\235\272\323\315\371;\374\3454\273\223\027~<\003\n<\273\263\245\250\274\361\255\227<\370\274\177<\201\222\233\274\244Er9(<F\274\3056K\274NV\222<\261\344\022\275\204*%\275\035\310\036=\'\263\024=\231\276^<\032\307\"=\311\306\273\274\351\353\250<\345\203\363\274\362\001\026\275\005x3<\320\221_;\320M\023=\321vJ<nj7<\233\340%\275\003^\272<\007\217\t\275\354\'\231<\213\230\3616\323{\006\275im\256<\220\235\251<R\300@\274v@\306\274\334\353]\274\337\321\227\273_\366\341<\323\303\306;d\245\323\273\344\246\001\275+\235\245<\314\374\255\274\317\t\221:\244;\033\275\003\350\037\275\026\250*\274\266e\2009\365b\352<\327m#\275b\036\021\275e\200\363<b\246?<Mj\023=T\354\233\274\262\020!\274\370\340a9\234J\020=e\342%\273\231\206x\274\034\333\361<\235\2068;\021\026\307\274\373\r\313\274\270\014\001=\363\211\017\275\246\261\'<\033:\372\273\023*\220;~\244\241;\361\302\004=\0314&\274\213\210\364\274\311*k<zj\302\273\251\312\006\275\001_\311\274\375\370\325<\345y\216<cy\t=\001m\263<<T_\274\312\265\212\274>\253\331\274\026$\234<\276\242\344<\307\253\344<\216\322(;\360O\252\274\375\252\344;q\373\214<\360b\340<.\264\r=\225\222\365<*\227 \275i\360\365\274\354\213\n=\000+\272\274\344\351\273:\205\006\'\275A\tP<\206\016\226<\277\3712\273\323)\317\274\027U\005\275\351\350%\275\374\037\'=\235\346\365\272\300c\003\275a\241\276\274*\275\004\274{0\246\274\033\376\027=\373L\201\274;\270\003=1hO;V\337\307<L\026\226<\220v\341;\214\025\253:\362\256\352<,\261\232\274\310\371\370\274\010\375\305\274\337\004Q<\300\3404:\276\270\371\274Db\360\273AFr<\303a\244<\007\334\022=h\223f\274\377/Q\274\212\252D\274Ie\201\274\205\305\020\275\r\261+\274\201\3113:&\334\003\275\375\323\323\273%|\370<0$\007=\037\"\251\273\312\004!=\317\341\214<\"\\\376<\264,e<\000\361\366\274\\\335\001=\010\350\017;Xt\007=\352\027\327<Y\320\375<\202)b<t\206\"=5u\"\275\313<\231\274T\3739\2741\262:<\0173\"=\000\025\362<~\201J<\210\323\355\274;$\242\273\253F\207\274Q\336\036=\010Y =@\336\271<$p\365<\352\223\000\2758\2309\274c\021\331\273o)\035=g\303\003=\310F\226<,\214\236<\354\354\001\275\332\321\017=n\240\241<7\202G;\'\356\327\273\232\032\272\274\350,\364\274\301\301O\271^\234\020<\272k\024;\3527\272;\2551\242\274\315\026\000=\321tz\274\241\0263\273\301\226\226\274\230\222\002=\210\262~\274;\377\210\274h{\347\274\2040\277\274\006\320\242<\370%\275\273\300\337\000\275\206T\232\274\210\210\261<w\340\033=/q\226<\214\234\370\271\370e\333\274#\001\327;\027q\037=>\266[\274\361\321\256<\217f\014\275\206\256C\274\201\006\024=\013\\\305<CJ\366\274[\036\033\275\345\207\236;\036\007\202<\256\031\300\273\025\356^\274\364:\031=C\343\320\274Y\263M<\225*\356\272L\364\035\275\177\353\253<wd\335<\216\360\027=\210\342\244\274\331%0\274bJ\013<\320K\005\275\254\003*;\361\007\307\274T\272\002=\022\335\245<\262\221\363\273n\342!<||\017\275N\300\374<\002\313*<c\024\020=\000m&\275,\017\367<c\300M\273X\272\364<u\272\037\275\344[\366\274\327\312\376\273\354!\357<yA#<\352\275\345\273\307\346%\275\363\251\365\274yS\'=ww\361<\236\n\362<\224\023\336\273\020\026\350\274\353P\364<\226\240\326\274\320<\342\274\"g\225<\354\373W\274\365g\004=\245\350\004=\244\316-\274U\013\306<\273F%\275\376\233\032=\210Z\303\274\237\352\204\274\002\032\245<\024\022r:\300\341\246<\343\225\257\274}\225\232\273\336I^\274\2714`\273\277$\231;a\225%\275\345\245\013=\\\314&\275\304\026v<\276\343h<\234\373\211<Oe\205<E\224\014\2759r\216\273C\3756\2740d\352\274\314^\226\274q\003\237\274\300\250\3709\304\263_\274\207`\310<n\033~<Q\212\370<\037\032\207<\352\024\032\275\026\365\361\274j\263\017=\352\242\366<\343\316\234<\337\331!\275\213\006\030\275ar\002=\ra\211\274e\266\016=1%\000;\300\007\004\275,E\007=*\203\010=\010V\020\274\007\254\000<\311\246\010\275\222\023z;\312\214\034\275}\372R\274J#\301\273L\323\030=\210\242\t=f\340q\274\306T>;{*\316<$*\363\2744G\245;6\264\321<\240\030\264<\2170\223<\022\376\273\274\212\231 <\350\013\373<\035\375\304\274\'\347T<y\357\003\275\037\025\264\274\320V.\274\215[\267\274\344\315%=\032\225m\274\235\253\337:\032\256\320\274\300\331\016=8iF\274\212\375\215\2745w\036=\356\t\316;\333E\360\274w\212\035=\303\014\336:2IK;\244\026&\275\247\205i<4U\002\275!\226\304\274G\217\017= \322\021\275\036\273\206\274\333\027\245\274\207!\363<\303\362\035=\272<b<\315\003m\274:\357\217\274>0\030=q\347\000\275\016\t\026\275\016\007\243\274\361\245\374:\213\322%\275\207\312\313:W\337\234\274\306\301\240<\265\367J<\312h\242\274H4\213<:\002\000=\007\2119<\254#\225\274@f\375:\333\032\250\274=GD\274\216\250#=\353\027x\274\007\235\021=\007\320{\272\363\357\355;;O\r= n\010\275\217n\352\273\230x\306<9+\363<9\317\237\273\221\335\230<e\217\005\275>\325\006<\017\351d<\226\214\270<S\377\234<9\233#\275\317\365\252\273\253\263\244;8A\311\274Z\005e:\024\024\265<\037\016\363\274\204g\366;\0250\317<\376}\223<m\026\022\275x\211\005\275\254(\321\274\210&\026<\323\363\020=Ft\033<\017\366\365\273\226\227\032=\373\211\373\274\202]\\\272\010.\272<C\350\215<\223t\354<Y\352\005=\315\345\251<V8\244\274b\362\020\274\367\003\016:{\020\275\274\225T$=\032\354q\274\357\375\227\273WH\225\274R\036\"=4\222\033=v\305\010=\003s\005\275&\303\257\274\205a\036\275\373\213F<\253XR\273B\207\326;\006\267o\274\211!l<\244/ \275\321Xp\274\223\274\350;\005f\226\273\333\373\216\274\370\270\002=\371\250\313\274d\207\031=\231\0046<\226E\366;\312\006\225;\027S\'=\034+\334\274\024+\373;\311\270\212;>\327\023=c\223\371\274\343\026\"=\311\274@<t\023\255\274\"\247$=\347\024Y\274hu\325\274-=\343<\035\356\361\274\246\236\337<\345Uh\272cDS\273u\215?\274\253\316\356\274\320\001n\274\263\264\276\274\'\023\022\274\274\340\014\275\207\232\312<[z\334<\352\265P\273\t\364\004\275\241\016\231\274\2411\232\273\034\363\251\274:\352\332\274-a\316<\031\233\304\274^\220\221\274\373mu\274d\277\324<\372\255\350\274\016\334l<\337`\246\274G\035u\274\362<\254<S\226\003\275kT\351\274\233\032\301<\230y\312\274Yc\241<\245\360\033\275\341\276D\273\354;\021=U\t\327\274\235\026p\2747\272\035\275\342<\264\274u2\373<\3465\212\273Op\'=\243\233\r\274o\272$\275\212\243\023\275Y\256\021=g\240d<Im\200\274\315\342\035=\245\007\'<4\273\006<\333\355\253\274l`\022=[I\276\274\0267\221<\222\364\264<\236\236`<\360\247 \2753\302\037<\373\343\024=\"\023\233\273\332p\360\273\353]\002\274\255\374\007=\r\027.<\323h\336<C]\212<}\270\321<\254\371\003\275\306\231(<\315p\370\272QM\241\274o\260\261<\302\323\363\274\030\020\033\275\371\3121;}\264\303\274\010\322\246<\030\220\340\2743\245Z<ve\202\274\352\350\272<\001\014\206<\365\205\353<\021x\252<78\007=~\212\370<Q\312\200\274w6\241<\331Gk\274\333\344\265\273mT\000=\273\207\334\274\240\253\022\274\t#\2049\024j\021;\330\0020<Q\217\257<\324\201\347<c\346\222<\262\021\375\274ec\334\273h\177\256<c9a\274a-\362<w\025$\275\233\227d\272\212\010\364\274\204!]<\277B\362\274_\0209;O\277~<6{\017\275m|\372\274i\346\377<@\302\316\274\353lq<\367\362\235<\317\313\204\274\366\374B\274R%\360<\274\243\007=\351I\020=\342\001\030=h\204\032\275~\326\026\275\362:\272\274\226|\'=*O\365<d7\000=_[\006\275o\315w8F\336\003=\376\326\246<\371\027\223;\330M4\273\205\204\002=\347}\224\274\037\243|\272\005X)<\233w\002=CW\001<]8\347<Nz\226;\017m_\273\264]\263\272\215vf<\002\231\020=\326D+\274\030\315\376\274\304N\234;\2521`\273iW\001\2755\203\004\275\n\310\035\275R\266\001\2751pP<.\330\033\274\372\216]\274b\314\270<\373\007\006=\005\260<;\304\033\200<7\231\221\274\034\305\':s\025\365\273;\317\224<\260\234!=J\232\225\271\351\267\027\275`IF<\212^\203<\"\374\004\275 S\233<\263\t2\274\220\327\210\274\277J\205;\377:\265\274\0038\264\274\212@\354<WM\036\275q\367\202\273]vQ\274\205;\274<$\253\t\275\335wq<{\025?\274I\207k\274p\321\334<\307\302\365;e\245\324<\014@\250;\360\210\237\274\334\260#\275\320P\001=r\331\314\274;\264\017=\231H5\274\203\325\017\273\370\020\'=\376\326\267\274]\233\367\274\004\321\262\274\005\331\263\274\207\371\351\274\316\010\366;A7\014\275O\221\257<\304.\243\274\203\271\265\274\237\006\327\274\261n=\274\201p\021\275wB\256;\304Q\267<\020\203\233\274\037\254\331<\0003\335:\313\203\375\274a\344\021\275\020\365\200<\030i\267\274\026\367\262\274,\"\361\273\026\231\226\274\250\314\363\273\345,\323<3\003\003;\326n\017;\372rB<<\334\r\274-\371\003<\224\262T<xK\261\274T\371\272\274$)O<\372\345\310\274\250[\257<\264a\031\273kx\"=8\333\340\274\211]\322<\236\000\352\274\000\233$\274{\007\206;\n\2027\274i\026\345\274\250_\204\274\345}\014\275\330\335\024=\241\207\247\271\016\367\273<K\0024\274\365~X<\321\231b\274\277\037\000\274\315B^<\267\245\237\273\3431x\274\367a\034\275L\202\247<\206x =7<\374\274\366A\013\2750\201z\274\371v\021\275\017* =h\353\373<\373+\327\274\023\267\304\274\225\355\3548\275W\022=\250d\356\273:C\340\271y\333\326\274\024\223\n\275\201\035\256<,\272\303\274\355\313\243:\250\005\333<\242\363Y\274*d\321\274\332)\334<\\:\370\274x3\023\274^I\257<\313>\202<Vb\231\274\370\036|;\251R\004\274 +/\273\210-\031=\254\r\376\274\221\210\216\272n\341\266<\327u\252\273\353\355\007=\2374\314\274\300v\035\275N\302\200<z\234\017=+\'\r=\330\256\210\274\224\370\242<e\305\3218\361;2<\037\260\320<D\212\213\273:\021y\272Z\320T<n2G\274\363\345;;R\204\003=u\331\227;\257]\254\274\034\320\365<B}\324<\223\037|\273\336\344l\274p\330T\274\351\211\017\275L\375u<V%\364\273\272`\322<\215\241\313<\017\365\207<\250\350\250<\305\247\373\274dC\213\274\317\r\210<\212\267\026\274\312\223\335\273\220\326\251<\034\345><G\375\025=N\337\345\2722\330\316<W\0345<,;\272\273\264\300\376\272\207\026\244\274\314\320>\272\3052\025=\336z};\021\220m<!\224\225<\335G\n\275;\312\"\275\034|\346\274\253\317\223\274L\014\300\274\356\243\256;-\315F<\223P\375\274[\213\244<\240\314\242:,\225\300<\325&9<\220\214\007\275[\356\211<\263)\303\274L\006\007\275\222k\'\275\335\341\227;\324u\225<I\353\335\274\246#\357<\223\372K<\371\276\375\274B\212\350\274R\030\254\274\245X\247<,\223u<\024(\326<W\020\366<1\365\373\273\212V\345<8\354H<!\t\246<\000\353\354<J\372\276\272\211\371\244\274_>\022;\'\266\372\274\2358\327\274>\341\333\273\362\202\263\274i\317\375\274\301! =\002\234\200\274\305\214\254\273P\275M\274f\030\356\274\314\212\305;\277\302%\273\201L\t=\315\377 <G\010\312\274\370\272\021=v\256\201<\254P\n=\232\217\344\274\213\021\254\274\261q\360<B\354\312<\366\233\002\275\366\371\002\274\220\324]<\246\226\273<\360\224\343<\354`\023=3\350Y<U[\263\274P\000<<T\020\340\272;o\214\274\245\017\020\275^\007\275;,G\331<\356\273\366\274\n\227\346<u\263%\275\202m\025=r\016H\273\270\361\330;\215\332\010<\376W\376<\005\254\216;\237\325\232\273^-\005\2753W\014=j>\014;\224\031\t=\0335\224\273\226\233\372\274#T\020=\014\355\367<\375\000\237\274#\370\036=K\313\307\274\377\177\313\274\277\026\357<\241\233\022=\311S\014=1\232\353<\210_l<\017S\360<d7\023;\r\325\332\274\330\246\271<\247\342\n\274-E\006\274\353\257\023\275\357\330\002=Gkn\274\320\370\302<\2452\334\274\232\270\361\273:?\276<\244\203\036\275\262\2463:\331=\245<\316\242\032=5[\377<\013\254\275\274d\205\223\274\3536\303\274\264\021\r=R)\336\274\300\367\021\275?nH;?<\221\272\014\371\242\273r_\243\274\255\022\261\271*\"\220<\020\315\241<S\021\314\274\357\265\014\275\260)\270<\316@\350\274\344V\034=\304\220\010\275\257\3772\274\257\233\304\2730/\023=\336\362\031\275\017N\t=\264-`<\357fp\273\025R\t\275\036\034\343\272(N\276\274S\240\335\274\334l\351<&D\224\274\215\252\227;S\316\324<*\3449<\202\345\201<\305\236\000\274\334\323@<\262\215\366\273F\334\351\273\265_\343;\255\275\214\274\341\007 <\300#\037\275\t\244\233\274\332\246\365\274\261\207\356<\005\331G\274\340>\275\274Ze\224<r\021\346\274\206Fq<\201\221x<\214\301\316;n\235\333<\361\t\364\2730\352\315\2736\205\"\275=\304\035=N\312\353\274\267\254X\274\177\007\n\275/\021\307<#E\027=\341\214\005\274RP\024=\240\3036\274{%\246<aI\311<.a6\272\357\375\032<\212w\341:\226\334\363<\364\217\026\274*\034\023\275\236\t\203\274aDb<\321\356e<\005\364\022=]\030\037\274X\226\037=\014r\203<\274Pj\274\267\304g<\377\034\003\275\237\037\301\274\342;\351;\366a\363<Z\024\242\274\361v\265<\275\372%\274\312\303\313<\201\250\017=\267B\331<\204\3120;\331\241\304;\235y\007\275e\304\365\274\220\227\035\275\0039\277\274t#)<~\274\360<\346\030\353<\213[F</\321\331\274y\037\312\274\307\205\311\271\210\355H\274|\006\314;up\314\274\323Y|\274\301\000\033\275\247\353\014=vK\237;\276jX\274y\000\033\275\205\230\213<R\033\257<Q\243\006:\250c\331\274\223R\206<f\025\004\275X\007 \275\205\362o:%\326V\273\275\000\007\274\333\364n\274\205E\305\274E\033\023\273\"\325\002=]pB\274\273\330\363\274\260\335\231\273\177\250X\274\024!\225\274K\302*\273\036\230\010=\363\310\370\273v9\362\273\020\300-<\342\216\324<\234\003\310;\306\236\266<o\204\236<X@\326\274 \263+\272\253\211\237<\023\362c;rz\226\274~\224\207\274f\206\006\275\031Bc\274@J\005=\037d\003\275\025\307\"=\252\301\210;\356p\227<z\034p<\010\252\026=R^\016=);\031\274\r\342$\275\342n\032=e\212%<\341J\213<\347l\341\274\245\325\314\274\2757\227\274\220t\223\274\315\372#9\2378\003\275\341\331\375\273\375\236\321\274Q\302\273\272\250x\261\271\\\311\332<\275y\277\273\354\300\304\273\204\\\'\274\362h%<r6\"<H\323\316\274\017\357\264<#w\022<`\220\226<\317\275\014\275\254\006\373\273\201nL<B{\325<\273\210\315\274\031\0176\274E[\341\274\323\335\035\275\206b\340\274\331\321\t\275De\034<a=\036=\265}+;\273\333 \275\276<\317<\316\026\004\274a}\317<\211r\010<\032R\201\272\264\235Q\274~\262\222\273B\335\t\275\276!s\274\021\235\010=\231\313\234;7f\303\274\225\332\337<9\304#=6E\203\272v\224\365\273\252\377\256:\202x\001=\212\037\006=%6\013\275(9\000\275\363\r\026=\243+\016=\2319\367<u\314\023\275\310\034t\274f\245\';z`Y\274\310\262W\274\223~\313\274D\220\024\273\2506\324\274u\346\374\272z\276\323\274\026\322*<\251\257!\275K!\027\275\370\214\017\275d!\364<Q\214\341\274r3W\274\314\233\267;d~\355\274\245,\203\2740=\221;\352\223\272<D\tt<\032\275\232;Rj,\274C\006\272\274\177X\'\275Wb\362<\311\373\344\274\263\245\025=\244\326?<\234\251\273;\214E\014\274F@C\274\261e\267;\374\005D\273Zc!=\261\247\024\275+\017\020=+\217\275\272&\033\031\275\t-\305;\320\264\016\275^\222\233<i\212$=\270\030\022\272\350\252\013\275*\252\020\275\340\327\003<\350\'\346<c\261\014:\270yC<\315\226\023\275:\324c;\376\341}<8n\036\275k@\371<\001\220&\275p\366\354<Q)\";\345C!=Y}\367<qe\347\274\245`\237\274\227v^<%`\360\273Wz\375\274$\034\030=Q^q<X\341b\273\255\336\333;o\270H\274\370R\r=gM\272<\2519<\274\361\311\265<\345\230p<\032\r\240<\316\021i:1\372\303<\026\242?\273\325G\372;\213\177\000=t0\030=;  =\377\225n;\021Y\346\274\213K\023\275\220\333\014\275\034\224\222<\2530\020\275U\242\362<Z\252\362;\351\213v\274i\231\001=hU\013=o\255\221\274\023\350o;\341\360#=\"F\'=\217\257\277\274\211\204\245<\353\250[\274\n\202\374\274\370z\"\273A\246\031=\341N\007;R\220\036<\317\033\366\274\212\251\346\2741\007\342<\013\032\032=\277\027\013=\272A\035=\365\341\264\273\0232\033\274KW\364<\026\267\237<\"o\242\274\231w\234<\252q\n\275\010\267O\273Jt\236;M\r\010;)~\025=\036\020\020\273\201\344\224<7\002\241\274\254\210\177\274\272\330\314;\245M\276<\272\307\032\275\330%!=\252\255\201;\340\002k<\326\231)\274?R\200\273\030\227U\273\320\223\216<`\363&=\"a\334;\340\211:<\332\234\336\274\256$\241;I\212\007:\227\226\263;=\225\246<7\234\023\274\252[\245\2742\037\345\274\211\'q<K\330T<\2019 <\005\260@;\375\353\375<2\367\336\274\365\234\032=\233\270\007<\036\301U<-\224\276\273A\237\315\274\260\200\302;\341\200\273\274\221\375\032=\262\235\372;\351.&\274\373\201\265<\203\210\034=\251\360\033\275 \207\265;>Q\006=\\\013\374\272 \263\033={B\352<\262\204\002<\243k\376\274X\305\360\274\341\000\355\274\n\300\242<\305\021\200\273\314\325\311\274\376\331\310<\210\021\333<\210\201\240\274hK\330<\0343#=Z\267\303<\023\252\334\2729\223\222\273\"\246\202<\250 \315<\344\225\217\274\375\007\322<\242\241\030\275\313\273\264\274\266\217\323<\002\360\"\275O\222r\274\247(\"\274\345W\344\274)\327\312\272XP\313\273W\266\023\275\355`\035<\202\267\370\274\267\346\376\273NQ\031\275|\347\000=+b\227\274}U\263<\2167\314\274\335l;\274\2536n<w\251S<\335\322\324;\225Z\312\274\250>\312\274\035\033\007\275\265\353\361<\313\233\214\274\n\241\006\275\037\252\023=\035\256\006\2752\234\017\274\330\271`\273g\367\000\275\313\337\214<K\352\363<\253\237\005=Q\3515\273`\311\331\274\331\211\013<0\007\374\273/\204\204\274nv\373\274\034<\232\274\362\375@<B\350\230\274\271k\035=\026\036\345<\212\316\304<\204\026\021\275\022\211\017\275\327\212\363\274\340!\277<\001\022\013\275\351\3307<i\005\374<-\276\347<\326\273\214;w\370\235\274\372\351\261<\261\374\310<\362M\030\275\351\276\031<%\305\265<-\364\356<\t}\261\273`\037\027=\317\376\002=N\000\233<\376(-;\207\374.<\214\236\234\274G\343\361\274\264,\326\273\0107\222<u>i<$\372\034=y\224\375<\276@c<\351v^;\231Z\244<\330\036\004=\001a\013\273\312\271\3209\377\350F;\234\242\256<\033\361\361\274\004\'\237\272\302\343\276\272\004\337i\274ou\363\273\360\354\237<fw\215<[\217\007\275\247\0371\273\253\210\305<\223\004\237\274\303\347\026=\264\251r\274\347\335#<\rs\221\274\323\021\026\275\360\205\326<0\323\262\274\341\244\351\274\375P\332<J\320\252\273\266\030\216<\373\024?;]\n\234<\\\355\313<yp\"=IH\350\274\206Lj<\017F\265<\277w\337<N\343\276\274\31603\274\275\370\032=T\325\364\274H\222U<^\370$;4\3478\274>\330\022=\347\355\220\273\364\300\326;\000\330\240\274\263\310\242;rG\363\273&=\035=\003\033\301<_\210\236\274\234\220\002\273 \353\256<H|\227<\320\235\320\273hm\261;\324C\023=6\220!\274\262\006\014\275\002<y\274/\216\371\274\\\236\007=\351\202\270\273\027q\002=\0279\307\274\240\347e<\262}\233<\01385<\320\343\367;\211\032\030\273\360\0359\274{\033\027=\217\211!\275\2059\026\275:i\322<OE\033=\377\317\363\273\\\263\200<\342/x<\010\350\322\273\346\273\251\274\236\003\034\275\211\205<\274j\223Z<\247[\331;~\025j\273\025^\030\273\201\231\310\274\260\336\031=\025\336\016<aH\255\274\266\354\242<\260P\"=\351\205P\274h\357\330<\240x\357\274\332\314}\274;\236\021\274%\315\370\274!\252\347;\372w$=\232\221O;v)%\275o-\346<A\362\325;\325\007\200;C\242_\273LJ\035=ZT4<\373{\203<\325\223\334\274,B.\274%\304\227<\364]\321<\312I!\2759\321\357<\223\336\316<\354(\362\274\377n\n=\343;\013\275##\036=)E\207;!\227\203\274\250\343\006\273\2044\323<k$c\274\276B\335<\367\311w;\361\240\025=\023\355\271<\027\027\270;\216\276\342\274\301\rT\274A,\272\274f\216Q<\006T\023\275\346\226\026=\214\273\236\274\237\237\201:\346\217\261\274\037\272\342<D\240\234<\"5\214<-h%=\374\003\004\275q\327\316<A\214\365\274/f\277<\222~j\274\035\255V\274)\234\353\273\360\263\310\274U\353\006=\343\262\241<\177\304\307\274\251\267\250<\211\303g<\264\274E<Z\244G\273\203i(\274\036\271\"\275$O\242<$\262\013=\243{\352\272\244\252U\274!\270Z\274b\370\014=o{\301;\305:\200\274ag\315\274\331\370\021\275WV\370<(\257\016\267:\000\210<\010\272f\274\312Q\221<*s\317\274h\216\002=\320\017\007=\207@\246\274\022\037\317\274\020\240\032=\025B\352;Ha\311\273u\343\356\274\034\227\205\274\327j\240\274\252\267\231<(v\377;\240\225\003<\213\375i\266\000\214[\274\264<\003\275\374\305\000=\035i\036<M\245n<A\326\003\275\261}\327<)\252\240<\3577K<\305R1<\361\257\026=)\354\n=i~\r=n\372\001\275\302\314\207\274\370)\026\275~D\311\274~01<\014R8\274\302T\374\274\253\300x\274\235\322\252<V\344\t=\350\016\022=M\220\214<\346\241\333<\027Y\307<\352tu\274*S\226\274\375-~;z\255\255\274\313\013\367\2746\253\347\272\360\302f<I\204\263<\031\317h\274\025\266\311\274\323\tm\273:\222\222\274va\024=Xs\262<.j\010\274\264\307\006\275G\275\023=\026\236\325\274\271.\r;\026<\005\274\377\023\357\274\353U\2079\007u\014\275\310\225\353\273VP\352<\260\010\362\274H+\013=\243\323\362\274\010Tk<Iu\017=\251\016\240\273}\256*<\372\322\276\274\261\033\266\274\247]\265\274\235\221\342;\372G`\274\014\010\227\273\177\207\022=\230c\377<\374z\257<\307`H;5&\032=Q|!<eD\276\274\036\311 \275\374\202\034=\342\235\333<\236\031\345\274\327e\t\275\342q\207:\3618\356\274v\300\026=n\207y<\321f\210\274\260\250\216:\275\373\257:\373\267\270\274\345\350\263<\\9\036\274\\\017#\274\375\024\013<\350\003\205\274\006\377\366\274hn\270\2745\365\221:Q\236\211\274\303z\260\274\257t\020=\267\310\004:\366\317(<n\316\200\274\221\242\022\275\306\222\216<\336\223\366< \224$\274\266:\035<8\373\364\274~\026\233;\252H\275\273\311<\013;N\257\\\274\337wv\273o\304\370\274\367\324[<U\257\247<\364\265\207<p\237\032\275\213\\\324\274\340^\000\274\233\034\314<\217\240&<\263~\033\275[\257\307<\263l\005=\212\243b:V\007\355<\222\214$<7f/<\344t\026=4\210\020\275\301]\023\275J\365\221\273B\351\022\275\333\363\217\2730\2711\273\273\312=\274`\005\364\274(\331\367\273\256\0078<\202\344M\274\306\322\005<t\265$=\342\3338\273+u\034=F\004\306\274k\234l\274a\003\n=\254\231\005\275\206\315\"\275\0200~\274\224 \003=\200\373\266\271f\013\017<\335\337\323\273\364\236\237\272^A\r=#\352G<\257 \370<\235>\227\274\207\377\330<\005$\014\275\210\016\267\274R7\3209\275\377\037\275\232\360\347<\261\306\344\274\202y\237\273\304\010\273<\3079\232\273X\357#\275BX\200<5\362Q;\263a =J\232\027=V\345\223<\357\205\037=\243\343\267<\035\231\343<y\002\005=I\251\355<|\372\350\274\246%\365<\231\3160\274\010\035\373<\t(q\274\311\232\300\272\356W\355\274yyS<\367\330\371\274\371%\032<\356p\372<\273g\260<,)C\274*}\257;\206\216\013<!\276\002<\254\267\374<+\242\021=\302\032\004;0\273K\274\243\037\356:\342\001\310;\212!%\275\001*\325\273d\361\006<f$\243;\222x\341\273/\231e\274cr%\272O\004\306<e!\324\273\251\037<<\264\025\3149\260\276\000=\310c\271\274\024\250%<\364Uh<\002\203\233<\340\243\021\275\301\221\332\274c\230\033\275;|\243;c\034\030\274D\r\014=4\016\253\272\024;\013=kY(<l\032\376\2745Y\303<\303K\020=[\301\273\274.;\020=\3661\007=\232\332\357<\364a\240<\017\255\333\273\242\224\322\274T\300\244\274\343 \005=\224Z\003=h\322\312;\301\333\310:\334\217\217<$h\335<\372v\365\274\024$\302;Ox\366<jC\'<2\037\351\274>\215\342<\330V\254<\266\303\270<\230\201\020<\202\326\033\275\243w\014=w}\247;\216@U\274~l\255\274e\022z\274\301h\373<+\003~<\316\204M\271Tb\274\274\264\313$=\275)\t=\027\202\347\273)\366\344<!\266z\274ZuH<\000\316\004=\251\006~<\214\305\202<4\272\031=\370\270\r\274S\371\202\274\207\336M\274G\022\334<|\317\303\271S\337p<e\366\035=\314\336z\273\263\230\014=k\356\315\274\036\032\251\274c\034\034\274kEm<.\216\270\274\215\035\246;\224\354\226\274K\203b\274\211\306K\274:\014\026=\t?\365<\325\256\277<%\031\002<\022\276l<\371\322\253\273\321\006\270\274\222\213\007=V\251\022\275EjO\273l\247K\274|o\002=;\312\022<O\241\361<\'|\356<\371\024\300<\314.\005<\031|&\275\265\371\223\274E\312b<\211K\311<\n\207\343\274o\257\354\274}\213\001\275\356\310\212\273z\227\017=\315/\261\274\363\202 =d\001\260\274\202mF\274\256\227\372\274\375\014\013\275\265\242\351\274\255\374\236\274\313\350&\275\224\037\336<\344\200\037=)\001\267\273C\230\007\2741\212\352<\357\013\252<9P\236\274\211I\026=\241\364\302<\376<&=\345\r\217\274\231\232U:[\350s\272\334\340\017<z\3724<i\014\220\274\245p\275<\215d\356<\261Y\321<)\307\320<0\266<\27370\201;M[\304\273?\326\256<\206\3540\2748\023o<\025\300\220<Z\034\"\275\004\213\224;\227i\260\274\224\325U\274X\307{<\006\345\007<\321/\020=\260\312\214\274s\257\350\274p7)\274\366\000\t=:\361\276<\323\330\221\273j\036\324<\277\200\307\274u\360\350\274\254\016!\275aF\253;G_\201;3\347\200;\023\3526\274b\353%\273;R\223<y0\225<O\026\017\275\004\371\0229\320\314\222\274\212\263\243<0\202\266;\251\035\367<\'o\315;\221\305\255\274\322\326\010\275\333\225a<\2570L;\346\030\234\272\'\177X<\021\3434\274\261\241\t\274\017\317\321\274\336\335\032\275\023\375-\273\023\004\031=\373\312\377<\335\264\370\274\263W\311\274-\225 =\377\246W: \373\305<\202\322\366\274+\371\005<\365\237\037\274_+I<`#\220\274\013\207\335<,I\200<\226\367N<\026\234\274<1\304\000=\273\360\344\274f\317\013\275\325\360\003\275\246\023\315\274\320l\005\274\367\364\327<\315,\222\272\276GT\274F\364\017\275\023\020\010<\223\352\001\275\351-\"\275\255b\203\274\375\320\266\2748b\000\275\206\340\033\275\230\347\265;\035\317\201;\3037\206<?\004\321<{\316\217\273\350;W;\200\025T\273o{9\274\207%#<\327\340 \275\3257\'=E\013\326<\331\266D<2\333\303\2749\274(\274\021\350\302\274\252\230\332\274\201\367\375<AA\000=o\300\267<\026u@\273\017\317\247\274\377\313\354\274\007\331M<\204~\274\274\207\033\001=\306E\021<g\300#<E\031\003\275\020;\020\2754\005\217<s\231\276\274K\032&<\203\353l<\026\034\004<\374\177\234<\354\330~<\034\242P;\303C\006=\3422\000=\243\006\234\274y\272\265\274%\237C\274\347@\222\274\036\315Y\273h\221~\274\363o\032;\007\343\276\2724\344\206<\232V\221\274\234I\252\274,\325\236<\016D\210\274\177\253\352\274Z\301\317\2741o\242<\035]V<\213x\345\27379\336\274u\233\261\273\345\237j<V\376!=\356\342%<\264)k<{\033r\274\017\2237\272+\203\035=}\022\347\274D\236\360<\317G\025\275G\374\363\273Mp\037<r\351\007\275$_\346\274\310\177\214\273\214\332\253\274\212\341\350<!\370Z;\237B\'=\215\353\036<\376`\034=\033\200\367<)\344b\274\0343\320<\207\032q\274Bw#=\375\352\254\274\030\205\317;\325\270{<\326L\216\274\004R\267\274!\256\350\274\272\362j\2740\204n;\245\333\201\274f\363\220<\336f\246<\275+\304\274*\037\223<\210\267-\274\234bc<\235v\021\275\273\262\202\274\013\230%\275\256\304\026\275\\\345{\274\204\022\032\274\366\024\322<\3622\253;u-\026=o\021\010=\340t\256<\316b\024\275\241\003&<o\220\304\274 a\204\273\236\223\270<B%\236<O\322\000\275\304\323Q<\025\262\025<s\206\332<\273\202\203<\357sy<\226\341\337\273\271\366\020=*\204\236\274t\245\021;Q\205\036\274\306\352\314\274a\375\272\274G\302S<\026BI<\016\243r\274#\250\357<1T\036=\227\324\007\275\031\213\034<\3718\026\275\207\215\002\275_[\311\274\322r\000\274dS\002=\204*\022\275\203E+<k\242\013\275\016\226\237\273\324\004\310<\252\312J<\276g\r\275\366i\274\274v\013<<\345\272\226<\334\250\330<\306\327\255\274\257\n\375<\300\224\276\272\211.\221\274\370#\031=\007\221\326;\014Z\372\273\306N<<O\202\246;\236\007V<\303S\365\274\226\212\n\275qh\322<#p\224\274\013\332e<\237\311\340<\242\224\346<\000\272\246<\264\020\344<\010\366\365\274\364c\305<`\373\037<{\244\376<\030G\246\272\356\237\021\275\336\022\230:|\002\375<\007\215\277\274\311\234\237\274(\242\001=\341\273\026=\255g\342<\206\367\n=3K\035\275\267\256\003\275\351Xy\274\325h\307<\274\323\225\274\330q\320<\306pa<\241\206\025\275yt\272<\374.V;\250\300\n<\237\243\237\2747^\361<Q6%=\251\353(<<\t\003\275\023\303\212\274\235\313\231<#\274\254\273ft\235\274F\277\014<Z\361\025=\241\230#=&\"&=Gh\360;\322i\343\274\034c \275P0\355<\n\243\027=\213@\365;\r\212\224\274\220\331\320\274\'\240\006=b\322\034\275\346\300I\273m\232*<\227F\225\274-4\035=\342\247\371\274\332O\021=0\221\003\272\261\363f\274k\240\351\273\3215\316\2749\231\233\274\276\004\'\274\214\323\n=\353\263^<cw#=\364\030%=\2052\332;3\310\027=\036\265 =\177:\362\2749\235\231\274\026\020\003\273t\013\272\274\236y\316\271\207J{<\226J\310\274\323\262\351\273U\363\224\274\016B\312<\362\256+\274\347\370\357\274\345\337\233\274P\255\t=&\275\262:Q\027\022<W\350\341<\232\000\224\274\023=)<\334\335\017\275\303\203\200;Cf <c\315\206\274\'\274\360\274\023\352u\273h\021\320:kM\360\274@\026&\274L\315\326\274\227A\301;A*\001=\210\024\304\274n\351\030=\007\n\202<\331\003)\274\271\223\005\275\006\260\337\274\344\267\363\273Q\\k\274\223\t\342<\260\250\003=D\270\263<c\340\025\275\340u\024=m\261\035<\002{\335;\r\237\310<\260\327Q\273k\373\317<\274)\336<\202\032H;\305Mg<S.\251<+\243\201\274\317\002+<\244\227\272<2\261\232;\214\203\233\274J\203\025=K\353\327\274\334\234\246\274\310Y\364<\017\355\316\274V\021::\234+W\274\357\306\371\274&\202Y<\245\021\321:\307e\234\274z\345\254\273\354\036\244\274\370v\022\273\257!\327;\340\370%\275&\205\037\273\234\375\223\273sr\026\275(\3650<C\237e\274H\302\232<\312\337\216\273X\221\014=\264\227\007\275\320\377\343<\251V\365\274\243\370\332\274\226C\036\275\017{\250\274B\2718\274L\002\027\274c7\027<D\212\236\274F\337\216:\364\203o;9\'\027\275\306>\343\274 \345\031\275\264\323w\273\277\247\312<\r\034(<\037\222\333</z\234\274o|s<\322\037[<+\023\340<G\221#=\360\260\002\275A\252\362<\323.Y<\177z\352\274\354\316$=\305=\223<\203#\370\274`\266\231<b\033\265\274\331\362\273\272\330\333\351\274\332\240\273\274\370\003\337;\314\244\304<\231$\267\274t^\250\273\214\'\330;s\'\016=\316\241\354<\377\031\205<H\337\027=\261\357\r\275\226\023\014\272K>X<\374{\023=$\037M<m\320\237\274\035L\022=\316\370\220:\021\202\245\2748X\255\274Izs\274/\206x\274=\374S;\037\233\226<\340+\214\273\'K\324\274[o\206<\235\240*<\3568\027\275\325\re\274\350\323\334\274\010\031\365<\307\304\276\274?\320\216;\205\212\226<\177\020\372\2742\313j<\300Q\235\274v\377\330;!\240\361<\220\322\036=\374w\326<\260s\013=\000\274\024=\240QF<\316\220 \275\347(X<\3554\356:\"~\273\274\215\007\206;^\017\013\273\300\372\355<\320\223\\<\361S\247\274\221 \243<\203\245\303\274/,\250<\007a\037;/7\205\274\362\005\342<\230\r#\274\250B\314<\307$\036\274\260\241\010\275\214\227h\274\352\322\325<\034\230\255\272<\277\305\273\004\371#=\222\347\314\273hu\277;\246F\252\274\207g\350<m\227\232\273+\235\234\274\342\331\207<\026v\033<\260\377\014\275Jt8\273\300w\261\273\013\342\324<\266\241\024=t2\337;\3248k;\036\"\373:2\237\016=yB\035=\270%\367;\030/\247<n\210\237;7[\223<\220\351\360\274\177D\017=j\204\026; q\010=\347s\321\274(\256\341<\264\333\250\273[\336\313\273F\270\024\275\320\033\322<\262\311\t\275\341\016\327\274\235I\242;\373\225\212<\335&\003\275\300Z\022=/\272\017=\213ak\274YW\275\274C\313\306<uV\304<\204\\$\275\324\371\016\275q\223\222\274\005\027\024<i\254\004\274v\242\033\273KE\275\274$\247\362<\317o\002\273na\031=\323\342\034\275\350\t?<\247\014\030=\226q\337;\032y\335<\021u\027=\262\033\207<\354\341\033\275\010\330\344<|`+<}\277\347;\024\276X<,\302\371\273A\016\215\274d\256P\274`~>\273^)\254<\246\344\261\272C\034\226;\034@\022\275\302d\377;\320-w\274\237\274\004=6\030\310\273\265\353\324\274}\265\214<2\344\031\275U\355a\274\365\034\315:m5\362\274\2024\210\274\003\354S\274\201\2436;\211\321\177\274\207I.<\307n\227\274 I\032\275/d\370<\0043\361\274x\031\207<\224\035\217\274?na<xnk<\027\034\204\274\317\255\376<\320\263)\274s\342G<\372\037\037=\271b\255\274\306\213.<m\263\201<\256\314P\274\360\021\215\273)>4\274?\004\025\275\232\005\267;\310\306\000\272$\271\"\275_O\177<\247\035\202\274\270\226\363\274\205\020.\274_UZ\274\217\263\272\274cm\261<(\343\010\275\006]\201\274\315\360\007<U\023\327\273U:T\274\257\313B<\000\320\r=/GD;<\222\324\274\216\321\252<\237\344\352<\202\026\033=\247\251\231\273\365\276^\274\372\334\325<\010\335\003=\333\344-\274\034\\\006=\322\317y<n\273\270\273\021BE<\362\335\320;\022\002\363\273\355\214\026\275kGx<O\206\377\274aJ\352\274e&Y\274\020\017\231\273\003\001\253<\016D\013\2746\007\376\274\267\000\202\274\327O\200<\230KL;\333\\\246\274T\020\261\274\2142\305<\2673\355\274\006\350\261\274\330\203\003=\316\224\210::\346\267<#\220\252<\232\345\311<\250N\225<\343ah\272Y\250\201\274lU\331\274\261n\271<\371\275\374<\255\004\263<e;\010\275\276.\350\273:\006\035=\316}s\2734\024\221<\327\363v\274\273\234 =7\360\235<\261\336.\274\305.\352<[\215\027\275\032\240\335\274\270\331\214\274\003P\014<\'\246e\274\265\346\023=S\352\032\275U<\205<\264\253%;E\212\013\274\300\254[:\375/\'=xg5\273\306\035\022\275E\033e<\250O\321\274e\207^<:\022U<W\001\237;G\227z<\036\351o<\235,\236<n\206\213<\247\312\362\2744\232\030\275\225\037$=\007\005\267\274\251)\035=\237\255\330<\237\341\377\274\362_\245\274\370\206\225;\221\233\021=\221\030\003=-\257\256\274~\372\326\274~b\010\275\230\033\000\274(m\262<\237\346\033=\213\004\\;3B\330\274\243\235\036\275\216I\006=\354$\240<\362!\340<\273@\364\273 \014\020=\241[y:H\311\355\274]\200\003<!|&:(~\034=\257\247\302\274\335\005\261\273]\r\351<\370\371b\274sm\200\274\377.\025=g\342\357\274U\031\331<\001\010\353\273\232\007\034\275\210\377\201\274t!\354;\203\301\224\274\212\323O\274;\\\017\275-?\332<\316\224\360\273_\215\214;\260\226\016=\017\345S\273:\373\n\274\324\005\230<\375\036#\275\241j{\274 \360\313<\240\001\032=\265Q<<M\344\356\274SE\322<\311\305\323<X\336!=\240m\031\274\215\0164\274g\345J:\255^_\274A*\240\274p\376\034=\335Aq\273sm\014=\366lh\273X&/\274\242g\217\274x\254k\274a\355\346\274\263=\225\274R\341n\274\'\376\302\274\340\317\323<xm\t\275\306\264\275\274\034\t\371;K\245\377\273\362P\352;\261P\335<\032\217\237\274\331\227B\274S|\316<e\022\231;\255\262\310\274\361\013\326<\000\010\303\274\344\303\263\274n\342\330<\020\367\031\2753\361\013\275\244\346 =\266Q\310<\302h)<\025\312\001\275\202/\035\2754\225\251\274\350\333\375<\233\217\205<<\226t<\302\260\267\274\243H\016=\tM\215<\024n\r=0m\013=s+\375;u\270\033=\205/\332<\007\312\257\273\225I\022\275\024\213\333\273\330N\n\274\232\200\354<\256\376\232:\276\207\354\274\367\004Z;O\'\230\274}\n\024=\307\325T\274J<\010\274}\226\355;`\332\341\274f\270\326:b\326\270;o\003\313<\024T\017=n\351\036=~+\032\274\312[\313:\307n\353\274\350\0041\274\262t\270\274\304\345\326\273\330\034\207\274\326\202\330</\310\245<{\317\r\275\315\037\241<T\264^<\306%\013<\3663\013=\270I\"\275\037\376\361\274\\@\016\274Y!\367<\326\357\313\274-\303A<\3236\372\274\243\005<\274\332\351\037\275\301\253W\274\340\032\017=|\325\033\275d\303\020=x\357\326;\233\353\303\274\354\227\327\274W:\001=\202\241!=\253\301\242\273P\222\030=9x\205<j\233\217<P\017\352;S\322]<\270\205\362;\032/\264<\275\030\314\274\267u\033\274\303\274\206<9\037\004=\354\261q;\362;\005\275\304Z\'=u\346\313\274\002\017 \272\023?\205\274\3700\215<\220\240\230<1\310\273<\343\331\024\275\217\200\207\274\302\316\220<\331[%\275J\355N\274\205\351\034=\257\330\252\274\240W\353\273l\361\356\274~\006\n\274O\344\2378\244\034\236\274]\335\373\273\233\327\024=\317\030\370<r\035\020;V\240\327\274u\201\250\274TEB<\231\273\271\274l\270+<\262#P<n\200\334\274-\273\374\274@\236\264\274;\234\200:\346\235\263<\237\270\353<\003\250\010\275B\254\364\274&\247^<w[\345\274\335\2228<D\036\022\274\r\211\366<\267.\315<\277q\244;\202z\016\272\025.\353\274T\353\225\274\231F\341<\000\303V\274\260nh\274?j\017=\177\035\006\274\337\254 <$\231\315\274\211\252#\275\257\261\244<\321\234\020\274\342V\206\274\334\033!\274Y\222\037<\363%B<\363\276\037\275{\364@\274\334\312(;\006\004\243< fK;\302\203\006\275\001E\263\274z\017\r=i$\345\273\327\257E<\221\025\001=\007\216\223;MF!<\022\021\212<\272\0010\274\230N\334<\r\256\221\2746\302\376\274{\267g\2746\360\364<\302\320\273:\003\351\020<;\"\320<xh\r9\304\356E\274\336\035a\272K\233\016\273\361\355\r\275\001[\t=Oe\302\274\237\303\342\274\032U\037<\267\245$=;^\375\274N\232\200\274/\210\347;\232\213\350\272\375\307\242<|as;&%\033\275\321\201\244;XI\245;\337\231\023=\271\336\367\274\020\240\336<\374\014@\274\341L\371:\265^\004\275\003\010\326<\310b\021\2756\250E<\373c\363<\372\220\242\274\347{\017={\313\364:\305;\030\274\255\006\014=\302\262\363<[\013\030=\275\326\201\274`<\021=x\306\244<dK\372\274W\3758<I\256\203\274\017\350\332\274@\002\014\275\007?\206\273T$6<\236z\225<\027R\201<\021\356\343<<\274\364<\360\3536\274\342a\010=\352A\000=\027\331\031\275\306\017\365\273\033(\000=\362\rg<\240\223\225<-\3253;\360\273\262<\207`\035\275z\364\325\274\t\217\301<n5\014\275\2419\336\274k\370\221\274\002\376\261\274\020)G;x\367\223<\031\337\020=\336{\034=\364\031\006\274\203\312\227;w_\006\275IE\242\273-\364\006=\255\n \274\001y\376\2747\274\235<#\026\301\274\261\242\336\274\344*\n=\334\n\206\274g).;\340n\243;\367\032\'=\340\001\233\274&;\230<\230$\031=\267\014\311<\016*\013\275\234\014\237\273\333\320\371\274\332\350\314\274\322s\024=\342\263\367<\t\274$\275~#q\274\373\324\021=cH\010\274\334t\374\274\007\337\270\272\254\275\212;\010\244g<-\026[<\"\033\313\273\265\021^<#t\314\274\214=D\274p\305\327\273\n\273\365<\352%\026=\306\312\016=\317\264\313<X\205\240\274\370\027\255;L\316\363\2749;\315;\3768\252\274\261\303 \273\200\2507\274\255\243\346\273\264\270\244\273\322{\021=\347\235\313\274\276\207y\274\033p\236\274\343\377B<\364\260\372\274\332\322\003\275G\'\210<b\"\005=U\355\301\273\220\276\260\274\177\372L\274%S\200\274Nw\030=$\221\247\2727H\n\275;\033\025=`\254\035=\022\352O<\372\240\271<[8a\273\332\220\341\274U\304\204\273H\243\332\274\025\353\023\274<LJ\274\330y\007=g\274\2248\205E\'\275\177\216\350<\0275\002=0\377}<\241\276\323\274J]\210\274\000,`\274,\322\253\273\315\032\276\274aj\205<\353\267g;\014i\366<#\230|<\275g\025\274\225C\025\275\0255\335</\n\354\274\364\3300\274f\202\377\274:\361\202\274\310;\006=\240w\343<5\311\330<HV\321<\342O\237<_\270\005<\316X\013<\345\270\021\275\347\366\334<-P&=\317Q\200\273Do#=f\365\010=\270\335\362\274wt\034\275\"a\223\2742\032W\274\225^\023<\360v-\2732T\213\272\243\332\246\274Tw\372<\007P\027\275\234o\t\275\rD\016=\034\370\264\2737\020x<\244D\031\274&\204\210<~\216\013\275\364O\243\274\332,\340;;\376:<\200\361\204<\300\024\020\274\346q\246<\0132\365\274\350F\006<6\235\267<\346\226-\274\001\242j<\004e\330<#\227^\274\360I\313\274%\201k<\271X\241<2\022\350\274a\321\276;D\354\022=8\006\267\274\241;9<3,\365<\312\245\212\274\204\365\303\274\020 \367<\032\362\021\275\037\255\t\274T\333\001\274\360_\246\274\205\004\223:%6\307<\203\216\366\274\030\357\315\274\023O\021<\233_W\274\354{Q<\034w\340:U\343\026\275\261\377&;\212\312;\274\277\325\220<=\202\352;\373\227\302\274\034\001\3138Q\345\330<*,\356\272\2174\t<[\213w\2746\306o\274~~\031=\235\277\207<J\212x<\375\216&\275*\"#\275\220\356\217\273\t\366Q\273\247\201\000=#\242\232<69\317<\t \226<\335:\220<\256\300\206\273\032\225\017\274\262\341v\274\342\374;<\223\366\016=\027\246(<\271Y\344<\266\027\302\273h\004 =\300\313\r\273+E\016\274\350\032\027\2745\243\204\274a$\037=i\334\330<?D\363;\026=\021\275\025t\340\274o\006\312\273\000\240\220\274Eh?;\231\315\351<\200\036\235;\tTj<\025r\001\275\223wu<T\235\213<\232\247\026<6\376M\2743\031\311<\022\370\207<\030\306\207<C\324\257<GV&=\363i_<\271\235+\274\361\326\246<PH\243\274\nZ\221\274\331\217\331\274\375\"X\271\266\333\344:\235\322\374<\244\021\022=\317L\022\275s\366\330<\240\230\341;\342\035\254\273\004\204\373<[\277\316:\3120\004=F\311o9V\245\214\274~\357\252;b\000\213<\255h?\274\023J_\272\370^\010=\207\323\320\274\277Y\261\273\316\037\333;_\010\327:\202\224\200\274\252\177\017\275@\242\372\274\'\323\212\2746\005\316\274Z\346\005\275\263\245\247\274\334\001\032=\337\207\200\274\203\266d<\225]e\274W\254|:(\230\206<\227\271\236;&\356:<\202\316\340<\014\217m\274\362y&\275x\021]\274\346\030\336\274\001\377\222\272\206B\351\273F\325\020=O\010\372<\334Z\032=\240\013\222<\327>\024\275l\211e<y\367\331;\216\260|<aH\211<\373.S;\201\031$\274r\350\301<s\235 =)\320\017=\355\010\222:\232o\t=T\213N<D\356\327<g\243 \275\271Y\303;L\273b\274\014T\226<:\244\205\273x\016\275\274A\357\006<\300\2539<[\357\231<-\310\2378\2527\305\274a\315\022=9!\220\274\316\'\010\275\302\261\340\274H\217\301<\372\340-\274\271\323\031\275\027\335&\275\215\331\207\274c\366\205\274$\300D\274*\3008<\037\233$=}7\374<\232\003\274\273zN\335<\260\371\216<\013y\363;\033%\014<,