node {
  name: "global_step/initial_value"
  op: "Const"
  attr {
    key: "dtype"
    value {
      type: DT_INT32
    }
  }
  attr {
    key: "value"
    value {
      tensor {
        dtype: DT_INT32
        tensor_shape {
        }
        int_val: 0
      }
    }
  }
}
node {
  name: "global_step"
  op: "Variable"
  attr {
    key: "container"
    value {
      s: ""
    }
  }
  attr {
    key: "dtype"
    value {
      type: DT_INT32
    }
  }
  attr {
    key: "shape"
    value {
      shape {
      }
    }
  }
  attr {
    key: "shared_name"
    value {
      s: ""
    }
  }
}
node {
  name: "global_step/Assign"
  op: "Assign"
  input: "global_step"
  input: "global_step/initial_value"
  attr {
    key: "T"
    value {
      type: DT_INT32
    }
  }
  attr {
    key: "use_locking"
    value {
      b: true
    }
  }
  attr {
    key: "validate_shape"
    value {
      b: true
    }
  }
}
node {
  name: "global_step/read"
  op: "Identity"
  input: "global_step"
  attr {
    key: "T"
    value {
      type: DT_INT32
    }
  }
}
node {
  name: "input"
  op: "Placeholder"
  attr {
    key: "dtype"
    value {
      type: DT_FLOAT
    }
  }
  attr {
    key: "shape"
    value {
      shape {
      }
    }
  }
}
node {
  name: "output"
  op: "Placeholder"
  attr {
    key: "dtype"
    value {
      type: DT_FLOAT
    }
  }
  attr {
    key: "shape"
    value {
      shape {
      }
    }
  }
}
node {
  name: "HistogramSummary/tag"
  op: "Const"
  attr {
    key: "dtype"
    value {
      type: DT_STRING
    }
  }
  attr {
    key: "value"
    value {
      tensor {
        dtype: DT_STRING
        tensor_shape {
        }
        string_val: "X"
      }
    }
  }
}
node {
  name: "HistogramSummary"
  op: "HistogramSummary"
  input: "HistogramSummary/tag"
  input: "input"
  attr {
    key: "T"
    value {
      type: DT_FLOAT
    }
  }
}
node {
  name: "HistogramSummary_1/tag"
  op: "Const"
  attr {
    key: "dtype"
    value {
      type: DT_STRING
    }
  }
  attr {
    key: "value"
    value {
      tensor {
        dtype: DT_STRING
        tensor_shape {
        }
        string_val: "y"
      }
    }
  }
}
node {
  name: "HistogramSummary_1"
  op: "HistogramSummary"
  input: "HistogramSummary_1/tag"
  input: "output"
  attr {
    key: "T"
    value {
      type: DT_FLOAT
    }
  }
}
node {
  name: "fully_connected/weights/Initializer/Const"
  op: "Const"
  attr {
    key: "dtype"
    value {
      type: DT_FLOAT
    }
  }
  attr {
    key: "value"
    value {
      tensor {
        dtype: DT_FLOAT
        tensor_shape {
          dim {
            size: 8
          }
          dim {
            size: 3380
          }
        }
        tensor_content: "\256\t\273\274<\357\254<\237}\035=\344+\031\275o\305\366<\023\254\025=\360\322\301\274\253>&\275^,\320;\314z\031=\037\266\236\274\177\216\206<M\306\261<\203\333\276<~\270\241<\234\307\244<X\241\000\275\023\232\355\274[d\307\274\200J\346<7\223\014\274\2470g\272\241c\323\274\006\273\251\274\210\2340<[1\035=\352\356\004=0\026\343<!\232\005=\0262\221\274\001y\342\274c\232\355\274@\225%\275B\246%=\273\233\332<\014D\002\275l\233\001<\317\333 \275\254x\031=8=B\273\322\200\212\273W\036\265\2741Y\354<+\333 ;\347\372\001=\301Y*\275\331[\317<]\036\326\2742\215\327<\321\345\347\274\r\272\321\273\334\374w;{%\220;q\224\001\275z\204\330<\267\n\215\274\rA,<\216\201\214<\307\264\215\274[\034\301<[K\321<\003\265\246\274f\306S;\2652|;jE\306<\263\264\034\275\302i\337\274\367\344\340\271\033\\<\272<J\265<&\247+\273\260<\'=Y\2578\274\004\327\342<0\276#=\001L\022\275{S\034=(\034(\275\234\036\177\273\355\327\013=\231\377\223\274\316\304\376<\227\3362<\340\234\033\274\313\351\024\275\342$\203\274\037\022\000\275\026\375\352\274X\243\320<}\313%=17\301\274^\\\361;\212\030\354\274\250\373\372\273\032\346\222\274\260:\277\274\347\216\206<\327e\201\274]\333R:\203\036\037\275Jj\006\275E\305(\275\271\226\004\275\313\267\200\273n\243V<v\324\241\274/\250\300\274\271hK\274\000Z\206\273\'\362\n\275I<\331<\347K\363\274\3078\242<+\266\364<\t2\"\274\344\200_\274mp\326<\030B\205\274n\376\213\274n\376+<j#\213\2745\314\356\274\210\025Q<\267l\200\273\227N\"\275\'\344w\274\206V\004\274y\221\244<\364\214;</\222\010=`ys<q\037+=\312R\020\275\211V{<Y@\034\275\271N\003\275\003q&=\317\202\024\2741\314\240<\317a\271<\r\321\377\274\220G\322\274y\263\010=\224~\210\274\3537\024\274K\270\016\274\254\335\221</S[\273\0320\252<\262\242\0339P\221\032\275\247\316\203<_\230\030<\323\255\233;\227\211q\273J\367\273<\227\037\266<\210^\t=\302\300\316<\335+-;\373\235\001\275\265\267\327\274H\025\224<\330\004\267<\004\223\232<>\322\200\273\247M\277<k\022Q;\030V\354\274\241\226\241<\001M\301<\220P,\274MQ\317<\027\224_\273\032\300\346\274x\376A\273\312h\005=\273lK\274\333L\177\273T6\213<\345P\310<L$\267\274!\'\223<\210;\247<\007\2705<s\251\240<\222a\017\275W!E\273r\"\t\275#\252*=?\026\341\274,\334\032<L\215r<\250\372\303\274P\371\374\272\347\301-<\332\006e;(B\302\274\236k\270<\216L\256<\267\353\373\274z\325\346\273\235_\372\274y\037~<\224\r\376\274ia\313<#l\201<\007\272\240\273?B%\275P\304?\274w\246\313\274\272E\035\275\"2\030\275K\351\222<\334_-<}\326\265\273\212\331C<\322N\303<\310\217\'\274\252\245\365\274&\001\"\275\261!G<\027?\215;\331\030\343;px\010\275\344\375\224\273J5\267:O_\372<K\353\314<p\177\313<\256\341\356\274\343\331\314<N\274\257\274\320\252%\274jI\327\274\021\374\372\274\2615r<\313g\031\274\215d]<7\305\365\274\017s\037=d{\023\272\007\237\201<\330\004\'\275\035v\2259\202\225\031\273\"\271\331;\212o\211<\302\223\024=G\313\241;\354\266)=\344\332~\274\243\277%<\277\312?\274\262\261\354\273C\212\202<\246\"\211<\275\347\205<\241\251\017\274J\316\221\2744\206)\2751\246\204\274\243~\302\273\205\373m;g\202\362<>\010&\274,\313\027=E\227e<\300\250\213\272:\212,\2736\214\025\275\233#\226\273S#\016=f\025\001=\377H@<{\207\n=\243\227\210<}\202\225;n\323+\275\271\334\010=\037\316\205<e8\320<\303\031\246<x\3615\273\344\324\377<\340\214\275\271\3318+\274\314\201|\272\277\372\211\273\266&\351<\207L\330<\027\033\002\275~\207\005=8\271\026\275\202-\305<\\\313\303<\317\216\246\274\010&\010\275?\217\255<\354\023\211:uc\247\274\022\\\356<#s\230;o\007\312\273\022\"\010\273=\003n\273o\362\215\273\332`\221\274c\273\004\274\345\010(=\365\276@<\321B\032=\342$\362<\241:y<\273\026(=\311\211\002;\314\032L<F`\313\274\002\231\327<\211c\245<\216\344\354\274\227\270(\274\302\324!=\214|O8\230\361\'\275v\367\021\275\237>\375\274\373\352\341<\272\212\025=\213\025\033=q7/\274C\202\223<\355\013\301<\003\r\272<\234b\023\275\270WS\274n\232\374<0\300%\275-V\031\275F\243\032\275\263\357\242<\244\231\377;\2779\357\274\035\350j<R?\315\274\017\277]<\304i\027\275X\231\034\275U\"\223\272}\351(\275,=\361<\3510\020\274\255L8<f\rV\274BvL\274\225\352\327\274\231\256j\274SE\n=\034vc\273\263\223W\274\372z \275kj\275<F\017M\273\343\334\025<\0066\205\274\316\006\262\274\256\273\261\274uK{\2732\325\n\275\225\333\270;\346\236\332<\331O\326;a6\177\273\242)\261\274\334\216\356;.\366\017=s\2056<\347\252\307\274\0215\320<\250\351\236:\360\034\245\2747\262\232\274\013\355\307\274\207@\007<\000\333<\274+s\266\274\026\346?\274\202C\204<v\030\331<R\037t<^\351O\273\336\357\014=\317\244\371<\214\200\013=\251\223\224<\004\236\013\275\2452\277\274\"\005\023=\316\013\210\274\256\265\005\275,\337\033\274B/(\273\220\tl<\322\365\307\274B\303\330;\345e\347<q\274Q\273\020\321\331\273\244)\013\275\213H\242\274XY|\273\346\351\336<\332O\272\274cj\304\273\221\375\373<\360W =p\334\212\274\320]\331\274)\247\322\274D\035\204\272\251\327j;c\261U\274V\017\022\275\372\276\374<\350\026(=\"\014#=r\362*=G\252\334<\246H\202\274$\020$;\207\252\237\2747\310\217\274x7\n\275\237\245\'\274Yc1\273\365h\337<\331A\204\274\001\315\256;\016\236)=\002g\232<\222M\033\275\340a\307\271S#\004\274\033^\233\274\303\352\277\274\026\203\'\275CF\373<\254A\344\2741\341\223\274\267\307\007=C\010+=\273!%\275\276\277\206<\275*@<\224\207\246\273Or=<\257\353Q\274\350\223\010\2758\030\315\274f\246!\275;\363\267<\024\323\014=\334O\353\274.\257\337\274\206N\033=\271\263\207\274\001\276=\273\030\243\253\273\326 \345<\353\337\337<\n7\014=Y@h<\022~\237\274\302\323\027\275oM\020=\303%\371\274\274Ub<\327s\212<F\220\3268\307T\013\275}\357\024\275X\377\260\274+k<\274N\205-\274\3129\031=\356\302%\273H1\310\274[p\264\274\347\'\303<\371v6<\365\033%=c\tG\274.\317\016\275z\301\002\275\275S%\2755I\240<\035\222\005\275\374T%=\350\003\001=v\275\337\274\010\261\210\273`\252\271<\346\237\003=\204A\353\274w\304\034\275q\253\232\274r5\263\274\343Y\241;\350a*=\204\260\351<9Fk<\033\247l\274a\177\032\275\3304\230<\n)\252\274\3524\230\274\343\336S\274\325\215\210\273\234\277\223\273\325\200\277\274\315L\340\274\020\272!=\001\217\340\272\232\037\200\2736!\214;!\222\304;\266\224\177\274\214\352V\274\026\022\t\275\244\240\"=k\n\256<\267\3038\274Vu\036\274\3271o\273\'\252\247<SQ\276<\352\220\014=\255c\014\274\206\202\334\274\\\353{\274b\240\021=K\006\324\274\353\320\313\274\305\303\017\275\243\022\307<-\027J<\263#B<\311\244\024=\207*\261\274m\272\360\274\367\324\013\275,$\005\274x\243\220<\313\372\220\2734*\345;\227N\261<\223\256\021\275\302\264\330\274m\362\311\274\034\"\036\274\340Y8<\313\351T<5\223\006=-p\022=3\343\252\273\344^I<\347\247\"=\341\343\243;\377i\315<_V\\<C \005\275\014B\r\275g\r\025=\224\325F<\273X1\274\331\350\006\275\253\30089{\227\372\274\225\017\344\274\3605\350\274\232*\261\27482\t\275\277\247\035;\237}\306\274\301\230\377<\330\366\267\274!\242*\275\005G\370<\244\355\374\273\316J\024=\010\207\276;\001^\305<\177\352\225\274\306\324\316\273,`B\274\341\334\332\274G\302\254<\374\017\210<;Z\n\275\254\265J<P\363\300\274\013\226\207\274G\232\006\275\370%\373\272b\215\346\274\370\242&\274\3775\006\275\355\235y\2748\021\'\275gM\264<)\"#\275%e8<#n\340\274\331e#\275!\225\037=\036\201\232<%\n\351:=\256\200\273{)\014\2755\371\241<\341\033\213\273F$\023=\341\272>\274V|K\273\021\373\005\275\276\033\347\273\357k\013\275 \275\311<}\352D;\254\316\271\274\307/\273<\005h\337<`Q\266\274\371\265\320\274\001\263\357<\350fF<\270\262\037<f\247\365\272\021\003\023=#\217\265\273\271\003\254\274\252;\304<\005-\301\274\327\327\275\274\327\027\010= \215\021\274\357\036\345<b\347*\274\374\303Q<\201\010;\274\370A\031\275\024\272V<dh\344<\353\313\033\275l\315\300\274+\020I<\031}\r\272\'\341\212<\000\260\027\275%T|;\274\016\017=\202\327=\2743uI<\333t\352\274$o\213<\003h\357\271\032\321\200\273L\346\320\274\216:\200\274X$\001=\343\246*=\302\t\023=\273\007\004\275\240\253\333<\n\205\205<\002\315\233<\034\\\300\273x\337\332\273_89<\277\334\263<-6\024\275\335j\237\274`g!<l\237#=O\212a\273/c\357<\333\202\363;\262\021\354\273\217L\276\272E\250\202<LP\032\275V\232\273\273w\330\270<L-\272\274S/\002=\031?\005=.O\334\273\027\252\224\274y\001\315\2746\355\377\274o\237\263<\332\350!\275Z)\233<\325\260\035\274\217\302\013\274\364\337\024\275eH*\275\rm0<Mu\251<\322\303\237\274\231\200\014<4\3068<P\004\300\2741o\336<BI\264<\260$\017\275K\t\030\274].\003\275\373=P<vD\343<N\277*\275\333\227\351<s\024\317\274I\257\217<\267q\016\275\310e\333<y\017 <m\347Z<\337\372*=\021\200\215\274,Y\220\2748\242\256\274\022Z\310;\272\223\267\274\000\375\033=\256\240\361\274\271\265Q\273:\222\025\275\361\027X;\340,\022\275B\243e\274\246\264\356<m\367\030\275\224\227&;i\204\014\274[g\327;\031{~\274a^\370;\\\261\325<\0266\'\273\014\324-<\025\334\314\273P\023\211\272\351\010\250<+e\316\274\226\223y\274\256\235\n\275\0147W<\250\351\263<A\372C<1\247\220\272\302\005\"=u\317h<\354\331\030\275\n\033\232;W\254\345<%\030\250<\360\225\223<}\272&\275\247\220\313<\242\025\206\273\032N\346\274v\016\022\275\233F\363\274-\331@\274@\006\325\273p\266\n\274]@\241\274T\246\362<&\245\027\275\270M\224\273\377e\222;\230c\236<\255*\337;3\211\234:\373!\031<\227\344\333<\243\222\030=y4\205\274E\225\t=w\314\375\273\230R\253\273G\230\375\274\347\214D\274D\230\373;\013H\265;\334\302\260<Z\214Q<\332\275\033\275\205\247\031\273\001\367\331<\354\001-<\234\303~\274\245\005\374<M\206\314\2748\234\3729b\330\002=\030\037\366\2745Y\214<\313\240\253\273\226]\317\273\255\031\313;\241\221!=\007\203|\274\203o\304<#\337\356\272\355\343\326:\212\001\010\2755\2172<4\004^<\221\337\311\274\267x\277\274@?\022=\032tt<7\265\025=8\214\010\275\241\307!=\227\023\267<\016\327#=>\220\267<g_?<\270\214\025=\210\353(=\244P\014\274\305\304(\275r7\037\275\330yG\274\243O\273<\353\223\010=\350\273Y;\304\260\344<\225M\223\274\014Y\305\274\010Gp\274\204\014\332\274b\364(=\274\007\255<\234}\025\275\355E\275\274\352\027\272\273\031`\006=\260j\265\274\332>\343\274\215\306\274<\020`*\275\"\275\267;\025\305\307\273@9+\275\337C\335;g\264\016\275\031\002\013<\206\375\t\275\341\203\200\274\360l\t\275\323\013\t\274(X\274\274\346\275\200\272\250\341\217\273\335P\007\275S4\374<\236\203\241\274\316\235\016\275\243\304;\274\320^\227<\215\256\001=\020yu\2724\351\'\274\014!;\274\271k\232<z8`\274\2762w;\277W\342<\311\240\030\275\236\352\276\274\226!\253\274\"R\027\275g\241\034\275\203\001\365<3)\230<*\334Q\271\274;\256<z\240C<\010\033\340<zL\013\274\307n\245<\247\377\010\275\224\007&=}\355\003;\207_\037\275\214\022\201\274\212c\341<\230\371\177\274Z^\303\274\202\006j<N\367\262\274\004:\353\274\251\375\221\274\204\n\031\274\372\363\006\275\265k\241\274Tq)\275\323\340\366<\230\017\260\274\265\035\245<+\361Y:l\315\020\274\212;\013\275\213\253%=\226\220\017\275jZ\001\275\331\236\346\274_\366\346<8\347:;N\347\211<a\342\325\274e\010\347\274\023\377\333<\267:\001=\027P\205< \264\245\274v|\316<\346U\337;-\312\346;\030`w<5\020!\275mx\246\274+\006W9\027P\255\274\030\335\t=\246\n&\275V\'\307\274Q\035\027=\037\320.;$2&\275\263S>\274\227\373\005\275\031\377\352\274[\267%=\202\235\035\274(\323)=}\317\340<\352[\373\274$\267\207<\211\262\325<\273\335\240<\244\033\n=zR\275:Q`\247<R=\322<\'\243\215\274\276\330\327\274\363\315\310<\263\254\002=}\210\204<\026\205\037\274\362\313\205<T\034\025\275?\2468\273\275\343\343;\002\263\304<\325o\274\274\206!\034\275\311k\357\274t7\337<.\020\006\2746\211&=\247F?<\233b4\273)\343)\275\032\200\302<\273\355\313;\310:\t\275\013\377\023<\376\205\216\274\021\223\353:\024\267\231\273\273\321\302\274\374\247\223\274=\201\024= \333\367\274\t\274+\275\356\356\177\274d\221\302<\265~\032=i?\037\275\345\t\206<\013z\031=\302\242e\272\336\032\021=\342&\016=)\177\034=+\006>\273\275m.\274w8\320\274q^9<\337\312\321<I\331\010\274*\031\362<w\372$<J\225\377<9\302\350\274\323sa\274\001;\262\274tc\330\274l\370\305<\261\260\377\274x\357\212<\357\372f<h\230\005\275\272\306\240<\342\025\000\275.\363\010;\220J\352\274\224}\370;+\253/<\267\212\320\273>\233R\274\001\250.\274\007\342:\274U\356\331<\221\243\204\274Vf\033\275HS\240;nl\313\274@\235\304\274r@\t=\213\022\343<S\327\351;@\225\244\274\000\230\002=\253\272\376\274I\'\330<\030\221\377\274\021\365\n=\030\"\324\274\016\335\031=/\311\262<C|\300<\352\356\365<\366\001\263<\251nW<^B\212\274\275\"N<M9w\274\366\245%=\"\274\333<\310-5\273\245\004\225:Q\347\257\273\311\201$=O\371\215\274l,G\274Y\362\214\273\205H\357\274\232\251\210<\231s\306\274\371\311\3339\234%%\275\014\332?\273\000\035)<.\223\352\274\321\033\366\274\262/~\273y\n\202\274\356\200\273\274q\252\262<\253\373\236<D?\233\274w\347\n\275\344\312\n<E\217u;\r\250\356<\003\221\302\273l%l\273<:\357\274c\004%\275\030\366\211\273+\331\267\274\206\316A\274\233\243\276;`\310\270\274\304\216%\275\332\245\346<E\324\336;\353\201f<=\356\030<\022\263\266\273\312\027\335<\202\300\026\275\336{\203\273\363\030\226<*\334\266<\214\372\035\275\270\305\315\274\033\261F\274!\220\031=B\232\374\272\014\006\220\274\246Y\005;0O\344<\320\374\034\275wC\030\275)1<\274Z\033\360\274\025\327q\273\350/\310<oH\030\275\335\332\360\272\034\275\232\273\360\267\225<H\225\004\275\301c\306<\232@\277\274afK<\222T\026<\253N\370<v{\312\273\227\001\2369\003\t\333<X\013\354<D\335\216<\252\343\017=\364?\024\274\317\337\002\275LP\306<3\254\243\274\037}C\2724\251\022;8\005P\274\020\027\334\274\251\027\036\275\035X(:E\261\230<Z\254\305\272\270\273\025\275B\334\343<\3048\234\273(\323\002=\311\343\000\275\347-]<\003\017\002=\236\312|<q\376\273\273\007f/\274R\271\032={\255\347:ef5\274\207\2614\274aWU\274O\202\\<\200\372\357\274\365\263\177\274\345\246l\2749^\206<!\330\007\275O\325\226<?\365\177<\224\343\016=\3456\024;\204\336\300\274?\310^<\346\2424<\202v&=.\201\326\273\231\003\002=\223O+=I\207!\275R\232\007\275\262\004\002=RB5\274\262\026\301\274\203\335\033\275Q\2655;H5\037\275\340g\363\274\311\242\313<\201?\240\274\220\371\020\275 ]\007=\313%\032=\003\344g\274\n\366\356<\237\242#\275\270h\'=%P\250;\335\240\233\2744\353\250<+\325\275;u\342\376<,V\215\274a\2273\274\242\034#=\315\274\031=|q\227\273{&\304\274A\227\237\274\307\341*\275\"\350H\273I\'\204<M\371\342\274\234\243\267<\267C\223<m\376\320<\361\222\022=\026o <E\352,\274\'\276J\274\220i\275\274\366\315\223\274\3570d<\266\027\302\273\333Q\035\273\261\213\233<\236\335\310;\221`\242;\336\256x<U\240\362\274Q\267\371<\361S\264\274D\004\r=D\324\351\274\224f\350<\310S\022\275\274\005\013\274\313m\212;\2237\000<\370S\237\274M\251%=\344\363\004=&\304\'\275)n\254\273\2228&\273\'s\353<\034\356\332\274I\250\355\2742\017\004\275\354\025X\273\216\2540\274\016s\353<\375\327G\274i\246\213<*J\231<\222z\361;\031\204\320\274\005p*\275\202r\220\274\223\265\033\270\326G\373\273\315\334\311\273\022\312~<\005<&=\332\357c<\317\017\'\275;\037l<\034\375\023\275r~\030<>/l<\205\317\025<\033\363\240\274un!;f\207\307<\212$D;v}\027<!D\026\275\213\224\017\275\245c\210<\2013\350<\252\025\257\273_\354\014\273=c\334<:2\304<x\017\277<\273F\340\273\262\350\314;\371[#\275\315\315\333\271\223\016$<\241]\016=\330d\233\274\364\032g\274\230v\013\275\r\350}\274L\003\257\274\234\201\003\274(O+\275y\302\n\274~\345+\273_\226q:\235\322\203:Q\271\021=x\3503:_aa<\3678\337;N\213$<\262\320\010=\2429\216<-\321\222<C\241\226\274\306\326\r\274j6\201\273#\361\346<\2674s\273\245\024\203<\351\330\241;7u\022\275\204\266\337\274\017\203\330<YD\334<\004\006\244\274\313\204P<\202\371\013<\223\242\256:\276T\335<\264\007 =2\201%\275\247\"\025<d\364#\275\224&\351;Oe\031\274\350\355\030\275\n\253\002\275{\243\205<H\277\036\275\267\353\030\273\013\2004\274\243\331\212\274\000\307\211\274\244A4\274\343\320k<K\245\"=\227\315U\272f68<\271\205\234\274\351o&<@\336\'\275\260\261M;H\275\326\273\327I <\262\n\241<4\213\t\275\363@\307;nN\365\273}\377\372\274\362T\271\274\361\347\347<\271\271\333<\346{\013\274\036\206\253\273:\276\265<\002Q\251<\360\005,\275\313\037\245\274X\250*<\350\251`<\303.\007\274[Q\253;\332R\247\273sI\376;\234%%\274\305\222.\274\202\017!=\311\t\373<\"\306\025\275\005A\316\274\302E.\274\001\010\356\274Ig\373\274\307\006\t\274>Z\357\273\360@\217; ;\212\274\362\n\010\275`\335\205<\2677\377;\005\"\006=\271\016\000\275~\na\274\332\'\005=\354\013\t=\254{6\274?\233\002=\271\217\355;Y\362d<4\006:\274\260\313\250<e\'\037\275\000\200\245\274\351\036\203<\362\032\264\274\210\021(=\346D\272\274[\205\334\274\031\372\023<\300a\364\274\333\307\n\2734,\301\274\375\3420\272my\331\2743\365\231\273iq\005\275h\030\036\275\3121\013<\034l8<k\016 \275\307\014\370\273S+&\275Or\006=\020\363M\274e\n\361<W\034\225<\217\273\305<!\212\223\274\316i\324\274Q\311$=\017+\230<\261\375\006=1s\014\275H\230\033=\2600\r<N\351#<\231\350\356:\317. \275\263\272h<\340\233\224<\365Nr\274\200F\316\274\0074@<&\354$<\207\362G;T\031b<Yf#\274\010\221Q<\3117#\275\246\225\211<y\367(\275\327\013+<D\032u<\275\272u\273oN\367<T~\306<\363\224\337\274\316\004\200\274s\304\342<6\3724<\205R\235<|\306\204<\212\250\227<\320\333\2679\310L\036\275\246\264*\275p+\353\274\223}\325;\224O_\274v\002\264<\021WK;Cm(\275\001\276\007\275e\355\374\270\273\324\243\274\033\346\021=\243p\023\2751\244\215;\032o\250:\272\250Z<$\032\343\274{.\364\274AD];\2038o<\n2\334:\005\363\201<\233p\256;g\345\332\274\023\177\206<\2611\033=Q]\274<\252\233\025\274\315\036\266< .)<ku\320<i\025\327\274@\347\002=\262\250\034=\331\363\220\272\2355\220\274\273\"\314<O\370\033\275T\242\365<H\256v\274\375\373\235<o\035\315<;\0079\273\225\225\256\274\220\256U<\215\270&=\n\271\365\274\224\004\320\274;\356\267<\2459\034=\307\032\252<\0172\352\274\003G\221;\022\312\302\274\354\035K<by*\275(p\273<\300)\375<\352t5<\377\035\233<\247\241\030\275\257\236\315\274\007\215x\274 \201\225<*\316\017\275\366\256\013\275=\234\025\275b\254\214\274K\304\314\274\031\200\327\274\024\006\272\274DO\020=]\246\316\274\037\372\370;~Z\002=B|Q<\2068\t=\214V8\274\267\220\005\273\226\216D\274\274\025\234\274\317\244\311\272\315\337.\273\272h\037\275\226\347Z\273\226&W<V;\364\273\324\007\243<\2730\311;\330OG\273\036\334\364<\244\276\035=\033V\003<Z\274\207\274\355SM<\241\177\357;\310a\004\275\210C\365\273<D\200\274\361\277\010=*\211+\275E\306\033\275E\2571\273#\336\326\274\305?78$\245\0318\033`\014;\037\367\302<!\371\263\274%b\177<\033\317!\275Lw\017<(\242X<\343\362\270\274;z\242\274Z0\302\274\246\332\264\274\014\016\022\274\0214\241<\205\204\217\273\266`\240<\035\264\226\273\340\341\201<\276W\344\273\357\206N<\233\313\303\273\264S\376;\375\217\010=\336\322\345\274\354\226\017\275\226\337\307<\266\037\333\274\240\334\036\2756x0\274\224\032\317<)^\231\274;0*\275=*|\274M\305\034<\236Q\374\273Mot:x\276\276;\263T\242\274@j}<<\026\336\274\356(\261\274W\030\024\275\226\216\'=\325\n\002=\362\375\257\274u\332\037\275\224\266<<j\273J;%\254\003=-\364\004<\331$\363\274\016\036\236<q\312\246;\200\304\017=\201\373u\274\000]X\274\231$+=\326=Q<\034\331\265\274\307d*\275%\207\320;\303w\364<T\370\"\275\253\270\277\274\366\024\263\273\354\252\001=I5\203<>\t{\274)D\211\274jG\334;\240O\375<\245\021k\274\037\351\221<\304\034%=\331\253\333\274I\245\240\274\323\222\322;,I\355\274A0\270<\345L\001=\316\017:\274P\372S<`\214l\274\361\233\210;\242R)=\210i&<\360\333\262\274b\017\347<\314\254\373<C\rv\274\033\330Z\274\316\021\371\274\310f\201\274R\261\014=\324\260\200\274\326\'+=J\027<<\246\220\333<\307\013\353\274p\214\001\275U\370\345\273\214s\235<\220??\274\362\201\037==\204\032=GM$=\334\217\013\275\013\026\330<,3\303\272\311\375\023=\374Y\021<\031\267\024\275\034\346\014\275E\330\217<\027\t\001\274\312\010)<\023\3049;\254\205j<\324\276f\274\215p\301\272\215\347\231<\360]\334\274\022]\005<W\243\315\274\310\222\016\275\226\335\335<\330\235\336<J\333\033=\337nE<6\364\005<\326\371:\274\224<\266<\352\010\023<\241\025\024=\236\347\014=\3030*\275I\007\317\273\2000+\275\247\177\340\274xE-;\202l\211\273\221\217\214\274\007d1;T|\014=\250S\321<\025\340\031\275\346w\205;\003uy\273aY\003\274\217]\023=\220A[<\366\030\273\274x\262\023=\213a\"\275<\333\303\273\204\306\311\274\322\263a;/\0278<W\202\301<e\225\313<\2651\364<\215\377\010\275\204\342\035\275\2430\244;\"\323K;\021E;<`\"\355\274|Lm\273e\302\003\274\203\016$=\247ts<\017x\351\2748!\004=\355E\244\2744\244\221;\026\353\333\273\2434\177<k\220*<\311P\314\274\371\320\031\275\320\027\254\273~\275\n=\355\344\306<\257^\\<\206\025c\273,\271l<\347[\325\274\252\336\013=\004le\274\0236\037\274\313!\026=\266\301\275<\263\002\327<\261]+\275tx\022<Pl\017<\301\207\037\275\2526\205\273(6\r=\037]\306\273N\333\277<\034\'\363\274\016#$=\347\354\306;\223\304h\274\025^\243\274\2219#\275jX\326\273W.\227<>\344\001\273\021\324\350<:\222\n=\001\351p\274\001\275\216\273T,O:\320\361\274<\356@\006<o\253\243\274\346\377\017<\211\345+=\017#\333<\032\"J<q!\271\274\361\020,=\212\261\016\275i\312{\274\262\033\346;\300\2612<8\233\032;\204\312(=3\375E\273\220\030\235\274\322o\373\274S \002\275\214C\373;\372\363)<\206\202\251\273\363\\~<\372M\n=\325\255I\273{u\201<\321\327\002\275\335\336\341<yH\305\274\244\202\215:\250\340h\273[: \275\'\220\333\274\271\312|\273\213\220\254\274\367K\304\274\310\225\003=i\004&<\246N6;-;(\275N\253)\274\370\263\365<\t\256X<\030\363\000\275\242\252&<\372 \037=\257\376\375\274j\024\256<\300\352\234\273Y\262!\275*Q\010\275\277\340\344\273\"aF\274\r\201\177\274\275O\320<\003h\247\274\207\2108<\275\370\024\274\226m+\275\314[\243<\346Hp<\315\343\366<V;\021=2)\237\274\200\244\035=\026=\204\267\317\255\316\274\253\320\217<W\"\306\274\332\274\026\275\251\342\025=\356wk\274D\262)=8\274N\273\231\034j<c\206\316<\226\302\331<\255\033R</\024\202<\247/9\274ke\004\275\032\3222\274Idv<\266\351\032\275\265#\376\274\277\240\016=9\002\257\274\317\000\257\274\235\275\241\273\t\344\240;zV\360\273\240\335\377\274q&+=:\213[\274\347\031\005\2751\231\340<\214\314\363\274\317\257\000\275\315\207!\275\326\310\217<\356|C<zyy<\024\r\204<O\372\221\273\025\310g<@\355\233\274\265c\014<\233\"\243<\247!$\275V\220\034\275n\322\003=\2256\017=\355\235\374;\255\277P\274,\272\020\275[\314\355\274\212\2617<\232])\275\206?\220<A\304\030=\310\362M\271Vm\003\2758v\307\274\217\335\223\274\205Q\033\275\300\265\352\274$\363\326<:\211\006\275\247\025\030\273\327\242\202\273\347\261\314\274Ic\235\274N\251d<\236{\305\273OW\016<L\246\371\274\201\324>;\244O\r=<\312i\274\032#\r\275\025p\204;\027\323\345\272\303\r\314<qq\366\273D\223\000\275\266\204\225<H\302\261<\350X\247\274\335\034\244\274\340\032\003\275^\335\305\274\'0\262\274\355c\217\274\226\031\376<h\n\247<$=\027=\016\275\321\273\235\014\242;[\323|\274\366m\215<\275|i<\335\363\005=\025T\021<\033\323\341<\t\336h<U-\014=\321(\226\274\350\205\325\2740\373\235\273\240X\373<v\236(:\327n3\274\376\321\341;\271\215\274:k\322\357<?|I<\353\202\017\274J\347\032\275P\3311\274\2016\212<\005\026(=\244q\026\275W3\255\274\243W#;(\000\340;%\241\237\274\277\220\216<&dm<\236\325\311\273\335\353\231\274)\342\253<\366\230\356<K\002\361<\204e\333<\007.\201\274\206.\324<c\026\031\275T\324\314<S!$\275\334)\t=>\261\010=\237c\t\275\217\371\327<\370\260\272<\315\314\320<\\\276\200<K\323\230<\210\267\310<h\341\003\275\365\235\005\275d\026\022\273\354N\212\274\035\004\244\274#\314\303\274\210\315\n\274j1;<\305\304\254\273\336\241\020=\231\257\272\272\036\200\002=J\035\026\275h\262\003;nm\205\274\260$\276<\036\337\003={\231\343<O\377\300<\2618\346\274\374\004\271\274\242\265S<\002as\274\304\240\003=\322\336\014=U\342\362<\354\346\232\2741?_\274\350\367=<OGm<\000\277\361<\244\230\233<\316\330>\274\334`\300<\201\364\374;\213v\017<\360\242\022\275x \004\275\256\227\252<\033\031\271\274\34008\274\277\341\326;pd%\275\331\027\r=(\304r\274n\310|<(\367\204<\017\236\252;\351\274\324\274\201y\001\275y&\261;{\370\232\273\021 \354<\207lT<\t\003\t=\277\225\257\274$\263\262\274\363\274\343<\177f\260<\207W\025\275td\316<\206f\022\274!\355-\272\271\207\361\273E\306\315<\216!\246;z<\226;\206\027J\274\301}\357\272/\321\255<\326\244\260\273g\244\261<\306w\204\274*\320\365\274\215\364\007\2751St<\004\261H<\247\000&\274SN\026\275\373\253\357<\2424\310<\017\206\200<0\362\266<$\371/<P\333\352\274\3013\315\274\311\247\360\274\261\341)=\300:\365\272\361\320\276\274\034\016,=\355\376\003\275\302@\'<\346\350m<\314\270\304\274px\265;\347\206\376:\372\375\342\273\312u%\275\230\2635<\313w\261\272\325\353\010=?\224\336\274\n\023\324\273\331\025\036\275\004\234\232<\022\007\254< \334\372<\030J\261<^\221#\274\364\000\363\273\033\237\016=;\203\303<\367\261#={\026\246<\021\032\226\274\327\320\207<\242\350c<\024\220\014\275>ml\274\210m\271\274\023\362\334<4^\021=\363\363\360\273\037+~<\315I\245\274\320e\253\274\013\330t<9\334\024\275g~\205<\300\033\n=\226X\033=`\241\355<\334\215\007\275\334\2131<\377r%=\317\261\377;\227\022,=q\020\221;\030\037\024=\206\332\255\274:\215\005\275[gr<[m\004=\376\311=<1\242&\275\262\002\330\274\017\205\330\274\364\025/<f\325\377\274\302\303\016\274\002\314\257<\373`8\274$\231\022\274\232s\311<\032\211\302\274\267\270\020\275va&<O !=z\324\372<f}\332<\033\024\264\2742~\261\274\327j\222\274`\024A\274\030\255!\275~\305#\275t\017\032\275\010%\034=\317\255\210\274\010]%=+h\n=\366\271\022=\201\214\"=\350Y\342:Wx\036\274Lf\014;\231\006\205<\036b\027=\304\321\364\274\366\305\205\274}\212 \275\226\207f\273#\030\234\274w\223T\271Z\242B\274\020q\352\273\350\337)=zT\004\275.\267\374\274\210\006\r=(_\'=\334\033\261;\221V\n\275\236\267\260\274\301\352\376<\351\226\345;\r.\370\2748Y\r;[\026\325<W<\246\274\262(\002\275\260\333\300<\273\305I\274\327Qn<\336(\257<\033\266\022\274D\\\231\274\020T\023\274\336>D<\201s\312\274\256j\262\274q\317\224\273\336a\272<D\005\031=Y\262)\275#\246\322\274\311\t\r\273C\006\r\275\'\240\214\270\031)\t\275\347\326J:\237\263l<\357\216\035=^\214p<\302\363\333\274\222T\340\274\244%\205<;_\247<x\274\364\274\2000\361<\177\246\257<\354\355\025=q\210V\274\361\254x\274U[\001\275\010\300*=B\236\200<\264\326\346\274W\005&=G.\030\275>\0371\2748\233\007;\"\241\241<\263\357+\275;@\262<tC\\\273xA\371<l\200\275<v\022-\273\003\303\233<\261\235!\275|@\030<\313\240\252\274j9\311<y\344\032\275P\014\335\273\274\322\330<\317\007\351\272\353\034\222\274\236\311)\275h\023Y<\233\010\372\273p\023\211\274h~\206\273\223]\303<\365\273\356\273\275\243\225;\314\022\221\274\030\005_\273\255\365\202\274\t\232\251<\236K\250;\261\346\274<Y@\017=0\236\364\274\201\2420<\000\366\034;\023\200P\274\232V@<\312 D;q\305\221\272R\240\022\275P\253\377<\353\007\237\274\353\326X\274\356\246\311<\256\211\034=\027\321\323\274\366\277\327\273\375\026\203\274Q\204\004\275\004\006\303\274Z\235\377\274+\377\002\275\342k\\\274_\374\330\2743\253\003\275\327\370\001=X\244\222;\267\034*=\372o\362;\256\022\023\275w\270?\274.p-\274W\377\302\274\023\r\017=\014\\-\274\001\320\275\274\026\355\226\274\003&\353<\006\323\n=\250}\303\274\355\375d<<.x\274\200\003p\274\313\207\023\274\004\352\265<a\377T<\243\240\347\274r\342\n=\207\245\246\274\335\357+<\016\327\230;4\302\017\275\223\n\017=\204\347+\275\334\020\025\275\325e\026\275\306\262\342\274\274\203\307\274%\301\036=\305\325\300\274w\325\355\273\244\360C<\177&\021=\225\367\230\274\213\221\356\273v\005(<\2625\014=\312\362\037\275\224\021M\274\357m\333<\"h\270\274\354\305\317:\333~\370\274v|\366<%n%\275\200f\003\275\311\000\020\275J\336\221<\\\260[\273\247.\023\275\332\001\024=\222<\177<\241\303 =J}n<H\266\026\275y,\361<\001\010\027=_\227\360\274\001/H;\275\365\343<P;\'\275\360\373\327\274?ZZ\274\206\210\231\274\250\354\376\274In\341<\270=\014;\372m\237<\224\363Y<\363\005\037\275\246\007\224\271\313\204\260<Lu\336\274\262N\306\274\233\"\313\274\013\326\252<\232\377\230\274\036\314\336\274\255yE\274\302\234b:It\032<U\213\014\274\036\214\003<\006S\004\275\274B(\275\226\"\005\275\320\241\r\275\342\217\021\275}\261!<\327\277\263<\"-\215<P\034\216<\374J\020<\275\221U\273\303\277\367\274\237\320\345\2714~J\272\211\360\356\273\200\332\202\274\"\273\366<2Y\004\275MB\322;\307\376\272<(y\033=\241\276\226\274y[\253\274\254&\'\274\246\211\312\273\027\'\230\274x\355\n\275\240\266\034=\032e\034<\344A\272\273(\315\371\274J\203\007=\237\270\243<!\247\322;:\017\265<z\026\324\274\344\005\021=_T\213\274\261\027\362\273\177\323f<T\330\207\273\032|\010\275\315\223%\275\256\"\353\274\336(+=\364\307L<\222\355\323<\267A$\275y]\002=\376\261\001\275\2474\366<*LC\274\212?l\274\025T\034\274\245\255\314\274\237u\'\275\264\014m<\3075!<:\325\240\274W\273\212;\270\361\234<\234\210=<[\256\321<\353\252\376\274\361\3119\274-\274!=\2506\017=\231\264\350\274\335\363)\275\354\333\000<_\262\"=\303e\027=\256En\2742\322\003=\3552\331\274\353\312\005<\250MC<\304\334\212<\221S>\274\013B\007=\277\236\367\274\362K\316\274\363\374\264;\026 \235<\300o\016\275\301\365\224;k\025\331<\021&V<\002n\021=\026\204\017=f\357I<\223\010\261<R\360\354;\021\210w;m\361W;}m\301\274\354*\204<\247\344w\2744#\330<\020\240#<\270\\\366<\327\275\312\274\376{\214<\306\322n<\234\356\274\274\241\262\314\273\204\277\"=\335%\n=j&\016<8a\261\274\203~+\275}?\236;\370/;\274t\'\343\273{\245\352<~\222\360\271\232\323\037<\001,\213;\354PT<\377n\231\274\273R+\275\236\005s\273\020\377\373<\277\313\r\275\006\313\031\275\257%\302\273X&P<:\264\365;\036P\037=v\323\264<\033\236\350\274\247k\247\273I\364\260<\033w\351\274\310\245#\275i1\365\273\203\330\241<\005\321\314<\352g\236<-\014\254:\371%\352\274r\225u\274X\275 <\241E\304<\244h\230<\376\256\323;\007B\027\275\212\370\006\272H\212\221;\311\244&\275@\3537\273\224\032\363<\321\233\007\275c\267\023\275|\306\210\274\032\025\033=\257\223\354\274o\377\201<\211\342\212<\323G\350\274\357k \275\000\340\373<9\272\367;p\253\255;\231\225%=\212*\220;\351\037k\274\375\243z\274-\320\220\274\365\2433\274\335F\333:R\372\225<)]\273<\363\035\257<\201\222o\273g~w<\341\270\303\274\205\375\005=\355\231\215\272\271\373B;\030\016\024\273\240-\237\274~U\247<\370\037&=\235\tY;N\345\026\275\267s\t\275\273c\311\267\241R&\275\356\022\024\275\246J\363\274\302\025\212\273\335\236K\2738E\t\275\274&\221\274Z\002\347\273\367\033\010\275\321e\344<\276\"\034=\266\233\370<p\200Z9\347\356 \275S\245\231\274=\372\200;{\376P;^\013\034\275\350\3322\274\205x\2179\267k\033=\007>h<%\210\311<YL#;n\\%\274\335\336S\274l\306\270<\271\233(<Yu\242\274\247\201\215:\337\230\254\274\372\021Z\274M\332Z\274\023\330}<\022\322\265<\352\257\004=\373h\313\2748q\373<x\262C\274Z \205\273\025\305\2038\362L,\275T\314g<\232h\326\274#\026\035\274*\n\303\274$]*\275\234\2611<\032\204\016\273\233\035\260;\221>\020=\252\3417<\376\247\246:V\377\244;2`\"=\212\003%=4\023!\274\264\352\001\275\330\334\347\274\017\367~\274\314\006\377<\224\235\267<y\220(=@\222\310<\014\354\305\274\213\306\330\274{\205\035=\0254\377<\360\001=<\017\3620\274u\231\202\274\253\323\361\274\376\246\243\274:\240\272<\246\374\325<>\027\214\274\373\033\006\275\212\247\001\275+\225\037\274\372@\333<\2739\305;!\000\345\274]()\275\307t7<\260\340f\274\026\330\334\274@\035\207<\321\306C<\'\003)\275R\213\230;\210\362*<\226Ha\274#~\267\273\005]\325\274\"\253\246\274~V*<\352$0;\215|\300;\014\340\'\275L\354C\274M\366s\274>\202\212<v\016\346<\361j\323<\027M\215\274eq\225\274P\363\344\274\344SN\2742\302\204\271N\"\213\274\363\202\020=kn\316\274/\200\276\274\026?\020=\250\037\230\274b\224\243\274\227\230\352;\316\323\270\274\204b\206\272\374\323\333<x\2721\273\005\233\n=N\203\352<\023\n\273\274\"\201\224\273n\225\n<\327?\333;\002O\312<\256\355\252\273R\030\226\274}.\221\273\300\"_<\221r\017=JN)\275\032\n\203<\n<\013=\260\272\016\274%T^\274a\030 ;F\024m\274U\331\034=\262\240\315\274Y\002I\274\316m\365<\2164N<a\023h<\317\273P<\266\314\021=)_\230<Y\347\254<\330\t\241\274\202\260\242<2*|<\315a\300\272>\306\007=\344\177\305<l\027|<>\364\037\275\341\310\271\273\210\212\001\275h\323\262<\212(\255<\213\363\320\274\243\211\224<2\353\023\275O\333\036\275g\274\267<\357\257\002=\333\032\350\2743\263\006\275q\241x\274\374T\346<\246\302\003=\261O\267\2747\360\366;\331F\307\274\0232\"=\002\340(<\004\360\306\274\261\3479<@\314\020=i\340j\274\3563\020=\347\215\026\2753\343\361:\031\346+\274\006\245\310<\004\034\006=\335\302\006\275\221^\232<wT\034\275\220\344\356<\366\004\036=6\036\002\275\010\357&<\030K\226\274\ts\003\275%\240\007\273\262H\315;v\275\014\275\312\317\340\274\033\301\005=B\276\375:u\250\322;\200\\\001=)dW\271\024\245$=\353\256\221\274\333d\262<\225\227\3608M~\276<\326G\035\275\267@\221\274\241F\320\274\314?\305<3\367\226<\021Z\211<\317\"\336\274\325\033I\274\321\245\026=|\334g\2745\275\t\274&\215\210<C\016\005\275\340\330\360\274\353\245\234\274\215\357\316<@8\263<V*\346\274\355E\023\275B\322\026\275\337\220\214<3}\256\272\300\210\023=do\323<\314\3126;\323\344\323<\027\306\321\273L\360\222\274\230\035\031\275u\375\022\2743\376 \273\321\"!=\256\315\211\273ye\021<M\262\002;\302R\022;\233j\013=\\/\005\275\255\030q\273y\232\027<\244q$\273\300\022\243<`\"\354<\373\271&=B\320R98\316(\274\302;\271<7?\353;c\276\212<o\360\021=\251\016\310<.c\017\275\245\216\010\275\316\nz;\236\305)=\207\323\356<\307\340\024=\361\t\257<\260q\273\274K\036\354;@\276\204;eA\010=\245\314\211\274\315\345\222<\256o\022\273\326\302\013=d\n\376;0\006_\272\177\315\367\271\227\031t\274\224<`\272\r{\210;E\277\244<\026c&=X\230\343<C\336\035\275B\331\203\274\000\343\025=\311\200\023\273\260\330\017\275mX\023<\232u\025=\036\027\271\274=\352.<\3524\"\275\323\203\250;\361\241\327<\303B\265<\335\331\362\273n\340r\274\177\006\002=F\272\203;\341\272\014=\217\330\266<\355w\234\274\217@\301<\34686<g\014\001\275O\031\025=`\341\366<\344\025\002\275x5\034=\220X!\275\351t\244\274\214\266\205<S\300\360\273\025M&=\000\337<\274\360#T\274\0104\345\274e\r\223\274\353`T\274\213_\022\275\260;\335\274\370\240\257;\317\t\037=\235\204\353;l\'\317;\312h\004\274c\210)\275\374(\327;(\371\303\273~n\201<\341\024\331;\375\373(\275\277\315\014=\356\247\361<\000\246\037\275\377\357\367<\330z\002\275\305/\375<\371\r\037\275\357\t\323<\013U\273\273\212H\340<\324C\016\274F\234\373<1%B<\234\010\377\273\271\333\267\273w\207\204\274\201C\334<\233j@<B\215\035=U\"\326<M\276]<X\370\017=x\376\243<\362\202&<K\t\222\274\177\032\002=\345\331,\274\233\223\305<\334\232\017=\207\\\245\272\206b\306\272\000\005\030\275x\312\274\2745\327\215\274\234\n\330<\0104\306\274\365/_\273\335\335t\274\270\007\230<\245\236)\274v\257)\275\tu2;\r\234\032=y\371\026=HC\t=\270\304$=\000\314\325\274\241E&=y1?\274k\001\006\273\030\355\242<\025b\322\274\021\200\373\272\325\314\036\275|\357\262\274a\025\177<E\341\316<\352\322\334\274\217\003\"=\317\271\004=c\354\034\275\265\313\251<\324:\305\273\027\347v\274\013\221\001=\224\263\"\274\332:\367<\2768\026\275\265\033\356\274\243G\263\274\262\347\275<\372\367\014\275\316X\031\2757\220\205\2738\003\242<GB\027\275\233\2605\274\314n\315<5\'w<K\350\321<\3612\323\271\315\315\033=\211\221\253\274\006\270\005\275\361\237\037=\037\006\357\273\214>\032\274[\004\013=\232\200\204\274\256\"\367<\226c#\275%\027\017:\274R\215\274\326@)<\333\230\271<\322\233\005:{\257\"\275\321\365p<\252\274\370\273h\r\353;\260\250\375<8\035\005=AE\035\274\310\\\300\274\272@\340<)\257\207\274C\300\257\274:\354\013\275\360\357\260<\tZ\342\273\260\213\365\272\205\357\330<\225\273\251<\022\233\360<\326\360\341<hP\241<\246[%\275\214\243+<^\215\246\274\350\335[\274Q\244\212;\244\375\001\275\2348\"<1|\342<,\263\025\275{\036\337;\240\002\306\2740\240:;\262\247{\274{dy<y\350\217<(\214\003\275\317\354\377\274\346\317\227\274\'a\033\275\316s\300<\215F\031\275\205\002\013=\265\273\303<\205\322c\274,\264\247\273\331y\027\275\026\241\006\275+D\022\275\300\226\315\273V2\227<\207y\325:S\243\004\275\306\231\355\274\223)\321\272r\203\303<\2118\031\275:\034*=*\017\r\274\033\227\362\274i\315\226<\233q0<q}\020=\243M\030<\256\313\213<\365r)\275z\255F;2\253\306\274\377\261\352<\312~-\274q\r\333\274\223]\313<\246\202\311\274I\357\002\273\220\204\020=9\332\020=\361\226\251\274c\251\2619\372P\332\274nu\014\275 L\2678\327\347\232<\315\273\004=Ar\216\274\231O&\272\303r(\275\2265|\273\r\366\376<9Z\010\275PN\3279\315\205#\273w\230\002\275\265B\024=\362\304><IW\332\274\2237\222\274\332\240\036=\360\365\037=\013\353\373\273t\023\201\273dt\313\274W\032\216\274j\262\213\273\310a\366\273\023\362D\274\215\356\326\274o\300\324\274#\024U\274\375\364\317<:s)\275\333I\025\2749E\302\274W\323\362\274\246\013\311\274\257v\311<(\200\322\272\340\245\305\274\323k\351\272\263h\371\273\200\231k;^\261S\274\243D\252\274\322a\203<}\304\340\274>\350\256\274\254\035\346;\344\006 \275\323N%=\226Y\032=\033\034\366\274d\207\227<\'\316\213\274\340\202\243\274\246\347$\274\277\240\254<Y\370&=\035<\005<\004\250\300<\336\212\277\274\"\035V\274\3563\004<\370vS<\201\r\024\274\"\305\344<\271I\373<p\266@;\313\302\275<<?\353\274N\275\341<\207\033\334\274\020\327\314<$\223v;\2233\324\273\017\334\032\275\357\024\211\274\266\347\211\273Z\310\323<\243 \356\273\016\014Y<\367\336\006<b\267\027\273\2712\311<?\304\n=\350/\342<\232\267\002=zx\332;o\264\314<\355E\222\273\2227\202\274\357\315\003\275m\030\010=\323\302\213\274B\256I<\272\314\250\273\223\274\363\274\024b\204<\3103\251;u\250\367<tS\205\274Z\014\312<\216\367%=\001Wa\274#\304M<F\"\330\273\220\017\r\275\230l\235;G\232\241\274{\354\010\274\326S\363\2742t<<\260\257\307<G\300\274\274\321\006\251;\276\331\\\274-\206\346<M!\327\274\177\347\250<\004<\007\275\347\253\245<\334\207\004\275h\333\346\274\020\025\274<\212\026\333<\255i\253<\225\372\n=\360\333\356<\307\331\212\272\324\035\362\274$\321\016\275\345\213_<i\275\362<R{\373;\233v\372\274+\313\210\274\205a\325;\323\235\337\274\372\243\220\274\362\245\303\273\201\303\342\274\350\347\335\273\313\205\005<\025\313\006\274\305\021\227\273A\305:<\203\214\364<T\303w<,6\023\275\257\225\204\274r\204\250<\253\375\213;\263\245\215<W9\007\275\021!\270\274\346\222\"\274\214)\351<-\002 =\355S\010\275w\020)=\010\345F;\326[\332\274M\010\\\274\250\013j; \325\217<i|\017\275\2039J:{\325\304\274;\374\205\274\354\307B\274cF_<\021{\213\274sqU\274\031\027\036\275\"_\343<\303?\357\274tp\253\274\355\n\026\275i\272\035=\367\007\021\275\305#\232<\335y\317<\354rc\273\356\213\243\273\317R\273<\260\315\251<\'\253\243\274\325>\'\275\2026B\274q|L\274Q\241x\274b\362\001\275iD\273\274\271\333c<k\021\203<\300\352\035=d\375d\273q\313\033\275~Yu\274\240\264,<\231\336\026=\031\360\343\273\376\213\242\274\035 2<@\252\312\274\224\234\316<\023C\261<\345\373\317\274\212?\n=\236\271\251;\227\3277<\\\365!\275^M\264<\023\314.;-XR<\350\205\022\275c\304\331\273\024\250\037=\251H\177\274\213\214d<\361v3;\324Z[<\204.\330\271\271\330\302\274\347\245\377\274\243\002\327\272Y\346\346\274\003\262\225<h\306\000=#\017\370<`\'\371<\004\367\t<\210Y\200<\017\202\020<\262P\010\275I\210\361<\321\254e<\031\211$\275Ns\273\273\310l\r=h\r\317\274V9\356<\217u\r\275\303\030+<\366!\006\275\030\344\361\273\357\206\035\275\321+\004\275\000|\314\274\023f\027\275\'\037\226<c\300\365<sy\357<M\274\200;Th\026=\305\025\331<!\303\367<:w\004<K\014A:N0\035=N\023\'=\342\314\273;\022n\033=\313[U\274V\305\373\274\001\212\t\275\243\220\026=&\265=:\212\303\346\2747\363\206\266h\325%;\020\310\037\273d\270\207<\3147a<\037\213k;\340\177<<\025\222\342\273\\\305\"\2755\362\257:9\034\253<~\235#\275\375`e;n\014^\273\202\035Y<\312A\022\275\207j\367\274\234&|<\251\375)\275\213\251\255\274\261\221\336;a])\273\340\276<\274\322,\234;a@\313\274\202<\340\273\316\034,=Wy\010<\2137\350\274g\242\337:_\273\233</\363\265<~\362\365<O\363\201<\330\352\375\274\321\271\317\274\333M\255\274\307aR<\265Nh\274\022\214\002=\334c\277\274\371@\254\274\270n\004=\265\240\303<\343\377\036<R\252\211\274\230\346\313;\341\0034<\227;\322\274\031\025\302\274\372\034\335\274\250\207$\2755\273\'=\377\211*\275\216\322\337;|\266\343\274?A\243</\216?9\243\333%=\300\201\366\274>Z\317;\216u\252\274\200\222a\273^\334\204;\332\276\305\274\253h\324<W\337\t=!J\002=\271\223\270;F\336\377\273\376\340\342\274\305\303&;\217\264\250:\237!\257<\344\234\010=\266[\343;\307K\003=7\212B<|*,=\316O\321\273K\325\201<\032\272\3529UJP<\260\214\203\274\367hU;{*\014:\266\027)\275B\357\355\274r\036\220<I\203\026\275\320B\252;\244b\216\274\214\311\312<\000\243o<o\220\326\274:\005\336<\275\344\323;\332\216\322\274\037\376\374\274\365h\234:\346\204\365\274\336K\340<\225D\347<\037\316\'\275=m\031=d\005\255<xO\320<H}V\274\266B\315\27200\220\274\311V;;\007\347\2029\255# \275i\217\374<\000\013\342\274\250\346\036\275}\355\342\273\223\026\001=\273\263\203\274\214\r\301\274zb-\274j\223\334\2735\215\222<\272\007\203<\375\226\032\275z0\276\273\375\036\026\275\014\310\205<\243$e<7\252\023\274\246S\022=r\306L<\337\364=;Mc\024<\271l\350<\021\306%<\344\002\354;\220T\255<\007E\203<\005\310f\274\301\200\251\274\024\252\030=\272\344\225\274\264y\214\273\377\343\265<\230\304\227<\233\260\250<\356\331\370<O{\255\274\267a\222<\326\"\025=\262\030*=\341\377\032=\351)\276<\2729\226\274\256o\340<\326 \365\274T\350 =\370\325\305\274Z\221\222<\326h\251<-\325\374<Ut\317<:N\003=\025\205^\274(j-\274\036\354\252\274%\025\033\274\244c\345\274)#(\275;e\'=\250\376\267<\266c=<\222\365\014\274\2642\"=\265\252\347\273[\376\020\275\307\352\034\275\014\003\227;n\202\217\274\313\277\323<\252\021h\273{H\373\273\246>\371<\210#\007\275tK\031;\321\034o<\275z\361;\213\247$=\263\254\033=\034\230\325\274\365\034c;9\316\373:\275\327\232\274>\344\236<\037\222\330<\r\215\004\275\263\005\237;H\243\352\273\312\030\244<\361\242\256\274\225\301\232<\306k\177\273\337!&\275B2$=cb\346\274\233*7\274\340P\314<`P{<\'\240!\275_\253\036<\375\3307;Ne\022\275\313q\375;%u\022<\316D\305<C$\214<\334W\032;{\333\330<\035\230\326\274\327\267\334<\322\231\240\2732\316\320;\262\364!\275\263$\245\274h`\374\274*<*=r\202L\274\371\342$=\301A\010\275\247N\017\275#\260\365<\022\363\277\274\344\021\351\274\322\215\226;\0009\'\275\3665\316<\355\203\'\275\014\036\033\275\005\354\304\274]\233{\274\034\020\270\274\355\017Y<DR\030\275\221\013+\275\rBi\274\026\366\357\274<\241\342\274\002\316\334<\032\315\023\275\275\024*\275<\313\240\274?\005\245\274\254;\300\274\250\251\'\274D\356\265\274\213\205n\274t\264\2766\201\340\020\275\263\317\362\274\371}\351\274(\030\025\275\324\374\370\274A\334\360\27470 \274\320\231\026\275\255N*\275s>\322\274\017\266\025<\222\003\025=<\214\277\274F\324s<\242*\026\275\221\306*\275\211\033F<\204\334g;a\334%<Z\314\030=\315\331r\274\306\305\013\275\367\270\321;\342\002\343\274\267n\273\274M\214\017<\003\240\260<\006\374\233\272\215\177\274<s\246y<>\024\201\274\323N\302;\345\314\033\275\210\323\270:\207\331|<`\t\217<.\370\r<\202\265\205\274\255&#\275Z\036\017\275\212\336.<Q\273U<\367+8:h\214-<F\266\226:\364\251\231\274[\023\004\274\337\223\036<\373\362%=\215\334\254\274\025\313\327\274\345\363\344<\004\267\236\273\230t\240<\000\333\3409W\"A<\364\000\321;\312\360\t=\002\357\206<@\247\235\273\231\366P\274LqX\273[E3<o\340;<\026\032@<\337j\032\275\311\274\215;[\347\257\274X%\274\274\301\362\003=0_\027=\276\337s\273U5\231\274!\261\325\274\263\265\263\274\226\273~\274t\371\340\271\0017\353;\213\203\363\273]\363\373\274G\241\n=#\202\266<v\027L;\274}\273\273\nD\326<\204,\262:\2304\007=\364\326\330\274\004\251\t\275aeu\271r\265\007=L$G<\257\205\365\274\014\"\004\275\216\376\252<\225j(=\230\361\021\275\370\266\356\274\033\321\000\275d\343H<\210\265\013<\316\351\017\273\205\035-\274Wo\032\275lE\314<\\\374\370\274G\000\333<\277\242\013=\211(\024=\014\r\266<x\344\245<\240\016\315\274\267G\250<\035\251\315<w\255\035=\'\227\312<\3237\003\274\\q\017<^\3147:tQ\321\273Z\335\r=\tM\343\274O\245\243<:\243\244\274Z\004\030=\033{\"==S\307\274\235.\245<\230\022\014\2742)z\274\225K\033\275\272F\323<\264\357\013\275\226:&\274\305\350\244<\203\031\301<\262\273\2349\243\002U<\214L\347\274QX\272\274-\220#=\203=?;\224\272\033\275\330G\316:uP\321;y\305\216\2749\373\265\274q#\201\274\361\351\354\274\321\002\253\274G\375\231\274\306\275\374\274\201\273\356\274(\227%\275\222\252$\275\001\245c<\364|\033=qq\001\275\212\327,<\360\300\020<\263\227\025\275\260\035\003\273\200\346\026\275X\035b<!r\027\274\220\374\"=\351\366\350\274\002\373s\274\r\204*\274E\321\n=\223\226h\274\017\357\021\275\021N\025<\330\204\263<A\354\273\274\232\252a\272\"\352k<T~\312\274 i\355\273\354\264\346\274\204Y\204<\257\020\214\274\317R\246\274&\3467\274\234\323\231<P\205l\272\236Y\277<\017J*=\265\216\360<\375\034\"=\021\257\366;\234\373\020\275\200\\\370<\366U\375\274\224yq<22&=\036W\257<\225\017\017\275\033\243\013=e\r]\274]\241\221<\232|f<2}C\274\226\363 \275\357(\273\274#\210\207<\006\253\343;\324F\033\275\250\371A<\305\004\2038\226I\370<\262\314\363<B\254\202;\256\241\330\274\033\332\3409\374xE<49\362\274\022\307\016=Q\025\271\270\273\367$=\267\344\r=D\263\000\275\272\013\362<\034\002\024\275~\"\033\275\006\227\320<(\033\201\273\200\270\026=\224|\373<4Y\302<<o\017\274\202\007\244\273\276\251\036\275\365\334\\<\\\210\257\274\340\370\n\275r\027%=E\306\037\275I5\364<\363\356\341<8]\027\275x7\262\274\240\367\251\274\353\305\262;\347\363\010=\255\357\002=cks<\362\251\343\274B\277\0329\327Z\247\274X\216@\273\'\370\035\275f>\323\274\251\rj\274q\330\005\273d\272\017=\230\310\234\274`_\343<\300S\r<\tw\276\274-Y\033=\322H%\275n\346\352\274\376X\001<\013\316*=QRf<\0214\242\274\275\372\302<\261W#<\265[\346<\020\016\355\274\006\341N\274\002OB<\367#k;\341;\024<\014\177\247\274\177Q><\312\327\343<\301\330\320<\266G\002<(l\323\274~c!=\210\333\317\274\354n\217<5\254w<\332\216\003\275\367b \274A\262V\273\337d\031=\344K\347;\2241\265\273\347\003\216<%\221\326<t\004\234\274;\001*\275\\,\244<\022\267\347<\004\\\024=\2065\032=\353\305\373<\275Tb\274ne\306<\236x\307\274-Q\035\275\032[\203\273cz\356<R=\032=\255$\204\274\261\306\207\274\205\272\327\272\265\320D\273\243Bn\273!|V<\245\302\r=\342\034\263\273+\336\251<\023\324,<l\360%\274!\023D;\243\032\256\273s}*=\026[!=\265\t\264<J\252\003=y]\025=\346\377\263<\371\273$=a\235\021=J\352\005=\006\226X\274\361\257U\274v>\007\274\374\ti\274\363\250\025\275\245\337\224\274\211A\267<g\351\000=D\301\023=7>\204<\360\247\005=\342c|\274 \333\017\275\373h\020\275\256\000)\275o\315\236<\372\336\014=\304\312\020\275r>\206;\3719$\275\311\323\004<o\331\306\274\372\367*\275|u\021<p\203@\274@t\013=\327\340\021\274\"\364\026=\233`\235<\262\306\017=\251\256l<\302Y\306\274\\\346\222<\356\311\327;]\322<\274\253\304x\274\317\206\231<\365\254\020\275A-\020<\204\334\r\272c\273\006<\214\010\337\274I`\305<\255J\r=\275\323\002\274\265\227m<\t\255\006=\342\220\314<Z\277\305<\317\001%\275\211\236\233;\342\305\204\273T+\307<8:n\274\253\326\352<\345%\242\274\211\306\301\274\357\002&\275\231Ee<D\366\014<y\266\026=\361\002\241\274G\t%\274\243\264\256\274\204\305\037\275\227\353\323\274\354\362\034=A\370\304<\253\267\333<\216\024+\275\277\302\r=\010\024\027=\177>P;4R =\0040#=k\260!\275N\346m\274\025P\337<\026\377\034=r\361\266\274o^X<\032\230\010=X\260\031=P:\005\275u\331,\274\0310\372<\020\247\260<f\355\027\275r\335\'=\270\034\027\275|\202\333<\253P\257;\316G\200\2733\322\2709\264\276\"<\3277(\275\343R^<\350\321\022=\000O\341;\305\226\211\274a\310\244\274i\026/\272\034\300p<\364\372\300<$_\366<\363\020\252\274\272\372\023=\206 \232\273\203\023\004=\351\034\246\272\375w%<\370o\207<\373.\322\274_\3359;Y\306P<\365h\006=I\022\313<\010\r\003\275\003g\347\272\taD;\242\240\035=\346\353X\274\0048\205\272 \231\305\273\340\355.\274v\207\316<\244[\234\274\275<(=\243v\"=Y\377!\275\242\315\032\274\2360\023=\271\321\245\274\355S\377\272\235\313\222;>\270\325\274\271\2606\274\007\277\210<\n)@\274 P\367<\260\371\353\271/3\275\274\027\356O;\272\202\272<f\006\251\274\363\357\013<\330\322\n=\361\267*\275\243\351\236<\223\nO\274R\265\202\274\325\204\247<\253\255\323<\016\331\t\274\001M\310<\330\026\023<\355\352\036=\374\346\275<a\373\334\274Az\022\2759.Q\274\375\352;\274:_\317<>\260\347<?\222j<\212\310\231\274\324\030\221<[+\035\275\315\304\2368,\310\217\274\272#s\274\204\333#\275=\331&\275\376\324H<X\276\020\275\237\325\374\274\032\023*=:C\304\274\313bR<\235\274\351<C\262\212<WJ\022\275;,\032=i\237\231:eO\310<\371\231\346\2745\251\021\275\335\342\225<`\215\n<\210S\022\275e\362\021=\217\177\312:\310\264e\274A\311\016=\362\222\323\274\222\324\254<h\222(\275\t\253\316\274|u\346<\275\033%\275\006R\233<s\317\017\275\355\344\303\273\263\347#=]\221\260:\001w@<\344Z\"=\224\024\365:[\203_<\3621\020\275\206\030Y\273\324B)\275)\376\367\274\317\022\210<\224\033\246\274\330\362L\273\344\374?<\007\307\033\273l\"\225<\266\334\231<\223\254\341\273Bg\235\273w\025U< A\004=\007\'B;K\377\300\274\322\377\352\274\230\327l<i\227\021\275k\t\016<Q4\003=`\254\214\274.\304\326\274\026\272$\275Y\365\200<\344\036c<n\221\020<\002\361\262<\365\375\265\274\362\264\000=\235\257\264<\254?\177<5\365\255;\3778\021=\205\350\361\274\021\220\257\274<\007\002\275lUq\274,3\235\274\371x\002\275&9\340;F\032\341<\253o\337<\244\314*=\345v\326<\021\3116<\232`\317;\325+\373\274\247v\020\275+_/\274\023\320\037;\334\2321\274\302\264\233\273\014\326_\274c\267$=[\355e;\303\211\262\274\267F\027\275[\252\262<D=Y<\361\203\026\275t\271\307\274i\340!\275\214\006\325\274D\373\002\275\334\235\001=\212\372\245\274-\'\254\274\343y\013\275\250e\t\2754A\212;2ZH<\025\321\252\274\220O\351<\304\200\356<\225\307\022\275\226e0\2740C\020\275U\336 =6\276&\275\255\353\017\275\315\353\254\274\307\204 <\347\336\031\274\370g\265\274\201\324\037=\347H\244:Tt\002\275v\322\025\274R\300w<\360\021\207;25\024=-GF\274M\234\'=D\205+=\243iO<\311\2623<\335\034\237<FW,<u\250\241\272+\0041<H(\371<\020F\303<P\332\313<\362_*<\205\263\271\274J\370D<\251mB<\021\260\220<B]\036\274\251\210\342<h\345i\274\262\ns;\376\036\233\2749\207r\273\355e\202\274\025\032\022\272t\234x\274\002\320\032=\361N\210<lC\344<\237v\322;( \007=0\253\266<,I\321\274\261\220#=\245\340\376\274&\347\324\274q\267\374<\010\265\302\273;\273\254\273o\372+=\305W\022=}3\333<\037\327\220\274\3442\261;\373\271\253<\177\276\030\2735\023\267\274\365\000\365\274z\206\n\275Zs\2008\030Q\336\274\235\272\327\273~_<\274\373\336\242;\303C\026=U\240\302<\203\027\035=5\002*=\321D\"\275\3216\272\2747%\347<\332\331U\274\203\001\247<t\224\367:\217\343\356\274\315c*;\354\233(=\001s\310<\251\212\355<\"_B;\004\223&\274\353\320\003=\3709\242<B/\001\275\005\215\213;\271\005/\274\267\021\013\274\315\352\024=\357?\310;\312#\017=\'\025\334<[\220h<c\002\t=\304 \370\274\336r\024\275\3137\026\275\217\343\342<8g\024\274\262\207\254;\245B\265<\r\224\016\273\345\345K\273a\322%==\231\330\272\026\030\034\274\001jj<wW\221\274\245\217\265\274\211(-<\251\326\030=\243s(=\005\351\r\275j\t\365;\367O\217\274\201\177\023=\223\326\013=\251\211\305<8$\016<\264>\263<M$\263\273\314\360k<\021\324\200\274\266m\265<c\253\013\2758\025\033\275 \331\321<\251S\360;fEI\273v\313\205<\345x\261\2745\201\031\275\0051\377\274\234\326r<m\331)=E,\030=,\006\253<0W\301\2743\265n\274\276\017\027\275\007h&\275\317tC;\257\232\025\275\302\237\212<\3440\031\2751\024\202<\317\352P\274\\\354\223\274P\343\334\273\340\324w<\036\371\032\274\306\010\347\274_\310\026\274+#\254\274,\350\n\275]\223|\273\277\345\353\274A\374J\274\240\253\250<\3767\211\273`\273\235;=\325\371<\242\371p<\306j\017\275\235\251z;\t\351$={a\305\274Mc\326<ba\316<\227\331\360;\'\355@\274\245\006>;K\331\013\275\362z\021=m\356\232\274 \177\226\274g\017\336\274\254`\317<:B+\275\270v\202<=k\314<\322E\236\274\255\321\010\275=\211\362:\315>\273<\355\363\321<l\377\237\274\250Z\006\2743\356[<\272y\203\273\201\321\021<\347~\221<o\014\323\274\230L\010\275\017J\032\275\003\347\252<\274\033\004<i\200|;e\342%=\245\002\310<\334\305\354<\007\231\227\273#\255\004=}[\274<\323\226\"\275_\024\022=\371z\265\272\354\245{:\265~\342\274\337\2023\273\t\202\004=H\302\274\274$\255%\275\261\\\220\274\335D\000=\003m)=\360/\363<\007\267\335<&f\013\275M\220?\274\244\006s\2744n\002=\211\205\240<\2160\021\275[\006\365\274E?\001=-\022\350\274=\200\\\274C\023\310\274d(\361<\224\332\005\275\232\351H\274\242\212.\273~\276\201\274\231G\034\274\242\377\004\274tx;<\325\365\244\274\207\233\222\274^\245\007=\177\317\240<-`\030\275\013z(\274#\314J\274\364\362!=\346\357\035=\020v\367\272\337`\225\273\340\304\223\273\253\025\247<\355\213\247\274\372\3147<7\307\327\274Y\226\t=\016\207 \275S\353\3569\271K\377<\224\256\356:R:\314\2742E\034=\'\036\361<G\230\\<~\222$\275<#\351<\365\364\026\275\362]\027\274\334`\n=\020\333\035=\207\262\274\274\246e\274\274\177\210\224<\271i\267\273*p\005;`\316\236<\225\275*\274\\\262>\274\001\241\352;\266\332\247<\357\2709<\232\324\342\274\2433\256\274\027\201\230;\0169 \275\016x\255\272\010\373\342\274\306\351\210<Rc\"\275\242\227\216<\360>\333\274B\001A\274\020r\256:io\027\275\032\201\375<0\013\301\274\320\032z\274F\325\245\274\312\347\246<\207\374\276\274\310\'\233\274\317\330\023=\356x\026\275$\035\275;\036\203O<\233\270\001<(\333\002=\350-\217\274\007N#\274\240v\265\274\364\030\221\274{\363\216<~\334\026\275\225\350\201\274w\354L;\263\254\026<\024I\200\272\273\0362\274L\374\315<\"\022\264:N5\"=\346\230\244\274\264\316\203\273\024\031\306\274\307L\020\275p\202\200\274\366}!\274\344\222\366\274\236\325\344\273P\017O\2745s\017\274\363x\371<BB\274\274M\016\025=\315_\'\274\035\024|<r\243.\274\032\337\000\275\340s\240<\002\366\234<\236P\014\275\020\205&\275\361\026\025=\233\263l<6]R<\006&]\274z;\025=w\203T\274\341E\311<H\231\217\274?1\017=w?$=\302\034\010\275\027\014\337\267\362\235\013\2752\036\026=\264\016N\274\273\325\026\275\212\002\351:\006d&\275\216\260(\274~\021\375\274D\355\377\274\026\243\036=\220\344\372<LD\327<uD><\032\177\225\274\240\222\016=\355\020\370\2741\313\311\274\274g\227\274\203{5\274\214\332\231;\025\021\377;\237\371\231\274\334\331\221<zW\251\274\235d\017\275\244\377\002<\'\366\010\275\033\317\032<\343\247\331\274l\272j<\250\337\336\274r\324:<\234\233b\274\275\230A\274\020<\214:$\356\351<\3715\360\273\255\361\274;\270\224\213<\315\253\215\274\212\352\372<\317f\260<\243\257\261\274\341\007u<\317X\021=\363\313\302<!u\307<0\223\232<\376\332\020<\266\016\340<\363;o<\360w\014<\tf\030\275\360n\"\275\212\365\004;\037\230\233<\301\023\200<\225\352\371<y\023\337\2744\032\017\275:.\006\273\277\020j\274\275\314\267<zM\221;!\005\027\275\3524\010=\356\274\024\275\366_\022\275_&\025<\302\212\202<#\r\017=\313\276\206;)\002%\2756\251\000=\002\226\375<\260\270\375\274\256]\261<a\213\375<\221\314\254\274k\351\377;:\312\'\275\224.\256<`]\226<{\316\031\275\221!\313\271\251d\t=\260k\325\273\324\\\005\275\367\340\007\275\225y#\274\2658\304<_Q\273\274\016\320\236;v\251\316:\354\036\207:\014\000c;\205\231\005\275\331h\202\274p\006\223\2744\006\301<\335\207\352:\373\022\345<\371\010\242:\260P\023\274\010+\217\272b\215\356\272y]\377\274:\036\031\275\203\"\031=\222\327\"\275\333\314\276<Qb\305\274j\221\033=\026\204L\274\231\013\235\274A\322\034=>\006\317<\315i\212<o\206\334<\300\354\005\275\247\005\'=/\257\324<\301w;\274ij(\275\331\234\005\275\2378H<\214n3\274\356\252\035\275\332\273\276<\326\013\310\274\352\334\031=\310\026\236\274g\212\020\275\030\243\010\275&\270\317\274\"\354\347\274W\337:\274\361\006\232<\"\306\276\274\017#\022=\3654\213<\202\000\017=\302k\342<@n\032\275\rJ\036=\374\233\337<\"\352\300:\026\354`\274K\247\242:FY\030=H\000\353\274S\022\301;\276[+=G\244\310<\342%%\275\273\274\307\274\2720\226<\263\310+=\201\2635\274\262\351\337<\356.\217<J\256\320<I_\320\274b\370\037<\214\313\027\275\006\253\017\275T\235\261\274\211\022=;k\350\033=Ok\316\274\264\315\347<\351l\021=3+o\272\233\235\037:)\366\202<Oj\323<\372\275\033=\224\233\005<\246\350\315<k\323\273\273:\211\243;&\364\313\274\347 W<V\200\005=\013\037\'<@\370\215<\035\365\251\274\205\371$=\215\022\246<\272\330+\274\207\370j\274\227\352\247<f=\364\274\364\217\373<\010\234\270<\327\010\'\274v\325\265\274\257\235\252<\327\'\333\273\245\371\213<K\211\250<$\274\234\274p\244\"\274\345\276\007\275\226\301\023\274@\177\'\275[#\276:\266\364\242\273\312\373\262<6\257\014<t\277#<\354\355&=\204\334\221\274\206*\014\275\310\343\016\275\347\034\322\274\251\223\270<\000\231\262<\204\271\326<z;\336;\370\036\n\275\220\354\377\274\320\373\n\274|%\226\274Y\215&=\236?\000=r\241\021<\370,\203\272\3140\';yT\341\274\034p\220<\207\t\005\273\306V\036=;E.<\314\031\026\274\347&\364\2734\341\000=\200\006\301\274;aj;\3074\321:\243\227%=\312\374\001=<V\310\274\330\323\026\274\322{5\274\023q\264<-5\336\274\016\371\331\274\017\245\245;a\372\215;\224\177\361\274H\000#=HXG<\355\232&=~N\'\273\035\024\351\273\256\370;\274\334\363(\275\321\220\277\274\017\003\316<\351\r\357\274\240\237\240\27473\202\274\321N\036=8\262\231\274J\253\000=\365\305\037<3\014\352\273+\275l\274)\006~<\244)-\274\235W,=\372\355 =\240,\223<\021K=\274x\023\t\275\351:E\274\377\217&\274a\272\260<M\006~<\271?\032\275\336t\325:!\325\020=\351\231\031=l_\375<\327Y\353<\315F\023\275\303\014}\274\003\201\244<.\024\234\274\342\027m\273Q*N<\253xa\274\312+\032<\230n\324<\327\365\374<\363Z\365\274\276\310\"=\240!\212<m\345\275\274:~\t\274\332\177\276<\205\317\254\274x\375\023\275\003\346\035\275\272lA<\340\361\031\275\257&*\275\035D<\274\326\361\273<\0005\344\274\\9\n\275\\v\013<\350#\257\273\257\362\255\274\243\263\006\274Tt\307<8w\205;;\234\036=\'Y\024\275e\306\351\273\356\270?\274`\245\323\272\013\307\356<:\373\220;\032e\263<\233A\002\274\331\276\352<\243\025\242<7\304s\274\004\230\265<|\243\230<o#\344\274\332M%=!U\233\273*\246\330\274\3279%=n\247\017\274|\007\"=\017\022\313<}\357!\275\347\272\234<\316n\332\274\211+\003\275\016\357\254<HKc<\366\306\372\274\206\314\355\27433\322<\004\232\232\273\273\364\363<\220o\007\275\026%\007=@G\207\274M\255\316\274\315\302\261<)\314\014\275\327\r\272;\353|\253\274\251/\341<\247\243\r<\364\000=<\241\264\017<\371\212\010\274x%\357\274\277\247\360<\177\260\324\273\"\216\022=\274\274\372<i]\007=\257\021(;\205\'+\275\335\364\r=\300\225\311<M\334\306\274SJ\223\274\214Q\217;\272\037\251\274\324\311c;3\236b;3v\313\274[\371F\273i4\020\275\253\3575<\207\340\310<\362d\000\274\200\312x\274qz\031=\311\270\022\275\020\362\306<eb\227\274\034\031\346<\020\006\302\273\332\023\021\274\221\005=<\"\002\227\274g\210\276<T\377&\275\021\0004\274\370\026\262\274\372\346\313\274\302\177\264:L\307\240<T,\224;c\356*;\014\232\005\275\332\321]\274\216\031\303\274J\221\325<\246T\263\274j\247\301<\260,\325\274O\254\267\274\356w!\275\256-\017=P\230\003\274\014\245\361<m\"\021<f{\263<\324\323(=|P\001\275\360\252\'\275+\347\200;\222Z\373\273\346D\221\274\362\017\241\274\022 \002\275\001)\204;\214Pe<\005\375\331\273\343\212\376<3\200\321\274aR\026\274?\323\355\273\211\324\314\274Q\222\027<\027jF\274Uq)=zu)\275\262-*;\235\257\275<\310\233S\274V\257(\275b\014\r=\372(\320<[\002\370\274\000\276\t\275\313\206\207;+R\016<\216\025\336\274\245\273\324<):Z<\036\353\t=\363\215\013\274\351\323\r\275\376x\'\275\3508\360<\300\364\023=\024.\371\274\t\014\370\272Qy]\274\200u*\275|9\034<\200\312\000\2750\211u\274@U\n=\200V\315<\241\325/<\352\025\000\275\213\255\370<\031\002\210\274\r^\226\274(\n\212<<\327\032=\260\366\274\274 \264\314\274\351h\212<\255\234\034<m\325&\275`V3\272\323\002!=]o\270<V}\367<%\272\342\274\247g\030\275\032\303\350<\0351\013=\\)?\274\212\305\252<\246\272&\275\026\350\017\275\332\272\232\274Hm\335:\371\376\027<V\350\373<\323S\311<\246\216\214\274\002v\340\274\247\324\347;1z\364\274e3\260<\226\254!;\022G\262:\222\356\021\274\363J\010<5\353\266<he\322\272s\276+\275\007\214\362<\206C\366<\036\237\005\275\266\222\202\274O\177K\274\364\266<:o\321\002=\367\003\306<WX\241<\241X\227\2741\204\013\275\3414\260;\007\0207<\"\363x\274\376\006\374\273yc(\275{\334\263\274:.,\275nE\276\274\361\352\354<.<\235<9\267\222<\224\037\222<|\257\207\274@,\354<\306\341\322\274\020\330\007=\214\316U<\316\231\352\274\220\363\213\273\244xs;o/\003=&\213\231<A\241+\275\220,\310\274pfF\274U\034\326<\364}\250\273\021\210\366\274S\370\255\274\272\362\252<-j\312\274\273X\300\274\243\354\003\275\316\210t\274\235\246W;\365r\002\275Mi\352<\204\303\217;\256\346\210\272\353\261\211<\314\234\034\275gk\003=r\025\263;B\375\030=\376\310>;R\024#\275\002\372\260;qh\242\274*\210\t=9f\000<c\327\"=\3765\361\274~\255\024=O\026\024=;: \275\260\377m<\214\330S;\226\036\224\273\212n\261\273\237K\367\274m}\277\274\267w/\272r\263\017\275\276H1\274UK\353\274\375v\327<\010\277#=G\034\226\272\2154\321<gJW<\353\346\341<\016\252\343\274\306\025\020\273\216\t\037\275\236\301\241\274\370\352\"\274\245\024\263<\262\257\345\273\324=\327\274Nwf;\210\242\365;\330z\310\272\321t\355\274}\267\300\274\013\356\332\274\327\333\032;s\032\215:\371&\232<\347\241\252;\222\216\345\274\307\222\340\274\354\201\005=\221W\n\274m\277\036=%\203\263\271\244\r\014=\017\272\243\274\203\231\321\274%\210\315\272`\365z<\337^u\274\277\r\370;\235O\034\275Q\013%=\177\304\370;j\020\t\275\352\273\367<\315M\343;7\241\273\274\014@\214<T\233\210\274\203\303X\274E\"p\273\271]\017=\330\223 \272!\020}\274\257\333\332\2747J\212<3\237\000\273%\237\333\274\247l\204\274\205\355\313<9\342\025\274\235\006\330\274T\260\343<\275T_<\017\366\177<\007\372F\2730\003\007=\333*\356\274\311\026\225\273\326\2207\274\347\267%=qWi\274My\017<p>\223\274\025\242\'\275y\325\314<\312\251r\274\354\303\016\275A\020\032\274\333\311\000\275\371\222\025=ZF\264;3\005\314\273a\324\001\275\246Y\217<\3475\025=\322Q\302\274\223\036\037=z\016\014=X\025]\274i!\227;\216\354\246<]\304g\273\006\201\226\274\022\034\017\275\324\353\006\275\266\327\206\272`\365\013=c\"c\274\302\251\017\275\325\205\020;Y\342\307<\031\256\262\274\216,H<G\315\326\274\202<\300<\266\324\214<\\\362\365;{p\300\274\317\3230\274{S\315<\372\207\006\275\272\306\306\274y\031\271;?9\264<\205\303\023\275\035\2445<E\005L<S\006\005\2751\225\325\273\236!\203\274\313\345\377\2745\206\211<\243~\332<\325\363l\274\225\204\360<]G\245\274\226\264\032\275:?\023\274vp\227<\230\252\252\274\371\262P\274\005\346\301\273\370\341\263\274\267\301\263<\325!$\275\035\304\274;\305&\230<X\031\221\273\303Y\370\274`\330\227\274\201\246&=\227\272\223<\325%\n\274\375\310D<_\313\302\274\\\326\361<B\361\216\274\333\370.\274\307@\305\274\303U,\2749\257d;\022\3076<-\300\234\274\211\356\340<\001$I\274\237j\312\274]I\320\274\225\210\007=\315\351r< \"\236<\360\025\274<\271\267\265\270\304\027\367\274Sv\005=\376\033\324;\357\230\230\274\002g\337<w\233(\275\356O\236<\310y*\275Q\231\233<\372\000#=\000\235\236\274dm\"\274\202-n\273N\272\250<\230Ws<J\033\365\272m\353\035\275a<g<\n\206+\274\222\306R<\022\'\250\274\344r\336<\007\362v\273\0056\350;\316ln:\003\243\364<3\256\225\273\247\t#=\034\275\031=\250\303\030\274\010ey<^\315\340\274N\237\032=t\315\217\273\035p\025=B\333N\274:\357\252<\264\341+=\221j\t\275\222\377\036=y\376\037<@d{\273\234/\005<\252\207(\2756\036C\273\346\235S<U{\276\273\367\206:\273\311\207\023=\\,\207<\305~5\274\3131\312\274\377w\325\274\334Q =[\325\312\274\256\353\234\274\347\274\237\274\017\332\013\275\013d\243\274`\346\360<\025\327*=\364\254\234\274Y\223{<\r\025\001\275\200\037+\272\334\207\356<zG\330\274\327I\373;6A0<\231\212\346<\263I\3059\200\243q\274k\023Z\274\271X\353\274\347c(=Ie\214\274r\227\274<\014\261\"\275\241G!\274\020\250\346\274\232\224\206\274W\247i<\242{\265<\300a\034\274\236\233\367\274\303\223\360</\266\252\274\007V\321<{\336\005\275\373w\217\274\351\226\367\274J\002\021=7\375S\273\032\"\026\275\264\304\022\274\253\267\r=\365\225\213;\310]\356<I\232\326\274pH\n\275\214\241\212\274mI\"\275\331S\330\274So\277<kdx;\205\266\013\275e0]\274\320\334\017;\327I\321\271\200[\276\274\245I\010\275\2576\021\274:\0343\274D\376\024=\275Z\\;\234\000,\275~/(<\355E\032\275\251\351\033=\370to;.\322\213;?`J\274\2221\336<G\354\200\274a\334\377\274\340h\376\274\006\241\216<\221\255\205<6\333\376\274\2303\372<\211\264\233\274\316\200\001:\355\006\314\274\203\303:\274\033\000*=;c!</\031\021\274w\325\205\274\376\\\020=\375\013\034=Nt\306\274o\\*<:\277\337<\304O\212<\270\321J\274s\217\374<\314\345\317\274/fK\274\334\252\366\273\333\233\021\275\3635\261\274CY\000\275\210m\206<\331\335\300<,\021\356<\312\207\355\274\320E\022\275R\374+=\2351@<7\225\234<3<\027=\320]\226<\340\332*=\304L\030\273\260}\311;\225W\360\273*H\231\274w\027\301\274\020q\017<\343\215x\274w/\034\275\025\250\240<%*\000;\220m\r=m\342\003\275?,\n\274\374\230\002\274\205\031\274<\221\377\267<\274\030\004=\206\351\001=\354.\036=\315le<\037!):~o*\275J\347\254\274\250\"+=iB\020=@4f<;\030 \275\031n\023=f2\267;P?\333\272\224\254\264\274qd\241\274sm\275<\365\003\014=\177H\256\274O\332~<\030\035\232\274X\356\262\274J\364E\274\025\205\273;-P\306\273\000\215\202\274\375\312Z\274R\261)<\345\345\006\275\303\324\222<\370\314\200<eR\334\274[\363\346\274\350\224\031\275\371\200\366<>\244\212\274\200{\363\274\266>y<\267\352\211\274\320\302\'\275,\314\n=o0\035;\007K\005=\352\222%\275W\314X<\2601\372\274\205\027\354<u\272\272<\324%\244\273\260\306\370\274\313/*=\347@G<\230pv;8\302\217\274o\350\013\275\343\256\205<\321\334#\275H\324\226; ;\204\274^Y!\275Or`\273N\367\r\274\367\341\351\2745Z\357\274\317sX<\223\353y\274\247\033\332<\341\022\277\273\345\'\n=\226\320\036<\016-P<>=\021\275\251~\t=\332\020m\270\223\031[\2727\333T<3RO;\236\225\036<\240\260\013=\346\224\305\273(7n<\\@\345\274\373\321\254\273\002\343\204<\213\020\365\274<\320\273\273\224\204\035<\331\206\246<\354\023\013\275\017\264\224\274\212\035\311\273[\023\363<i\277\013=\335E\000\275\223\237\262\274\272\302)=?4\277<S\231\001=J\326{\274\323\234\374<\000\277\202<pG\312<R\006\016\275!0\343;;\325\363<\347\027\333\274Zh\t<|I\234\273\345\010\227\274\023?\360\274\264\363\343<Lp\265;\001\200\377<]\257\336<C\330i<\256\212\270;q\252\244\273\207@\326<\2062\001\275\023\363\210<\343^\316<\\+/\274\373\203\024\275\370\376\306\274q6\020\275\372\316\341<\006\024\232<\312k\024\275\245\252\177;wh\327\274[e\203<\t9\2668\237\341\270<\373S\230<+\233g\274U8\222\272\361*q\273\030\250\233\274R\253\t\275\230k\013\274]\005\337\274\020W\006=\373\213\240<\002\031q<\021\257\003\274Pg\n\275E}\030\273\2737\341\273J\021\t;\351\227\342<\320\002\377\274\312\201\213<)\231\024=dzQ\274\0205\245<,\356\013=,$\016\275\254\215/<dGN\273\301\374!=M\006\r=\354\215\340\272\256\227e<[>\370\274Q\343\034=\272\352\375<\244\273\356;\242\232\200:\301\264\237<\017\253%\275\317\205T\274\326E\371\273\357\243\035\274\301\003\245\274f_\246;ze\224\273I3\031\275\031Yk\273\215-%=\256<\377\274\003\205\355<t\365\312\274\377\225\270\274\246:\255<\"\"#\275-\000\223\274;E\374\274\360F\244<4\301\254\274\373\201\031\275\260\336\010<v\267%=,\325(\274\233b\314<\225}*=b\331\331<\021\017\010\275\007\001\316<\260\203\2409\202\2209;\217\351\275\272\371\350 =i\264\264<\002\200\000\275\333\024w<\335\037\035=&\250\240<\262\026\313\274\271\200\005\275\037\315\365\274\212G!\275\277\025\014\275f\265\242<\342\324\333;\251Z\";V\203\375\274y@\251<Y\200\373\274\257\310#\274\250\014\251\274Zq\231<#\262\334\274\\\003\310<\354$2\274od&=p\375\222\274\354\367\355\274)\245\030\275\324\t\231\273\201\031\327\274x2K<m9\375\274v\023\350\274\315\341\245<D\272\037=\376\250\254<\250\001\264\273\270\370\006=c\223s<f|\000\275I\320b<\2027\227<o\000\027\275KU\304<\244\267#<\326\306\023=e\335l;x\220\005<&\'\364\274a\2718\270B+\327\274\313\277\010=\205\317#\275R`E<\313<\214\274\024\305K\273b`\352<\0358\034\274\306\350G\274\261\320\377\274\264W\265\273\360\334\n\275\031B\251\274\354\334\n=\"\236\014=\206`\021\273\036>\341<d\033\216\274\337\243\004<\213\224\267\274^\260Z;\375!\277\274\267\267\340<7\020\363\274\261W\035<\331\'\037=\376\304\200\274N\260X\274].+=K\311\"\275\301\263/\2746\233\035\275\371\350\025=Y\026\366<\'\372i<\353X\t<\336\016\327\274E\371\024\275\351\335S<\373\231\375<\376^y<\373\274\036\275\275\243l<_\246\264\274\231~\307\274\214\035\336\274-\350\020\273b\262c\274\246+\345\273I\005e\274\346\254t\274F&\005=X\002!=\013\216\037\275\364\367\275\274e\353\376\274\3657\031\275\341\315\026\275\265`\017\273Z\\\260\274\253\360\276<7\331s<cM\032\275WL\376;^\234\350<\320_\366<\n\366\'\275\377\203\301<\035!\256\274\3460+\275\216#\301:\366\r)=\032\313\241<\310\303\231\273\373\225\370<\252\252\321\273Mn\226<\345\271T<4\214\213\274\020ua<=\002\377<\354F\037\273\211\245\001\275&\024\374\274\241\213\"\2747\370 \274\265\n\217\273(\226!=\r&\r\275}\366\356\274\263I\371;()\256\274j\027\263\274\346\217\254<d\357\332\2743\336\321;\274=\335;;\366\204<\343y\201\274\315p(=v\365\353<8\035n\273\016\274t\274\006\306\203<\351\203\233<\025\225\034=\2033\303<\204\005\215\272;\374\300\274\366\007\331<U\372\003\275\307x\343\274\242\014\030\273\331\201\325<\257i\244<I\351!\275\355]\370\273D\360\002=\304\201\355<\201\307q<\270\201\277<\251\235\224<T\312!=\363`\003\275\211l\023\275\363\020\341\274\271;\322\273\025\230\035\275\332\323\035\275o\027\352<bM\325<U\213\225\274\027\354\007\274\267\267\t\275\240\213\003\275\346\356\346\274\321\213?;\316>\372;\\\023\243\273\362\2463:CUj<\276\027\036\275\225]L:\252(\351\274O^\001=*\023\200<\377\240\372\274\316\244\025\275\210Y$=\030\271(=\223\037D;\270?\024\275L\'\014\275\006\257\025\2744\206\360\274\315u\000=E\006\314<@\035j<\363\032\372<\227\271\276<\242i\036\2757\264\336\274\241\321\032\275\327\022\n=\261\210\n=\325\362J<z\254\305<?X\265<X\3106\274\231\236\264\274i\365\366<\232\263\365\274\243k\016\275\020\304\245<\372\200\253\274\210\033\341\274\373\227G\273\303x\025\275\326U\010=\332\323\301\274\372.,\275\027\'%=<\314&:E*\005=\344\272\274\274\2002\233<\306,\t=3\275%<\204\027\036<.\267\362\2747\306\337\274\353\267\240;\013S\010=\363\313\361<x\001\320<ZY*\2755~\027=Y\205\330:\334\273\334\274\235F\303<\036\307\031\273\303U\306\274/fK\274\237\226\004=c\302\273\274\366\026A<\335(\365<\307>\360;6\235\252<\024J\333\273u<_\274\373\211\225<\2255\251:n\241\001=\034MI<wy\374<\2048\306\274C\317\303\274\313&_\274G\224\026=\021\031\t\274L\"\341;\0363\210\274_\265\357\274\227^h9\237\336\236\274\007\337\302;\321\236I\274P\033k<\376\240\261\273\274r\356<\203\307\034\275\317\037><\242\370`\274\275*$;\035\346\"=\007.\016=g\256\210\274\202\277\030\275\222\327\275\274\261\327\203;\376\326f\274\371}<:;\374\026=\352y\241\274z\001\025=];)=q)\303\274\202\306\n\2759\264\277\274\331\266\003\274\205\261\374<<i\276\273\026)\n\275\264\352\344;S\360\365\2744K\311<\2602,<\003\322\025=\340\324\304<\003\362\251;\004\246\000=\201B\006\2754O\343\274\330\033m<@\205\351<\311\007\312\274\\;\275\274\222\030\014=\017~\310;8\226\363;\032\314\036=\220v\254<8\266\000\274FI^\274\016\371\034\274\025I\003\275\325v+<\317\010s<\244\221\353<AW\233\274\354\230\242;;j\252<\033\212#<N\201\211\273\375\363\373\274t\023H\274\0367\017\274\t\374\033<\256\370\025=50\204\273r\322\035=\344\262\260:KP\307;u\252\235;k\035\244\273\303\306\324\274\216\\)\275\240\250\231\273^P5<\n\316\365\274\2173\203<\303\345\034=\275\357\3515=\325\231;$\203\002=\352\244\036=\325\037\350;\352\006\325<\265G\245\274_\300r\274n\007n;\255I\306\274%\230\213<\035\234\006=\025\371\'\275\271=\247<\026g\013=z\337\316\274\335\336\237<\033de\274\343\320\026\273:\375)\275\202\357\200\274(Q\232<\251\215\214\271\236\333\033=\307W\000=si\257<\322\016*\275\200\203\240\273\307+\266;\322\315\312<k\305\320\274\010\253\'=\016\261y\274^\341\206<a\'\343\273\225\224\016=@}?\274\273\\\341<\032\347+=I\022\363\274\277\225\007=\367\215\332<<\025\216\273\223\036,\275\030nk;_\371\361<\252\016\335\273)w%=\rQ\207;<\324\234<\330\322\334\274_\272\250<\000\377\364\274\275\375\"=\031Q\377\274\253\345\034\275\361\305\276\274R\206V\273\314\371\027=eA\271;#\321;<\256V\223\274OE\310\274\375/\336<\353`\"=E4f\274\227\205\234\274\225\324\005=kXh\272\203\244\201;\3102\017=7l\"\274\322\241\347\274\024\264\362\274\3200\"=v|\014\275\003\253/<\037\t\277\274#Y\005\275\334\004\342<mh\312\274\271Q\377\274\337\352\222\274\214\013\003=\315s\230\273\020~B\274*\364\326\274\017\341\033;>\315\206<\334\245\230<h\033\303;\274\0344<\335\322\261<\274\334\036\275\342E\213<g\343\200\274\367\216\255\274b\227\352\274S\016\201\274\032E\224<\311\235\022<\214\235!=\261\246\312<\323\231\376\2740\006\346\274\265J\000\275\327>\354<\340\200\033=>5\224;\271\310\243;Sh\231\274\363\264\335<\013v\267<$J\345\273\t\247\360<\370U\021<\223U\010=\356\261\334\274S\'\372\274\030\256\036=\333n\027\274\234!\014\275\217L\031\275u\307\365\274\324\244:\274\217\003|;\200*\027=\004\004`;E\357\005\275t\036G\274\371A\310\274\337\031S<c\'\342<f\345 <\263\231\000<\336\254$\274c\034\237\274\033\2217<o\367*\275\3777\336\274\346\356\347<wc\205\274\362\327\230<\362\247\305<@\376\034\275\036f\245<\231\353\234<\316J\2439\353\247\022\275\203\317\300<\021\231\'=Hp\373;te\033\275$\347\376;o\006\324\274\234J\215<\303\364\001\275X\252\333<\343\237\242<\330\3449<r\205*\275E\024\336\274\335\325#=\200\207\222<,\277\r=\333P\373;\035o)\2744\376\347\274\274\340\271\273\370\364\351<\210a\007=\222\273\016\275\201^\r=\262\310\033\275\367\237\'\274\032\377\t\275#\351\320<w n\274\372\250\025\274\363\217\322\274t\307)\273\333Gc\272 \322\035=\242Z\252;es9\274\347\367G\274\177\020\036=\216\330 <\212\262(\274\025\353\'\275\215\314\363\274\204\020\373<[-\025\275:\\6;3!\247;T\233\004<9x\316<\336\037x\274e$\247<\311\331\007=\323\276\031=\252,\004\2753\317\"<P\303D\274\342\366\020=\206\303+=\364i\370\274!\324\002=\005\034\270<\375\241V\273\2610\037=!u\306<\340\n&\275\203\307\322\2745z7\2747T\223;g\025\'\275Y\327\370\273H\352\370\2733d\"=\374\204=\274:B\270<\341\336n<*\333\233<a\200e<\217J\002=\222(\240;i\020\n\272)\300\017\275\0232\277\274d\207%=\210h\242\274\225V\230<\2272\020<\002\3374\274\367\353:<I\305\374<\023\305\243\274\307\340\024;b3,<\342\342\310;m\242}\273\367p9\274=<\360\274\252-\234;\230;\033\275\330\337\007=\372+\201\272\250\304^;r\376G<\261\263\313\274\220\rX<\351\216\206\274\031I\237\274\334VF\274\212\035*=\330[\367\274wS\024;\352\257\324:\277\265\336\271\3268&\275qr\022\275}\210\310\274\321\312>\274k\361\001\275\t\232J<K\271\017\274\361\312\242\274\233\352\334<\236\303\213<\210h\277<\266\006\241;\226\343:\272m\0013\274\342`\020<\3239%\273\302\035\273<\004Ri<&6)\274\240\366\231<\263hX<=8!=\3513\036=\224\231\213\274\314?\214:w\364\274\274x\233\267<\307j\235<\325\360H;g\372\220\273\t4\r=Tj\312\274\350N,=_\001\004\275\036\231\t<p\245\211\274\262\271\030\275\262\345\307<\266\314\3078\204\203d\274d\243\034\275\2368\243;\350\016i\272pu,<\350\316~\274\366+\264<0\362\'<d\263\373<\364!\276;\236\254\034\275\277r\'\272\006\202E\274\250\245g;!\376\240\274\024&\350<\365&\347\274U\005\251\274\034\2251<GW\177<\202\200\360<\265 \316\273\210\312\260\273\0006\370;\322I9\273\2754\372\274\221\226{<0\312\025\275n\300\006<OS\036\273r\006\234\274F*\250<\024\022\326\274\326\007[\274\032r\354\274N\343\r\274\267\245\363\274\0349\303<\366<\032=\262\223\246\272j\365\341<\340\343\260\274\214yj\274\370|\260\273HY\030=g\244\022\275\252\311\252;\360%\027\275,2\276;CV\343<_\246\241\274E\360\245;8\031\366\274\324~\020\275\336\t\364<s\tX\274aL\212<D\236\320\274b\262\363\274\234\324\230\274\365m\360<y\252\376<\343[\331\274\250\225\001=\270\242\231<\313\2618\274\024\027\303<Nj\331\274G\360\016\275*\355%\274\304\206\254<\004\244\207\274Z\350\376;\355\220\025\2758\022\356\273\261\334\302\274#\017\352:\323\364\276\273A\364\345\274\027\367(=\222\300\240<b\377\007\271\365\000\226<\002\237\365:.\263X\274ST\254\274\036\027\016=\000\237M<\271\013!\275\351%\210\274=\205\177\274&\213\r\275\213\236\201\274lg\035\275\346an<``\306;P\377\255\274\265HV<\233\350=\272\357\031\n\275\243#\033=&\311\353<\3064\323<\205\353\312:\010\227\212<Be{\274\251N\267<\254\353\'\273:\'\"\275\233:J\274/\260\207\274\363\327\254<T1\035=\251:A;\244\335\213<\252\025v\2744\341\004\275\334\025\n\275P\024Z\274\341\000\014\274Wn\000=\206\366(\275\263\n\374\274\340\334\003\274\001\210\005=\352\322\274\274\021R\253<\033\034`<c\021\220\274\3163\'\275\363y\302\274\037\223\357<&\226\225\274@\264\207\274x\265\"\275\202\027\243\274\312\014i<G\204\366<*\334\330<\331\350\3149\375\220.<\245\010\243<\304\301,<\023\267\003\275\343Yi<\375\352!\2749;\311\274\327c\201;\026\254s<\362\t\316:\354k\037\275\216\355\036\275d\355\223:\010\376f<\247S\003=\2447?<\357e^\274q)\022\275\372N\031\275\254\235\252\274\215\354\016\275z\277%=\370\340&\275\353%a<4\375\036=\307\274$<dm\220<\227\375\030\275\377\346\337\274m\354\343\274\345fu<A)\234<\014\203\215<p\261\347\272\202\244\033\275\303\014><~\315\025\275\230P\r=\034sC\274s\340\225<*\366\014\274,\252!\274R]\007=SQ\333\274\206\237\014=h\312#=aYX\273\221Q\323\274[\020`\273\205\003U<\177\"\r\275\300\352\'=\177H\346\274]!\327<>\367\330<\3607\005=\365\311\020=\375\253\200<T=i<\355E\257\274\036\001,;\004\276\354\273\240^\203<\264(*=\301\252\323\274\3123\276\274\375\302\357\273\255\375\023<\223_\251<\344o\262;\010\177g<\326vu\274\0347\245;\t\020\026=9\301\371<\'&\230<\314B\313<\003n\305\274\224e\000\275\363\230\223<@\366|\274=\356\004\275?1\006=\366\311z;2\343#<_\373\225;\275\304\304\274,H0<\225\n\237\274-T\273<\342\336\021\275\367\217$=\247\254\273\273\357\270y\274y\001\313\274Q\337\251;\326\301m\272\026L\'=\013\007\"\275R\367\361<\271)\000\274\036\371\276\274\202\030+=\037\035\236\270~\354\031\275WP\010\274Zy\325<X_^<\025\020\213\274\221\314\342<\340`%=\352\356\251\2749\002n\274\274\270%<\010\370\270\273\007g\256;\\\322\261<\2642\264<j)\244;b\223\'\274\312\334\310:\357\307\243\273a\307\354<jr\034\275\220\213\375<E\373&\274\210\210U<\365\325\320\274\322\336\316<\037i+\275\326qJ;O\023\333\274\002\206\336\274\326\375\276;=\247\216\274\240\356T\274E\005\221\274%\245\311;\'\307\337<\306\302\221<\256j\273\274E\034D\273\024\013\003\274\013\030\004=c\232\002\275*b\024\275\262(L\274/T\352\274w8\345;\253u\231\274\t\"\224;\366X\240<\271U\217\274\203\210\227<\333\355\313<\354\252%=?V\035<\256*!\275\234v\256;\322j\004\275\306J\025;wS)\274\200vi<\330\204\024=\265\243?;\021j\004=\326\327\361<\027\006\215\274\n\270\037=O\226\345<\221$\200<%\243\033=\3420\035\275c$\016=\226I\013\274\341\241\206\274\'\367\227<\231\035\231;\250c\013=\216&\246\272\211\205\204<6\326m81\236T\274\251\324\245<;\221\212\273n\177\007\275\307\211\324\274\013\375\364<3_\010\275[\330\034\275\245#\001\275\\q\342\274\207\360\227\274\033\024\005\275\251&\356<l\342\315<\205\022%=\222\254\023\275(\365X\274\013\316B\2747]\033=e\233\301<|g\325\273o,\r\275`\334\252<\036\244\234\273\313\247\341;\233\345\347<\277$\237<\241\333\230;\372p9\274)\321\336<\241\\\001<\035\3541<\331\\\200;\031\245+\275\244\305\266\274\354\311\030\275\252\353\026<G{\203\274\311\253\362\2744Y\230<\362\001\325\274\354\256\r\275KC\020\2721\236{\274\262\037!=BE\223:\016\261\241<zm\317\2745X#=W\307\031=<l\305<\354T+\274\335\302><= G<\334+\014<\346*\001<|\254\231\274\n\254\251<iiK\274\350\007\006<\002\022O:\205\377\034=\"D3\274\372\\\246<\202)\323<\n\3570\274\376\333\231<c\034\r=\203N\024\274\236\027\205<Z%\001=\024\357\010<\214\020\n\275\004\177\273\274r\305\223\274\314\317\262<\346\3149\274\n\3208<s\221\013<\265\241\342\2742:\226<\233\234\264\274\225^\246<9l\266<q\310\036\275D\253\362\274E\246\037=\214\242\333<\230\344u;l\370\021\275\230u\212<\346\227\311\2747H\017<\356\355\034\275t&\026\2755\034\247<;[\034\2751\363)=\357\314\037\275\305\236\353\274x\356\t\274M\007\020\275F\'\316\274\346\355\266\274\276\376\243\274Z\010\354<{\200\304\2748O0\274\013i\037\274M\024\337\274\265\300\200\274\324u\261<\330\353\035=,\354)\275\004\351)=\013S\034\274?\302n<\004\034\230\272(\237\275\274\354\032;\273\000\335\013=:\323s:\204\t2<\035\r\230\274\340\303F<\207\217j<@+\275\274?m\000=m\300\023\275\202\357\322\273\273\371\r\275[\363\213\274H\025\n=\\\305Z<R\261\004=\201\230\312\274w!\205\274\003A ;\2017\030=6\315\313\274\361\211\206\274\225\014\333<\333\001\362\274X\013\234<B:#\274\326\377\250\274\t[\376<\024\030,\274T\004\002\275<B(\2758,\315\274\216*\274<\265\256\326\273r<\264\272\010m\307<\364\371\005=L\266e<\251\312 \275t6\'=?Q\3649\307\244\247\274\001\264\n=\020C\314\274\036\343\210<\276\206P\274w@\320\273\216\262\251\274S\212\331\274\362\262(=\002c\343\272\362_`\274\364Q*=-^\t\275N^h<b\355N\274\361\003\013=>q&=\244\326\000\275\317\033\000\275\377d\276<\0143\n=Y{!\274\265\335\030=7@ \274\0260\240\274\007\240\276\273Ob\302\273\262}\r\275\n\224\270;W\037\334\274B\006\006=16\221\274\220\304+\275<N\366<\306\307\230\274!\320\202<\376\244\233<\026v\270\273\033\224\351<\351\352\010\275\327\017\343<\211G\242\274*f\245\274zu\034:wg\306<\224{\256<\300\367\002=\372\245\377\274b\345\311<\375\333\271\273\236\372X<\230\323\231\274\356\274\256\274\210_\216<\347\313Q<\022\204 =\223h\245<\014\027.\274\001\022\264;\016O4\274\2467\200\274\356\036!=\013\216\266<\010\210\021=\006\277\214<\220\316\002=\251l\307\274\360\306\016\273:\212\003\275\306s\356<\372\005e\274\374\355\010\275\217x\"\275\033_a\274e\360\315<w\030\236\273+\003\334\274xdg\273\357@}\273o7Q\274\245\366\001\275\002?W;Q\262%=\242e\232\274\206\273\021=\247\312\343;\020\353\2109G)\220<4x*<\361\266 \273\022\313\277\274\356u\010\274\030\357\013\2758\372\010\275\352\034\231<Zd\024=\300\007\026=[\002\325\274&i\272<\324nU\274\035\202+=\311\300-<2 \013\275\364}\301\274\341\031\233\274\234\010<<\364m\220\274\036\207\316<g\365\232<.\210\260<8\230\220\274\263\213\034=\325\207\215<9\353\2249\200s\222<\363\210\377\273i\217\210<\362D\032\275\213\257x<\014j!\275e\311\277;\212\214\330\274N\\\212;\313Y\010=\206\035\016<\010\020^<\311]\221<A\024\016\2754\300z<\017\347*=C\325#=\231\006\027=\003\004\030=H\240\025=\236\265\010\275\344#\010\275\367\235d<\327\035\003\275k\237\033\275\321\203\006\275\254\213)=\374\3150<\221\003\016\275S\205\033=\345\020\277\274\342\002H<\362\257\360\274g\003\225;\301\245\024;\205\364\212\274]\345(\2752\307\214\273\217\327Q\274nI\037\274\221\242\'\275}\013\257\274\235K5;U\343h;\210P\203<\3214\324\274\303\300\331<\370\003\227<\360I\364<\370G\035=|Vl\273\"\003\024=/o\231\274\002\260{;\246A/\274Xt\032=t\212\037=\261\331\010=\272\027\014=\026\241v\2715<\346\271\272\336\'\275\334+\017\2759\353j<\226_\022\275\264Wf\274H\214\241<\021;\215\274%H(\274\376\367\277\2741\330\251\273\213\205\261:\346\177\301;\310\231\377\274\244g\265\274\303m\211\274,\020\321<J\035\261\274\214\207\343<\317\374\336\274\256\314\257\274;\361\037=\354\031\273\272\010!}\274&>\341\274\223\300\313\274\364@\030=\230[\004\273Pi\236<Z\242\354<\260\225X\274X8\354\274\231U\007\275-\371 <\340\342\017=\3417c9`\265\'=]\227\266\273\356J!\275n\213\016=?cq\274_\312\302\273\t\327\335\274}V\024=4\335\304<\031\314\341\273\222\355\001\275\032\344\005\275\306\'\322:\372\366d:\203\362c<\212\031\222;\231\225\036\275V\275\260\274\335\355\276<\300\251\277<H\'\n=\r\304\300\274\007\234\242\274\243[\\<r\252y\2740~\332\273?\271<<\275\231\312\274\257W\020\275\253\313\007\275\000\234\240\274\240\225\332:B\322\363\274gV\367<\276\200%\275\020t\004\273\364\2717;\2221\327<\367a\314\274W[\"=\314\312$=\"\356\275<\201\024\337\2747\326\273\272\006>\331<\022T\010\275eV\007\275\312\243n\2739\006\215\273\023\341\224\272\250\352\211<\235\251\001\274\243ZM\274Uh9;\361\')\275\310L!\275\251H\022=\'\316,\274\033\215\217<\2711\\\274$\223Y\274%\245\346\274\212=L<\264\340\203;\303\333\372:\330k\023=m\020S\274\345U\273\274\004[\357\274\3701\002\275\220T\242<\372\004\355;\205N\370\272\200\2146<\201\205\247\273\260\355\020\275W\335\330<\365N\224\274V.\310<\372\346\177<)\377\220\273\351x\025<\310\025\030=\261\377&=\023\344\372\274\346\001\026=\366\205\235\274\270\327\313<R\033\257<\321r\342<\260\300\032=j1\006\275@\372\031\273u\346\377<\2376\324<\327\321(\2759\244\236\274gG\363\273\005l\232;\210\n\346\274\246\'$\273\274k\265<\030c\240<\361)\320\271\331\200\027\274\255G\016<\257P\001\275\3374\323<u\321\033\275\001rA;\257\364\310<z<M<\220\226)=\347\250\340<\232\321\023\275c\037\237<Iw\204<RK\350<\260x\030\275 +\233<\005\375\204;e\247\324<\334_};\3243?<\273\246W<\351/)=\243\362w\274cu\030\275\206\213C<\242\265<;\272\327\233<a\273\263\273R(\016\275u\363\035\275\211C\020\274g\241\270\274X\355\007\275\371\305\021<\220 \240\274B\327\346<\013,\212;\336\256*\273C\371\373;\023\352V:\275(\263<\212N\000\275/\230\340<8`(<\2652\363;\031d)\275\240B,;\214\337\320\270\t\360\227\274\020\317\033\275`V\034=\221\031=<\0144\n=\336\027\3359\3360\304<Mr%=\014\207x\274\344\243\032\275G\"\307;[\006\252<\2330\235\274\247\213\020\273go\337<\247\316\231<o\037\227;\231\250\025=\331\360\305\274\206X\222\274h\215\306<*G+=\327\2469\271v\020\2659}}\037=Wy\357\274\306\344\341<\324z,<\216\357\000=*\030*=\205\356\016\275\0229\265<\264g\003=e\027\006\2749\304\360\274T\034\222\274\231\3652<k\017R<m\214\215\274\240\324\340:\346\315\024;\364w\242<\312\244\334<kb\034=`I\035\275\007\304\330\274\345\211\031;\275\365\265\274\233\\\317\274\267H\021\275\254\200\006=3X\342\274\236\353\350\274\213G\255\274\360\344\"=;\033\304\274\367\232\242<\2701\362\272\344S)<\323\315\033=V\001\025\275e\371\035<\216\240 \272}\323\232<M^\003\273L\302\020=\241j\360;\355\233\264<\275\005\247\274\347kx<\213\330\274\273;\025\302<\rA\245<\256\230\200<\355\306+=*\035\016=x\266\333<\303\314`\274\343k\022\275\214\214\027\275\227\374\004<\016\347\033=cr\241;\004\347\253\274\325Y\003=V\231\r<\322N\206;\t\263\306<\360\006\225;}\306\313<\335\031\024=\004\353\220<B\350\n\275\252\345&\275\305k#<?\344*<B\302\240\273J\031\261<]\231\323\2748+\334\274\367\327\267<\\\300\373\274\334\000C<\004\252\n<\233\371\207<\3673\306<\370$\025=\317\213\000<Q4\013\274\277\005\325<\311wl:\242\317\"\275!o\252\274\2612\023\275ENR<6 \247\274\374\343\225\274H\201\275\274\236\252\265\274\374T\022\275L\'\313\274\210\223\237\274\022?\036=x\tP\274\362\375\331\272\364\023\271\274\361\355\207;Gj9\274\014\003\374\273^\260p:^\037\233\274\006\341\001\275\374/\377\274\275D\314\274P\\\023\275\212x\224<\372\300\032\275\203T\335\273\032\252\014<V\216\314<5mW\274\223\320\005\273\233\340=\274*`\304\274V\\\202<\302W\006=\320\311\221\274E\212\337<\210U(=\026p\251;\034\213\277<%\327L\274\"\366%=\026z1\274\336\\\365\274\327\222\236\273\302r%\274\275U\202<\362I\244\274\356\036\301<\230jF<\307\274\n\275\257Ui<\256Q\373\274\036h\352<|\003\037;\030\363\331\274\005.+<k\313\003\274\242\206\016=\356>\376<aE\024\274\031,\255\273\223\200\001=\344\032\010\275\325\016\242\274P\220\370\274\337\341\377<\221\261\374\274\262\032I\274\362\222\027=\201(2<\210\366\341\274u9\"\275\231\224\355\274\341\013q<\321\033\036<\216{|<\334\344\027=! \376\273\230L$\273\364\350\014\275\345\025<<\211\362\232;U\002\035;\204%*\275\001\227\324\274d\253\t\275\366\352\022\275\371\231\354:\032X\201<\306\r4<|1e\274O\267\225\273\215<\316\273\3039\265\274\344\245*=\341/\363<\244\341Y\274\211\332\025<\003c\220;4\341\333\274,(\360\2749(\304\273\242\232Z;\241-\334\273\026{\270<\272t\032=EU*\275gL\302<\364I\246<Y\332 \275\341\363\215\2738\372\345<*\264\221\274.\227S<>:y<\301]\266\273\335\000!<\"J\231\274\321\335\002\275\254uo<\246\304\240\2744l~;\207\252\036\275\374a\343<\313\325\304\274\027\226\201\274\235N$=\020\310\004<[S*\275\373\216\205\274\020y\266\274:x\210\2748\357\266<\344\014r<e\311I\274\356}\202:\366}\365<\327\225\030\275\034\305)=4\256\313\274\365y\334\274\275F =\304\177\350\274N\001\375<z\\\002=\177\023\027\275Z=\265\274\345\177\006=x\031\021\274\313\354)=\020\373j<R\311\372<\253\323}<\347NH<ST\266;\254\325\307\274\277\215)=$\324\240;\022\346\377<\356q\036=E\366\027\273\352\266\017\275\226\234\001=\205\224\221<x\221&=\263a7;\260\013z\274\241TT<\0351\013=\242\033\361\274D\214\231\273`\371\377\274\220\014\203<\026H\350<@\016\035=\216}\246\273\3615\223<\000k!=\356\367<<*\320\037==\270\353<\374a\303<\260\016\322\274\322\323\2529^O\215<g\327\342\274c\324\354\274\314\361\003\274%#)\275\026\356S\274~\321\271\273\317\244#\273[\244\'\275\013]\357<p\350\347\273\311\363\t=\242@0;q\236\026\275&\034k\273\305R\221<s\307\351\273]\367\227\274fO\334\274#-\253\272+k\031<\000m\252\2747\236^\274\325\373$\273wl\273\274\236\247\232\273\027\315\230\273\221\007\026\275\'e(\274%=\230\274\001\251\366\274\'\n\247<La`<w\016*\275\023x\025\275\372\212\367\274\203O\301<\210\274\325\271\332`\334\274\266\025a\273\273\251\006;\345k\361\273\355\310t<\310\'\234\274\333\276\035\274%\336\223<\321\333\343\274\351*\343\274\260\373\256\274\344\267\361\274\001\271\021\274\330\243\007=\021Ag<N\307\237\274\340\315\222\274-\256\220\274\225\334V<\220=\311\274\224k\324<\373\273\272<\005)\033<\225\254\200\274q\256\003\274\004\035\306;\311\221\241\274\264\222\274\274\'\004\334<0\213u<\202\205\211;\3513\223\274\353Q\374<X\251\376\274\357&\333<7\265\257\274\345\2513<\327\217\020:1[\032\275\224\361\231<j\215\020\273{i\202\274\256\335b\273k\303\252\273/x\217;u7\320<\232\350\023;>\231\322\273\212\377\222<+\374g\274\255X\"=<\222\277\274\"I\036=\013@|<\320/-<WW\037\275\341O\266\274\261\254_<\334\250\270<\235\025\354:\n\374V\274\010\265\257;\373n\255\271\022To;Z\226\254\274u\010\274<\275h\313;\250\257\347;\021C\035\275\031\330\274<a\276Z\274^\306\274<r\013Q\274u\331\252<A\334\253\274\037\304\213\273\035@\244<\235J\267<\361\235\245:\024\363\246\274\344H\327\274\212\240\265\274;\202\212\274cTJ<~7 =AG\242\2742\030\236<PA\274\274\035\314\345<\367h\266\274\310\236\323;4\201\322<\366\003\027=\023\221\035=\267\321\374\274\350\2635;\\\225\033=\323\374\023;T\026\200\273\026~\035=\313\300\346<\262\000_\272t\t\030=\244[\t=\005g\216<C\342w<\305\315\033=\223\227\316\274e\010]\274\324\306@<\351\r2\274.\213\351\274\033;\250\271\241\236w<j|\256<d\024\376<e\323><\376YJ;\000\375<\274\214\223W<\244(\016<\253\277\t\274\004\334b<\311\360\366<\001\236)=\302c\260<\032$0\272\265/\010=u\375\t\275\326/%=\355-\025\275I\357\226<\343\342\004\275S\\\231;\244\027M\274\333\222\365\274m\256\006\275,\217+=HB(\275\205\036\276<\367X\021\275\nC\207<\230q\010=\350\037\333<.\346\331\274\356.\013=\035N\263\274\027\n\013\275\252\221\255\272\266o\371<\230\250S;\310\310\264\272\250\330\216<^\233\203\274\213\301\033\275\2253\255<\n\371\370<$\203z<Di\226\274_\235\327\273Z\326\026<\006t\316\274\336I!=\223\377(=p\"\217;\373@\264\272\2645\336\274\222s\021=\347\032\035\275-\205\344\274\357Cg\274\373\225\026;\013;\'=\034(\030\275\016k\001\275\273\347a<\306/\355<e&A\274;\312\223\274f&%=a\0072\272*\341\246\274\321P{<\334\006$=}\265)=Y\307\260\272\rF\360\274{\337\035\275\373\305(=\003R\032<\'\336\232\274\023\366\223\2746\235#=\357\267+=\375e\277\274\347\251\314\274\3056+\275\345\251\320<\023.E<\014\016Y\274f\352\377<\307Y\025\275/D,\275\016J\240\274\332\204\363:\207\350\225<\001\212\377<h\246\004<!Z\265\274H\225\377\274Np\236\274\373\361U\274J\366\364\274\371\020\332\273\nH\n=\310\023\226\274!\207\016=\270\\\031\274\353\302\311\274\"\t)\275^\3720\273\254\250)\275\027\t\020\275\301\355\320\274k\000\306\274\232p\252\273<\035\005=\270\323\001\2757\240\026\275\244\326\\;\217\326\230<;\265\000\275M\235+\275\243*\365<\312I2\274\227Q\010\275E\370\273<\243\366\267\274\320s\231<\317\214\013\275\225O\250\274.\333\271\274\377\275\010\275\023+7\274\"\243\232<\357\265\036\274\366D\247\2742\004\312\273\027\266y\274^\375X;\371\233\215\274\204\017\350\273\003W\250<H\363\260<\357\237O<1\013\275<\203]e\273\000\212\035\275\353:\263;\317\017\275\274\336\270\350\274\346\254\371\273\244\205\261\274\250\212\233\274\010\000\252\274\237y\216\274\036\253\013=\022~_\274n\312\346\274ZQ$\275S|\307\274\336\004\273<\022\2758\274\344\303\340\272\261v\236<\203\270\215<\317\273N<\275\256\360;w\005\021\273\216d\346\274\037\264\353\2743{%\27454\007\274\330\034\t\275\340u\357\273\350\254\312\273\200\007\225\274\267\356\036=C+\274:\323\200+=:\001\251;H>\333<\317\212\020<2\2514;\214\340\261<\315m\221\273\310\256!=\222\233#\275T@i\274\314\231\330<\222\000\346<\273!\300<@\242\231\273\347I\025=W\246\235;\277 #\275V\224\326\274\235-,=:\000E:\031A\313<\016\335M<^\220\313\274\271\2637<\nI\304<\324\010\246<ry/\274\343\225#<\3464I\273\261\312+\2752}\225\274\303]\031\275\022\210\277<\357\032!\275\323\300\277<\340<U;d\020\251\273\340$8\274\253|(=\213O\330<A \025=\377\002\020\275@.\001=\223\266\353<\3425\372\274\3735\374\274JA4\274\331S$\275X\237\237<-\266\225;\026\'\225\273\343\241\006\275\006mt<\270u\355\274\313\311\205:\215|A\274\037G\257;\347\350\260\273~\277\027\274\003\236\217<3\241\306\274\332@\236\274F\251v\274`P\346\273X\266\236\274JP\022\275e\021\314\274\313b\347\273:\021A<\350\332\257\274y\317\000=\250h\206<\332f\255\274?\010\206<\'n\262\274Z{\225<\240\322\362\273\033\274\016;\376\376\327<\317F\014=\376\300\355\273\003\326\261<\222\276\026=\276\237\032\2752\213\244\2742\0260\274\236\253\371\274\212X\001\275\001\217\266\2745\002 \275\363\324\021=(P\327<a\374\315\274\030\223Z<\310Z\323\274o\315\325;\037K\340<i\303\177\274bl\350<_{!=\357\317\222<\363\000%<dN\\\272\037\345\261<_]\024<\201k\271;\351\315\364<\337\225m;W\211\t=\025\315\277\274\352\337\'\274\247v\367;>\021*\275\277!\272;1\034\237\273\340+\363\274Z9(=\360*!=\276\276\027=\273u%<Z\r8<\254\002\022=B\304\"\274\305\336\320\274l\023\320\274^@\306\273\022k#<\310\334.<a\257\314\274\243_\027\275ye\371\274\000;n;\004\361\313<\343W2\273\237b\222\274\216\310\010\274\320\266\026\275A\205I\274\204\030\322\274\247X+\274TR\246:\233N \275\334/\021\275\267|\243;)h\213\271\204g\022=\267\362\027\275Q\306E\273\200\343\325<\010\335\212;\317Q \275\274\252\236\274\211\251\373\273\326\343 \275\001T\007\275\325\rR\274\017\352\317\274\336!\'=\217P\331;\305{X<\244Bn;\353\243k<\214\207\251\273=T\036=h#\031=ZB\201;\236\031\332<!\r\215\273\343\323\312<-\033\003=F\352t<&\034\023\275\032c\300<\341\316\373\274r\276\216;\253r\245\273\276\210\357<\361A%\275\370:\356;/\3739\274]b\360<S\362\026=@p\034\275\241U\r=\204\377\270\274s\276\306\274s\322+\275\246W\270\273\376\206\001\275\3458\347\271\234J\312<\237\232-\2732\237\t<\221\371\032\275#\'\027\275k{\3528\355\025\016<\215+\332:\324\341#\275\370\304\177<\210\006\277\273\024\250\203<\240Z\254\274\302\261\037=.\204\251<\"(\341<\0172\215<\203\242\242\274\240|\200\274t\'\254<\256\302\022<\312\256\017=\030\025\376\273MV\320\274\370\224\032\275\233B\222\272Cm\t\274+\353\350<\030\365\344\274\375A[<\277\271M\273A\n\036\275\343\371\201<Y(\020</\014!\273\214\310\222\274:\2276\274\234V:\274\237\347\006=\233\260\000=t\305\320\273~\360\013=\372!\204\274m\327\344:\242\361\224\274\005}\206\274I[\271:\310P\225;\177\316\247\274\225\031\010=V_\355\274ek\346<\354!Z\274\312BX<p\230\207<\3100\320\273e\350%=\271\017\263:\004\250\321;\001A\025\275>\000\313<rU\357<\343\355\035=!\037\212\274\224\264\205\272\211\354\241<.@\020<\204\351\275<\220\214\2779\352\234\022\275\303\332!\274\244\220\267<\013\"\231<\n\346!\275^\212\300:\'\316\014=\025;\372<f\223\014=\255!\350\274m\316\333<\201\216\233;,\035\261<\314\340\275\274\232B\275;\317\t\r\275\205.\333\274w\355\343<\017\230#=7\272t<\260\210\215\274\325r^\273\321\240.<\007\3402<\n\363\263<\016\026\263;\227$\025\275V\336\212<R\365w\274 X\362\271#O\315<\014Q\034\275<\230\233;=\320\250\273{\013#<\254l\n\275\342j\265\274\236w\363<\037\200\024\273h\204\335\274s\036\r=\345\222\'\275\363\355\001=Bn\311<\230\343\026\274\346\365\004=D\255\214\274\321G)=q\003\206\274h\275%\275\272\324\r=\235\217\n=\035\242\264<\"\374\331\274\374Y\021<\251\266\312<\262]\247\274\307=\236\274P\255\265<\023\025\020\274Dy%\275s\007/\274\005\222\335;\"q\217\273\313P\313\274w\\!;-7|;B\2003\274\275`\312<\207\221\233\273r\307\205\274\371\247\026\275\217R\306\273\361t\016=\356\271\371\274f>\013\275\010M\303<\232L.<\244\316f;u\304\263;@\204u\273\304J\030\274\360\227\t=\252\031\371:\334%\'=\2700.<n\232\372<=_\003\274\335\343\226<\253\255m<Ej\024\275$N\220<9[\024=\364LM\273\2634\325\274\273`\032<\350\313\032;+\257\341\274^\323\003\275\021\022\372<4-\271\274\351\213f<\032OY;[\263$=\212N\323\274\366\3275<{%g<[\357\326<\267\355\363<\001\255\206:\213/#\275L\234D<\225\277\357\273\325A\274<F\001\016<\225\036\236\274\305\310\355\274\305h)<\357\013\'\275Z\214\317\274\272b\001\275\215z\"=\272\262\005=i$\241<\341\203Z:\214z\016=\330\274\013\272W\264\272:\236\205Q\274\302\322\'<\0235\345;\004R\002\275\251\370\272\274R\215\371:N8\366<\252D\223<\207\320u\274\224W1\274\230\307\354\274\207zP;\002\213e<Z+\002\2757\320v;\260\316H\274,\206\300<\334`Y\274\242\224\351\274c\260\005\275\210\240\317<\346\336 =Sj\270< \223\004\275\315]\035\275\260\204\227\274\253\326F\274\335}\377\274RZ\026=u>\257<\004s\314\274\204\251\346<}\220\202<1\006\207<Oei\274\355u\000=\321\235\315\2743\332\322<\241\217\031\275\027\221\010;\353\276\034=\376\202%\275\202QJ<\324\351$=V\240\037\275;\360\352;\022?{;\\\256\224\274S\330\340<$\265\346\274\270\220)=\347l\'\272q\226\014\272\226E\202<\037*\353\274,;\017\275\344\360#:5\301]\2740\3306<\220\370\354\273\004\212\n\275\310\271\222\274\341@\303<u\027\036=\363\177\314<?\302\317<\367Ik\274\330,%\275\3537\002=K\271t\274\342\246c;\312\224\023\274\257C\356<K\375\263;:\336\211\274\211L\247\272,4M\274S\256\350<X\002\003:d\322\034\275K3(=\210\207\365\273RL\230<\307\350\215\274x\2466<o\331k\274\014x\256:\347n\347<\251\236\247<\310\374\256\273\274\211\010\275\357\033\270;\263\202\363\273\255\245\013\275\232N:<~{\001<\0352\025\275\030}\227<\214n(=!A\366<\030\221\210<\0019\335\274\275+*=i\260!\275\247% \2752l\322\274T\376\274\274F4 \275\007\007L\273\272\273\232<\034H\022<yq\'\275\221\037%\274\\JR<\000\213\210\274\245.&<\322l\344\273%\210\314<\202*k<fe\361\272(S\r\275\014f\033=\263e\222;\234\307\313\274#a+\275\010\010\236<\374\342\367<,m%\275\304\304X\274\315)n;\226\365\224<\301\025!\274J\301\034\274=W\201<\226\312\235< $!=x\003\267\2744!-<\266\023\267<#Z\360\273\252X\330<bT+=\222(\243<\333=\373<5\307:;\373\311$\275;F\364\271\272K\264:\027~\206<\337\024\216<\037\214\215<\007^\237<)\253\035\274^\022\021\275\256\246\230<\372d\031\275.\030\240<\327\370\"=\324\016\350;\376?\200<\345\342[9JP\371<\022\243\024\274U\245N\274\327hT\273\3161\023=\366\322\025\275~\204\236<\222\346W\274\034\202!=*\271\215\274`#\003;mT\364\273J2\374\274yQ\260\271$/\035=\325\027\027\274\020\372\003\274\336\017\276\274t\177\352<\0025\024=\351W\3619mw\232<\217\226\t\275gM\257;*F\275\274\374\270\214<S\362\031=^`q\274\204\016\324<9s\r=\264;\245<%3\002\275\377\377F\274\304&\037=\343\262\317\274w\342\"\275\370(x<\252\237\350;p\240\020=\340\373\035=N\211\277<\234\202\023\275\234-$=\214%\214\274\240uT<\003 D\274il\003\274\013\326\020\275\007Y\363<\321\330\007\275K>\036\275R_\023\274\003\207j<[\243\025\275\375\331\307\274Zd\001\273\341\223\034\275\330\024\014\274\356\317\342\274w,