node {
  name: "global_step/initial_value"
  op: "Const"
  attr {
    key: "dtype"
    value {
      type: DT_INT32
    }
  }
  attr {
    key: "value"
    value {
      tensor {
        dtype: DT_INT32
        tensor_shape {
        }
        int_val: 0
      }
    }
  }
}
node {
  name: "global_step"
  op: "Variable"
  attr {
    key: "container"
    value {
      s: ""
    }
  }
  attr {
    key: "dtype"
    value {
      type: DT_INT32
    }
  }
  attr {
    key: "shape"
    value {
      shape {
      }
    }
  }
  attr {
    key: "shared_name"
    value {
      s: ""
    }
  }
}
node {
  name: "global_step/Assign"
  op: "Assign"
  input: "global_step"
  input: "global_step/initial_value"
  attr {
    key: "T"
    value {
      type: DT_INT32
    }
  }
  attr {
    key: "use_locking"
    value {
      b: true
    }
  }
  attr {
    key: "validate_shape"
    value {
      b: true
    }
  }
}
node {
  name: "global_step/read"
  op: "Identity"
  input: "global_step"
  attr {
    key: "T"
    value {
      type: DT_INT32
    }
  }
}
node {
  name: "input"
  op: "Placeholder"
  attr {
    key: "dtype"
    value {
      type: DT_FLOAT
    }
  }
  attr {
    key: "shape"
    value {
      shape {
      }
    }
  }
}
node {
  name: "output"
  op: "Placeholder"
  attr {
    key: "dtype"
    value {
      type: DT_FLOAT
    }
  }
  attr {
    key: "shape"
    value {
      shape {
      }
    }
  }
}
node {
  name: "HistogramSummary/tag"
  op: "Const"
  attr {
    key: "dtype"
    value {
      type: DT_STRING
    }
  }
  attr {
    key: "value"
    value {
      tensor {
        dtype: DT_STRING
        tensor_shape {
        }
        string_val: "X"
      }
    }
  }
}
node {
  name: "HistogramSummary"
  op: "HistogramSummary"
  input: "HistogramSummary/tag"
  input: "input"
  attr {
    key: "T"
    value {
      type: DT_FLOAT
    }
  }
}
node {
  name: "HistogramSummary_1/tag"
  op: "Const"
  attr {
    key: "dtype"
    value {
      type: DT_STRING
    }
  }
  attr {
    key: "value"
    value {
      tensor {
        dtype: DT_STRING
        tensor_shape {
        }
        string_val: "y"
      }
    }
  }
}
node {
  name: "HistogramSummary_1"
  op: "HistogramSummary"
  input: "HistogramSummary_1/tag"
  input: "output"
  attr {
    key: "T"
    value {
      type: DT_FLOAT
    }
  }
}
node {
  name: "fully_connected/weights/Initializer/Const"
  op: "Const"
  attr {
    key: "dtype"
    value {
      type: DT_FLOAT
    }
  }
  attr {
    key: "value"
    value {
      tensor {
        dtype: DT_FLOAT
        tensor_shape {
          dim {
            size: 8
          }
          dim {
            size: 2200
          }
        }
        tensor_content: "W\230\022=\254B\212\274v\036\010=\341\225X<\363\316\200\274j4\262<\021\262\260\274\177\355.\275\371q\023=qtn\274\240\276\375\273\255\3115=\2279\310\274\320ZG\275B\317O=\241b\327<\251\217-\275\024\232o<0\262i\274\343\345\321<b\370\240\274\372\360\377<\351\334\354<\034\3278\275M0\352<\363\"\274\274\342\350(\275\360\230\364<\274e\373\274\262!\031=Dt\204<\222d\032\274\302\2026=\315E,\275\271\301\267\274\331\267G;\235\305\007\274\326\305 \275e\202\346<\274\371R\275\361\244\201<\247\' =F-\010<\002\264\363;\324\017\034=\373z?\275\252\2621=Kk\t=\254\020C=x\3179=nJ\311<H\264,\274\335Y\001=\364\014~<(O\217\274\233cJ=\220\007\311:\3010/=\271\212\026=\002\026}\273hj!=\354\357\001\275O\327\'=$\230\223<`\205\t\275ox\217;\336$\325<\323g\214\274\344\267\227<,\306\365\274\005\271\010=O\3379=R\305\231;\354\206\334\273\177J\210\274\013rE\273t\254\031\275Z\3524=\213\347\031;\006~\023\275*\001\371\273\351\257\'=]\221\014\275fx\271;\020%\374<r\350\347\272\031@\254<\212&\267<\253\374\246;r\246\371\273\244\243\350<\340\351\033\275\366fL\275\323\233&\275\2165\265\274\303\030R\2756\312u<\246\"-\2759zC=\271\351\t=%3\344\274\220\'\300<\322\253-=\206\256\r=\360\225;\275@^\022\275dv\342:7\225\222;\000\261H=f3\275<<\302\033\274\233\222\202\274\272c\r:\3126\201\274\234\221\336\274Ah\216\274$`\333;Dy\026=\247\370\317<\254#\335\274\361v\223\274\376\2315=0\276\212:\362f`<t\010C\275\275z\222;\237\222\373\274\031\014S=\275\211\341;\227\343\310\273\204\331p;j\352\'=\251\231\007<\271\370\021=IZ>;\341Z8\275\017B\247\274\27126=[\3412=K\205\326<P\017Q\275\3602\260<\356\317\215\274vD\n<\202@\020\275\260\307\346\2746\376\357\274KK<\2751N\021\275\374\304\225<\347V\300<\334\t9<\210\334!\275\334p\223\272(M\240;\230\017 \275\323\321\221;\327n9<\223\014Z<r\243\372<\363\344\026=\303\370\022<\337\222\005\274ZL\376;iH\010\274\210\363;=S r9\030\232D=R3%=A\347\035=/\211\'\275\014\310\037\2756k\204<C\031\013\275\003\371S\275k\235{\274\353*\275<\360\347\354\274 \225\024=\313IU=K\317$=\373)2\275d\030$\274\245\264\310\274\312\321\337<Uh\222\273\335X\317<\244\251\213;\377j\267\272\272\356\033\275Y\242\317;\033\247\225<\273\207(=\320\000\333\274`\257\365\273\365\3043=Z\3744=\3004\232;IM(;\024\020\301\274K\334\370\274\021\235\003<\201\252\301<\003\343\007\275\355\033\347\274\005\254g<*\311\007\273\206\220\331<`\377\247<\177>\224\2747P\301\274L\356\256\272\237,;=\227U\255<}\024\245\274\241\367\337;\217\275\366\273JT\310;\204\310)\273\213\367\276<d\005\2348^S\010\275TD\214<l\240\321<\252\217h;23\247\274\346\241\302<\031`\"\275Hp1=\200\365\t<Z8\342<x\031\223<\326\306\256:\365>\225;\247g5=\247\003\213;\256\354\203\273T$\001=\353\240\017=\347\350\016=\205\222g\274\330w\003\2755A\320\274\003\342\016=$\212\003\275b\022\321\274:\t(\275\035I\275\274\332\270\021\274jP-=~\3560=e\366);\315\026p\274K\365&\275\211\237\007\274\030\317\"=\037\365\004\275^\365\373\274\332\246\036=W\245;\275D\375R\275\242cH=\275I#=wH\265\274\3122@\275\352\204\271\273\025\3427\274v\345\246\274\200~\361;{b5\275\007\331><K1\336<\257CO=.\244\355\274)\323\215\274M\r?<\311\335\024\275\r-\021<\306\030\007=\260\221\315\273=\033*=T\250\027\275\354\260\313;x`\336<W\244\305\274Hg\343;\350\267#\275\203\024.\274pj\373\273\027\340K\274\3466\313\274/2\007\275}\321\026<\346\377\007=~\245\022=I\205\247\274Y\274\036\275|\rA\273^\326B=Ts\361:\221\3153\275\021\rV\274\032\375\203\273P\371.=U\261\002\275\206\341\262<!\271\310<\311{\244\274[\2546\275v+(\274\025j\307\274\252\315w\274\304\\\026\275\233#\005=\317U\341<\337\250\324\274\027\247(\275I\235\332:\376\251\367\274*<\324;\373\321\342\274?\205\235:\223\213H\274wnZ<\276\310@\275A\253(\275\252A\352\274\361\215\344<\2026\026\273)\377\261\274(\177J;\322\331\271\274\370\221\023=>\276\354\274J\373n\273\362\344\356\273\253\317*=\364\211\024:\254-\023=\001:\027=Z\000\306;\253\340\016=\370\032<<V\337I=\nF\207<d\204\356<\177m?\273I\\\301<\222\332\033\275m\t\201\273%\243\010\275\254\270t<\273@A\275\272M6;csc<h7\203\274\277\363$\275\276\215X\273\237~M\274\201x\241\274\250\020\331\274\320zq\274\317J\272\272\250O\366<\030\320\020\274uZ,\275{\3424\275\336\214\324\274\023OG\275\277\032\034=\006\010\214\274k\030\017<\343n\261\274\000a\215<\016\307w\273j:\016\275_\002\317<\202\241\223<;*\212<\343\331\031=,\376$\275F\200\331<?\367\016=q\2304\275m\334\036\275\322a\367<\307\341Z\274\212-%=\025\313S\275\006\342\357<\242:2=VP\027\275v3~\274\204w\320<\373\357A\275\252M\375\272\207\214\366;nRO<\361e\276<\244\366J=*t\275\273\353\005!<7j\027< \327\202\274\303\323\360\274\251B\203\274\3314\311<\207i\374\274\361\225\037\275\030\021d<\272\351\036=X\334E=\r\361n\274+\007\345\274\373\235r<G\305L;\202\267\273<I\274\261<)+ <\342\215\210<\203\242j<\250\265\003\2759\002\252:\3331s<\272A\245\273d\273 \275\325>\t\275\337y\002=\357/\007\2751\2755\275\214\200\"=K\252\255\274\373\264\266<i\036\n<\350\251#=\326W\343\274:zP\275\016b\234\274]B\006=\236H$\274\213{\363\273\334kI\275L\266\331\274\346\246\002<%\334\221\273\255\2634=\213\374\216<;5{<$\036\236;\343-\275<\356\334*;\014\016\001=\245\255N\275\276\3311=\357\211?\274f\255\303<$#3=\244\357\034\275\357\033F=\225\216\354<J\215M\275\374>\t\275;\3242\274\251,\231:.r\017=\345\376:\275Xo3\275\210,2\275\231\\\241<(\221\343<F;\263\274\343|\003\275\252\332\321<\033\277\367\273\356\225\245\274\006\0078\275\235J\024=>jO:\337\215\007\275j\3677\275\2209\237<\235tN=-\346\025\275\251\002N==\347\220<(+\334<\232\2552\275\363\355\\\273$\271%=\3431\003=-\254D\274(\022\353\274\nW$\275\216_.=\233\207 =\272DV\273\233HF\275~v\236\274\006\017\313:\217\220\275\274\233\036\333\274h\322\260<\023|\312<\233\220O\275\366cO\275x\013\270\274\002w\031\275T\301!<\234\002\'=\273\247_\274\026n1\275\257e#=\031qG\275\345\365\255<3\252\352<\'\010\215\274\377\214:\275\340\026(=5H\245\274$\222f<\213\313\365\273+\245\357\274\"\264\215\273\212\334A\274\224\326\330<\376\272 \274\215\373m<\321VA=@\025&\274\305\231L\275Ci4\275\177\310\302<\t\334G=\345\341K:\033\243\332:\006;\302<o\004\035:\366p\341<x\017\031;O\311O;\261\003\257<\350\322\303<\nl\000\275r,I\275\005s_< \247\241\274\344=\025\275\266=\207<\3127\337<2n\231<\314O\035\275\021\203\214\274\217K2=\'I:\275\267\005\255\274\230\307i;\343@\325\274&\306F=*\006\013\275\004?3\274Q4\306<tt2\274\233\025\017=su\t\275\365\036\25496\036\320<\034\264\215<Q\326\316\272{X\206<\314\025L=b\231\363\274D\343\357</\373\251\274\371\014\217<\305xG\274\251f\352\272V\003E=d:$\275\350\327\n=\037\215\033;]\207\361\274elJ=\001\376\320\271\270\240\246\273V\247\037=\306\231\033=\005\351X<\225:\351<8\004\373<B\205\277;E\227\353<\261\366B=\213\003\267\274\333\036\007=\212@\302\274bI5\274\274\377\272\273\323\203\036\275h\333\014=x\202>\275\201\245\356\274|\333!=!\004\302<\253\210Y\274\237\007S=(\366\201<\303\360\345\273o\222\006=\"\016\023=*\304\021\275\325\016\234<\357H\352\274\241\265\222<\347l\374<_\322A\275\266y\003\275\312q\344;\314\035\304<_\304$\275l\036\010=Q\341\014\275S\004 \273\377\n\310:\221\244\006=\240\3449\275(\332\235<Sv+=?\034L=\366\333R;@\363\322;\341\005\277<Ve9\275\241\340\341\274\2577\231\273\005\222\331;n\341S=\017$(=\251\035\003\275h\t\300<t\327\025\275 \252Q<\366v==\3726(\275t\366j\274\210\217\000\274\316D\375\274\245\277T;H\037\034\274\213\333P=\373\2004\275\217k\324\274&1T\275\333M\023=\020\004\232\274\357\266\025\275QY=<\220\311F=\025\226\006<\226UE<d\221\224\274\0175A=d\215O\275\243I\337<c\t\337\274\001WD\275\334\031x:\2549\206\267 j\335<\277\307==D\251/\275G\376\005\275v(\021\275Qi4=\266M\337;]\210\036=\303*\006\275Mz\233\273\302\022\030\274{\362o<i`\032\275gy\030=\005\231\346;\274\2068=+\325\352\274\214\241/\275D\346\376<\302\307;<\230\313\315<\006\212+\274=\206#\275<\032\024=\312\353R=\240%/=\205sO=\201\013\221\274\262\206\202<\007}\005=#\3320\274\210\215\\\273\3121\332<J\246\321\274;v\226\274h&\323\274\301\017U\275\355\004>\275\346\337\312<\030\253\\;El%:r-7\274\334UO\275\323^/=\254,\225;\331\276s\272]\323:=u\210\302;\304\270\374\274c\251\014\275\034\030\305\274ezM\274\231$\001\275\265\361&=\311_\010=\334\364=\275,l\n;~PG=Z\243:=\255G\323\274I0%=#\2671=5\320\326<\037|\341\274\022\3107\275\275\275\340\273B\2578\274s)\302<\0255\300;|UP\274\"]2\275\233&\232;LL$;\343Q\344\274\362\027\017=\014\325\251<\2427\032\275a\020>=\203XN=\350\204m<\2568G\275=\206=\275\204\031\025\274l\324\010<\'H\004\275\342\232P=\251\034.\274\371\305\305\274\377\016S=\202Lt<\212a9<\253\013\027\275)c<\275\\\220\270\274\013\244?\274b\262#\273\276\177\207\273\036H\343\274\334\260\000\272\364?\n=\346Q#=8!\237\272\010\2651\274|\364L\274\250\3761\275a1\364<\365F\014=4p*\274\272\275\023\274\222W\260\274\270/-=\301mw\274\344\260\276\274\030\010G=\215\207\251;|\210\203:\301\027\001\275\007\204\027=\233 \240\274\213\024K=\305o\027\272#P\032=\030\273\033=\330\363/\273\"\302\016\275\265\253`;\202w\375\274\032c\233<\367\006\367\272\2421U=\230\247$\275\275\\\201\274W\314\212\274w\267\302; a4\274\027;\214<\2635h<\0164\373\274\335H\212<\224H\363<M\2736\274\010\310\342\274\033\3031=\232n\221\274\235(/<\327\364\237\274Qp\'\275\3426,=!\001\237<A\224D\275B\324\270<\201\351\373<\017\313M<\367+N\275#\200\211<l\271-\275\001\260x<\256q\237<\204\334\240:\t\375\257\274D\245\030=E3\375;\252\026\027<\037\0276=\257!\022<\202\350\001=\252,\304\274\202K\230\2735\032\226\274\001Oj\274\210\336\243<\270\033!\275p\301\036\275\"#\373<\344u\353;\002F\321\270\210\237\026\275\216^*\275\226\235\027<\'\377\357<\207KC=\013\347J=\215\252\264\272i\010\314\274\300\237\330;A\251\367\274R\037\002\274\035\361*\275\376?\227\274\276\317\001\274\223\030\224;\231\302\347\274\2306B\2749\320$\274\"J\016\275\223\306\022\275\376U9\275xzJ\275Kf/\274\312\3543<,^<=4\005\300\274\220\004k<\014\200\036\275\274\'\341\274\274\346\020;\374\025\t=\"\313\222<\255\343\260<GW\376;\237\001\n<\326\324\376\274\312\352\354\273\326q\314;\341m=\274\200\264,\274\320X4=\325\234\357<\023\313j;\200\t\222<\206u\027\275\3359\177\273M\227\n\275\2175\343\274\334\334\325\274z{B\275\177\212\031\274\277\275 \275<\007\023=\027\250\024=\257\267*=\316z8\275\215;\273\274\335*(\275\2007\026\275\315\031\324;\023qE\274\315\225<\2742b\344\274\355/\034\2758oS\2752\344\355\274G\340\005\275K,_\274\300u\025\275\306E8=nA\300\274\371\335\023\274I\220\305<;\220T<\007\241\354\273\177\240\367\274\260\021$=\206\2509;\344\212J=\037bM\274\241)\237<\005\320\\\274\254\034H\274\003w\003\275\337\201%=\265z*<[:\021=Up`<&g\261\274\024\333D\275\355\3562\275G\234T=\337\030$=\377\357D<\244\251\276<,\314&\275\366\264K\275\270\261\311\274\206\307;\274+WC\27548\377<\371|P=h\340>=\203\357/=\345Q|\272\3543\344\274\376B\231\273\331\212\004=f\223\307<2UH\274\004\271\224<\260\026\240\274}\205\327<l\227\n=2\005R<4\236\007=\217\213!\274\256\231\203<q\370\013\275s\313\365<\310\352\235\274H}\030\275\214Z*\275\230\307?\275\005\254\320\274\200\276\341\273\311\354\004\273\351s\027=\014\322\233<s\035>\275\362\034\377<@\305P=2\303\022\273\324\331S<\272\221K\275\200\265{;%TN<\225\313\003=2\203A\275\331\352*=2\\\336\273\202\377\250\273\2518\334<)6\320;/\254\262<:\211L=\003\313\021=iK\325\274;\367L=\353E\263\274\220\005)\274\212\036\320;\270\2253=y\0143\275\342@+:\232\177\307<[[\007;\016\024\006=P\333O\275\377\004G\275_l\375;\n\306\007\274\245\353\032\274j\322\006\275\306*\210;\033\033\333<\247N\250\274EuD<\027\251[<\261\320&\275B\353\373<\200_7\275\227\352\202;\257\271\023=\302\364\240\274K\303t\274\033D\373\273\306K@=\022\303\365<\220^+\275q\242\001=(t3<N|?\275\032)\275\274\227#3;\277\374U\274\3139\205\274\213M&\275:I\316<g\2566\272y\013\255<M\025h\274M\t\376<\033\025\004:\344,#\275\322\233\032\2752\243A=[\313!=\332nQ\275\215F!\275\232\213z<\325\345\021=\004\213-=b\212\037\275\300\252<<\255K\n=\234Y \275\330\024\347\274,\372\342<t\346,\275\252x\272\272\240<O\274\276`\350<\300\313\363\274\222\004y\273\300\344b\273\366\260\320;-\265\354<o\234\274<\230P1\275\202\\\363\274\374\243L<\'\3570\2750\003O<\353\342\n\2750O\367\274\331\275\234<\020N\003\275\307\221\273<.\334\037=|j\025\275N\310E\274\213gf\273p\271:=vS\302\274B\257\003=_\007\025<\251\0376\274\234\260\271<\200\305\217<,2L\275r\313\016\275^t(;\332\013\r\275\314VS\273\356\203\013\275$5\037;\372\215\026\273\357n\320\274\r\341\021\275\3075\311\273J54<`\340\226<a\371\275\274\271BS\275n\265\345;\342?\337<!\003\203\274U\207\031=\270\273+\274\212*!\2750\3008\275V9\255<\t\247\034<\036\3038=U\276(<%\267\262<\227\022\344<R]\304\274\332\032\361<cw\347<\177\203\246\274\241\301=\275\000k\242<\032\304\030=\007h\036\275qi\r\274\212\301\356;\253\313\356\274\250\0275<`l\033\275\243y3=\t\271\211<[\261C\274\033\272\310\273\034\343\352\273\351,F\275<\335\372\273j\362\337<\300\215\324\273\320\263J\275\000T\323<\334@\331\2732\207\215<\265$\302;\304\357:;8^\024\275\026w\230\274\371>T=$\376\r;\332\037+\275\257\362\023=z\3062=)\374\200<\2466\274\274=/J=\355\r\243;\237\316L=3\241\351\274\320\231\r=\353\362I\274\326\227\351\273\376~R\275{\2004\275!\'\234\270\023\202\274\274&\211\372<\350RB=P\213\255<\344a)\274Em\035\275\370\'\006\275\nkC\275g\374\216<\023\305\\\274&:\363\274\270\362\324\274\363\332\210\274Bp!\275\342\2233=\362\321o\274U\322\372\274\357s\006=\315Mg\274B& \275\371\226~\274\354\315#\275\276\236\333\274a\340\304<\341\372\255<\304\356F=\213\343\'\272\026\3444<`=\023<\235\357\311<tv\021\275\270\370\023=\334\r\007=\355=\027\273\221\272\017\275E\237\327\274%&\036=\345O\355\274J\300\004=EFP<\347V6\272z[*=\221\005\032\275r\366I\274\020\257\027\274\202\2207\273U\026D=\363\233\317\274do\210;!^\001\275\'n\225;\275\313\224\274\343\377\310\274\377\006\316<\366\210E\275\232\273:=)Vp;~\270\275\272\265\217\377\274}\253\236;\312\205\376<nD\371<\301ng\273\266\330\336\274c\205\023\275U\316\342\273\354\324i\274\257\302S\275\214\021\213<\203\020\311<]\254R=C\233\033=\245\033J=\241\371\313<\301j\001\275\242\335T=< D=1\035\353<\345\277\026<h\231\223<N\354\371;\032\311X;\255\364{\2733\257\260<\275\316\"=\230\032\315<V\237S=\215c\331\273lfD\275\325p%=\2022\252\274\360\302S=\221&&\2755\331\272<\245F#\274\235\\\261\272@\211\016=\203\004\022\275\332=\345<\2241\315\273D\001\374<T\254\267\274S\037\253<\'{/;\222\215\007=G\242\022;\310Q\261\274\006$\212\274\000\330\245\274\266\373\321<\274\2569\275\277\346\347<\260\361?;&\205<=\220 T=\300\327/\275\007\014 <\013\272Q=\022\266\376\274hS?\275#c\277<\362zl<\236h\332<7\333\017\275\341[\256:\307~ =\237\020\362;\223\260F=\306\013\223\274\337\013\245\274FRP\275\251\364\377;hQQ\275\017\356)<\372\002\211\274\373\324C\275\035[!=\324\031c\274C\2345=\220\202U=\"\364@;WFA\275\210\364\245<q\366\226<\376\r\244<?\373\006<2\365R=J\200\240\274\231\0068\275\007O\211<\316\014\265<\246\005\035\274\350\204\002=\364\265\017\275s\205;\275\221\303n<8\345\202<Z\357\361\274\345\262K\275\357\212R=\210\236\"=nv:\275\350\204==l\255P=\236I?=\034\333\230<`\345O=\373U1=\310\322\223:\246\357L=#M\206\273\021\233\321<\177\256\203\274\314\010\352;\324S\002\274\005GQ\275#]?\275\251m\203\274^\330+=\032\007\277\274\30784\274\317\0051\275\332@\3328\262\026\r=\2703\214<\365\254\233<F\003\272\273L\364\315\274$\3445\275}w\222:\252>\033=\026\010\033\274Q~[\274D\233\2609\321\025\014=\\\212\335;\375\300K=\\{\'=\020@M\275\3737\226<A\213\322<\305\314\212<|&\304\274L\362\026\275D\360H=\032\035:\275\355\034\231<\236\253p<\336\3032\275\276x#=\273\024\231<\275a\242<\371\201\210\274\353\241\010\275\014\200V<\032\177\357\274\336\327\270<\344\373-\275\312\242\252\273\207{\333:L\302{\274\257t\000\275\307\315\'\275\343E\363<\027(\t\274\024#\306\273\010\t+\274\221\005\031<l\026\374\274@\353C<\322}\351<e\316\307<\314Z\367<\256@\325\274=\221\242\274\006~>\275\nn:\275n\301-\275[\354\345<)i>=\277\374\032=c<A\275QrP\275Qq\232<0\004U<\236\2021\275\357\034I\273G*\223<\305\3318=%t\322:\350PO\275\3515\251<\231s\020=\307B\306\274\273A\204\274U\r\250;\014\027\205\274\017\222)<)\371\037=\361\243\000\275XP\216<Ap\250<\rcW:\261X\r\275|\201/\275y@F<\217\200\376\274F\037\027\275T\\s\274\203\007\000=\355\007\370\274\377l\302\274\262d8=[\215 \274zLO=\265_U\274\306\002\220;\372T)\275\037v\224\274\267\245r\274\347?p<r\321\231<\360a\347\273\320\212\016\275\023n\343\274ng&\275S\202V\274W,e<(\004\206\274\245\317J\275\261\315n\274m\202-\275>H\001;&\367\307\274?\313\370\274\341\366\244;\332;\322</E\305\274\361\365\234<\260\371\325<8\237Q<R\211\"=\304u\204\274\005\022@<\037r\231;E\257\024=)\000\004<\332\307\302\273\006\226.\274s\246\325<\202\231(\275\003=\356\273~\312\003\275}\005\256\2731 >;\321\021\010\275\306|\250\274:\371\271\274\345\002;\275fI2\275U&\033\275\201\260\342<[\336\231\273a\213\225<\220E\370<*\326N=\202\0269=\024\236)\275\303W<\274A\226,<H\002\352<\3341\327\274\243\320\254<\336\256\205\274\213]\000\275g@\356<\n\177i<\240I$<\324\357\232<\201\302\327\272\210\327\225<\024\200)\275\nE6=f\262\240\274\223--=\366\315B=\310\213\014\275\247\0368\275\234\314\277<fD/\274\243\037\321\2744\370`<\332\3563=y&\031=\2476\273\274b<0<\375<a\274\311\345\240<\365X)\273\036#N\275\261\365$=X\365\033\275\365e|<\016\n\360;\'\320C\275L\025\226;\363\234\'=\336A:\275\315\212\211\274\314\001\177:$\320f\274@\3415\2750-k\273\340\010\327<\316!\365\274\255\202\372<\330!\250<\276\317{\274\274\267\027=}r\023\275Y\016\346<0\322\315\274\266\367>=y\3734=rv\036\275\t\026\244\274\212[Q\275\017%4=\\\004K\2750\032\021=#\333P;p\",\275\271\222\032=\276\013\210\274\'\321\032\274e\274L\274k\022Q\275M*\271<\314\347^\2732N\343;J%J\275i\324\t\275LM\352<\243&\221<\224\231n\274\2533\010=\331\020\315\273\316\373Z<\272\274s<\353\370\013<\267B\013:\212\030\320;\365\':=:\322\337\274`|1=c\021\023=@J&=\332\232,;\245\3719\275\334\230\262<\266\3154=\245u\213\274\274G\340<\366\326\217:~\0045<?]b<\005>\'<J\005\005\274+z3\275\274n\265\274\375+\014=vT4=\346F\007\274\177\346\263<~\"\034\275\002\245E=\341\331\226\263\320\330H\275\002\t,=V\013\n\275\010\014\230\273\t\232\335\274\373\014\001\275@<1\2755$\222\274nx\021=\350\371\010\275\3547\331;\022\264\361\274ee\331<yo#\275ju\311;R\210\000\275\264\225\035\275s\034\020=.\221]\274\306\033\t=\2451y\2749H\213<\205\0355<\217\204\033\275\030\224\336</\313\312\274pg\023=\\_\351\274-\032\260;\242\353\216<\257\242\252;\257\020R=)\360B=8\006\t=\005\230\353\273\206x\004<\2056\220\274\013\272/\275\351\354\017= \272E\275\037\242\246<M\271*\275>~\336<q\203\245\274an\212<\250\333\023\274\252\354\342\274\025W\035=S\335!\275L\025\324\274\376\340S=\207tM\274V\035\013=\274oC<\303\213\233<\267\025\370\274E\275N=\352\342x\273}\010/=\314\352M=\257s<\275\217\351\023<N\200\027<\316\'y<\277\343\337\274\014\243E\274\247y\322<I\020\245\274[\002\014<\352{\r<\231\260\374<\021\320\215\274\210\0170\275\223\216\035=\223\206?\275\0368<<\342\325\022<\371`\260\274\244\210?\274\233&\243\273b\032\302\272w\374\252\274t\205,\274\221n\230\274\261k\003<\266C\023\275 \351@\275\362\3369\275\276\202\255\273\020\t4\275\'<\275\273Zu\352;\017\340\331\273\2146\027\275\300\316\254;FrP=\307p\332<\026\322\354\273\021\307%\275\205c\006=\373\354\001\273\3059U=V\0271\272\225\356\342:\263\221\\<\263\356\227\273S3\342\274\031\235\016=\377\331Z\274\310&\350\273\356\317\326\274\306l\252<\217\304\000\275/\351\206<C\t\033=f\342\245;<R*\275\251\252\312<@\243\006\275\'\030\235<v:\333<\031\376\357;\333\313\277\273\276/\254<jd\261\274W \344\274|\333\222\274\216\010U=B\242&=\363\372\202<Y\200\255<$\230D=n\262\326<\324\275\253\274]\336\016\273\205\3703=\276\3041=\022\335\211\274R\276L\275\274d\246<\357R\n<\357\202\306\273SG;\274#!\371<_\212\251<\224\267\243\274\376\316\335<\371$-=\260\245L=\343f\367\274\240@C=\017\322\"=B*\014<\205|;=\346{\321\274\316V\216;\336\256\'\275Qr\033\273lN\305<\014\262L\275\340\244\024\275b\224\254<M\010\202\272\326\341E\275\022z\024=\233\272@\275]g\241<9\3454\275\374\215\275<S\202F\2753C\221\273 W\003=m\377\033=z\220r\274&\rI\275\261/)\275K7#\274\026\326\352\274\304\200\236\273\324\034\030=B~\343<\221uU=#/\036=U_\344\274\205\3367\274\031\346\"=\302\207z\274\246\003U=\233\207\346\274\3236\233\274\203\264M=\355\332t\274x\217\367<\255j\223\274\255AH=\272tO\275\207\250\370\274A\334\005=\345lP=Q$!<G\345\203\273D\324\306\274\320\321\002<\351\230\304\274RH\035=\312\0013=\350\341\215:\220g9\273@Yb\272t\227\"\275A]\027=y[\231\274V\r\"=\275\3471\275{h0=\301\217!=\237\244\033\275Y&\035\275p\327D=\301\000o\274n\265T=\'J\310\274j\255&\275\341\305K<N\274M\2753%@<\213\207\316<g;\001=\220VK\275\3557\307:@\341\315\274\014\217l\272\237\355\275<\316qK=\'/Z\274Z\031\n=\373\220\240\273\354\027\304\273\3150P<{\303\342\274P\240\265\274\330\037\031\275$$\332\273\345\267$\275\315H+<A\246<=\350\355\337\274\245\355&=#\313\371\273\203\356.\274\020\\\344<\314\217\260<\255+\201<\004\024\251\274n\343\303\274\376N\023\275/ 3\275n\302\260<\306\322\231\274b\2312=\030(}<N\030\353\274\306\314\254\274\273\233d\274\315\367B=\241\266:\275\216\0105\273\334\234\375<\0335+\275\342\374R=\265\224;<\225cD<*u/=\264\312\026=\2627\003<U\335\257<\240\227G\275\302\360\250<m\243\251<oV\363;\205\032.<\366\376&\275\203\336\254;\313\307*\274(\365\354\273B\373\232;\305X;\275\331\313\002\275hX\356\274h\007\334\274c\320\376<\256\226\212;\377w\200:\226\321$=\017\371\320\274\262\257e<g\2660\275\311\005\024=)\377\370<\363\032\211\274\013z\215<z\230L\275;\317e\272q\315#<p\371\362<\207)l\273\247\013<=>\263\262\274~\020\372\274~{\030\275\177.\272\274J\353\300\274\313\243(\275\036\032\376<\305\336\000=\267\243/\275F=\254;E0\335\273\003\021\362<\321X\031<\002\035\007\274\273\271\017=I\024<=\004O\000=\225\221*=\312\234\r<\022w\222\274\212\222\017\275\237\232\n\275\360U*\275<\354\035=d7\213<\323\356\005\275\305\252.=\211\374\320\274O\355\004\275`0`\273u\333E\275\301\2077\275\315\312\240\274\365\276><JcQ\2754\033\263\274\312~\220;\365\334G<\033\350\214<\301&\240\273-\363\006<\n\261+\275\271o\023=\251\366\023\275B\331\'\275\232.9;\336\200\365\274s^H\275\013v\034\275\272\364\205\274\242\375\214\274\264\331\356\274TM\024<\252\270.\2715\255\372\274\007>J\274\t\266\325\274\014\355\201\274 \223I\274\025\013M\273_\325\262\274~U?=\205jS\275\234\371\000=\177\204/\275\371\"\000=\364\201>=\013A\257\274\223\376\306\274\344\177&=\327\007\370\273\337\225\323\274-\376 =\256\017;\275\314!%=\364X\034\2752g\376\274\364\367\263<\347\200\216<u\223g<\240|\211:\267\261\022\275\220H\312<\361\347\031<zK\312\274R\020I\275\277)\003\275=\345\223\274\216\202\370;\324\340*\275.\265,==(\031=\211m2\275V%/\2758\267W;=\353\r=\221\252\013<\356G\022\275\333\333\003\275:]]<H\244\242<\325\221<\275\311$\002\274\304\023\036\273:\034<\275\371\233\020=\271\324\032=\322\367S<wO\032=bo\020=\240a\032\275\260\004;=|3\272;\242\250$<\323\305\t\275\010\030\t\275`\276-\275L\321.=^\241%\273\305\006\013\273(\240\241<\377\2250\275\222~\013<\357\312\351<\216\003\033<\024\214\225<\200\342\314<\204\021Q=\332\000\034\275\314\373O\275b\253\002\274:_\320\273\364\202\312<\013GG\273\003\177\201\274\3541E<p^\315\273)\245\016=\306Z\362\274H\017\316;\017J-\274\343\375\025=\322F\251<\203\274D=\2554\030\275\350H\277<\364\360\261\273m\364\207\273\357\322\234<;\254\032=l\336\212\274E{\021\274\217V\222<\360\202\231<\246\335%\275V\300\023;\027\300\255\274Q\253D\275_\004s<b\211\300<\311\231 \274\307\343E\275\362\t \275y\273W;\321\254r\274>\010\344\273M6\031\275r\363:=\253\026+\274q\372#\275\323\276\r<\n\200y\274\014\253B=u\204\336\274\323\300R\275u\017\311;\272 \r\275\301\261\251\273\204\267\242< \240\314\274\364\2638\275\343\306D\275\344\006\002\275\227\207\355\273\023\2653=[\204\3148xc\275\274B\177\226\2741\236\017\274#\244\321<-Z.=\344}\327;7za<\350i\327\274\201\3209;\267\225\007;\234\023\260<\251\010\357\274\236i\267<\267\\\023\275\350R<\275\010\333\025=\241,.\275\360\220%\275 N\010=\r\211\217\274\216\324\304<\371\274\301<Fjs\271f\214\323<\n\006w\274\361h*\275\361\3776\275\230v\014\275\020\234\246\274\275\255l<\312\357\031\275G\263\354;\025\177\233<\322\211\025\275\273\344-<=:\255;\004S\307\274\341\026?\275\222}\006=R\250\350<q`\267\274\246\267\006=)4~\274\214\207\221:\225u\242\274J\225#\274\347\330\353\274\337_\351\274\3138\331<\221\204\257\273w\003d\274T_M\275\272B<\275\036e\030\275B%$\273\354[\235;Uc8<\006\023\327;G\0031=\365\253Z\274V\327\013=\033P\326<.:5=e\315\245<`\3129=\236\276\326;\013\330\214<B\247H\275\313*\300\273\023\304\321;\340\307\223\274G\030\025\275\216x\300<\374YP=Az\'\275\331\306F=\337\300\356<\301\2560=\336\013\001=9\245\204<\022\247s<KD\010\275F\211\020=*E\030<\224r\001\275\327%\360<\203\217%\273\343\270=\274Z\325\272<\036qR\275U\266\355\274L\376M\275\3537\361\273\326\345\r=\224\366\016=\273FI<\004\201@=\002\007\n\274\326\020\234\274\023\313\002\275\323i\271;\3636\267<\017\033G=W\372\242\273\343\246\255\274\310\376\205\274\rI0=\263j\031\275\342\222W\274\312\326\005\274\215\027\314\273\360\242\211\274#\232\307\274\023 \327;\314\214\215\272[f=<\231-\324\274,\365\037=u\205\342<&\t\374;\330\237\216\270\216\253\246:j&\031\275:\337\000\275\233\346\350\2744\301\030<\272\251\r\273\335\272@=r\354 \275Z5\022\275\324\363\311\274.\263\267\273\270P\023<|\274\001=\215\355\025\275\001G\354<QC\370<\224\0213\275\223;#=\227\316$\275\372\210\232\273r@#;h\307\316<\3030\007\275\262\001\007=]E==\036qJ=\307=>\275T;\020\275\202\213 <[\244F\275\025\2020\275\003\225\205<N\020)=\313G+8\201 n<d5\367\274\013~\272\274\257\347+<\277\034\211\274\201\031\031\275=\241A\273\276\317\001;M\360\360<U_\251\274{@\021:u\375\267<d\243\"\275\344\370\352\274l\341\034=\252\374\312<\2626\240;\216\240\017\274\366\240\035=\243R\027=\350\256\242<\365\356><\232\004c;1\177;=oz\035<\315\242]\274\277\337\021=\237^\003<\236\303.=Ock\274_\253\333:\204fM\275\302\221\227<\006\'D\274\212G\311\274\r&==7\257\254\274\270*\021\275U\260\013=\206\314\005<\327\323\255<\006\333L\275leE\275\271\356\324\274\274\346L\275+\n\026\275\237@\3137K\341J\275\252\272\t<\324\227k\274\2370\026=\010Tx<Y\362\326<\216!\216\274\005H/\275aq\020=\321\014B\275?^\351\274\'^\300<g\200M<gM\326<\310&\202\274%\rG\275\260\226\236\274G\210\241\274\255;\260\274$\244\273\274c\364\325\274\357q/=\220*J=\224p,=\357\334\225\274!\002%\275\216<\024=F\204\225\273\372A\320<0L.:\036\321\026\2758! \275H\017\276;\215\365\310\274d\004\355;>E\014\274\233\233C\275\324\300\221<,\341\356<\014\323\230<\354\364\371<\3759\003\274RK\014\274[\324,\275\220\223\346<\264n\356;\\\373\222\273\356=\r<K9\331\274\204\261\'\275qt\232<\373w\375:G\247w<\2218\001\275\243\037\373\272\336\3538\274\010\2230\275\300\211\204:\327#\007\275S\351\324;\376c\031=rp\277;\\\257\004=*\215\027;\366M,=j\306\033<\301!;\273\320\266\r;\306\374\214\274*\005\352<\201\2431\275\013\306\240<\302h2\275E\357\252<\377t5=\031\256B\271\366\342\231\274\346\312H\275\301 \254\274\212Z*=<d\017=\303\313A\275\317E\211\274\033#\010<\221\353(<\367\232\344\274\257\376\245<NJM\274\360\233+\275\201\211\247\271>S\030\275n\003\025=D{\031\275\3047\375;\016sB:\356\367-\275\255\276\274<\224\211\'=\251\366B\275b\326\254<\211\205\206\274\341\033]:\332\"\026=~\300\302\273\036\027\004=|,\020\274y\255\017=\270m/\271\375Y2\275^\023\356\274\231\204>\275\232\004\"=\351[A\275i\217E;\335\212%=\230\345\210\274\364\226L=\"[\351\274\372\322$\275\225\315;=\322\336z;\255\020\226:\257>\330\273\365+3\275\002\356\270\274B\242R\275h\2757<\023\306\307\274,y \274\304<+\275\231\362\033<\335Y\260\274\377\266L=BK\220\274\201w3\275\334\3479\275i\304\035\275\277<\316\274\372}\004\275\320\345{;\303\306\261;\246\000\363\274sXB\275@!\263<L\232\204\274\215K5=Gi\276<\264\204\037=%it\274~\364\233<\332\3630=\313\002\310\273\232m\021<#\017\000\275\204%\016\273\204I\010\275o\025*\275\037\205\227\272Q\322e\274\224t\001\275c\306n<\316\347g\274,_S\275\2102\355<qnZ\274\343\227\247\274\235\350\213\274`]j\273\177\2246\275H\233\363\274\230GW<\263wQ\275\375\205\020\275\350\323I=X\212K\273\205\035g\274\036\254\305<x\211\005\275\331\252\201<\244\333J=^\322\247\274E/\217\2727\304\000=\031\353#<\230\\\367:\206\017\004<\032\202\223\274\\\216\347\274\013\343*=v\241\034=?{.<\nn<<\346}\301<\n\021\221\273\214\367\027\275\206\023\026\275\347\022\316\274T\204\215\274\334\033)<\021\200\360;\032\235\254;\021}\"\275\352\363J\275\275\235\t\275\331\000R\275\35282\275.\317\036=t\207F<\r\321\230<\241K\231;e\300\305<,\214S=\360\356,=\014J\007=\274b\201<;\252@\275\217\352\036\275`\373\031=\314\364y\274\375\023X;8\330t\274\346\257_\274\372\360\\\274\034\3542=\205\031\003=3\271r\274\327\033w<F*\r\274\210\306\237\274(\300^\274\252\304&\274\3432\303\274<\337\016=pII=\313\020\314<D\013\035\275\303Hv\273\005\246Z\274\215i\020\275\350\260\027\275\357vh<o\340\n\275\210uL\274R0\373<N\221O\273\352\033\006=\037\370\317<,\0148=T6\351<X\377R<pEv<e{\010=\261/\231<\177+\374\274\035\027\205\274\314\247\353<\\r4\275\312\351i\273\207\014/=\304\271\177\274P\317\371\274~\016\005\274\262^\323\273\314<+<7 \234\274\250\312\246<\030D\303\274\330\2244\275\010\302\224<\314\236\215\273\345>\035=\236\363\001:\007\301\356<\030\033\267\274\005\347\225\274\300\212-\275|z\330\274\022\330\020\275\252\255\252<\260S\232\274-6\372<\225\242\327\274\346\250\327;P\272\230<`2\t=\310X$\275\003\363\t\275\241Z1=\035DN\275\217\271\"=\247j\033\275\025*\002=\331\211-<u\347\005<\343\255X<\234\354\021\275\240.\232;\275[\027=`\353\232<)\314\323\274\274\344\264\274\347\n\310<\304\315\"\274z\375Q=O\r\346\273\000.\027<W\235Q=\202\225\324\274#L\254<\037\226+<\372\371\025\274f\374\005\275=\372P\275\0348:=\022\365\322\274\251\312\244\273\316\037\222\274l\004\026<JK\217<\322J\021\275\366* \2747\240\327<\377f\330<\215X\343\274\240\221\213\274\313\255\357\274\tJR=\206\030\"\275K2\263<\224\021\020\275\243/J=\000\345\344<\335b\254<)\250\256\274\316Z\302\274J\376\341;O]:\274\277\344\220\273Y\261\021\275\300\216-:\362\205\255<\326?\263\274#\214\214<(\016\031=\023\211\231<\303a/\27452\334<\372t <\314\256Z\274\321+\035\275\013`s\2730\256\351<a\022/=\253g*=p\244\237\274(\3303\275\025\227t<f\277z<4\2540\2757\231:\275\315\342\363\274M_\312\274\364\201>=\234Y\024\274z\356[\273\274\326I;J\336f\2744~==\220$\022\271W\372\247;\314\371*=c\331\274\274\304\216\236<\326\342\021<\231\365\032<\2201y\274n\t\253\273V\020\013\273\201{\322\273@v\n;\322\311R\274\275|\001\275\347\236\302<\3676\022<f\233g<\2341\242<r\333\324:\255!\030;\214^t\2743[\264<\312\367,<\rg\232<+\365\254<\260g\377\273j\3417=\035w\224<\225|\014\275\025\335H=\206\355\365<\020J\007\274l7\355<\272\231/=\335g\317\274\026\235o\2745`\226\274\004\004\220\274\033w#\274\236o=\275;i\222<Gg\366<T\236$\275\300\277\376;R\274\021\275\035\321;\274\331\253\334<k\324\257<\270\361 \275\276\230%=\217\',=\211\013\014\274\222\355\300<Uu\372<S\336\366<\rO\003\275\262\307\212\2740C\336<\2732\362\274\345\246\375;\256\034\257\274\230(\003\275\023\232\033\275l\327.\275\270ox<\253\032\320<\023\266\223\273\030\001\023=\357\r\241\273\252\315\236;[\215\241\274\222\221<=+\247k\274\330\205\037\275\374/\374\274\346m\022\275i/(<\245\346B\275q\314M=J\213\037=4\016\264<Y\024\264<\301P\323<\244\025\351<\243\220\304;\033\222Q<\315L7\275\307\244\n\275\035\344-=\371{\233<\365a\320\270\2006\036\275\353\031S<\336\243\023=\006\252\'\274\222\374S\275tzy<\353\372\033\273\230\311\224\274\264\207Q=t\260T\2758\232\323\274\250F\206<6H\016\275u)<\275gX\250;\237\013\362\274\300\343\004\275\301t\'\275\234\316%\275\320\377\t\275b_\227;\364\266 <\254\204\"<l\212\347\274\252\033:=\202e\247\274\272\352>\275\256+\242\274\370E\037=\223\204\t=\216X\235<\274\226\t\274Y\340B=\307\023\310\274Ze\014<\274\250\250\274\344\026\357\274\03485<\234\245N\275\355\027^;=\0312=J5?<\352\326\377\273e\2574<#\022&\2752\361+=\032\257\360<\270\332{<\014\004\035\275\022\225E\275\032\243\026=\377\017D<\217\251~\2749\240\372;\003\241;\273\324\275:=\312`&=qTz<\007N<\275o\'\003\274\327\237\317\273\353P\321<*\265\333\274\372O\245\274\020\364\342\273*\212\313\273\224x\013=KS\231\274\2274)=\256\353+=y\276q<\232xu;oY\321\273E7\005=\246>?\274\350\031\232\274\003\236\020\275a\010%\275\265\340=\275$\1771\275\177%\325\274c\263\224\273\210\203K<\njI=5U\212\274K\014\363<;\335\027\275zl\324\274!r\t\275{T8=P\003\245\274R\331\243<0#\351<6\203\002\275\225\275\353\274\243\311\371\274\025\340\366\274\016\204I\275f\355\213\274\010\313A\274\353R\007\275\220\317\0008\2453\205\274\001^9=\002Z\274\272i\256\330<\216\230{\274`\202T=\301\0166=\336\327\017\275\310(\006=\000\003\252\274\227S\265\274\275*Q\275\276\302\372<%\363\250\274}\020\312\274\303\034\022=\201>\016\274\305\027\020\275 n\006\274`\250\t\273\330\014\013\274FMS\274j\017\230\274\263\026\035=0\341I=\034I8\2758\002\222\274\374\251\004=\255\357\312\274OP?<\272\220<;\023\213;\275<\204\363\2742%\"=~\306\017\275\275\240\236\2747\202%\274\262z\025=\353\327\031\275`0@\275g\365\257\274\353Y.\275\035\256\254<\367\035\013=\214\277\372<\354\303\276\274a\020O\273\3308\004\275\250\026[<R.7\274\321E\331\274Ej\262<\254\037\'=\230\2540=C\307\236:\220\177\237\274j\340\261<\307\334\232\274\317L\363<\205V\035=h1\214\274\361o#;\020\377\227\274\364\267\216<k|\211<\024\264?=\203\352\246<:V%=\017\205O\275?\327d;h\266K=\375=\217\274\362\256B=\001\301\252\274\005=\377<\253\236\037<)\243\021=\246u \275\230\217\370\274;\331<=\241\244\264\274\271\323\255<c\243\325< 8R\275\253\'M<\345\n?\273\"\030.\275\375\237G=OF&\275\316\226\266\274\235(3\275/\314\034<\272\375\016=4\242\263:\272\343*=\362\'7=\336K\023\275J\241\212\274^_\024\274\325\314\207\272\030\274o<U~\033=\375\226:<\200\035{<P \022\275\216\375\000=\351\310\241<\000\326\372\267&1\311<\007\371\303<\251\211\370;\376\375\221<\3060\032=R\016\262\274VX-=\374\017\270\274\t\276L<\351\372\276<\325\270\334<pV\253:\254\277\201;\\RO\2750\301\004=x\342\363<\013I\3168\260\314M\274 \271\"\275\024\324\226\273U\344+=`\243O=.\266P=S\240\205\274-6>=\203\000\006<\000\245\033\275\014\322\000\275\361\345\364\274\261i\252;r\276\332;\320[1=\276\375\346<S-U<C\241\232\274\025ib\273\306\201O=;\274v;v6\255\274qF\270\273\326\0060=\267\326\243<\327\320O;\251\036\352<!\225\r\275\327\223\031;B\005\010\275\365\020\023=\216\312\t\275\333-\270\274 \222\004;|\202\r=AG\374\2748\002\371<UO>=S:\034\273|4m<\333\306\000=[L+=z\376\310;.(\332\274\253E\333\274TS\241<\262\2764=Q\371\010\275\t\245\364\274\336[@=*m\321\274\006\342\340\274\331\364\017\275\024S\022=$M\347<\372\207z<\276\017d<9\031\002=\365l\253<\016\003\026\2757\350\261\274\221cV<iX\"\275\226\235\211\274\005\014\345<\377\007m\274\224\255\007\275P\227\332<\263%\376;k\364\367\274\214\351\004=\370\211\326\274\266\315\004=\004\376\r\275\032aU=\236#\010\275\234\251\350\274Z\033\354<\310\321\025\275\016\2307\275\034\3301=\007p\0249.\376\036=;u =\032\317\t\274\265\212\255\272\'\276\304\273\223\033\200\274\233\'\230\273\000\370\024\275\331\030/\274\334r,=WF\036\275\266\256-\275H\347\005<\306$\374;\277\253<=\365\214\200\274\005\007t\272\277\006\375\273\266\3273\275\3538\350<\365\203;=eF\033\274\325\361\005<\231\2071\275\375Rv\274\377\210\326<\351\264\000\275\216M\205;8\345t\274+\230\257\274\315\240\343<\233y\311:\377\353\r<`T?\275\231\273\365\274\267d\024\274G\321\000\275\235\224N=d\026E\275u\306(\275:^\264;\333\n\264\274\221\0241\275gO\002=\"\357+=\2074b\273|\205/<\005\236%\275\032\200\257\2747I\217\2744Q\254\274\312\262;=\020\223*\275\231\2021\275@\355\013\274a\321\351\274\2674\343<\200\251Q\275\266\007\013=N\201\331\274\033\302\036=\371\376\263<\306\031\016\275\263j\266\273\376\327\220\274>\005K=.\202\275\274\203\324\035\275\333^\344\2732\301\305\274\235\264P=\354_-<\224w\236\273V\357\201\274\177,.=B\365\320\2747\221\031\275UV\347;\032\016\n=qlJ\275\341O\220<\225\\\221<\025\226\332<\330\267\367\274\322\267\026\275\303\341G\275\233\377\030=\332\372~\274\264\226\302\274\252\033\016=\270\211\247\274x<v<\343~\023\275\377H\001=\376\2719\275\331\'\247<2I\305\274!\373\273;\330\017\"\274_\371\014;\226=\371\274c\3565=\321\034\355\274\226\"\263\274\320\331B\275\277\333\271<\0025=\275\r\300\200\273\327\330\257\274ej\324<n\214\034<)b\330\274\2760\206\274L\217e<\203\215\205<\367~\'=8\252-=o\006B<\"\357\030;\333\2366\275;\357\202<@\260\314\274(i\360\273\222\223\024;b\325\246\274Z\307H\273\262:\221\274N\376\350\274\000\243\262;\014b\201\274(\350\323\274\"J\316<\234^$\273\223\205\233<\204\326\016=\241\342\321:\016\332C=\0100%\275\221h\223<\240\342\337<\266\274\356<\310K(<\324\264N=7K\016=\307\220\357\274x\250\211\274\316\223\337\273M\317\002\275\206\3217\275Od&\275&~\344<\002\222Y<f\323 =\370\3557\273\\\251S\275\334\252[<=0\256:\354\310\361\274X\364\t=\325\026T=]\255\207<\021cV\273\300(\303\274\010v$\275\3540E\275\224\340\240<]\304\305\274\210\355\233;z\326\247\273\026\023\026<>/\002\275\017\004\216<\254S=\274)\023\336\274\373\370\r\275\261\227B\275\365\t\252\274\322\277\'\274\177\256\032\275\210B0<\030\241\017=\026Y\036\273p\266==\227\204;=\016\315y\274\002~I\275\261nH=\235y\032=\317\021\260<4\321\t= \335\350;\024U\216\273 \221%\275\337\256(\275\353\000\250<kz\006<\021p\033\274b\003F=\367n\225<\266\243.\275\201X\241<M\253_<\276G;=\266\265\362<;\351\006\275\014\325\344\273tZ\000=\345r+=\252\271T\275\324\276F\275\260\305(\275\313\265\265\273\350\352)= t7\275\322\263\353<\303+!;\217\035M=\270]\033=\004\256\251\273\204i{\274;~\254\274\030\341\321\274I\332Q\275\354\334@\275\246\020F=\315\275\037\275\002.\355\274\234\326\320\273R!T\275kW\013=\331c\035=\213.E\275\272\322\243\274\356f \275\345z\r==I\335\274\361\003\'=\214\326\034\273\260[\034\275\325\327\t=\222,%\273!\027\007\275\201D,=8\314\010\275\373\010\r=fM\036=\310\377\332<-\306\013\274X\254G=\306\252;\275\266\002P\273\'\353\3239%\010\367\274o\2752=%\225m\274\316\3244=\014\3535=\364\267\032=4\311\242\274\003L\353<\254Kd<\276\303\261<\370\257\014<\\\014\314\273q\224\010=\265\004\315\274\t\2050\275\252\371\013=\313\3715=\332Z*\275\261\336/\275\307v6=k\277\325\274\215\265\254\274j\004F\275\327x\177\273L\257\352\272\005h\322<k\026\300;\214r \275\331#\313\274\036\207\005=f\3601=\263\000L\275\275\t\255<\023\240%=\314\020\341\274\377\330\256\274\213\307\263<hD\303\274\236.\370\274\207\270\231<\370s2=<b\206<S\3427\274\004jZ<hF<\272}\334\271<\207\010A\275\207\332\352\274\313x==\227J9=x\267\':\303\347\004\274\254\204@=>\033?\275\010\031\372\274)\005\034=k\310M\274\200\337\326<Ta\036=h\334\032<\016<P\273I|B\275\317I\231\274\346\220\324\274 \307\250\273\367k\237;R\3711=\244\211\035\275\256\021;\275\241\024\026=\364\315\014=5$\201<\017\337\363<\373\264\200\272\344(\037\274|<\342<V\227\253\274S\013\354<V\001\260\272BPD=\001\224\340\274\3566E\275\344l\204<\3365x\274\364\271\214\273\377\266\350<5 8\274Vv\032=\351f};\360\264%\275.\215\223<\217\005.=&pS\2756\203\034=\363\332;\274K,\373\273\240\302\000\274%\034\013\275-\0278\273\277\371\004=:\n\';\341\360\n\274\010q\033<\352\240\260<o\014==\342\242(\275\211\357R\274\003\260\243\274\301\264\034=:\245|<t,-\275mF\n\275\242\202/\275\023Y\326\274\266\371(:&\327\246:\316\343\356\272\007\003\002\275?\3037<\206\036\037\275\21119<f\251h\274W\201\233<$\322\314\274z\361,\275\353\300K=\326\347\306<h\325D\275C\032\255\273\035h8\274\371|\304\274kb\373;\001\034\327\273u\367\373\274[\\\316<\216\236\266<\251N\212\273\017t\211<\t\314<=\345\272a\274t\257\312<03E\275J`+=\027\265\243;j\231\236<\221\037\225<,{3=\317\371\020=\246zN\274\261\353\236<\3114/=\363\375\245<\336\331\262\273M\252\372<\207Od<F\346\037=\372\220K=w{\275:\213\274\265<\274-z<\010|\204<c\004\261<PX\"=\373\330\027\274f:\233<1_\021=\203j\000=\333\\(=m\216,\275w\257\204<\260\277\202<|\252F=\276j\006=\n\334,\274\375Ob\274*]\337\274u\272,\275\264t\303<Wq\025\274\225\257\234<u\263}\273\002b\031<\262\2678<\201N\356<T\274\037\275\301\252\013=\257\364\352\274y\236\263\274\000\332j\274k\364L\274\365\266\231\272\357G\212<\325\234R=\302$H<\235\3074=\243F\276;ya\372\273\262\323\373\274\203i\361\274\353\327\033<TX\020;\311\337\304<\337Y\006\275\0169L=\035X;=azy<\277\271\2117Y\237\274<\351C\351<b{\255\274\355\313^\270\332\363\230\274\343\034\210<\224f.\275\032\027\232\273#)\020\275\000\213u\274\2640\352\274%\225\246\274\005\323\251\274\263\005\217\274\257\277,=\323z\220<\001L\014=\333\3478\275\315uL=\317\330\227\274*\007+\275\034%%=\2349\027;\301\251D\274l\177\301<}\342\272\274\000\300A;(R\232<\334&\025=\\\256<=\312I\035\275\024\334\334\274\206-5\275JHz<c+A\275f\3540\275)\2131=\307\330\377\274\202\271\'\275kb\t<s-\341\274\214\275\355\274\326o\345\274t\312$\2757\031\346\274\344\034\267;K@=\275\245\203\n\275\220\374\036\275\201P\215\274\244\336\200;\237\013J\275\323cj\274\322h\272<\246Ti<\037\206m\274\312*\'\274q\304\231<\362O\315\274\361\000\031\275\210\214\210<\220\013\364;C\373\272<Y\247\314<\006\231L=\0164T=\035HE<>\360\235<\252\244\223;\321\266\205<L{\361\274\234\322Q=U\243\031=\'\023\377;FLk:\241`\215\274\261?\250\274\032\017\326\274g\370\367\270\026\332\202\273\3245\324<\362\221\234<\325\'\";i\032\316;\377z\345\272\277*\002=>\034B=\350\303\252\273o\225\356\274\217\334\252\274\365\303W;\022z7=\003\313\307\274\234\365?\275\354\001\"\275\330\265A\275[\360:\275\177\276\'=vT\373<\235\367L\275\3503r\274L\030Q\275\007\0206\275\331\3310\275\265\325B<#\301\031=Re\243<\276\367\007\275d\346\025=A[\\<\265\227[<\302\367\"=Y\021N\275*\313\205\273\206\n\237\273Q$\204<\333\233\216<Fc9=O\243\000=\325\246H\275\264\275\340\2746\265L=\301\025\020=5>\376\274\377\224A<4\376Z;\"\3607=50\255<6g\032=\242\r\235<\272\nB<\331S>=B\263\252\274\261/\305<\257\021\201\274\376\200\214<\2651\325\274\206\351>=\266\372\275\274p\260\237\2728\000\322\273F\231\035=\341\013\377<\220\315\023=7\265\336\271DqY<\374\325I\275\303]\r=\242\340\021<\376\334\004=n\344\221\273\363\215\300\274a\231\025=\215)E\273\3333\243;\372\242\341\274\242\177\007=\343\260N\275\267jF\275{z==\037\030\347<\261cU;\304\273\245<\211\334\227\274\231\253\326<\017H>=\334\233\345\273\322\\E=\'\357\334<\257\3233\275\211B\032\273\326\n\275\274<@C=\205\210\232\274FY\370\274[hJ\2759\325\356<e\315\340\274\370T\274\274\361 N\274\330\325\247<\235\020\254;\312\350<\275\254\'\311\272\303!S\275k\000\353;\211\217\020\2731\222\206<\300\315\033\275\375\222\363\273\022\222\026\273\260\345\262\273p7\366<\333\021\005=\324Cr<t`\352;\0307\220<\351\325\357< \334\013=\260\356\031\275+}\307;{\370\330\274\230\3561\275\270+^<\233\000\364\274\2274 \274\247\225\027=g\037~\274\353\262\257\274\0318\310\274\230\014\345\273^\255\314<z%@\275e\310F\275\016X9\275\342TX<$\026\246\274\241F6<\'+\t=:-*\275\264\2063=\333\330E=\000<b\273.dN=qJ\037=\232\317\236\2730\300A\274Z0\215\274\242fX<\245^M=\377|Q\275\210\014\035=7\265\016\275&\213P\274\356\374H=!e\213\271\026>\333\274\352\274\347\274\350|\201\274\034X\327\274\264\0142\274\034w.= \2179<+]q\273\341\203\271\274/H\246<\303\313D\275-\2423=\225\345\202\272\267\277/\275\216A\365;\014PM=\341\204\000=)\364\326\274h\0141=\263\001\024=\251I\217\2740\256\037\273\3646\317\273\277\0256=\335WO<\204\017\270\274\343\232\';\266\234\352<\226x\306\2743\\&=~\314\242\274Sw\035=\214\312I=am\356<\366%l<\234\004\313<O\337T\275>\006\221\274M\035\027\275\352\031%\274\364\253\001\275\351Z\325<9J\315\274\260@4=\222%b<\t\307\026\274\211\354\236\274\003\273\203<\3476\242;\324`\314\272\3660H<\344\307\237\274+\272\020\275^\305M=\222\242\255<A\223\006=/\036\342<\322\3578=z\254><c\350\247<\374\362\364\274\034/A\2751\206\252;P^\266\274\206\203r;V&\037\275YD\253\271\225`7<\316\231\223\274\007a\237\273\210=\t\275\265\206\324\2748\351H\275$r\204\274\276\362N\275\033Eb\272\037\277D\275\302\236Q\275b\241\270<\204\273\273<0h\224\274\000q\007\275\364\r\235\274\270Z\336;q\313\"=_8\021=\246~;\274b\346\037=]r\364<;\261\306\2747\220\021\275%o\217\2744\321-=\324\312r<\243%\376\274auk\273\246f\325<\344\004\360;\037%\207<Ev\267\274\221/\360\274\365]\324\274\277, \275kU\333<I\025\035=\273\255s\274\373R\245< \364\337\274b\376\025=r\212\':\204\326\024\275\t\265$:\016\333r\273\323\023\312<\331\035!\275\256t\006=\303K0=\200\305.\275Z\377=<\315\275\366<6\254,=\307A\217\274\037\274\275\274)\351\313\274\264S\262<\244g,=\262\235\027\275S@\003=\343\351\232;\237\244,\273\3317B\275\037\273\023\274\362\266>\275h\246I=>\367\333\274\000\363&\275\366I\004\275\255\0310\275\220\312\241<\363z@=J\3600=\325]\013\273mn\032\275\345\337\037\274\3078w;\247\332*\275\314\313;=\tTI<\001\322\002\272T\210\340;\035?\365:)\315\232\272(\274\215\274\177\300\370\274\354\177?=\206N@\275\3000\326<l\371-=g\351\004\275W\375\001=]6\275;zC\026\275E/3=\237\373~<\203X\340\274\337w)\275Q\357\274<\r?\241\274;V\202\2744q\010<\305\266\027;\032I:=\254\0352\275?r\225<\263:O=\014\004\275\273\265\372#<o\355\214<\347\251\207;\273`C\275(\273k\272\207\373J<\002j\271\274\351\300}<\014\2356=\304\343\253\274\3025\033=\361]\372;f?\004=\000R/\275\235\245\343<\230WN\273`\260?=\350T\t=7\314S\275\034\220\022\274\334\325\303<\320\334\211<\251\007 =\327?S<\354\220\230<\363\343\r=\020\'A=\262\333\350<t\332\323;\350C\034\273\357;\220\274>r>=[\216<=\260\355\237\274\267\032\014\275\310H(=\371\026\330:W^\275<\261\212\204;\271\215y<\266K\017=3\200n\274\345s\376<z\324H=\246\001#\275\246\210S=!\320\241\274\210\200\355<\334\376\t\274\274\222/=\276\215\336:7K\020<\366\203g\272O\207(\275so3=po;<q\327\317<\304f\013\2757\363\017\275\010e\257\274\274c\244\274\177\223\017=\300\344\334<\375\221\376\274}\007\302;z\204\302;\272\302\013\275\0359c;6\367\031=\201\343\313;\264 \000\275\302\361\035=s\230D=\332\235\363<\377)E=\206C\244\274\217\214\360;U\232<=\305\273\233\270:\2240\274\224\313V;!\315N=y\036 =\227\357\301\2741.\267\274vA\321<\334{\240\274\241\000\357\274\343\342\364\274\026\205\037\274~\016\264<\373\026\255<\000P\320<Ee\200\274\240[(=5a\312\274\335\260\004\275O\230\034\275\351\025\027<\021\343\365<\332\366\014\275\313C\025\275\267\277E\275\273HL=\252S$\275\224\t\013=\212\224N=B\3633=b\214\370\273\222;6\275\341\202\225\273.\365\311\274\'\3069=\245\307\034=\225\255\017=\235\354\240\273\355\277K<\314H\267<h\305E=6Z\256\274\247ZD<FP2=\206\033\357\274ZuG\274\374\316K=k\r\353<\013\240\335\274\325\377C=\236*&;dB\r=\032\377\252<\021\007\037=\217\324\206;\346r\245\274\241\035,\275G/\315;\216)\325<\277\2771\274\006\356B=\330^\327<\241\371R=\365B\205:oi\202<\237SI=\316\231\347;\016>\212<\331L\001\2758t8;9\307A\275\344\356/\274\3616\036=h\343N\275\243\262\314\273\007\362\210\273\321\313B=\343\037\035\275|\3723\275\371<\026\275pN\255<\257\017==\225\330\331\274\345L4\275\264\rJ=\312\267\214\274\334\022)\275\344\024P\2752\246\001\275\260\252\212<\341m,<\372m\307;8^,<f+7=Kz\240\272\022(\t=[V\367\274\366\274E\275\370\200\022\274\234v,\274\200\374\336<\354bL\275\236\330\210\272\035:\013\2750\276\031=z\371\005\273\373!)=\002\225\314\274\351\361\275<\250\374Q\275\372\266\312\274!\251/\275\216\304\221:\264\374Y:\325\351\366<\t\344$=J[M=\317\360s<\'$3=~tS\275p\247e\270\001\330\241;<\251J=\261\215\344\274\377\262:=1\372\240\274^\233$<ZKI=v\277\365\274\035\2614<\315\251\'=\251\353M<~\372\253;\326\301#=Z(\271\273\257\026\374<\001\3563\275\026z\265\271\324)\023=\217\244N=w\273$\275\2164\341\274wo\035\275\013+\270<\025\264\"\274\002\320V<\3146\226;\020p=\274\2124\010\274i\316\035\275\374x\320:\244\302\013=\246\'\002=\334\272\037\275\007;K\2755\307C=\030Y\272<\222\320\t=\212\226\377\274y\"\266<f^0\274\315\350N=\314\244$\275\241\270\017\275\343\352^<\370\211(=gi\224\273ItP=[N&\275\372#\337\273nLN=kK\004=\233\231Q=`\342\235:\343\022A\275\3651\253\274_\3210\275\230:P\275\357\032\023\275\373h6=\311\010B\275A\331\332<\264\315\005\275\346\265\333<\347\313s<}\333\203<ag&=\334\033\004=\376\344l\274\3076\'\275\230o\021<\277\206\000=\354\2757;+\355\354\274\331\235\331<\rpN=\352fs\273;\002Q=\024;\"=\377\211H\275\224Z\024=\267\225\000\275\367\354\245<\307,\201<\361\365\271\274\314\302\330<\304&\354;\373\253_<%\3213\275\243\211\023=\276{\270<\216\213\023=\013\364\372<\327\007\031\275Z\367\353\274~?\024=x\020T\275\347f\021=\222\3324=\016\2166=\316\0358=\002\246\360\273\373Y\333\274M[\235<\306\360F=\373c\277<\326\271\007<\273[\343<6\315\r=\336\271L<\252E\265\274*\314\r=\002\272G=\020\316\355\274\035(<=\347\366t<\370>v\273\240\364\005</\313\361<J\201?\275\354P\266\273\260\326\350\274\"\302I\275X\033&\275\322,\367\274\316\247g<\357\202P=\372\315&=\236\2156\275\356\2012\275\n\300.\275\253\022P=\324\302\013=\201\264\r\275\373\003*\275\341U-=\326\014\270\274n\331\022\275\020@a\274\350\3771<\200[I=\373_\233\272\013U&\275`\267\302\274\252\300\252\274\025\017\371<\345\315\000\275\3108\014=Sc\253\274\342w\346\274\221\270\356\274\001\214\241\274\017\225\213\274\330\001D\275\016\324\177<\272H+=\006\375z;\030\227\021=\375\363\336\274r\257\t=K\256.=\304\013K=\026~*\274\305J\324<:\332\030=\346\343\371<q\310\244<\243\300\357\274\023X\370\273\202\2314<\201\363\262\273\256\356\227<\217\0005=\217\005\264\274\374\354\346\274\313\344\357\274P%I\275\231\365 <\210\034\277\274\212^\003\274\217\207\005=:\237\';\375\223\371\274;\003\302\274\nd$;\372\237\376<r\001\t=4\273%\274+\025\252<\035\237\346<\033\373\255;\336\330\376<PX\031\272?\321\201;\352\313\370\274,B\311<\376(\342;\374\023\243\274\375\253\215<f,\032=\231\211X:NY\026=\225V\212<\226\203\013=\340\327\374\274c\205G\275\226\200e\274\375\223\213\274(A\021=d\351\347\274\030\320\243<\342t5=t:5\275\262\331)\274G`9\275yU\030<>L\"\275@\222\232\274\024f>=[\302*=\306\0053\275\361\277\240\273\354b3=\237\306\032<\203\255\007=\311\217\264<\313\367\263\274Z5\376\274U0\200\273\237\2206=5l\367;T\230\002=T:%\275\032\265\216:t\026\032\275\300\003\\;p\347\r=\013\246\036\275@\006\242<G+\237<H\333\036\274\274\025\277\274*\035\206\274\240^B\273\236\376\215<\022\304\'\275E\001K=wGB\275\307\363\272\273`}\017<\000\0149\274\037!.\275\342\361\223\274}\3356=\020\216\275\274\243@\'\275\211)\333<,?\'\274P\254\216<\250c\225\274.\241\362<kZ\322\274\n\230\311\274\255\242\331\274\250\223\036\274t\027\246\274\3724]<O\253}<\024\'J<\344\265\207<<a\"\275\213:\270<\354.\307\273\233\222S\2759\014\205\273\332\"\262:\n)2=\240\343\257\274\255\327==\374\3003=DX];\344\213\246<9\315\206\274r\021\016;|~l<\016\230m;\314\257\"\275\373\265/=\253\312O=\374\202\002=\006vQ=\226\002\377:Ym\016<dk\267\27416%\274\321\3246\2759(\031\275\303\021E\275v\215F\275\305\225$=\236\232J\274#WS\275\225\035 \275M+u\273\241)\177<\266\313\017\274\356\326\377\274z\023%=&=\331<\237\272\003\275P\002\033\275\357Q\r=\370AB=,\201\232<w&\270\274Yn\031=\375&\376\273[\005\270\274]\030\022\275\';n\274\336\223\\\274\305\237q\274\021xD\275\372\0301\275\220\326\325<\336\271\324<\204\343\002=\2412\033=\256\355\000=\244\3632\275\222#\032\273\326\273;=cN,\274\033W;=\315O\261\274\225\276\013<P\300&=vQw\274\311\351l\274Bo3=e\236M<\372}3\274\n\300$\275\250k\367\274o\345\340\274\273\256\021<\217\225\275\274W\327\207\272\255\"\337\274M\212:\272\322X\033\275]a\247<\253\351W<i\t\031=\021\335S\272\214\374\t:\365l\301<<!\350<\322\rQ=FM\303<\245\0242\275\t9\212<\360</=\371\"R\274a\000.\275\r\026z<\007QJ\275\342\235K=D\277\353<\256\334\322<\244b\203\274\340\311\013=\017\216\002=\206V\237<Y;\221;j\370\202;86F=\240\374\262<EL7\275\201\373\235\273\232\'\341<\3229\235\274\033$5<7\253!<\213\347$\274\317=Q<\363\237\031\275\312\353\231<\353Y\220\274Q\\\302;\032\275;=\013E\334<\211\003\366< \266\265;\244\001\026<\036\354\377<c\034\364\273\036\032\240<-<\372<\"Z\321<Z\010\352\274n\225P=\024\033\306<\216\364\200;\254\310\304:0\006!\274\220\327\001=.\3142<\202\305\334\274\362\026\372\273K/\312\274\224R\213<\344\3016\274\325!\036<2\330\036\275\000z\201\274\nUL<\025\334\324<\007\336\240\274_\036K\274&\303\"\273\007\213\317<\006\216\264<\1771\351<\336\372\010\275\002\361\'\275\276\311M=\206\300?\274\320\276\t=\310)p\274^\243\202<\344fU=Z~(\275\223g\373\272&\200o\274i{\257;\022\225\013=\200\024\266\274/3\375\274kM\362\274\223o\023\275\026\222;<\241\233\'\275[d\213\273\212\203\277<6\207\245\2741\202/\275\026\036\030=g\033\377;d\232\347\274\327,,\275\302\223\265<\354\353\323\274F\332\200<-\354z<\214\017\025\275\026_\205<\205x\252\273\037\355\007\275\311\r$\275D\354E<\342\025\002=\213\231\346<I\304\352\274g\212\215<\034l\3249K/\246\274\225\020\301<\251c =`\010m\274\254\022M\275j\023o<zN7=\n\017\024=\352\341\320\274]\343R=\023{\256<w\221~\271\017\275\370<Z\260\024=\254j:\274\003t\317\273\201\341\364<\373\333\216\273\377\361\347\274S9\355\274\022{F\275\357\026\200\274\270\324\304<y\300\267<\212\245F=\270\234\221<\274\311\004=I\337\036=\366\342\"=\357\347\354\274\362\032=\275\036fr\272\200\241\270\274\213\327\036\275\267\357A=I\376\246<\325\236_\274\344F\212\274\001\330\024=\231\234\267\274\370P0=\366Z\331:\027\301)=\252R\332\273p\246\247<\033\335?\273\313\202\270;\235\0135\275\2763\201\274\361\023\013\275\005@:\274\330\311\210<\203\312>=?h%=\262\320\374\274h!I\275\031\342G\275\203\342\037\275U\326%=\207\317\'\275\201\236\315\273ut?\275\241\320\225\274j\321C<]\321\020\275uJ,<}l\030\273|\013\262;\240\3763\2758_\000\273\0329\344<\260\240*\275\3272\026\275F\334\r:V\\\364<\215\252\373:\177\277\027\274\207\303K=\325\315\311\274\232\211%=\003Q\003\275\256M\354<[])\275\341\002\230\273s\215,=TeT\275C5C\275Sh]<a\021\331\274\341:\031\275\213\213\'=d/\364<\211\2317\275\356X\035;\324\337H\274\224p9=\177\366\216<\201\321\300\273\0036\251\274\204\004\244;+J\017\275\317\333\367\274\213\377\235\274G\n\'=\341\224)=\336w\004=\030\016\243\274v\207\023\275\266\334\001\274j\326B\275b,\254<r\2749<\201\013;<\364 \255\274\311)x<\310\236^\272\265#\225\273\312\013\364\274)\370/\275\027\036\331<\212;\023\275\347[\004=\370\313\016=\335\214\273\273\342\033n\274\245X;\275\013S)=\021\255\236\2730\316\331\274\372B\017\275\316\310\205;\261W7=\264\367R\273Q\231\213\274\213\372&\275 \014v<\371R\3519\253\n\305\273x9v<\273\003\263<kSJ\273\323\032\353<\373\321\021\275\022\017\317<\023\301S<\2373K;\204\036\276\274\\0\223\274\255\373\263\2744\033c\273\233\320\303\274\240\213\014\273\221\215>=\264g\361\273\341\303\312\274\357c\314\273d\235\354\274\215/E=$\007\246\274R\237&<\300\030\272<\025\005\341\274\266{\206\274\"\337\002<\020U;\275\317\216\010<\242>\207<\272\331\257<\355r\367\274\350\022\310<\023DP\275u\002\222<\335\3611=\014\214\013;\232T\023=\355\347E=>\301.= \373\356\274\241\350&\275\327P\355\274\354\262*\275iF\022\274\231\320\262<\302L\204;\317\337\250\274C\024\027=\177\314\003=\331\211@=7\313R=\354)\304<\231\342+=\004\014&\275_\321\373\274\270\327@\275=\2207\275B\235\207\274F\342;=_\237\212<\210\356\247;W!\252\2746\3513\275\372w,<\257\221\266<IA{\274\233\247\226\274\004\307\211\274\031\250\026\275A\256\317<\333\264\371\274\305f\236\274\336Q\004\275B\204\217\274\037\014\'\275\322\344\220<\337\010)\275\310\037h\274\277\330\342\274\205,!\275IR\t=\335n\201\2748\'\256<\207dl<\033& \274\317V0=\004\364\363\272\367hD\275\355.\"\275{#\007<\340QJ\274\254\363H\275U\rN\275|KN\275\242\313\027=\337\204\315\274\010\355v<\2247\025<\315\367\247<\225\265\204<q\003G\275\247\253\n\275I\335\037\275Xh\353<\274\233\370<\n\326A=\036\225\2729\311\320+<\003\256\301\274xV\274\272\301\337h\273\270\257\321<\237\327\323<\215\261\344:\345\000\307;-\236\200<\231\322\035\275\004\274&=B\3300=8\321I\275*U\326<y\372\003\275{\031\360:\032\313.\275\334]\314\274\301^\007=I\0328\275\376\362\260\274\224\232E\273\304\244\245\274]c@\275\001\346\307\274\311\305H=\300\250\007\275\236\326 <\302\'s\274\376\221\233\274C\303L=\373&\257\273mW\006=U\207(\275yC\333;\264\016\t<7J\367\274\027\216\002\274X\325\000=\265cP=^\347l<Q\350\037<\342)\341<\361M$=\312\r\020=\253\224\t=\265\036\251\274\256\013E=!\336\272\274lK\004=\014D\274<G\272S<+\316P=#h\004\275\212d\213<\245\310\026=\275\236\272\273\323B\343<\221\3223<\325B\332;75\005=\242\010^<H,\311\274\355\314\322<\351|\t\275\345\233\261<[\231=\275m\013T<L\372\004=\013\224(=\254m\254<\031\231\021=\240\2311\275\315e3\275\374\355\224<\037P+\275\212\227\227\273|\323\t\275\261_\213\274\200\374\000<nV\004=GaE=\006\031\036=W8\016=\261\341\007\273\025p\230\274\371p#\275\345SE=\320\264\214\273\363x\244\274k\3210;\260\300D\275\033\3143=\224\311(=U\010\240\274L\340\023<O$\006\274P\265\022=\346<1\275\313\367\020\275\300\340\242<\216\032\344<:\334v\274\033K8\275T\031\250<\340\370\346<l\301\324\274\246\2026\275E\232\300<\351\n\255\274\322\2158\275{\275\004\2758\322\t\275\375P\225\274\311^\026\275v\252\262\274\273\343:\275\351\201j\274N\212&=8\336\033:\264=\312\2728\262\272\274\206>\002<\214\036\252\273\275\036h;\353\311\202\274\257\036\007=5\236\244<\242^U<\246\304\233<\373\211@\275\255o\246\274\360\213N<g;@\274zp\306\273\327\2739\273g\353\220:]=M=\270/\237<\304\222\312<R\347C\275%\362_\274\375\247>\275\351\334\206<#\206\030\274\274\262f<\010G\r\275\220\034\010=\227W6=\252\250\032=\005 ;=\314\211L<\232\351\224<m\034\204\274\206\353$=Z\313$\274\034/\217\274Z\331\312\273\274\\*;i\2051\274qaV;\236\312\017<\023\272\222\274\010m\301\274<8\221< Z\371\274X<\034=*O\320\274wF\203<\000\222!=ZUs<I!\363\274\265\377$\275\305\271\017\275\205\3765=f\214\216\274\324\373\206;t3\034=\336\341\262;\016\036X\274|B\271\274\366\247\356\274\307d6\275\331 7=E|\'=\300w#\274\030A\332<Jp4=9\325\206<\020\331\356<\356}\321\274\n\024\002\274\013\354\363<Q=\316\2740}\306;\335)\213\273\300\037\003\275\372\023\263\274\3231\261\274\3714\206\272\377\244 =\215\233:= Q\266\274\333s\306<z\323T\274\253\006\366\273Y\370@\275\027\271\345<S-\326\273?bF\275T\010\036\275e\321\350\273\337\037\330\274\232\356\353\274\337G\350<B\002b\274\271\035P=\342B\366<\222(\306\273*\251\323\272\036\243\021=\321\336@=\362\205x<\363\314\323\274\354\354<\2753\323\025=LH\361\273\035\267\220\271\223\373I=\204\313\3719\0029:<\230\021\207\273z\237K\275#\272d<\262\345\367<\251\000\254<\227#q\274\362Oo\273\333\302+\275\035\223\031\275\264\3556=<R\371<\345N\006=\221\361\005\275\200\247\342<\224#3=\331\001\003;@\364\023\275\364cH\275\326 S\275\215\036\242;\361m =)~\'=k\252\n\274yE\022=\t5N=\031\254\037<D>G=\303L\250<\374\200\007=\363=\301<P\271\035\275\031\003\362\274\033t\006=V!*\274y\346\320<\336C\353\273\027`\314\273n\2020\274p\306\226\272\255\327\266\274\325\010\333\274\007=J<\001kO=\005Y1\275B$A\2753aZ\274\033|Q=\224@\2028\260\001\t\275G\266\\<\265\001}\274\327\205\266<\223\315G=\227\2409=E\254$=b\320\n\273\236\350\2159_\267;\274\005\031\023<\030S2\275\256E1=\022\215\'=\014\267\242<\221#\327\274\363\371\002\274\270>\037;b\341^\274\343\262A\275\212\005\026=\032\247L\275\271\333\270:2\024\347<\025\374<\275G\023\215<z\006e\274\304\371\347:M\317\231\274\026\0329=\310\352\n=\3332c\274\301\352\345\274\213\013%\275A\221x;-\370\010\275p\000\307\274\366\212\356\274W\245\215\274E\260\274\274\211f\337<w\225\030\274T\242\350\274\311\220G\275\270\275/\275\252?\362\274`\036\302<\350L=\275T\335\252\274\224>\006<\352OT\274\021r\016=Z\017\204\273\222<U\2758\326\007\272c\226,\274:\035\326\273\032a-\274]&C=jD\340\274\003n\207\274(\206\275<\247i\002=\272\033\030\275[\004M\275\344`\212\274\364\315*\275\203\270q<#W\323;\361\026\264\274\031\251M<9?:=C=\373<\031\351\022<X\017\221\273\234\354J=\314\227m\274e\324\221\272\017\342\005=\244\2774=\017\233\017\274\377\354\212<\241\305\026=j\240)=\025\273y<@v\315:\265\211\014=2OC\274\305T0=;=\250<\237\374\025\274Io\032\275\036\3240\2756M>\275\257\3245\275p\260\263<X\000\320:7e\n=$\222\007\275u\317\206<\177\247\263\273DU\352;RE\244\274\333\303!;\201\220\317\274G\215\273;`vU\275v\3731\275^\007\"\275\214\002K<\250\r\324<\010@\364;\010a\236:\017tN=\300]\000=\375\337\340\274\242pu\274uW\271<\346b\001\275\265q\023=a\230>\275 +#\273\203\246(=.\313#=\002\021U<PB\347\274\020&\373\274|\307\315<}N\035\275T*\006=R\213\212;\222r\300<<Q\220<WpE\275\306\016I=#\203v<\032-#=\304\360\032=\025\252|\274\227/\302\274\310_\036=q\'\246\272\001\252\314:\235\027\010\272\0109\270<\245b\226\274\316\2032\275\273\303G<~>\217<\267\242\246\274\016\035\222<\n\341<=f~.\275\264\001\013=\253\222\035\275\241\030)=\242+H=\372\304Q=\232UE\2748\025\316\273\3039\314\274\317\335M=\270R\214;y\326P\275\314\235\354\273\220P\317<\214\016\214\274\'=I=\335\222#<\325\'\r=g\205F\2744\265\244\274\345U\006\275\232\243\232\272t\023A=J\315!\275\234_\315\274\212\227\010=\354\361*;\203J\031\275N\033\017=\237\237=:_\273\236\274m\260\013\275\2240N\275\226\006\374\273\357\211\317<r\364!=V\3714\275\027R\324\274.;\205<\310\201\'=\242\367\303\274K\222\013=\227\215\245<\037\270\253\272\312\365A\275\204\301h<\305\264\024=N1\003\275\266\347\225<\373\036\220<\204\2148\275\230\266\226<q\013q<\333O\250<\351\315\332;Qd<<\003\'\247\274\206bW<\2276\002\275g\320R=\001\334\372\274\017\016\213\273E\324\372\274dl\273<\016\336\347<\260\005\232\273zQ\006\275{\315\356<\257\313\017\275n\313 =@(\016=\005\267\275\274\316\020%=\357\034\036=BMn\274T\235\224< \247\265\272\272v\360<\242\177\t=+\372\212;\205Y\"=F\211\343\274\327\340\t<\370z\373\271\310\235`<\'\020\212\274\246}\251<zr!\275\344=\331\274M\213\323<6\022\t=\237\324\375;\242\nR;1\241==\360FG;evG=\365\031L\275\262fK\275\342\222\361\274{\010\003\275\206\223\356<br1=.\347q\274\214\\&\275\270>\005\275\254d\014\275\225\363\213\274\237UA;`\311=\2755\254\033\275\010n\026=\317\347J\275\007d\310<\223\234<=\321\276\373\274\365P\244<\263T\003=\257cS<\024\315\020<\377\373\224\274\031\326\007\275-d\246\274v\351Q\275\204\326B\274\346\230\227\274\301e\002\274\320\246\033\274=\270F:\032\2565=*\023\271\274`\324\353\274\264u;\275\271\r\343<\371\274\250<E\037S;\\i\n\275\277\332\002=\031\313$\275\223\222\250;a\254%<\314\\\236<\032\234\013\274\326\221\005=\357:\325\274\256\213\370<E\323\n<\r(\247\274\023\357\217<\246\r\034<\341\341\003\273\313QB=\306\3763=\267/\2669p~A=ll\362<\002[\227\2710\2133=\212Dm\274\271\033\266\274\325\3311\275t\360\322\274\334\377\210;\221\317\202\274\227\2716=\210P#=\253\020\232<\253](\275\327\247\032\274w\272\313\274\326\346!\275\362\023\'\275\207\216\330\273\177\205\210\274p\243+\275b_\360<\243B:\275\204H\t\2756\312C\275,\255\353\270\030\273\242\273\374\232\006=!\235.=N\347;=d(\266;\033\365\335<3\257H\275Q\214\333\2730\241 =x\212\245\273\007\344\365\274\376\375\222<\333\272\236<\274\247K=\374\364\211\274+\025\372\274\263o\034=\237\372\317\274e3[\273\200\367\"\274\223\267\036\273P\316 \275\21051=t~+\275\355\211S=\361Y\023\275\'\314\313:\372@\243\274\272\232\002=kr\227<\313v\344\273^_+\275t)9<\327\323\232\274(\t\301\2731\003\016\275\263\325\224<\254\013\316<v\306M=o\000\225\274\304\232\203\274\036\355\233<;\210K\275N\240\020\275\373\370^<iO\032\275$\000\006\275\2602U;\014L\'\274E\376\t<]\242$<\216\023\275\274?X\n\275I\005^\273\025\301\337;\353\361\250\274\032\021\000\275\264w\271<9\367\177<u\366K\273\026\317\023\2751\013k\273?\007U=-2\250\272\261\343\205\2740+\271\274<<\2509\312\225\350\273\237RR=E\345\373<U\324\'\275X\300\237<\362\356\243\273W\363\013\275\354\242\"\275\374\026\323<\213d\235<\312#\r\275\227\252\235:\334\375\001=\214\210^\273\300\026\205\274\311D\221\273q\375<=\347zC=F[?\2756\214\241\273\273\276\026\274\024\211\362;2\0062\274\24377=\240\233Q\275\330\340\310<\254\351s\274_m \275C{\217<\236\223\026\275\217\323O\274\014\277\324\274\351\252\007\275\371\257\035=\202w\010\275\215\"\262;\362\004\342;#\307\354\273O\323\330;\265\317-\2752\\\300\274f\303\036<\005\226\014\275\230\250\221\274\\\331\202<\352\366L\273\363(\365<#\000\226;\205C\272<\237\251\246<\302\037\000<\276\305\014\274\321O\346<\017\267\216<\263\036\214\274\016\277\216<\237\263\203<\002A\336<\325\252g<\323\356\223\274\376\037\014\275\230\341H\275]\373\311<6]1\274\356v5=Ul\037=\221\345\317\274B#\342<x\005\265<\302\315\017\274?$J\275\325\351\'\275\3717\005\275\307\223D<\221\233\365\273\227Yu\274h:Z\274\0377&=:\241\026\275sg\"\272\\\371\307\273s\242k\274\270C\314\2734\000M\275Y9\026<<\203\300<[x\352<[\326\035=I\307\233\273\322Ox;\263\307@<\0323\333\273&\312\327;i\356\335\274\330b\361<\333\302\004=\004~$<\237{\251<\363M\027\275\241\334\234;9\026\"\275J\336\004\275\030\223c;\211\216\022\275Q\211\344\274\335\347\004=\266A\231\2732`P\275F\003!\274\354\324,<J\223\006\274\266_\324\274\246\345\201\274\351M\314\274tE3<\252\362\252<kc\331<\017\357\364;\201L(<\333Z,<\033b\324<\350|D\275!\244\332<\334\001P<\333\216A<\344\230\271\2744T\314<lE\033\275\006l(\275v\252\271;\302^*\273\216\327\024\275\240:!<\026\200\221<h+\023\275\214\1777\275W=d\274\203\207L=\031J\331\274B\0023=\221\035\033\275R\n=\275\t\335\225\273\237\350\211:\001mY<\355;\313<\276>\031=\325\331S<\340:*=j\227\355<q!\331\274\315\354\007\275^#&<\201R==\247\247B\275\245\305\371\273B\312\236\274\277L\320\274h\032\262<\374\024!=\250UR\275}\352\261<?\341\036\275q\t\r=6\270\371<\202\014\250<^\0266\275E5C=4\024\242<`\006@=-\023\312<\246\211\252\274\341U2\275\000\340\252<=hZ\274\253\307\373<%.\033\275{\240\035\274\330i =\344<\010<$\303\362\274\374\360\367;\330\203?\275\267\345P<\304w\037=\340Q\372<\206SO\274\016\240T\275e\334W<\000\367\034=\351\2514\275}P\020<q\\.<\245\001\313\274-\006\203<\340$\223\274\330\024\026\275rZ\316\274o\364\263\274\263:\327<\206\206\255\273 \245<9\262\016\372\273k!\325\273;\377\234\274)\274\0308\243\377\367<\037F\353<P\230\332:\364K\356\274\\\232%\275\331\203\016=\376\343\020:\000Y\267<\231\001\222\272G\361s;7]\001=\220\211\3729\370\3026\275\214\002E\275\036 \n=\242\027H=\234VJ<9\2314=\026O4<\357\266\001=0\257:\275 \257\030<\316\322\037<\374b\214<,\264j\274\337\365r\274B\2056\274\370\350\033=\225\250!\275\325\313\021\274\354\022\366<p\234\316;Z\024\313\274I\243o\274\245Jm\274\002\000F=\374K\001\275\037W\266<\325d\024\273!\245\033=\023\315\266<}{F\275\267L\344<\250p\312\274\231\033=\275l\177#\2741\347\n=\217\255\003=\307\3364\275\363,\203<\325\031\030\275\016\204\347<\370l\033\275\251\230D\275\216S\003\275\324\204#\275\351\030\353<\277JK\275\225\201\332\273\336\177r\274\353\354I=\037\033\375\274`\0264=j\355M\275\326t\203<\323\021P\275\214\210\253<T\324\251<\002\364M<7n\024=\311\007\212\272\037\026\377\274\350\226\'\275N\313D=\177\033\363<M$e<\312\250\367<\n\2034\275\305pK\275\307\t\033\2746\020\234\274\354g\032\275E\014\347\274\375{\034=\034\266m<\317\350\341\274\371\207N\275\037\355\326<8\332\237;<\360\027\275\327\003L\275\202S\370\2742\252\205<\334(2=\266}S=9\360\372<4\217\252;\306[&<\017\302>\275\252\010\373<&s\273<[z\360\27426!\275Y\240s:\332`\210<\325>\252<\032\022<=\306\267\206\274\003\030\356\274\373\2371=Oe\277<\362Y\344<#\207\253<\347\225>\275\315\375\314\272)\022\030<\232\242C\275ar\025=\371\315\326\273#\002\300;\232UO\275^\202\'=\215\331\007=\201\036>=\314kH=\212\244\014\275\026\306\031\2755\003T=h)\274\274\354\213@=\324\326\255<\3273\202<\276\303\346<\370rL=\217\001\332\274\240uJ\275S\314\353<\237\000D\275\327\233X<2\274\023\275G\235{\274\204\223\374\274\332\356\236<\300\203\'\274\036@;\275\210y\313<\357e\235<\370\336\332<\315jI\275\0248D<\341\3618<\327\324\302\274\255}\335<$\337\263\274\231\3375<y\331v<\370\272\305\274\t\247\230<\342>\317<\201\232~<\231>.=9K\360;\217\271\036\274\306\231\027=\312\014J<\327qw\274F\260\243\274\341]\204;t\034\370\273/\313\275\274\361\312S\275\245Or<V\347\332:i\347-:\265\3462\275:(\241<y\377\273:\257>\241<\216~\360\273\016\203k\273\233\023\230\274\020\300t\274\372LC<\231\244\007=.#\025\275\211}_\273\317\031\326;\250\032\021<0\026\r<\232\006\016\274\344\024!\275\010!6\275\361\372\213\274\243\007*=\374\0045=\362\274\r=<\337\"=9Y\333<\332\022\244\274\324lp\274Fy!\275\300o\316\274\260\232\246\273\210j~<\300\323S=\003\217{<u!><0\216\377<\020L#\275\330:X<\360\014\020\275o\337\000=\337m\343<\243N\004\275\270\177i<\253\r!=\246\200\355\274\201\227\354<;_9\275\342\354\t=\255f/\275\203\214Y\273\253\264\210\274k\034\365<\305\002\"\274\360n\264<\252j8\275\352\330\026;\372?N=\312\364\026\275Y\2408\274\327}\346\272\252\277\324\272\265\352,=\245\215\014\275\177\321\\<\031\032 =E\277\371<`C\344\274GkB\275\270fB=\021\376(\275\374\022\007=i_9\275\325\016\275\274\233C\301\274\340\261\005=\212\334\260<1\225t<c\r-\275\177\n\016\275=)\306<%\351\013=\"\256/\275\362\"6\272\211\3750\274\367`Z\273\277\341\241<\264\023\345\273\002\216\202\273\026\220\254<\001\037\306<w\302\"=@\264\276<\247\362\227\274)\233\360<z`\032\274\213\364\326\274\273/4\275\"c\213\274\261\201f<\310\216\315;\356\3031=>\207\027\275\022\307\003\275\241\373\326:\345\371A=V\256\312\274\013tU\275\223\237\221\274\254\206.=\332\034Q\275\000\027\026={\304\204<\332\313\216\274\207\246K\275\352\302R\2758\342j\274\303\241C<s\250\202<\312i\032=|(Z\274v\235\317\274\321\356\220<%\023\245\274\316\275\301<\350.#=\314\321)\274\006-F\275:\253\037\275\177\370\025\275\367}\271\274M\004\273\274\323A\002<{\273\023=\263\225\362\273m\201:\274E\355\362;D3\264\274v\354\375\274\275\217\244<\r\320\327<Z\211\014;_\324@\275eZ0=n\344\230;\366\231\3659\251\223B\274\016e\036=4\004O==\217\362;7}\272\274W\332<=\364j$\275\331\013\315<\240\036\013\274\211\314\t=\010j\'\274\2115J=b&\255;\217Z\035=E\275f<\031\374\273<2o\030\275\305F\001=!h\226\274\002\305K\275;\034-\275\353\250D<\320\243\215\274|\311S<\213\275T=tY\310\273\340\365\357\274\327\017\350<T\253(;\363\037\020<bAa;\003\256\005=r\261#\2753}$\2735\276&=\201<F\275\021\276\013=\356\\H=:@\216\274\367\212\211<\214\234\202\274\020[\315\274\365H*\275\034\3767=\365\023\033=\270\342I\2744\257W\274\337w\027\2759\t,\2758\"X<\214\034\336<\017\300\202\274\017=\377;}D-=\340KQ\275T\201\010<\353\013\327<I\037S=2X\332<\246\204O=\366\304\007=\243\210\334\274\243N\007\275\376{\226:\247\2471=\246\313Q=\325\370+=\n,%=\364zF=]E\370<\250\020\237<\"\273\375<m\347\246\274-t/=7\315\256<\316\250Q\274\331\251>\275&4\025=\264q\005\275\216\rP=d\236\377\274\241\246\246;\377n\254\273\243\343Z<\221K\267;\236\360\257<\035v\354\273\363\364\313\273\3407\362\274\335\037\372;\017\361\t=\005\023\220\274o\252\005\275\177J\017=\243T;\275j\316+\275y\300q<\306G\344;8\204\326<\327\331G=QK\341;}\215!;S^9=<\363A=\343\334-=+\264@\275/@E\275K\354\240\274\024\016\311<\222\250\007=\303\276`\273:L2\275/B\n=V\246\274;\035_\365;Z\0313<q|\321<\014\364\032\275\366b\004=\225\266\357\274\317\326\010\275q\233L\275\024\002#=i\365\304\273\302\201:\275\010\r\205:zK0\273AM\026=\202{9\275\037\321\237<\312\305\271<g`!=y\277\230<;z\025\275m(U\274\260\301N\273\353\306\017\275\243\302\"=k\261\352;c\237o<\365\\\022\275\033%\002\2754\204\'\275[\241_<\2606\000\274hQH=\020hI\275\220d\247<\307\300:;\224X\253\274/t*=\363\3571\275\204\331\227\273\350\026%\274{ \";\222\220\265<_\343B\2755A@<\0250\331\274\035\234\034\274\363\3136\273\2654D\275J\271\307<\315H\022\275\034Z\007\275\\)\332:\367\355\341<\024\232\037<#\204C\275\347\321\r\275\2755\004\275W\320\234\274\216\36019\336\231\361\274\252\255\212<\274\300M=\212{!=\374`\357;\346\3243\274a\023\211\274s9\323<78\"\275\333\370+=\342\256\205\2722\302\206;\271b\360<nd\221\274\254\277\010\275\351\025\331\272\'\234K\275x[/=\035\225\342;\200f\226\274\364n.\274\360\355\035\275\260\257x\274\253u\223\274\037\257\365\2736z*\275\374\330\001\275\255\n8=\001\222%<;Q)\275\304v\202\2742\301\371\274$&M=\234?\016=\0271P\2734\345\227\274\032\n*=:\2043\275B?\030=\340jR\275\234\253\006\274\316\0276\275\005\364\203;\217\037<\275^\322;=\303\355\207\274.u;:ww\350<\231.\016=x\336\326\272E\031>\275K\036\027=d+\014<\332\226m\274ft\253;\241F\014\273\326\271\033=\333\014\032\274`\253\314\272\366\nA=j\240\243\274\276\215K\275\373\347\236\273\010\023\013<\355\213C=\'\262g\274|\"\010=}sE=\302\356\'\274\302r\353<\336\271\260\274\277j$\274\200 \266\273\365\302\235\274@T5\275\303\335\004\275_E\032=h\215\313\274@.\215\274.D<\275\305g\"=>\356\354<\340\271h<P\275\245;\362\345;=i\361=\275\315\000\205<\037q\266\274\243\251\016\275{\004\022\274\3407\376\274Z\224\027=\006c5=0t+\275\221\323\"\275\264t\233\274\\\266Y\271/\220\367<-0%=4\3220\275l\330\370<)N\372\27420I\275\236\210\211;1\316\261<\326w\251\272\362L8=\000\036\335\274\013\272\004=<$d\274\374\365\002=|\000\325</4\373<5\3201=)1\260\274qd\224\273cM \275\231[\005\274\362W\017;\267\3329\275\\\007N\275\273\320\225<]\027\025\273e7r<\235\017O\275\207\301{<\213d\023=A\017\205\274%\231\253<j\231\252<T\316&\275\341\273.=i\"\024\273\202u\276\274\325\221\014\2756x\337:\255\025D\275\224D\316\274\\{\376:\004\336\237<\311O\"\275\312\217\000\275\343\026\322<d&.=\261oE\275:\262R=\273S\264<^\341\355\274\260\217\327<\305\340(\274\332\207\221<\325\021\021=\202\201@=\335p*\275d\254\332\274\347!\243<;\'$\270\302\266\353\274\013\231\300<)2\375<\222\322\215\274;\315H\275\321\271\201;n\002\"\275\304e\234\274\257\317\255\274\016D\277\274\271$\025\275DV\250\274\234\235/=\254oP\274\177Ta\273E/\371;\276\360x\274\374~\260\274fp0=\245\225\326<WR\333<\177\nc<g0\211;]\2328=\245\313J\275\267\236\312;7\0071\275:\366\021=\350\361\022=\265\221-\275\026\036!\275\002\036\270<db\351<\375o\n\274X\"\342<A{\007\275\271\353\301<\346\2332\275\007e0\275\030\2659\275\021\306>=\307N\223\274\030\010\314\274\230\212\244\274l\225u\274\367\3431\274}\345@\275\325\017\020=\225]\230\274\335\2562=\222\021 =\332h\276\274\376MR=\363)\201\273\244A\025\275\2011\223<\305\320o\274F8\035;t\243a;y?\3679\221\330h\274\361\2757<\350\271g\274\231\211R\274\266A|\273j\003\223<\037\rQ\275[\216S\275\177\265\033=\351\020\024\274\372\235:=\336\377\016<aZ\345;\250-\010\2754S\330<\351\"\r<\313r\034<x\r\"\275EHR<U\276\314\272.\020\224<3Y\205<j1\023=d\2709\275\246\266\356<k\205\225;\355\304\371<]\342.\275\324\350\306\274\326\261\025\275)i2\275\3710\355</\232\307<R.\306\273\321)\204<\355\302\271;\261=Y\274\223\242@=\031\200\331;t\003\030=\313\000\240\274p|\r\274\033\340\210;R\213G<\376\361\020=\213j\016\275E\032\236\274\247C\214<\032\263\r\274S\020$\274X\364j<\3424\236<\025RT\275\346\210\211<\254$\035=\324\016G\275\202\230\246\273\262\353+=1O\344<\233,K={\217+\275\301\n\202\274\256\341\321<\255N\347\274pM+;\237\363\242\273I\245+=/\367 =\036;\303\273\215\276\250\274Y\366R\275\342\330\236<.\241\017\275\234\332\"\275\347\007J=f\365I\275\217A\246\273\027\037\336\274\034a)\275n\022C=7\036\327<b\262P\274\323\216\024=+\222\n\275f`L=\310\036K=FE\026=\023\231R=\r\026,\275\350\002\023=\241\216\331\274e\311\237<\254\033\324<7\344\201<\235\347\337\274\300JH=\035\201\255\273\005L\344\274\300h<\274\327\017\317<e?);\3548\331\274\010\370\230\274Ul\365\274\\\263\021=\006\031N=rEL\275\267\324\007=\314\352\027\275\314f!;|m\271<\232\014\035=\022\241\247\274\235?0=/^\002<H\026c<\032\025\273<4\337-\275$f\356<`\210\360\274\331\250P\275]dD\275\212\3202<5\245\r\2758\3000=.\303\010=\310\200\214\272\235\037>\275\023\333\013=\2107\t\275_\032\246<N\002\315\273\342\243-\275\200\242%\274\t\234\026=\\(\305;\250\344$\274H\230H\275 s\"\275\232_\023:\225\377n;P\336\006=\224\362\365<\340\024\250\274\235\252\201<\302\371J\275\024\326q\2732;\211\274\362a\246\274\2377>=y\376\376\274\364\336\017\275\260\332\223\274B\275\262\274\021\001\325<K\"\376\274e\277\322<\241\305H\275h)\320\274\021!`\273w\274\'=\222\"?\275\037\321\311\274\rq\013=-r:=\202\246\225<\000+\331\273>\216$<\253;\252\274\214\024T=\232\305\013=5\032\202\273/2\t=A16\275\020\317\242<\367\367\006\275\275\211\"\275R\027q<\375)\013\275\277h\242\274\327^S\275\206\344\t=aA\373<\303^\265\274K\241!=\342/\207\274\212X\032\273]O\263<J\377\003\273;b*\275\323)-\275K\2703=Uf\262\273L\277\311:-+_\273RW\251\274\333\234\010=C\224\373\2743\261\266<\352/==I\3667\275\000\325\301<\331\311\252<9\313\377\274\244\326.<d\274\235<\333\244\264\274\327:);\326\034!=\"\3014=>\317\006=\331x%\275\355,\010<\373X\010\275e\273\220\274\251If\274a\273\235\274D\253!\275\272\027\240<\2734=\275\316\313\300\274\3149\030;\246eP\275B\277O\275\324\341\361\272\020\250\365<\266\016\004\275\316\215\300\274\247~R\275\006\204\361\273\222^\363<\030\376q\274 \0332\273*\203\027<\036\357\006=\034\325\n=j\r\007=\323u\037\274\337\344F\275\331\0223=\010\301\'=v\231\022\275H\3539=\331TF=\000`@\275\215\2264\275iB\273<B\213\255\274H!\342\274\2479\306\274\034\262\037<\251%)=##\262<\324d\250\272Q\007\023<\345\177/=O\315\373\274xA\036\274\321\311\204\273\223\327W\274\005\265\362<a\014j<t\016*=\033\3111\275\224\353j\274\204*\356<\254\233\225\274or;=\323\237\027\275\277\'\326\274U\222\310\274\263:;:\3278\331\274^\240#\274Y\0231=\277\337\254<\203\3274=H\007\337<\317\223\257<\020TU=f{\245:~\013\276\273\373\326J=b]U<\237\005E\275/\322\323<\344F\007<\272\\8\275U>\202\2733%>=}q\343\274\316c\327\274\225\316?= T0\275\360=\r\275\031me;\317\300\024=\272\327\'\275\026\"\207<r\316\277;5Q\374<\322\034\244\274\375\375\335\270\245[\363\273\nE\006\275\034\rP\275\310\261\027\275\262#q\274y\314\220;\334\364\271\274\353[\237\274\357\332d;\313\301\334<PgI<\303u\032=\302\026\007\274Se:=\237?\333<`o\244<\177+U\275!54=\256\344\025=\232\273?\274\034\360\247<1\013\214\274\351\316\220<B\300\034=\035j5=\031\023\323\274\305_\315\273\345\210)=\313\305\246\274\351\265j\274>\371\360;\375\217^;\305\227\320\273\r\325\027=\330!\021\275\tA_<\2120,;\220\013\235\273\303tS\275\\\306M\275\362\326\377<\311\024\277\273\302\234\t\275{\352\324<\350\207\237\274\004\002)\275\243\327\016\274\270\353\033\274\233~4\275i\253\010\275\2247\030=\340\203G\275C\2204=\200\345S=QE\307\274d\317\306<\177\336W\274\036\214\275\274;G\312\274\375.<=/\231\270\274\317v&\275\263\256\317\274\236\266\322\274\000\232\0059\335\355\035<.7\242\273\361\277\365\274\335\002{\274\367\377\342;*\006\371;\254\030\002=\014\001\364\274\3418\017;\025i\345\274\314E?=C9G\275\274\360E=\300D\327<lZy\274\312\254 ;P)\322:/\225\025<\277\373\352<\022\226\210<\327\233\001=\036\352L\275Za9=\"~\276\274\373\243M\275\357\004;=\273U\354<~\t\302\274o\313\265;\002\247\345<\370[J<\233#!\274\276\2528\275Q\345\326\274\256\312\022\275\013uP=\"\211\005=jE\022\275\337\374P\275\231v\035\275*z6=\3132&\275\000\235H=;\3424\275\232NN=\255\254\014=K\337\001\272;\207>\273\277=\3769\277;C\275\006\376\352\274.LW\274\3735\004\2751\336\034\2750\371*<\335\331A\275s\3214=\344\277:=@S.\274\302\245>\275e06=\rm\n\275o\255\"=z\226~<\2313\267<\270\240h<\024\272\336\273\314\232\226<\237\013\032\275T\345\003\275\326\276\020\275Ic\023=o\0345\275gC\223\273\312\277\202\274\376-;=-7*=\326\021\233<\315EJ\275\263\3426\275\245\220\r=\353\234K<\3071\r\275Q\300\277<\001\234\331<\001\033*\275\210\3770= \234\025=\211\371\016=\306\344\016=q8\025=:\337\306<<#T=\265p\004=\233\021\337\274\346\341\320\274\2458:\275|\007.\275~{\033\275\240@\221\274rO[\274nh)\275\240\334\261\272/rM=\002\025\022=\250h$=\260\225E=\336<\032=\257\2317<\344\007\001\273g\215\244<\032\303\353<vm\036=\340\021\351<\035\220L\273&U/=*q;\275\300m3\275j\376\200\274\212;Y<d\272\227<4v\242\274\317\217);\266p\330\273(\245\251<\225_-<iJb\274\254>U=\271x\230<\350\036\202<~\336\323;?\036\036\275\271\257M=\341u-=\2579\"=Q\035\021\275\r\226\021\275\244g6=\365x==\30057\275h\331$\274\354\261\346<\232\320\002=|rd:S\004\304\274\214\257\264;\377Mc\274\202M\000=\271\215L=\177\325\327\274-\374\023<c\026\230\274\227\2315\275^\037\242<0\000+\275=\325\030=\023d#=\014R\t\275\256\355.\275B!\335\272\003\267\237;F&\020<\316\274%=6\303\272\273A\024\027=$\377><B4[<\266l\211;\017\277\310<\255\370\241<=gL\275\277\351&;\361\202\214<y\260\006\274<\271\246\274\275\2030\275\245\216\233<\315rM\275\\z\237\274\263\363\'\275@h\365\274\341+\214;v@\347\273\005\027\030\275kqP=E\247F\275\201S.=\r4\035\274z\211)\275v\217\326<R$\216<\222UA\275\231.\000<1[\037=\177\252\212\274]\236+;y\214\210<);\n<\310\211\302< \244\373\272H\020j\273\031\324:=\022d%\274\002A\206\274\014UU=e\025=;JV\320\274\t?\r\275.-\256<\213\0328\275\024\020\312\274\275\350$;\226.\363;/\267<=g\200;<\037\344*\275iE\230\274\226\260\212<\377\363\n=\331\316\310<\362\321\327<\215\036\317\274_p\247\273\305\004\265<d\025\r=&1A=ZCq<\303\242\371\274x\220I\275\371\275#<\263(%\2750\345T\275\374~\001\274\037\026-\274\236\".\275\213nS\275\207=K=%N\020=\321t\255\273\214|\377<\212\363=\275\226\334S\274\247\211,\275k\017,\275]j\330\273B\3336\275\207\334\373<\202\345H\275\317\322\037=\205\364\255<\242\322A\275CT?\275\254\231\306;\205P\267\274\200G>\275\263\037\'=\321\376\233<\354\262\331\274\351\246-\275\231\177\323\274N2\242<4\200m\273\017\240\000\275\353\035=\274\327\013\032<Y]J\275\360\277\001\275\300%.=\350\005\301\272\355\316\022=\354P6\275]1#\275\215oE\275\357\260R\275\210\244\221\274&\301I=K!n\274\372lj\274s\360\"\275\242\355\205;\036aE=B\261\227\274j\354\222<\272\236\n=8\033~<?\250\006\275\271[\220\273\355\235\034\2756v\313<K\334\314\274\247\255T=\254\336\036\275\342\223*<\377\316/=+\332H\275\257\274B;N_\342\272{:\032\275Y(S\275C\334\206\273o\200\025=\302J\317;\317z2\275\347\0221=\021\216\341\274\276\215\360;8\346\214<j\205><3\020L=\3775\335<C\350\317\274\204o+\275\223fG=r\2770\275m\312{<\304i\020\275\3741\342\2746\031`\274G\345\252\273\341f\321\274\351\354L\275\246\254.\275\006]\235<\302\266.=\267\320\323\274\317\312R\275\322\200\207\2740\0061\275F\340\375<\314d\021=\235C\024\275 ]R\275\257\301\214;\345\320{;\267-E\275_\325\374\272TE+\275\327\372\'\274\035\327\264<i\017\021\274\324\212<=F\237\037=\307V\356<\364O\024=6\031\027\275\277-a\274i3\325\274\3642\270<\022\240J=j\270\t=\346D3=\nI\213<\304\252\273<O\262\345<\014~\020\275`\'h\274U\242(=\240\241\236\272]\314\201\273\230tH\275\361h+<$f\036\275\225L>=ZuF\275F\257\024<\t\210J\274T4r;ZZ\265\272\267\025\372;\362\312!=M \373\274`P\222;vw\213\274\21471<\013\216:\275&,\244:\253\300\246<1r*\275\325\270O=m\266\326<i\376\214\274\202\007[\274^\017\230\274\337^\220\274\022Y\343<\211b\377\274\332\321\030\273>\022\322;\205?3\275\320eN<\273\220F\275\266BR\274[\020\033=z@\310<\234o\347\274|\003\327\274k!\233;Av\020=\001\002G\274\253\3103=\255M\361<\002M\306\274\232\213\317\274<\331\252<\274\262\222\274\212H?\275w\315,=\255\016\270\273\017\237\002\274\267h\024\275\203<\321<\001\3646;0kR\275\211\n\021\275\366\255\202;\207\016\367<k\026\006=\366\275k\273\007m\306\273SJ/=\314!\034=\3165/<\2762\273\274\304\210G=\302\304\306\274\241\361\215<|\r\223\274]t\254<\3747\342<U\026\312\274\024\264=<\233\346M=1\0006=E|\275\274\235\231\022\275~\030*=\3501\352\273CY\023\275G\277\257\274\330w\260\274a\207\005\275\366\302\360\274\362[S\275\034\243\321\274\273B,\275\241i\022\275\005j\317;\250\367\035\275\2070%\275\000=\364;?\307(=\020+\2039\025b\205;C\020\002<ot\033\273\210\366$=\351H.=R\316\275\274\215\241\267<\300\342\320<\210\260\035=\317wR=j{.=\013Z\200<\017\214D=B\207\354<;\250\225\274\273\335F\275\335\355\005=\353\005C\275\311\234\005\274\021#\002\275\332\017\032\275\276l\257<\250\202T\275h\313\260\274\373\251\356\274\024\313\036;\371xg\274]\264\004<Hx/;\327\027\354<J\242\325<\276\020\321;g\323\013\274M\273E\275\232\333\"<\207\032R=\013\260K\274,\234 \275\r\257\031<\177\253*=\345.3\27555L\275\341\021\t\275\010\350.\275\217\022\345;\365gT\275f/\r\275\301h\206\274\263\021A\275\002\314>\275\311\024\003;v\327S\275\241\316\333\274\016\250\364<\346\220H=\026\0310\275d\271\360<D\336\252<\330\344\'\275\316\264\356\274X^\030=\r.\353\274s;(\275oa\005\275\235~F;\t~\234<\350\360\365<Z\320==\254\255\315\274}_P=\377\376\242\274\344\350K\2751\253\345<\202\267\361:c\201\305<E\241$\275J6\202<\372t\202<b\372F=\260\255\231\274\252w#\2741\214\340;\017\010\222\273\271#\200<\367\2252\275\335\037\234\274K\201\326\274\272=.=\210\"\'\272\256\003@=\317$*=m\230;\275\203S#\275\214\3708\273}Q;\274\263b\t=\362\300,=\024BT=\314\032\023\274\024=\032=\354Q\"=V\036\361\274\300%\2148/zK\2750\301\324;\027\022\370<\307\031W<\r\3336\275Y\264\223<\226\233\243\274VC\013<\354\\:\275\306\303\262\274Sl\002=:\375T\275`\246>\275\354\240\035={\021\254<t\245&\275\367v\337<1\203\371<\016\336\"=\036\304\010\275TS\005=c\320\315\274Uh\216\274W\341B=\354h\016=\322\235\257<\023\035!\275\373@\263\273\214\353\001\274\240/\227\273r\026\204\274%\211O=\271\3351\273\206\274\373\274+\007\305\273~\013\203\273\"?\325;\330\255\301\274\204\362\000\275\363\237\031\275\177v\347<\305U\036=\230\320L=ju\036=]A\017=f\237\216\274N\200>\275s\354\001\275^\022\261<:\364\025\274\247:T=\\\307P=\277\332%=s\256F=\335A\243\27485\212\273\202\250\365<\350wb\272\2511\344<;\235>\275Z\375\276\274\302\343\304\274\256\001\033\275\254\371\353\274\277@\206<\'\347S=\252\231\355<\013`\347\274G#\235\274\253 \240\274\035~_\274\332\233\027\275\356/\010=\035\226\312\274\024\313F\275\222mJ\274\033>8=\001\237\205<\340\261K=64\316\274%KD=\026\345\211\273P\222\300\274\371\204*=\334ps<\325\344\022=\242\177$\275\350\0263\275\317\371\375;\313c\357\2749\333\234\273\302\214\007\275c\0046=\325\224\025<=\035\233\272\247\030\373<\243j\r\275_:\325<\254A\317\274\203\222N=\337G+=\035\024B\275d\352\300\274@\020\t<\305\031\276\274#\210}\273)\245\346<F|\345<\333\272\021\275\337s\331\2743\311\020<\372s?=\330\3601\275\037\277\335<\245\250\002<m\254\007=\274\3223\274F m\274q \020=\275\020#\275\227I\227:\362\2244\275\342\3462\275S5\336<\277\213\247<\362&\265\274t\363\325<+q\r\275\214\261H\275s\032d:u6}\274\214-\346<\256C\236\274U~O\274\300.\343<\367\n\207<\327\010\002=\311B\273;\233}\350\271\367\337\007\275\211g\021\275cJ+\274\271\226\020=\334\377\200<p\303,\274\350\303\035\274\305c\035<\301\372\037=\215\0073<\373\373@=\375\214\007=\014\221\371\274\010\004:=\227\235K=M\n\302<\266)\203<\235\323\307:\033\346L\275\366\335S=\374\220X\274s\260\017\275\334\311\023\275%\004\251\273\202<Q\275\247x\257\274\025i\332\2743\350\004\275LcC=[\315\270<\224\372\302;o\201\346<\207\337\n\275\221/P\275\370\014\275<\035\246=\274H4\035=\264U\224\273\346\'\261<]\272\330\274=\3622<\031{q<\202\251\260\274\334+\001=:\366>=j}9=\302N\031=\332\016\024\275\034h\374\272\237\322\362<!`\356<\360D\232<\307\316.=\370,\r\275\010o\'\275\232o/\275p\025\261\274\300aV<EY\276\274\275\2553\275\223\010\"\275\023\240\322<\000\252\302\274l\306\026=<h\010\274}`i<\274\337\301\274)\370I<}\025\'=\022h\226<\031v9=a\344h\273$\035\237<\343\207\247\274\313\026\031=.-\032<\336\020\034\275\335\273Q<7\275\r={#(=\301\337\215\274\352\373\216<\206\200\210<D\0022\275\2044B\275\344N\375<[\322\014=)hN\275\337\361w\273\361\251\025\275}\354\002=+\317-=\333\346\325\274\303\272-\275=\250\035\274\250\335\366<)EQ\275h&\034\275k\252\2209\347a\351;\014\373\356\274\246F\350\2749\376g\274\377\222_<C\221\343<\305\344\250:q\\\\\274 Z\324<\307\274\335<\363\362\343<M\244)\275\310{\001\275\351\377.\274\372\234\033=\030\001\321\274\206\034\310<)->=\371\203\013\275\346\t\000<\227+\230\274\343h\253\273l.\313;\304\320\342<]u\001=]\232\335\274\343NY9\227KC\274\004\024\247\274Z/\355<\241\352-<\003\003\272\274UZ\202\274\204\272M\275L\325\013\273()\311\274\334N:<\320j\036=I\247\314<\020tS<%\353\367\274\255i\215\272(&\032\275z\246M\275L\236\025\275\244\224\002\275b\335\314\274\340\000$=T\246\237;y{\323<$m\346<\334\016\004\275\022\375M=\235\211\215<\3557\031<\000x2\275<\214\014\275Cg\234<\211\307\204\273.\003\213\274\032\370+=\330e5=\315\226\361\274\212\276\354<R\335N\273\332oD\275D\037:\275M+ =\271\242\036\275\342BC\275\367\330\333<T\021\373\274\352\233\353<G\"\247\274\351<<<!\001\'<\001\364\003\274\217\004O\275j\234\343\273\323\035\026\275\343lu\274in?<\321\353\345<\213\352\357\274S\323\347\273\367\301\342<\240\217\013\274\375tb\274\214k&\275\300\322\247\2732\013n<\033\013\316\274\372\322L=bR\273<\276\266\204<o\201\020=\021\370\227<\346\233\234\274\304\222?\275\231U\315\274_\334\226<^C\226<\233\330\313\272\327\033\022=\264t\031\274\221K\325<\026<\250;\255M\016\275\263\255?=\031%\022\275&7%=\311\375M<%N\023;\":I<\\\304\214\273gq\332<\272_/=\265\236g\272\177\230\035\274(\261C\275 \207A=\202\0079=\372\271\222\274\261\225\230<\037\315\010=P\277\260;)\224\213;\000#o\273\260\370\316\274\253\017\007\274\363\234\345\274\177\377q<\306\\R\275\273I\034=rt\030<\270\244J;\303\310\335:o\361\333<\020_b\274lM\t=a\225\022\275Du6\275`o\356\274\245\215&\275]1\230\274c\237E\274^k\354\274\377\234\t\275hi\262\273\213o\336<\273\307%<\245\267\305\274\361%*=\233\342E\275\366K1=\225@\361\2734\3311=@\376\030=#\341Q=\321\2353=\213\202\021\275Q\256\034\275[\326L=\236\334\371\274\022\242\016=7q\257\274\374\274\021\275/\352]\273\230\351I\275t\201\315<\345\215\003=\005\031\360\271\265\276\002\275\360\027\"=\033\006\226<\274\005\014\275C\272\014<\360\217\367\274Y\372Y\274\274$%\275?\372\006=\366o\324\273aR\033=8\271\315<\036M\274\274#\3031\275g\n\336\274\234\374\233\274\217\235:\273IF \275\277JA<\276@\022\274\001\246\321\2742\177\237<\222\233\036\275{\355i\274\324\310\021=\216\370\036\275\350<\303\270pU`\273p\004\302<\253\327\006=T\236Y\274|\207\351\274\n\220\r\275\251y\003<\375\376g<\177\340\215:\377\034:=\321\224\r\275\276U\t\275\254q6\275\255:\353<\311\2121=\343\217\241<\025\341S\274\314\356@\275\010\251,=\232MD\275*j\036=\354\017\353\274H\002\005=\005~e<\311\2138\275\023\255.<Y\323H\275\216\t\340<\326sJ;\036W\337<\256Ec\274b\230 \275\374\215\006=\3079M=K\340N\275M\373\300;\t\363+\275u\320&\2755\243*\274\264\211\241\273\312\037\252<\266\207\343<\325\004\022;\227x\242;\343\365I\273\202a\201\274\227\024\032\275\335\230\202;\366\035\037\275\276\252M\275mI\242\273j\240\340\274\273Q\003\275:\'N=q\217\'=\021\177S=I\231\222\274\315\2404\272\201\337\234;o\0138\274\305;\241\274\305\353\005\275\233\272\271\274\266\036\211\274h\021\234\274\3648\365<c\226\023\274\336\256\343\274U\035c\274\265m \275\252N\333<\\\345\247\273`\376\"\275|c\262<3 \000\275o\345S=`1\233<G\326m;\024\313B=Mj$=\0245\007\275m\275\204\274\177\210i<G\337\363\274\342\200\207\274xl\266\274\344\017(\272\275\2302=\237\225\277<d\032H=qP\374\273\337\330L\275(/#\275&\036\316<\221\230{\274\217\350)=qw\032=\235L\t\275\245\317\307\273\220|\231;\231u\353<\340/\'\273\336\0035\275\330\025r<\n\251\360<\\.\021\275\346\272\027\275\337\"\r=\343\334s<e\014/=Q\364@=\302 0=\017\234\254<\'hP=\366@@\275\314G@\275\003\r\025=\2606\022=\227b\305<D\334D\275\230\232\207\273\206\n\005=\322c\n\274\305\3156\275\203\203\013;\201i\347\274\223P?\275\037\227\212\274\2404\001=\275\223 <\246\213\214<lv\310\273\271dD=\311\350\024\275\206\007s:n^\211<h\"R\275\353<X\274\377I\242<KQq<-\000\332\273[\t\376<(K\n=OIy<\221e\375\274\362\265\242\274k\312<=x\322\323:\217\017\344\274\316RY\274e\207N\275\264\0036\275\272\376\337:\306f\014=\264\2774=\376\350H=\235\240Q=\n\325\r=\325L\260<\030\366O\274\026\266\371;\247\236\315\274M\350\r\275\367S*;\017\321\253\274`\271\363<\342\306~\273\300\274\305\273\340\310l\274\322<\014\274\320\313:\275\325B\r\275,`\272\274pN\303\274\350\354\021=pO\372<\022\215\331<\263u =\026\224\021=d\003\326<\037\274\223\274_\031c;c\000.\275hR\355<\252_.\275\376\277H\273\341\3734\274]\357J\274\310\370\272<\370\222\013\275X\227(\275\342\276\254\274\030\357\006=\373SV<\325\337\020=\365N\004\275\350\363-\275Q\324\027\274\317B;=\031\007\262<\240\272,\275j\007\343<\234z\333<H\204 =\321\355$<\346\3760\274\360^O\273\033\271\005=\317m\303<\210>\215<\'\371\223<\226)\035=\270A\r\275A:\030\275\325=\352\274>u\325\274\244\267P:D\275\245<\256\231]\274\223\212\r<\301\363z;\220\000\021=\370\375L<\300\017\t\275\267\033\252<\nC\324\274e\377\260;\257\354)=2\331\325\273\337j\005\274\227\264\010;s\256\352;=\210*=\315C\t\275\300L\233\274\3457\340<\205\320k<:\206\036\275a]\013=\223J==~ v;\253D\r\275\3559%\275\337\\\215\274\240G\177\274\304\304\004\275\335]A=|\331\t<xlU\275\002\024O=\374\227<\274\300\333\242\273!k\327\274\327g\220\273u8==\3054\254\273TeY\274\006Z\010\275\217\261@=\305\305%\275h\231L=\2410\273<l\0368=\031\363L<}TO=\021c-<-|\000\275\330\317%=K\243\355<\337\032L\275\250\317\375;u\344\000\275\353\327\360\274\345\305I\274\'6\205\272c\275Q\275iz3=\304\037:\275\207kB\275\257\304\177;\274\353\337<h\2012\274\331\260\344<\316?\017\275\262p\321<8\271+\274\321\275\337:\266H\270;N\233f<\036\025\017=\242/$\275\207\025\233\273\2071\020\275\277\253\306<l\244\t<\301\003\337\273\351\256\016<K4r<@\347;\273\331\353&\275\302\016\013=\365x\344\273d\274/\275\262:\276<\335\272\265<\352\312\024=\022;\020\275\327Y\013=\317\320\254\274\022uF\275\220\025\2418|\2014=\037\322\263<\355\275\034\275~\222\325<\35355\275\272\277%=}\226\323\273mi\365\274\321T\371\274\372\376-=r\020U\275{\332Q\275\232\372/\275\344\t\030\275\006\\\260<&\311N=\262~\276\274\003\017\272\273\tTN\275u\007\342<\327\341\226<|\346\270<\263\025\255\274\035\007#\275\305\034?<\2338\210<mU\300:h\276\026\274\327\373\247;\206\275:=\320C\220;\261\245\350;2\027\034\275\266?\301<\206W\312\273\354h\250<\213\001G=\207\240\262\274\311D\034\275_\263\360;.\204\032<V\272?=\214\2135=:hT=T\372\352\274\365\325\263\273\036$1\275^\341f<t\310\3079\321\020$<\326X\221\274P\326+=\202\0215\274D\3707=\316\"\020\275\247>F\275,\220\323<\247\216\274\274R\027\305:n37\275\331\352\216\274\017\354\"<\006\353\344\274\2005E=\2007\253\274\374\036Q\275\225\037\352\274\026s\366\272\341\266g\273=LK\272\034|\203\274\302\376L\275\316\240|\274>g&\275\313R\205\274o\036E=I\207\245\273\363)\002\275b/\364\274\276\377\036<\351Eq<\302\322\013=\005\031\004=\340\250\303<.\006\260\273x\305\371\2733\356\032\2755\262\210\274\331 \242<A\034T\275Y\003.\275lH\"\273#\333\362<l8\213\274\362\270\202<j\234\033=l\000\374\273\227\306\344<\362J\253<W\233\330\274\211b\356<\350^f\274\225\204m<\342#\023=\\\231):#\3204\275\240\035\332\274\340Z\316<\375\315\025\274\213{\215\274\242\215\307\272\375\027\031\274\231u==:\322\366<2\211\210\274\0148\025=\321\010m<Y^\356\274\236k\201\274\024\303\235\272\352\360 <\nz\026=Lo\205;\243\370Y<G\214\375<\334\271\272<\373,~<8\302^\273@r\037\275\301\3673<\332\211\003\275\270\322\314\274Q\377\233\274\307y\022\275\350\307\013\275R8\"\275\"\203K=z\211\027\275\333\242\"=\244\221T\274{m*=\366f\375\274\341\3304=O#R\273I5C=\375\206\\;\335\372l\272\271\014\246<\363\277b<\\\340^\274\202\023F=\210\020G\274\212\253\030\275oM9=j\2042=\306B>;W\310\023\275\364Y\276\273\2775x<\200\225_<fy\220\274\n\310\275\272\006\251\315;\266\"\007=`\277D\275>\372\007\274\307\2159\275\227\217e<\335\3535=\327\264\021={\272\230\274\341B\026\274\300<\027\275\206\322\363\273\343j|<z#\212<C9];\223\t#=\236\265\322\272r\177\262<\240i\001=\037\217\301<a9\027\275c0\030\274\253\212\223\2743x\016\2756<\237<w\202\254<Mw\010=\\\005\n=\316\300\344<\360\033\356\273\356\272\021\275\335\357\317\27435B<+tU=\t:1=\263%\260<\314\025\260<3\007n\274Q\320P\274\006E\264\2749|\320;my\347<\0246\003<Y=\236<\010H\024\275\344\330\017\275c\260G=\325\335\345\274$\033\262<eU\337\274\340\331^\2749\361\274\273nB\034\275\177Xh\271\377\343\022=\224E?=f\227?=\237\224\n=\372d6=\211\376\320;#\3200\275\010$H=e\361\332<\361\321\n=cR\255<\345tF\275X\"2\271\216\253\013\275\327\031S:\211\277\204\2744RP\275\254O\t\275\210nD=A\262^\274c\210\031\274\213,\262<8\025\343<\373\037\344\274\243C\204\274VEn<{\211\306<UY\240\274j\201\277<\323\327Y<A\204\306\274\314c\024=\200\254\262<\312~\003\275{\223=\274\2649\023\275\243,\010=\212\251,=\246\362\212\274\016WJ=\214\212:=\007-@=\265D_\2749\"P=Up7=\247\253\232;\257\256.\274\367\202\017\274\276\243i\274+\352&=\177\246O\275\354\227\361\274\n\024]:G\343\031\275:z<\274\236\023\225\2749Y\317\274\373\216\036=X\346\253\274\035\323\362;\243\024*\275\305\347\023<\233\216\213\274\252#\223<\301\310\316<B\350(=Y\214\237<\251\354J\275s{+=Q\274}\274\366\372>\275\241\366\204\274`\302\240<k\357&\274\3731\220\274\356J\230;+\342\270;\364\2740\275L,\354\274\270\013];]\324t<\316d!=\344\004\034=\240\311$\275\023|2\275\221\026\276<\303\362)=\322yq\274\227E\237<\306u,\275l&|\274qH\013\275\r\250\363\274\003g\310<\334\317G<\177\030\034\273\rgN=\234\277\331<\372M\203\273\032x\376<\311\256\262\274\306m-\275\341\237\326\274C\2638=pxR\273\247\360B\275h^\326\274\367|\020=cV\312\274\302$i<\273g\227<\260 ==\022\022\353\274\251\023\"\274\t\014\242\2747x\357:0iQ;UlB\274<\245\346;\"#\272;b\036\254<\304\316\006=\010hR\275\303\206\240\274n\017+=\317_\025\275afE\274\217\022\335\274(\250\030=\215p\034\275c\033\037\275\034\346\235\274<\003\240<\313\353\372<4J1\275\262\273%\275\033$\330:Y\025\007\275,\340\201<4\364\354\274<>9=k\257\304;tn\014\274\232\342(\275\"\366\010\275w\226\364<\364z\017=\370\244\307<\255\361J\275\211!S=\237p\017=\223\337\277\274P~\033\275\020\017\230\274\226\342k<\2767(\275\234\2772\275m\2347=\364\000\304\273`%\025=\222\330%\275\036\236\221\274\326&\013<\265\222U\274\236g1=\310\201\232\274{\320T=y5\251\274\255\351\203\271x\n\336\274\320\017K\274\260*\311\273h&\331<\224\274\200<~\244\246<\202\235\243<\002\335\273\274HI\t\275\215[\345\274\213s.\275\177\026+\274lB <9\377+\275.\250\254\274\037a\037=\373\253\203\273\033\356\016=`4\020\275H\2767\275\'a0=f|\003\275\363(+=\316\224\242\274\343\010J\275\241r\273\273\351\351{;\276\354\016\275\312RP\275\324\373\264<c\312\206<\rQH<\013\2710=4\327O\275w\210\324\273sjC\274\032!K=6\345\236\274\245\005N=\'\003\374\274^\346\036=\227\364R\275\343\267\361\273wnK\274\241\214\312<#\373\263<\25528\274`\010\'\275@\344A\275+\241!\274#\231\003\275R\223U\272:\000\374\274\036N\032=v\010\233\274\241==\275\010\3154=\361^+=}\005+\275\374\266)\274\373\365<\275\314\202 \275\371\331\367\273\301\220\352;\002\364\026=\\\365\007\275\363&\010\275.y+\2758\2112\275Q\177\252\273\002dU\275\364\366\034<\344\005A=R\\*<\216\201\222\274\314o\230\274\365q\320\274N\367F\274I\216\023\275Ot\352\274\307y\323\274g\325\302\2746b9\275\'\013\226\2743z4\274\211\231\241\272CW\364\274\332o\001=\032\204\361\274h\0371\274\'\237\335\274\\\277I\275\302E\312<\3519\001\275QFM\275\301\347\342\274\260\032\013\275\273\213\245\273\202\302\260\27439\266;g\314C;\371[@\275\313\341B\274M\260\n=\211\221\240\274\361\271\351<\034\0013<G\t>=\300\276\006\275Z\314\360<\032\003\374<\274\034\222<\270\351$= \205\241\2740(\262\274\356\001.\275\356Ks\274\"\312\225</\301\016\275\347\237\001<\305\2017\275\375\001\274<R;\317;\027R#\275(D\214\274\317\350\n=w\273\025\275\004\360\372<\017\'2\275\365Y\t<\001J\r=k\025\355\272\246\231E\275\353\035\'\275\202\326\334;\"\035Z<J\303\003<:n\313\274\376\004\237\273\\\3011\274_\330\246\272e\304\031\275,fB=\211\216\004\275\232\346\014=\331\232\334\274\316\210\017\275h:G\275W<\376<\367\375\017=\356bO\274\224\311};\016\211\023\275lu\261\274G\344\257\2741j\227\272\315\005N=\002\034\335;j\214J<\266\272,=l\256\350;\364\261L\275d\223\332<\240\351#\275\203E>=\312\244\276\274\233v\r\275\270@\000=?\265\362<\n`:\275\207\323j:\002\242\350<\326\221\352\272%\026\037=d~\341\274\001\377\032\274P\306\300<\207x9\273\305\335\360;\326\244\374<\304\360\"=\254\335\226\274\010\207<<A\375T=\323BM\275\nlQ<\336\004\017\275\302\3313\275HK\032=\030c\032=R\035\301\273\203\2413\274F\223P=\345\201,\275\306W4\274\350\003`<\341G\002=3\257\312;\311\314L<\346\332\034\275\006P\373\273*hK=w\007\342<\260\251Y\274\2450\252<\204q\022\275\343P\265\274\301\254+=~\\\357\273Z\300\237\274\342\273?\275&\344N=\234\2609=\035\331(\275\236\000`\274\231\224l<2\032\230\274mR\233<A\"T\275\027\247\242\274\374\252>=\213\212\362<\257\005\222<1\336j<\021J\233<\352>a\271\241\022B\275p\274\024<\3674\350\273\231T\311<\204\232&\275\335=L=\031\203\364\27490T<z<\007\275\314\374\017\273y\261\352<\211t\032\275\367\004\226<\200\003\340\274\205r@\274%\365\220<\262P\025=\343\366G=\210\244a<\245\246\023\273TH\007<\340{9\274\250\334\"\275\226\r\002\274\277J\360\274\357\002(\274\037\313\307\273 