node {
  name: "global_step/initial_value"
  op: "Const"
  attr {
    key: "dtype"
    value {
      type: DT_INT32
    }
  }
  attr {
    key: "value"
    value {
      tensor {
        dtype: DT_INT32
        tensor_shape {
        }
        int_val: 0
      }
    }
  }
}
node {
  name: "global_step"
  op: "Variable"
  attr {
    key: "container"
    value {
      s: ""
    }
  }
  attr {
    key: "dtype"
    value {
      type: DT_INT32
    }
  }
  attr {
    key: "shape"
    value {
      shape {
      }
    }
  }
  attr {
    key: "shared_name"
    value {
      s: ""
    }
  }
}
node {
  name: "global_step/Assign"
  op: "Assign"
  input: "global_step"
  input: "global_step/initial_value"
  attr {
    key: "T"
    value {
      type: DT_INT32
    }
  }
  attr {
    key: "use_locking"
    value {
      b: true
    }
  }
  attr {
    key: "validate_shape"
    value {
      b: true
    }
  }
}
node {
  name: "global_step/read"
  op: "Identity"
  input: "global_step"
  attr {
    key: "T"
    value {
      type: DT_INT32
    }
  }
}
node {
  name: "input"
  op: "Placeholder"
  attr {
    key: "dtype"
    value {
      type: DT_FLOAT
    }
  }
  attr {
    key: "shape"
    value {
      shape {
      }
    }
  }
}
node {
  name: "output"
  op: "Placeholder"
  attr {
    key: "dtype"
    value {
      type: DT_FLOAT
    }
  }
  attr {
    key: "shape"
    value {
      shape {
      }
    }
  }
}
node {
  name: "HistogramSummary/tag"
  op: "Const"
  attr {
    key: "dtype"
    value {
      type: DT_STRING
    }
  }
  attr {
    key: "value"
    value {
      tensor {
        dtype: DT_STRING
        tensor_shape {
        }
        string_val: "X"
      }
    }
  }
}
node {
  name: "HistogramSummary"
  op: "HistogramSummary"
  input: "HistogramSummary/tag"
  input: "input"
  attr {
    key: "T"
    value {
      type: DT_FLOAT
    }
  }
}
node {
  name: "HistogramSummary_1/tag"
  op: "Const"
  attr {
    key: "dtype"
    value {
      type: DT_STRING
    }
  }
  attr {
    key: "value"
    value {
      tensor {
        dtype: DT_STRING
        tensor_shape {
        }
        string_val: "y"
      }
    }
  }
}
node {
  name: "HistogramSummary_1"
  op: "HistogramSummary"
  input: "HistogramSummary_1/tag"
  input: "output"
  attr {
    key: "T"
    value {
      type: DT_FLOAT
    }
  }
}
node {
  name: "fully_connected/weights/Initializer/Const"
  op: "Const"
  attr {
    key: "dtype"
    value {
      type: DT_FLOAT
    }
  }
  attr {
    key: "value"
    value {
      tensor {
        dtype: DT_FLOAT
        tensor_shape {
          dim {
            size: 8
          }
          dim {
            size: 3170
          }
        }
        tensor_content: "\016\354\004=\343\306&=)j\003=\254\272/;BE\276\274\336\352-\2750\377\305\2732\010\013\274\375\"\001;9 \366\272\n\242\235;\202\027w;=\273\271<x0\227<:g*<\375u\322\273I(\226\274+\253(=\034\254l\274s/\310\274\345\214\032\275\254\340+=\363v\004\275\375?}\274\007\271\030\275\245\357\303\274Fq\027\274\370\001\r=\025\010\\\274\342\213,=h\277\'\275\315+S\274\227})\2741\016\274</1\034=\333\\\200\274\010H\300\273\023\242\243\274NR\326<\002\323D<M\206\031\275\242\221\023<Zk\322<\341\224&\275\274\273}\273\333\222\316<q\352-=\344\030\357;\300\037$\275\345\220\230\273c\375\335\274\324\3464<C\252\312\274cy\370\274P\331M;\001>\016\275\301\217\244<`~\034=\211\314\035=\340X2\274?T\010<{\241f<\361\007q:\276\305%\273\027\321.\275\241\316\031\275\375\235\271\273\035\024\303\273\205\236\337\274u-);2\024\r<\247F\235<\241\323\211\274\"\037\010\274\342\311\345<\267\034\370;\257\004\223<d\022q:\177\370\352<\275\031\235<\350^\002=t$\323\274Dl\217\274\002\315\t\273\315\261\021\272$O\031<\320\014\343<\206\344\035;\247U\034=\312\006\237<T\261\344\274\004w*<\247[\261;\200\204\273<$M\332<\315[\217\274\204\267\000\275\206\307@<z\004/\2757q\315<kL=9\001\3630=KK,=\345J\302\274g\"\371<\322\261\336<\205\330\273\274\331S_<P\331)=~\332\244<\233\357\017\275\313\353\\8\340]V\273\306\2651\275\244\t.=\350i\006=4Q\311\274O\t\026<\202\273\037\273\276\231H\274\204\323&;\023\227\270;\rt\355<\321\235\033\275\326q\027<0\232\2449I\325\361\274;h\374\274\365AD<\232K\010=\272F&\275\364\366\314\273\314\202\006=\371\313\005\273\213\215<\274\204\241\270\274\210\316 \275\242?\347\274p\254\241;\273W+;\261\331{;\342\r\217\274\224\022\002=\264\375\366<\326WC\273\026\361\262<\261\337\311<\265\315;\274z\270\345\274l\356\257\274+*\273\274A\353\031\274\344h/\275\322\373\233\274\036\037S;\234\030\333\273\323A5;2\351\252<\262}\031=\304\276w\274\035T\243\274\322h\007\273I\022\034<o\245\336\274\211\002(\275\020\272\322\274\274u\265\274\020N\265\273\272j:<\315]\215\274\250A)=2\034\004=\353\345+<\361\320f\274-\036\353\274qlc<\311`\231<Br\032\275\345\332\303<\022U\n=\222B<<<\304\220<,^\001= \271\037=\356\345R\274\350\346\034\275\271\224\206\274,R\352\274JT3\274)\355\2649\017\315\316<\220\017!=]\240\225\274\357\344 =\277\355\340\274_\256\252\273G\007\342\274vd\252\274\235\331+\275\226\237\264\274\220\225!\274*\007\201\271\324\333\213\2748U-\275\303#\006=\257\337\273\274&\035\310\274\004~0\275v\325\252\274\306.\240\274$\023\321;fp\350:\200\005\325<>\'\306<\036\026\031=Nl\022;\252\322\032=S8\341<IK\335\274\277\230\214<\202\265\023=Nw\017=T\277\000=[4R<\205\300#=\201\366\261\274\253\202\214<\330\367\005\275\211\277g<A>\225<\004\337t<\350\212(\271PK\374\273\364\204\002=~I,\273L\261\201\274G2!\2753\217b<G\360\265<Rv\2609|[\243<|\343F< \375F9\211\347\335\274HMK\274\t\212\243<e`\262<p\020\037\275\343\243\314\273XK\033<P\\\245<\246\220\017\274\306\000};\242\355,\274\010\261c\274;lw\274\357@\344<\277o\026\275\310\007%\275\375\277\203<\266\021C\274\353\277\034=\334\216\352\274\"\212\373\273\377j\020\274!\337p:\377>\364\274\r\316+=Q\003=<\305\360\030=\232\351F<\331}A<c\315\017<;\253\264\274\276\334\227\274{.\355\274\265\273\223<\332\210\375<\354\271\307\274V\340\033\275\253t\t\274\375\304%=B\375\374\274\246\367\235;D\350\304<\2351\331\274\363\\W\274\271m\305\274`Y<\273 \343\032=h\324:<P\241\n\275\'\334_\274/\r\221<\371\0060=j{D\274O\350\327:\346\232\304\274\010,Y\274\217\251\002\275\r\247\340\274\250\'\217\274\250\256 \275V/\236\274Zd\024\275\234\231\'\275\334a%=\351,w\274w2\206<\014\322\234\274z\017\252\273\024L\343<N\353\320<\244;\024;N\035P\274\244\337x\274\330Z\010=\336\037\n\275\366\331&\274gw#\275\326\t?<\341d\035=d3\304;5\275B\274\2371\205\274\322\221\220<\355\356\372\274-g\235<\262\361\357\274a\022\235\274o\022(=Zcp\274\010$$=\226\030\016=\340x\335\274\333u%\275\"P3\274\331/\211<AZ =\353cJ\274A\016;\274\203\236\000\275t\234\266<\301h4\273\263\332\321\272Z7\336\274q\232\036\275\327\312\204<\033a\301\272\200\n\351<\205\026(\275\033\314\354<\316\241\361<>\210\236\274\332qq\274A\321\240<\022\204\251<\212\304\321<\323\024\024\275\335Yy\273\036\270\371<\237!.=q4\237<\264f\333<9\375\t\275m\321*=\024\220x\274]&\345\274;Zr<\225\240/\275@\277\336\273\362\325\213<\t[0\275)rz\274\236f\376\274\213j\007\275\350^\034=\005w\027\275\352\204\020\273\212\270h\274\247\022\032=\250Q\353;\001\340\177<\277\212V\273G\037l<\355\030\033\275\244\007\016;aO\003=\351\234$;zN\014\274\223\363\021\275\343\205Y< &\203<\260;\215<pp\264\274\245O\003\274\360\366\001\273\271\345\232\274\025\r\032\274\253\211\035\275\232\033b\270*m\352\273\225\342\n\274\222{\332\274|\336G\271]\276R<\225\206=<\247F\374<K@+\275\005\300\324\274b\037\363;g\277\030=\360\250\002=y\235\214\273\355t.=\2679\376\274F1\205\274\004\2451\275\346\002:\274<3\276\274\312\373\252\274\261&%=\303\331Z\274\352A0\275\370?U<\t\033\035=b\310\010:\314ey<\327t*= \252\314\273_\013\276<,\350\030\275rP$<\251[#\2741\363\014=\261~\207\274\265%\243\274\027\000C\274\t\352&\275\t\234X\274\257<\325\274\354\315\340<i\373\r\275\224\303&\275\257\255\016:0\336\026<)\r\322\272\345\013\000\275]t=;L[\331<\027\353\371<A\n\013=,\312\314<\251\014\036=\200\245w\274\300\376\346\274mu\236<\335\310#<\222s+\2756\216\007=UI\243<\0047.\274\035\230M<\336\010\230\273i\260\347\274\222B\267\273U\003\371\273k\177+\275-\2161\275^\303\262<}7\300<\r!\207<\305>\337\274\266\014\177<\343\244&\275\211\355\007=k\204(\275?\030\003<\004\'%\275P-(<\027\336)\275D2p<\"\247\335;\t\233\005\273a(\221\274\225\230g\273M\026\345<;\2176\274\262.\366\274mV\202<B\251\021<\026\354\204;\337&\024\271\367\346\323\274^\227\271<\264J[<|\237\004=\213\036(<\017\226o<w\3022\274y\360I\274\226\360\257\273BRB;\232\3610=W[z\274\203\210\343\274\350~\001\2754\247\305<\230\266\010\275\240\351\020\275U\3100=vv\016=\020\367\316<\024\004\264\274\244\226\337\274\335N}<<v\035\275C\336\"\273\222\262\024=]\0031<E\307S\274\260\374\367<a9\r\275\242.E<\"\214B<\353(\n=\362\360\t=\252\327\300\274\003\327\361\273\t\336W\274\n\036\356<\337\205b\270\264\021\231<t\017\013\275\225\334e\274:\245\300<\247g0\275J\241\207\274L\025\002\275l1\262</\367\034\275\372\202\377\274_\267\202:\010\337k<\245H\252\274\203\n\316<\252\224\033=Z\303\323<I|\021\275U\207\227<\017eb\2743\000f<\250\221\321:\243\r\212<\365\033\331\274\213(\304<\310\212\310<\0320\r=\007%+=\242\244Y\272\014\316Q\273\231\375\311\272\345\224\234\274J\367\030<#\020\345<}\335.\275\027C\265\274\344]\017<h\355*<\002\314\035\273Y\026\2039[>\263<\035\314\346<_9\201\274\250\270\205;b\232\307\273\317\025\337\274\325\275\230\274\016\347/=\275Cl\274\022K\037\275\026\027\254;{]\305<F\216\242\274\360c\030\275\260\326\032\273s\037\004=O\331\252<\362jN\274\013\307\013=\022?\270<\326.{\274\252\250\020=\323\345\265\273u\"=\274\0032\200\274\031\335\021=\334\277\265<m\032\310<H\300H<\223\377\246<P..\275\343v\313\273\322\314\312<\316\273\024=\352\010\000;\227=\206<\272\335 =\377\360\244;k\215\005<N\364\272\2737b\221\274\255\270\214<\361\233A\273\220\230$\275\343\023\275\274\224i(=Y\325\252<\216\274\332;\216I\232\274\333\025\025\275\331\236e<z\320e\274\035\243\006=\213\253!=&\367\307<\026\376\034\274\n\224R\274\314\253\'\274\007\233\271<\262\3707;\233R\340<L\325\335\273\225~\356\273 $\262<\317z\274;\231*%\275.\0108\274\273H\247\274\243f\030\275I\255%\275\335\363\021\273A\224\000\275~#\252\274uC\333\274\353\247\216\273_\231\032=\271\027*\274\231\311\374\274\261\242\305;\255\317\032\275\225\367+\275`?e<%\304\023<\003\037\023<A\313H\274\007\253\210\274\233.\346<\367*\255;d\310Y\274\177dw<N{\216<\004\006x<\272bv<R\204\373<=\200\033;\333\354\270;I\235\314<\244\206#<U\377\244\273\275>\361\274\360\257p:\202\253t<\370\0067<-K\317<\234U\335<0\354R\274\313\302\222<\261\300\035\275\262\"\034<\023t%\2756\221\021=\277%\177\272-\342\016=\317\360\322:P\006\375;G\274\234\274BPJ\274n]\246;\343z\255;s<\221\272\276\036*=\336}D\274\354\202\005=Bi\327\271^\331\226\272\362\331\"=\306X$\2746\213\360<\350\344\203<n\232\202\274\023\300\322\274\335\327\037=y\242\362<\'p\005=\360\032\200\274\362\226\035\275\310\260\326\274\007\026\025\2740\204{\274M\261+\274;V\010=\304\372e\274\315</\2756\376\260\274\325\366\236;\350e\257<\000K\n<\314t\224<\361\366\327<\307\251\001=:\310\275<Uz\031<\0378\035;\317\354\254<u\227/=\352\260t:\373\324\256<n\264\n\275\024\022\345\274\362\365/;ZE.=9mb<\272\262\364\274b\271\372\274N\0020\275\"\326\377<\326%\347\273v\311\033=\320\020\233\274a;\257\274\244y\333<M\332\270\2744\201\204<\235\361\003\275\222B1<\037\3551=A\345\235<\\\356V;\321\340\345\274j\377y\274a1\014\274\333&W\274\0074\204\274\260E\356\274\252&%=\371\312\271\2743\353L:c\010\013\275\363\343\030\275\217.\272<\352J\034\275L\336J;To\364\274!KM\274\341\321\227<\217\352\366<\241\016\237;\332l%\275\013<\365\274\340\273\312<Js\303;\304\211\274\274x\331\224<<A\347;m\302\251<7\225o:\006$\271;\363\337\031\275\324\332-=\372=\377;\307ou<\321\257\030\275Jc\255<-\351\366<\276\030\222<\267\025\356;\013\252)\275k\312&\275K}Z<jq\353;H\0043<wA\345;\016\322\204\274\236\354\002=\3043E;\236h!\275+\025\245<Z]\272<)\036\034=<\374\366\274\306\206\325\274N\241\346\274\367:\237\273q\353\317<d\235F\273\325\203\217<g\035`<\213\217\024\275\236\204\037\274\337\304\032;\372}\250\274\370\336\257;\264o\364;\235\002\210<4%:<\031\364C<\355\221\020=)\227\024\275\026\214\307<\205\342\246\274\241jd<\376\333U\274\362I\216\274\303\322\206;2\245\233\274\241!\374<=\350\357<@\"\026\274\031\305\'\275\356\303+\275\014c\353\274?JA<4\357\320\273_\376Y<\270\003\302<J\327\242\273\000\025\275<\233g\013=,\032\001\275\303_%=ED\256<\254\003K<\267\251\016=k\274&=\240\352\036<\232\276\204\274L\314/=\346P\311\274\230\303\016<V\263\025\274.\020e<\035\235\005\275\272#\315<\334\\\343\274\307A\275\274d9r\274\250G\025\275\353l\256<U\020\252<\260D\246;\\S,\272[\207 =p\206B\274.\252\032=G\364)<\260\\1\274FX\352\274p>\301:7\025\355\274S\301\022=\037\324\245\273{\362\n=\336\301\245\273\234\3427<\275\220u\271Ya\031=o\r\353\273TY\330;\332\024\001\275\303\224!\273\03366;m\243\003<\216\200\355<\270\253\370<\366\326\365\273RU)=%l\036=\367\340\227\274\1779\316\274\2547)=_\3030=|\362\346\274\335\332\022=\343\035\225<F\0001=\377\272\360<}j\202\273\020\323\367;\273R\005\275z4&=\264\231}\274\232\232\207\274\035\003r<9j\356\274\347,\274\274(de<\017\214\351;\313\373\016=&r\202<\202ax\274\334\214\036=\366H\366\274\014%0\274\223\311\262\271\231\315P<\236\363+\275\241\034\360<{\300,=\344f\306\273R\260\007\275+\300\266\274up%=\301a\246;\373\371\345<k$\317\273p\377\246;x\373\261\274\337\006\302;\tl\362<\212\261\r<\262\346\361\274c\347\242<@u\353\274u\256\034\275\316\240\027\275\252\365#\274\376\231.\275\206\374\'\275o\327\333\274 \324(=\246\315\343<\316c$<O\251\371;\004\352\210\274+l\n\275{$\347<$\255\017=\377\206\355<\203\217\316\274V\255\002\275\264<\016=\275\336\342\274\370\203\020=\211\253\032=\242\256\347<bM\340<\231b\027\275\307it\274\330\306!<I\n1<\272\006\331;\302\360U;~bw\274\327\262Z\274f\265\027\275%]\022=\216O\351<\"j#\275\001\376\r=9\275\300<\034\277,=>!\321<\217\026\221\274\217d\276;8\235\033=_\"_<\336\3573;\332i\226\274\374\017\360\274\300\210p\273\246\244:\274\366\260\347\274\211K\014=]\233\257\274r\375\315\272+\325\212\273X\304\r=u(\342\274@9.\274@\340\017\275\325\351\203<\256S\251\274\314\033\200<\177\364\032=\033]\014\275\226S\037\275\370\311\351;\267^\031\275p.\034\275v\236\206\274\323\371\362<\371r\034\274-\312\014=\206\354\016\275\211#\022=\341\353\242<\021\264\004\275]<\233<\231\344\020=p\310\370<3\274\352;\350\353\231\274\326\004f\273\256\227\030=\300Y\236\273<\200a\273\245\017\347\274\316\327\233\274]|\327<\305[\037\275\263\030\362\273\235.\t=s\377\325<\213B&\274\272qe\274\024#0<@\210\017<E\372\021=\373UY;\307\261\316\274dQ1\274\n\031\200<\336\311\177\271]\016\273\274{\256\315<u\311R<\350\033\214<\200\030\t\275/\303Q<6/5<1\177\002\275\240\330z<\252\340\326\274\004n\345\274\375e\030=\2776]\274x3\226\274m1\336\272i2\207<fg\247\273g\267\001\275e\357\270<\376\203\351<\010m\343\274V\330\027=\\d\"\275\320\303\036=\274\201\370<\266}\331\274\352\300(\274\025\252\310<\246\000\003=<\'%\2755S\327\273\350&\232\274hci\274;\262\353\274BG\213<\374\017/\275\274\246?\273\037R>:\263\356\217<P\264\261;\310\377\252;\324\036O<\306d0;a\217\341\274C& \2759x\266;\311\227\227;W\223\203\274\310v\350\274\251\254+\275\234i!\275\207\376(\275\202r\237\274p~\325<\000w\212\272\343\\\021;\333\321\227\274p\301x<\301[v<\273q\036\275[\325\253:\215\206\241\274\\J\207;\215t\201\274\265E\346<\026)\004<\220\276\306<\255\035\004\275z\306+=\320\005\017=\263H\031\272]9\370\274\312r\306\274!A\016\275\256\364\301\274\341h\363\273\2307\006\275\202\215\321<\330m.=\010\2448\274\2217\256;\271\227\331\274\375@\032\274\004\247\267<M\245C<\241\277\273\274\313t\034=\204:Y\2743|\326<\332Qj\273-\2004\274\220\227\r<\250\322\010\273\204A\013\275\341\277\001;M\273\313<x\317\016<j\023\300<\362s\232\274\374\266\236;\323L\333\274Z-\004=\267F\360\274\214v\236\274P2\356\272\356\263\352\274KT\026\273\327\351\354<\361X\217\274\300a\010\275\341\3208\274\017&\370\274$\203\305<\203\223\372<\0176\374:\243\330$=\023l\003\275\255\241\354;9\017,\274Hy\202<\363\376\036=\2641\014\274\306\217J;e\346\342\2730\327\017\275\255\200C\274\216\343\030=\351q\227<\230\342\022\275$\264\020=\330!\312<\317\272\224;\255S0=\323\220\365<\230%\003\275\201C\313\274\250\n%=2\005*\275*r\241;\022.\205\274/G!<\200@\243<\230\307l\274wu\242\274\022D\200<\202\357\220\274\262\202\207\273\356\357\316<1\246\245\274El\t\275e\364\004<[c\303\274b\206\205<\351\345\230\272\212[\210<\337\301\026\275\221\207\220;\257\256\330<\371\205\254<\215n]\274\3718V<\276\"\356<N\3617\274\376\234\026\275S3\227\274\321B\240\274\006\317\327<<\027\344<\235\001e<\306\013W<TL\271\274\350\273-:\227Q\213<\256\332\315<t\004\001\275\357\036(\275\204\376\336<\024\350\366\274Tr\266<\025\027\263<\260\'\016=\250\030\331\273\221h\232\273\302\217\n\274U\001\025\274\023v\026=3\251\375;\257\350\373<~\252/=\221\254\222\272\'\377\301<X\211\275\274\241DS<\267\032\267<o\377\t=\247]!\275\333h\206\274\366uk<\\\360\227<\340\371\016=\305\255\013\274f;\216<`\323\013\274\215\205\005=\r\215\261\273\204U%=f7\363<\354K\032=\325\203\005\275\210/\343\274b\340\024=;\005\266\274\375\234?\274\035\363\275\274\317\006\032<\355\n\332\274\257hd</T(\275w\242(=k\216*\275}i\345\273\032\375\370\274\374\203\023\275k\250\361\274\0202\037\275\247\251*=\000\350\254<\360\352\024=\010\272\220<s\277*<\323S\244;\033\022!:\341\030\307<\t\n\200\272\302\305\242\273\201\254\007\274\367\324\r\275\377\005\202<g\025\271\274\325\177\t=\342ub<Q,j\274$\007\323<fp\016\275\341\241T<\006\262\016\275\224\234\006=\177\256\010\275/\031\025\275iKJ<CD\017;\267e\t\275rB\235\274\337q\245\274q\0021=\240\325\3429O\231\201<c\330\000=\273M\306\273\262\030\201<+\003,\275\344\334\242\2743\371]\274`\0067\2747B\335\273fY\270\274\305\317\254\274\027\3730\274Z\215/=K\322 \275f\316\262<\236\241\367<\243n\347<\337\256\013=O\032B\2742\373-\2745\013&\275\374\220\020\275 \245\240\274p\t\241<\271\321\327\274\376\217\021\274\226\303\306\274\233\250\275:Tq\332<\'\362\201<\0108*<\272\022\203\274\355\010\032\275\341o+=\302A\226<\204\242\033=tY\007\274\355\260\305<\367\201\370;\344\021\337\274\r\234_<\2225\357\274_(\031\275\201|\220;V\210\267\267\312~\036=2Q\220<c\366\361\274Y\271\203<\376a\266\274\202\322\005\275\341V\351<b\031l<&p\202;\n\303G<\272C\020\274\326\007\352\274Z\2101\275_\344\350<e\322\035<\326O\217<\346+\037=RW$\275\003<\023\274\212l\200\274\026\2507<\2105\331:\232\007E<\325;\315<\352\225\013=u\323\021\274\344\216\351<\365n\330;t-\304<E\340/\275\374\236a\272\213\302\330\2730\006\350;\334\327+\274uY\014\2757C\254<\020\256\332\274\023R\306\274@3\t\275\3036\355\273^a1\275\214\350\307\274C\236\251\273\021\206.\275\326\216Q<\315\212\353\274q\033\243\274;PQ<\377VD<h\032\211\274\344\330\220<\231\202\202\274q\372m\273\322\r1=\372*\245\274*:\236\273\t\367\223\274\327\035\342\272\365\366\335\274\240[\035\273\221\300$=B\016$:\036u\r\275(\314\231\274\233L\031=\374R\266\274\326XX\274j\027\372<R\234}<\371\374\254\274\036\235\010\275\010\204\024\275\355\362\213\274j}\014=\202\275(\275\001\370\030=\210R\211<V\023\266\273\330\215\376\273\257\032;\273Z\345\030=\310P\036\275_9j\274\233\230I\2740\005\014=\021\251\017<\246\034\336<;\\d<\177\370\202\274\270\377\t=ry\260\274\031a\'\274\301\270\220\274\353I\377;\t\365\226<\342\332\271<\021}\346\271\270a\334<k\222\204\274\331D\353\274\350\233\237\274\311\227\264<\261M\342\274\327S\245<\032q\214\274\364\363\266;jT)\275\026\0164;\373\311\006\275nk\024\275~u\354\271=i\212<.\275\203<`\365\277;\030\360\375<\007\267\326<\243\025J\274\235\276\273<\307\267\277\274\020O\206;g\212\260\274b\003\346<\233!/\275\035.\n\275\212z4<\331\303\300<\207\362\355<\354\224\335<sf\245\274\"Z3;3g-\274\225\210\221<\322^\027\275\260\330\274\274}3)=On\003<\021\'\222\270\357\307\357<\035\206\224<D\302\340<\234\035\226;\347\350\211\274\337v\242<X\273\347\274t\t\001\274@\254;:K2\260;c\025\031=\274\253\326;\246uT\273\3206q<}\024\241;\354A8<\206|6<\337y\r\274\034\364\264<\263\267*\275\217|\021\275F\006\262<\340:\232<\3049\360<\367\373.=P-$\275\337#>\274\246)K;\t\376\264<d\326\274<\232\316\300\274\350\003\340\274a\336 =\345\254\205\274/P\022=\202\342\031\275.\342*\275\367\272\213\273`2\346\274CQ\000=\227b\004<.\034\316\273\263\341.\275\270\255\203<^\307\325\273\312-\005=-\035\017\275d\314\266<.\377\273;3{\007\274n1\230<Y\323\220;\033B\032=2f\226:\273\007\264<\356\035\353<\334\326\"\275\225\243\334\274V\257\221\274,\374\030\275\242V\027\275\031F\006=ao\022\275\331\340\217\274\240\325\r=\023QT\273\001\336\351\272\270\300\313;\245\0358<*\004L\273C\006\033\275P\035\024=\203{\024\275*\264\033\274F\363\004\275\256\025\245;+\316]<\235\251\241\273\023\355G\273`\341\276\274\002\024\264;\243\223\313;s((;y\004\232;\362\212\277\274\241f\021\275=s-=\322$+=\020\275\030\275s\200\013\275\021\000&=d\2450=\010q\353<\256u\272\274\026\375\t\275\222\201~\274\252\232\363;\271\256\203\273\365\350i<:x\246\274\003[\310<\313\242\273\274\304\231\177\273\232u\371<P\254\326<\361\223\222<=\234\221<\345\244\270\273\216\213\r\275\342\232p\274W$\020=\242\275\031=VK\324<\314\005.=\031\362 =\032,0=R\266\021\275\343\242\221\273|\316G<\311\327\222\272\246L\013<\033Y\r<y\277\303<\020F\035=\267~#<\264\002\246\274\3538<;\240P\027<\024\022\330;rH\262<h\002-\275\034EF:\317b\364<4>\240<\352r!\274\255B\031<\033\032\343\273\226\216\207\274\337\204\034<\341\'1\275\0319\226\274^\005D;l\004\201<\214\214\262;\030\004}<\205\264#\274U\035w<\021\307\211;\n\367\203\274\246/\001<f\377-=\337s\r\274\016\217\244<\035\254\362:\017\273\301<\263\366\211\273\036\277/\275!\220\272;|\344\177\274\234\342\245<\303go<\243q\017\275\354\177\351\273\242\326\327<\024\233\002=-s\304\274\n\272\007\275-\231\360<\273\322\324<\205\032/\275\265T:<Cb\305\274\303\034\261:\252\214\322\27446U<\324m\334\273X\340\214\274\227(\001\275\335#+\275\241\033$;\014\007\232<\022z\201<%\261\240\272\3265\305\274!/\231\2747u\t<\253s\3129\245\003\002=\2240\t=_\2501=\213\200`<<\203\310;\025\230\261\272U{\245<(\244\236<\312\362\320;\032~\220;\250\250\271\271\216\325#\275v\374g\273\260\364^\274E\364\264\274m\350\344\274dm\310\274\017j\356;\026X.=\010\315\247\274\242^\r=\272i#\275\252\257j<e\371%\275{\026\013\275\347\243\315\274@\222P\274D0\002\275H#.=\005)\037=\261$><I]*<\250f\007\275xY^\274Na\016\275\341;\353;\275\001\274\274\375\214\345<;\235 \275\216j\354\274H9&<\210\036\327;u\325\210\274S\t\t=\241k\022\275\"^\320\273\360H\301\274\312\224\376\274\333n\341\274\027A\305<2\027\010=\306.\004=\306C\340\274a\320\025=\254\305I\273\240\324\037=<Y\000=\301^\\;E\346\010=\201\233\210<\243\256\270;\276\336\017<sG\273\274\363\362\020=\261?\373\274\002=\n\275\377u!=\311\t\301<i^\215\273\215\022+\275qz\034\275\030\237\373\274\000g\004<\027\333\022=\305\242\031\275\205\361\022\275U\335\345<\334\216H;\346\371\361\274\236\223<;6\220\273<\212U\t\275j\310\232\274G\341\227<\304\234J\274O\310\373<\025\346\032\274\005b\232\274`\233\332<\210\310\363\273\376\3316<5\246}:\220\000s\274\036B\307\274\r\177\243<S\240\341;\365i!=\224\355?:\331\033+\275\316S-\275\321\201\000\275f\014\0049z\316\364\274\365;6<pT\n=\310x,=\225#\032\275C\326-=\203\271H<\2339\373<,\220\240<Hoz;\357R)=\234\273\026\275\251\014\355<\374G\020\275\000P\312\274N\377B<\250\003\014\274F\376\264<9\020\226\274\276O\237\274\n\253\200\273\305\357\034\274\301\347j;\304{\316\274\273\374V<\004\315\005=\312y+=\202\237\232\273\204\250\371:\234\361\223;76\027=\024\275\014=_K.\275\234\337-=\337\247\024;\220\030\254;\305\253\321\274\337\341\014=\252\320\276\274>\240A\274\265\267\242<\265D\266\274\030^\026=\324\371\310\274\224\177\023\274\327\212\334<a\277\211\274\322\222\337\274q\007\247\273\016\001 =\010D\273<\226\271V<\362aQ<\354\300\247<\332H\334<\353\335\205<\374|*<E\273\367<\300\342\255<\231\256\200<\227\213\005\275p\223\022=\257\315 ;O\301\354\274\033\371\377<+\364\\;\350b\273:uW\240\274\347,\337\274qv\244\274\202\233\027\274\311\006\032\274c\367%=\310\027\032=\333\221\276;\223\374\"\275 v/=\"\277\000<F\350$:\216\350\003=\223F\032\275\t\356\234<\212\324\367<\032\356\353\274\250\374\246:0#\022=5\212(\275\257\333\014\275\\\224\004=\317\275\311<x\217#=J*\005\275g\215L\274\206B`\274\256\335\333\274Z\201\032<\236\324\r\275\376\026\027\273\001\275\247\274a\034\204<c\360W;\245^\233\274\350Of\274\253s\322:F\240\006=n\031\201<\301_\362<\373I\025\275hC\000\275j~\3139K\304\321;\005\334\210\2745c\324<\374`\026\275$\241\236;\004W\006=\220:\213<\272\360P\274-\375\'=s\206\'\275\257\003H\274\031\306\307;n\344\201<4B(\275vh\017<5\r\014=\262\240J\2740/\203<\377\356\300\274)\305\t\275\272e <\330\300\315\274\330\002\257\274\233\203\006=Q3\367<\301\320\027=\256\252\032=\350\273\026\275\307j\271<S\373k<\333jS<A\207\036\275Pg\372\274\022\350&\275Vs)=\374\303]<\300\221Q\274f\262C\274\026\333#=i\310\026\275\020\337\322\273\323\315\025\275d\227E<H\211\332\274\300~\r<\366\344\323\274K\341\010\2751\274#=\306v\016\275\311J\332\274\311}u<\005\340\320<**\261\274-M\025=,\005\233\274\357\210M\274\203\376\000\275\274%\"\275X\273\006\275O\243\227<\221s\261<6\3230\275n#\206\274A\256\203:\204|\020<\3437h\274\003v\240\273\t\214\014=\335\225\256\274ft\265\274\331?\\\274*\312\034=\307\351\376<Y\367\330<\354\202\373;:\307\247\274\244\336\375:2\323\'=\2748\001\274\370\314\301;\210\350\t=\277\361\233<`\020\332\274kw;<\301\277\206<\244t$=\310\n\331\274\212\371\345\274\251\374\221<M\360\325<\216}\275\273Y\372\370:\337\027\341\274\313s\032\275\241=f<\331\310\374\274\333\314\312\274\003\370\371\274\001\376\021=\305\210\346<\253#\357;\021\357\324\273\350b\275<E\365w;\325\254W\274\206GG\272\006\224!\275\322\354\310\274\212]\335\274\025\227\305\274\"\361\233\274t\312\301<6\330v\274\375\343\302<x\312\227\274\023V\224<\207\211$=g\375\350\274\rq\252<^\341k<(\203\014=\303t\307;v\025|<\205!\033\275\003d\225<\013\340T;\363\006\316\274\333\336\244<\373\177g\274\206\356\016=z\362x:w\376.<\262@\317\274_#\206;\014\362\307\274\250g(=\370\350\001\275\301\320\252\274\323F\232;\336^\315<}\025\340;\332\317S\272\341\271\200;\314\341\360;9\266\340<k|\261\274-&v\272\364\030\217\273\366\365\245\274\234!z<\256s\023=\204V/\274zJ3\2745\244\250<\022f_\2744\327\034=\332.\220<#\232\327\274\"gA<\024\034\356\274\270\n\000\274\261$\036\275\327Q\004\274D\236\004\275\3344\342<\217\002x<!z\212\274-C\037\275\020$\347:n\304\271<Q\265\n\275\257]\225\274\354\345\223<\017\271\007\275\335j\261<\237\017\220:\332\234/\274\255\r\354<\240D\242\274{HS\274\024\271\247\274\001\213U<G\213)\275\243\025\014\273F+><\234\300\232<|<X<{\257\"\274\333\010\245\274\202\255\035=\267\302\206<&\224y<\333\021\207\270RP+:\313hH<\311\013\022\275U\360\030<\014\370\027\275\224\231\314\274\274{\267\274\032\240\337;P\320\310\274%\024\037=\277\327j<0\212\345;m\n\023\275\307fq\274\270j\004<n\357\274<\313\352\372<\r\374\021\275\017t!\275/n\365\274\231O\365;\256\tB\272\311\236\334<F\273\214<Bh\252\274\325\341T\274\227q\365<M\360\033=\266\240\365\274_\236\240\274\224\302\253\274\210[\325:\264\003\266<\235]\315<\275\356\366\274\304\227\003\275\214\325\017\275\230w\020\275\006\007m9v;\022<\313j =U\352\355\274H\'$\275a\213\022;\"\311\022\275>>\351\274\177\244\036\275\361\177*\275\201k\367\274)\274+=\302\314\352<I@\263\274\333-0\275\020\010\334\274\311\027\037\275\230\254:\274\351\025\341\274t\243\306\272Vw\314\274\027\357\201;Q+\304\274\217\313\354\274\232Y\275<$\327I:s\257W<\301\361%\275\313\232\331\274\032\317t\274*P\377\274\361\207\023=\354\334>;\246\331=<`^\023<\352\364\311\274\031<\216<\301\226\222<>!\000\273[\014,\275\037\266\236\274\"\271\006=a\354\030<\300z\315\274b\243\337\273\334\245b\274\n\254\014<R\244h<S\222v\274\345\233u<\017\271\343\271)\373\004=n\342#\275)\342i<\006\214\255\274\376B\007\2757\261l<\333\323c<\217\0017;\222J\205;co\302<\356\337\371\274\302\016\021=*\277P:>\274\n\275wB\215<\310\"7\274\317\300\217\274!\007i\274\265$\023\275{\224\260;v\204\210<\333\3500=\036d\031<p\300\276\274\0231\317\273\312\234*\275\377\244V<\342\010\242<\222\210\311\274F\253\315<P\226L\274\342}\302<\206O?<G\264,\273\267\205\376<;\037\"\275\371m\227<)(\005<#\314\305;\267Q\221;!\366\270<}\327m\274\350\264\233<\366+.=\225\367\t\275\320\037\245\274\315\222\262\273v\350\225\274\264\014\232<mS\222\274Qj!=\263\262\032=\006\352\354\273\334j\r=\247H\020<\322f$=\333\016\003\275\nG\010=\256\014 \275P\277\"\2752\206Z\274jv/=s\007\340\274y?\020\275\304\027\027\275\370|\025=\243\244\"\274\327\024N<.\364\032=\203MY\274\207\303\021\275d\304\262\274\213\255\266<\203\243\204<\254\2613<\310a\312\274\277J0=\333!\333\274\\\002\366<\263F\276\274\202\202\242\274V\001F<1rP<p\221\215\274\326\337\300\272\202*\371\274\257>A<\362\314\244\274\205\374(;\361`\234<~\024]<\307\227@\274\247\000\344\274\002u\275\274 \275\264<o\360\010=\r\374\256\2746r \275\354-\377;#5\315<|\311 \275\266\344A;Q\252\341<\324\225)\275Jv\263\274\002\200 \275!\026\263\273\245k\020\275\345\366\006=)\217\014\275#\370~<\\\330\014=\200\320}\274\240\243\230<\026+\211;\216\\\274<\020l\315<\377\335\352\273\231\211\327<\023F\001=\367\370/\275\"G\350\273\344){:\021\344$\275\214\177\243\272-S\321\272\362l\017\275h\360\271\273E\353\346\274\323\t\260<\273aH;\3733\230<s\033\326\274\353\266\n\275\367\340=;\360\364\267\273@\222\023<)\030\323\274\333/\211\273N\321\020\274d\215\022=\317C\006\275#;\220\274\230A\221\273`R?<\255\227&\274\253\211(\275BV\021=l\225(=~\031\277<6\2667\272\r\035\2119\202w\371\274\216\201\316\274\263-\341\274\235\221(=x\023\301\274\006O\216<\272\0163<\265>\256\274\352\344\000=C\257\310<\207Z.=\nk\375\273\241\307\024<<\233\222<\234Q\360\274\370-)\275\343\357j\2743\177U\273\010\333\217\274>\244\376\274\247\016s<\216\276F\272\305L\205;P\217\256\274\244\253\017\2750}\t\275vW\260\274\240\334\037=\252\230\203\274u\237\221;\316\270\241\274\365J\366<\223\033\257<\006\334\005=\035\312\326\274?\302&<\210\351&\274P\273\356<\377Y\231<\304?\245<?\006\214<V\210\320<\255\350\302\274\006\333\303<E$\025\275r\347\347\274\254\370\250;H\331 \275\022\301\361\274\210\372\001\275\263N\252\273\247\362\247\274\346?\236\274\350 -=\207\007\276<\250)\244;B2\006\275R\240(\274\330\345\n\275\346\347I;\300\206\362<\330\301r<G\234G<\265\020\241<\177\235$=\304n\345;-\240\310\274B\036\002\275&\036 <3\324{\274yt\027\274GF\233<\336iH\274\211\023\212\274gD\313\274\014\347\017=\'\032\225\274\333\0251\274\327v\255\274\2145/\274\217\035\240\274}\026\323<qJ\030\2746\205\023=\260\316\334;\3304\370\274\265v\032=\235\313\235<\252\231\206<\331\206\335\274>\341\311<\231\310\226\274\233\036,\275\335\365\"\275\300+\362<\272C\243<\333L\001\275\305\016\025=\r\205\300\274&\335r<\260\013\312<`\212\031\275\374M\r\275&\230\034<\267\275\357\274\327\263\323\274\375D\201\274R\206\005\275.X\341<\247\271\221;\363\226\007\275\220\347\376<J\367p<\315\262\362\274e\256\006\273J\236%=\316\212\000=%\003\030=yx\023=\323;,\275q\362\010\273\201\357h\274\300]\020=\234?\205\274gNN;\331O\037=\263\247\323<@\251~\2747z\271\273;\250\303\272\036\221G<9>\206<M\247\353\274\330\203\014<\'\256\007=\315\246k;?\352\277<~\003\025\275\240,\014\274G\373\004;\327\036\022\275\317\2151\275Ad\014=\224\022)=E\346\241\273\025Z\245<\255\201\026\275[tX\273\270A\200\274\n\302\223;G<\252<\036@\000\274\245\323\251\274H>.=\210\277l:\004%\230<\214\274\034=\247\345*\275!\007\270<\276\372\317<\342\361\003<\270t\366\274\311\307\022=@\220M\274\r\032\313<\265\342\027\275\271\261\272\274\273\330\253\274\221\030\235<\031\261\245\274\036\256\010\275`\300\027=/\353\035:\341\303\222\274\234\323\242\273s\347)=\212\000\005;\267\266x\274\241\2430\273a\261\217<\'\351\036=5_\r<D\272\205\274+\253\252<\326\350\251\274\177\235o<h~$\275\346\363\334\274Vlc\273sf\036\274\334=\'=\2011\312\274L\225\'\274iB\002\275\204y,=\232+\347<k]\256<O\350\354;F-\247;\034\372 <^\3241\275\253s\261<\343\2209\2743S\231\274l7I\274nV\317\274\304-\260\274zw\361\274\3167\023\274\n~\254<2\356\326\274\036\211\n<\271\016P\274ll$=OEV\274\241\353Y\274E\362\212<]\n\007=\225\372\013;{k\200\274\246S,\275\226\211\335\272Z\r\267<Z\263\025\2758[\244\274\235\341\317\274\370Q\007\274\305!v<\026k\027\275\321\'\261<#Z\003=5\212\001\275x\023\r=\363\260\007\2737R\027\274\257\027M\274\233\021\007=\271Y!<R\356L<\034\355\241\274By\207\274\347\237\366\273\323\346\367;\364\220#=j}\344\274\335\020j<\247\227\006\275$\220\350<\247FX<\261\257[<\301\\\251<\243\255\321<\357\205/\275\352\031~\273q\207\032=\003q\220<\273\2546\274\377?J<\207\203\005\274\273\216#=\231Q\006=\034\230\334\274ti\";H\216\204<\027\371\344\274\342\333\036\274\322\267,=\364\352|\274(\323W;]zy\274\304o+=\022\303\033\275\242\032\006=w\210\221<\325\247\246<U\272@;i4\022\275q\336\224<\'\211\316<4q\340:+-\276;\367;U\273\274k\022\275\371\247Q<\275\275.\275\027\310\334\273*\243\213\274o|Q\274n\341y<\214\232\305\274\261\241\031\275@\355\203<)\202<<\366\333a\273\037\343\303\274\212\002\275\273<s`\274t\254\361\273\313A\322<\235\032\356\273h\245\215:\003\031\020\275\213\\\026\275RM(\275*\014=\274wU\211\274i\207\n=\0343\210\274\246\230 =18\n:,\364]\274\306G\350\274\305p\204;\337\251\025<\367\350\312<:m\374\274A\233\n=Nl\205<f\333\222;\240\021(\275R%\013=\271\267\263<\332\220)\275\252\263\'\274\230\324\333<rh\000\275f\347\022\275!vK<\235\035\303\271\371j\006\275%Ki\273|\243\214\274\310\212\211\274\365\343\330<\310c\353\273\217q%\275\242\256\216:\3655\322<\327\311\367\274\275T\222<6\275\307\274.E\025\275\307\355\'\274\013\215\350\274\334\271\215<\330\256\005=\017?\036\273@cN\273\002s\274<$\313\213<\030*\000\275\036g\030=\211\357\266\274\372\255\035\274\323d\301\274\215\202\325\272$\263\013<t6B\274\266\323\026\275\321\002\323<\233Us\274&n\310<[\2751=V\344.\275\374e\277\274]7\002=z!\231\274\357\027\001\275\333d%\274\200\005\025\275\006y\243<\356\351\023\275\210\361\234<\035\277\243\274C\345\031\275\310\313\271<\266[\246;\204\211\241\274\030\225\221<\2330O\272\230\356\213\274\347\346\256\274i\\7<<\\{<\001^\322\274-\247\316<\216?\336<_\302\275\273\031q*\275\255Tw\274\315\337\355<P\330\363<\266\035-=\006\252\316\274L\362\344;{a\303\274\r\r\211\274J\025\205<\342\222?<\203y\002\275\372\3054<Cbw<\260J\014\275\242\200\266\274O_%\275\302w+=\270yi<\302\217J<\277;\205\271\251\234\000=iC\343<\036#\035\275&\022\271\274E\256\211\274T\035\265;\243\314\001=\303\361\325<\343\004(=\344\371\325<\024\270\210\272Yn\0349\232\277\003<R\007\322\274S\275H\274\024\222\270\272\200G&=I\237\220\274\020\206\304<}s\313\274\363\335\374\274,F\336<e\301\355\274\347\340H\273U\351\026\274\235\\\275\274\340y};\t\357!=\363Y\304\274W\000(=/\236,< \021n\274\"&\033=\271\245\273<\231z\247<hj\006\274\266\2234;\353n\013=\244t\370\274\222+V<\253\001\002\275\234\315\037<\325\226\344\274\256\023\027=\330\177\325<\274d/\275\362\232\347<\3771\375\274.\010=\274`\336\016\275_/\351<#\266\022\275P\275\022=9\272\326;\321\220\023=\353\240\244<\275\354\035=\370\321\354\274\034K%=\251\327\267;\335\027]\272\354\026\334<(\362\225<q\024\007\275Ey\306<\366\234\333\274F\025\317<\260\277\236<\374\342\030\275\203\261\364;I\311`:\023\341\003\274(\033\031=\223X\316\273\254_\216\274\t\257T\273w\3031=\260\241<<n\223\t=3~\376;(\313\004\274\'\017X<\215Ap<\256\303Q<=x\350;\331H\317<\216N\031=\227E*=gY\232<U\244\257\274\3532\304\274\022\017X\274\177\374\260<\354o\303;\227\332/=e,\025\275\334\314\324\274y\343/\275\233\211\023\275\271\177L<\362\235\t\275\3052\334<\021D&\275\n/\302<l\014\327\274\226\241\004=\322\350v\274\230\206S\274\223\374\257\272<\316\014\275\253%\217\272f\225\343<\360Y\n\275i\023\354\274\232\307\334\274\0010\024=Uj\220<\316\235\354<\320u\003=J\033\217\274H7\"<\234\363\214;\031:\177\274\005\352\r\275E;}\274\250b(\273\024\311T;&,<<\302\n\306:\363\027\203<\261\261\316<\031S\376;\001\025\001\275\217\025*\275\265fc;7\261\264\274T\000\322<\361r$\275\242\375R\2703\221\211\274\356\214\347\2744\206\214<p\214\341\274h#\004\275\310\230L<\367;3<\357\rD<\270z\341\274\2534\3608i\220\364<\003A0\275\370\302\201\274h\354\320\274/\237\272<p\261\206\274\230\024\020\274HE\265\274\243\362\335<\223T9<\211\351[<\370\354\261<\010\245\361\272\325w\377\267\307\237\313<\206^\005=I\226\014<\354\360\232\274L]\024\275\200\242\204<\255\357.<\274\306\205\274\260r\001=\260h\360\274v$\242<q\222\300\273e\344\254<\033\006\010</\300\267<\353\202\365\274\245\214I\274\360\320\343<IYb;\335\026\216;\2040\027=\300\345G<yU\023=\322\t\302;\223y\251<8WY\274\027\370&= \354\376\273 \257\231<\375\375\257\274T\004i\273\202~\023\274s\276\024\274&\230\010\275\360\324j\274\340\325\233<\3524\n=\236\236Z<\205\035\254\274\225\026\021=r\tW<\2140\205<*\016\\\273\0238\375<zo\t=\022o\2639\356U8;\243\232\034\275\237\364\234\272\221\374\333<K\317[\274\230:G\274Z\016\033\275\244\264\323;\300\242\327<k\036\373\274\000Z\345<\242}W<)\220\306<\223Fq;\222X\004\274\372\224\210<\335\304\216\274s\364\375\272\367\234\263<\256\020\223\2748X5:z\346\241<\225\271^\274u\310-\275\312\244\354<]\020\r\271h\007\356<\002\222\346\274\322\203\256\274\352c%=\371\307\'=i\020\226<\322`\t=\026\314B\274\377\366&<yF\221\272f}Z\274\355\231}\274\327\276\270\274\267*j\274\032%\324;U\346\005\275U\2106<\345B\013\273`\233A<\202\017\016\275\320!\207<\222\201\341\274\333\034\n=\007@\033=\206\314\203\274\364Z\332<\321)\362;#\203\206\273 \363(\275\265#\335\274\324m\362<}(M<\275\233\201\274\277(;\274\337\274X\274\327\002\032\275\243\202\'\274m+p\274\317,\237\274s\307\014=\210\204\264<\tN/\274U\r*<\234|\353<\253n\014=+\362\246<\"90=k\336\247\2728\353Z<\205h\307<\323U\037\275y@\316\273W\320\324\274\274\317\'\275\377y^\273j0\373\274\343O0\274/\n\237<U\224P\273\265\025\330<\375\007)\275j@O;\222?\371<8\230\247\274\312hR<-\004$;\354/\275\274\024x\212<\275\365\304<\035a\376\274\235\213\250\273v(\353\273ojS\274\217\362\262\274\271\202\017=t\207\262;\r\226\201\273}}\256\274\344\222_\274\317{\275<\244\r\013=p\372\035=\"\245\243\274\3451\241\273\343\356x:U!\202\274\251n\006\275\275\205\350<\365\266\213\274\315\022-=n\256\376\274\236o;\274\327D\021=\\\rT<\267h\246\273\334\3610\275g\366\344\274!N\352<\340\023\t=\235O\302\274\014Z9\274YB\346\273n\324\300<\265\030\261\274ON\305\274\261\201+\275\316\247\302\274L\003\\\273&{-=\001\035\005=\021\377\243<X\312\017\274k\t\312\274\204\312_</\370t\273\222\255\007=#A\30591\330;<e\202S\274p\367\030\275\333\310\n\275)\241\";w\324\276<\017h,\275\303/ \275\337\3059;\t\352\236<\277,\361<Cq\350<\341\243\224\274\267P\241\274{\3103\2748\231T<\001\321q<\212\2647<\245O\t=\251\034/\275x\2438<\336\276\006\274 6\033\275B\001\256\274\030\306\221\274\207\334A\274\001$\300\274\315\271\213<h_J<>\233\276\274R2\261<K\001\253;\313j\014\274\306i=\274V\223\356<\220\230\374\274\366\331&\275\323\026\021\275\355?\201<\226)\005\275\t\275\024=\251V\340;\354\325\"\275\037\010\345:G\341!=\363X\222<L2\304\274\231-\027\275\031\334\017\275\303\004\326\273\335\310*=\r\337\033\274\370FO\274+j\016;\331\257%\275\203,\000\2754\262\230<\271\014\003=\3514\220<\345\256\306\274\230\345F<_\264\017=/\302&=\270\242\267<\210\363\013=\300\346\203\273\335\221#\275\260\032\372<\211\244\021\275\265\255\177<\313\334\007=u4%\274D\254\252:s\244\r=fO\003=\325\247\241\274\276G\255\274\351\251\021\274\211\326\024\275\202\371\361<1_\252\274\177\033\225;\331\017\265<\330;\366\274\326\252\250\274o\036\274\273N\301\020\275Dy(\275\245\255\224\274i8\030\274\231\021\032\275d1\037\275Ve+=\3041\033=\261]\334<k\250/=\307\177\023\274\352?\021\275\211\345\035\274o8\213\274Cii<\324^\355\271\031\353\326\274\003\254\371;\247C\230<\002\301!\275b\340\'=\263\350\315<t\025\027\275\356\263\n\275)\036%\275\2157$=\222\232L<\3375L<\262\210\030<\312\300\332;m\276J<\225\232\342\273\033$#\275#\255\223<:Z\310<\221*k<\035b\020=Z\207\315<\207\204\222<\302\0200\275\256\365.=g\312\251:1K@;\023\" =\033\200\034\274\306\230\035=\267T/=J\006Z\274}M\344;\206x\247<\007\"r<\354\203\033=\021\324\230<{P\253\274\305\373\014=7D\013=;\320\017=\\\337\300\274\360\226\255<\326\255\270<a\306\344<\313\273)=\325Z\231\274\366,\301<\220\204\366\274\242\004\023=\177\346\214<\351&\310<M\003\000\275?4(=\262!\037=\245Wz<\346\254\270;\321{\003\274\236\377\"=9=S<8\301a;\370z\343\274\316\363\274\274\270&\304<b\207\356<s\211\237\2741\233\034=,\376/;\211\364\230:E\255\352\274\267\344\376<\233\302m<&\2556\274\367\344:<#oL\2745.\336\274g\262\n=_\036\003\275s!(=?\246\365\274\260\314\325\274\323\216%\275\212 \036;R\271\330<\252\261\016<5\255\312\274r\035\321;WD\r\275.E0=\346;\254:\341j\334;\014\362c\274M\251\276<\177\371\245;\363\010\305<\350r\024\275t\241%=\274KU\273\312\310#\272\210Y\220\274\271e\217<L\325\222\274\016\217\352<o\363V\274W\321\317<(\304%\275\177\357#\275\221\244\342<\024\355+\275\r\n\212<\226\037\353\274\025\337\336\274Hd\003=\242\320\220<\375\306\204<U\007)\275\325k\035=\177\355{\273\034\276\310:\315\027.\275\003\327\342<\320\323\215<\375:\314\274\325\364k<z\037\013=\355\244s;\314_~\274\357\001\r\274V\262\017<K\207\006\275T\341~\274q|\355\274Z\340\332\274\036\347\260\274M\027\323\274\212B\354<\224V\000=D\243\224\274\027\010\030<\243G\025\275\206\026\274:\227\375\335<\366\310\323<=\362\376\274Y+\016\274\344\243\330<\343\240\007\275x\310\255\274vz\007=U\030\021\275\203\247\257\274\363\223u\274\020\371\306;a\371\024<\315\236\013=\267\222\270<`\371\322<vf\306<\321q\206\270\265%0<lj\360\273+\010\n\275\220w\031=\215\241\226\273r\322\020=\026+\276;\202H\305\274\311_J\274|\271*\275N>\356\273Jr\273\274Qf\223<\2024\005=\341L\270\273{g\002\273\005\255\376\274\257V\016=\323\036\357\274X\016\032<\355\007\021=\371.\230\274\334\360$=\343\231\265\274i?\033=\230\204\020\274O,)=1`>\274\rsi\273\254\257\205\274rb*<\302\213\005\275\255\003\326;\215?\332;\316w\003\275\032E(=\017x\342\274i\262\263\274\001\027\222<\333\215\206\273\215\326$\275j\177\252\274\n\221r<\317\271\227\274\257l\013\275\242\217\002\275%\333\025\275\364\035\030\274\226!\251<\252\205\033=t\234N<\245Q\034=e\257,<Y3e<L\250\251\274E\353\323\274l\006\022=@\336n\273\342F\003=\311\252\005\275\246\305\023\274\030\030\320<v\343\036\275\032\242+=!\244\010\275%\027M<\304U\274<\371\205E<\004\rB<T\372>\274\001j\200<G?\355\273C\336\n\275\361\034\001<}\3760=\' \350\273\030V\251\273\230{\265\274\311R*=z\361!=<u\242<O\361\212<\312B\372\274\034[;9|d\323<\245\006G\274\241/\023=r_\303<k\321%=\346@\376<K\2617<\001f\n=\273\223n\274\371\341\037\274\017\306\307<\350\311\332\273\205\003\374\274\246\n\031=\221\036&=\277\322\006=e\353&=[r\025\275\221\226{\274\334\330\237<\321)6<\332\232)\275\257\307!=5^\334\274\204\315\320\274\300\004\204<{M&<\340)\205\273\235\273M;\035\035\014\275\273B\363\273\253F><\3312\301\274\336\003\362<\244?\223<\001\305\323\274G\355\252:\340@\357<h_\303\273\336\216\341;\325\032\255\274\246\244\377;\206n\233\274`o}\273\325][\274}D\346<\347\r\265<\272)\327\274\010\355\033=\203D\244<\365\263\350\274\317(\013\275j\355\231\274&\025\200<\235\252\224\274b\323\005\274N\035\003=\274\214\032\2753\307.\274\034\275/=\221\267\030=v]\003\275\352M\317\274S\303\001\27550\"=\312Au\273\255F\032\275\365\253 =\034\332\273<\322P\315<\312\234\224\274\301\261\003\275oB\307<\014=\203<\225y\221\274\301\200\005=\2378\030=\264\313g\274\247\307\006\275\311*\177\274\316\031\003\275y\301\027\275\276`\212<Q@$=\206\257\243\273Q6\364<\200\237\322<\213\264\370<\rI\273\274\365\"\000=\237M\r=\337\005\004\275\0240\022=\254\347Z;\314\372\335;\023\022\220\274@\004\r\275|\020.\274vq\036\275*\034\007\274\321Y\271<hU$=\326\237\025=\001.\'=p\226_\274\267l\031=\222\3420=\'\367\n\275\253\035\250\274\365\0178\274ti[<\367\3740\275\365^\004\275z\3400\274\006q\370\271\262:\032=\301\264\257;dC@\274\226\360C\274|\323B\274c>\034<)1\271\273q=\n\275\220\226\207\274\027\031\262\274\327P\000=\216\204\264<\246]\022\275f\t\030\275Y\253/=\251z\221\274\2331E\274\360\202%\275\n4\246\274\315\375\353\274kKU<\300\272R;\207r\215;\352z\r=#\032\310\274 \372p\273\025\252};\003\036\035=%\265 \273\253.\364<\22111\275\251\254\265<\207)\006=\205\362\026\275\220\236\336<\222q7;4|\275;\336W(\275]l\232\274\330:\017\275\n\244\035\275\360\013\037\273#\330\030\275P\333\214\273\243\t\310\274\306\366\265\274\r\014\261;\022\030\016=\375Z\276<!\275a\274@n\324<Qw\207<\302\260\235\274=\333\002=\314\377,\275u:\312:\356\303\236<\223\242s<\277\377+\275i*\335\273BP(\275\003\253\354\2742\225\317;\313\026\031=vxi\274\325>,\275\315\374\321\274\221\360\003\275E\265w\274\275K\223;\242\r\273\274\333,\251:\310\262\"\275\264\006\016=\233\033\357\2748Y\247<\257l\310<\235V\025\275\030\330\010\275\rT\r\2759\257\274\274]\222\312<\001\366$=\222\013\006\275\200\\\216<\257s\312<\306\333\017\275A\252\007=\262C\'<SU\254\274\244\024\333;5\205\031=\356\312\";\224\"\235<\322*\"\275\360\375[\274\014X\023\274-\374%<#\245\014\275\177\237\316\274\025*\014\275\234&\255\273\347\335\356<\036\235\026=P\310\307<\234\375B\274\266u\013=<\033\'\275D^\305\274\352\337\013=\335\263\266\274\371Q\216\274\247\3626\274\223~\257;\311gb<\321\262K\273\275:\325<\\2\206;\260\017\004=\034\363\235\274\222\307\225;HV\207<xN\340<\313\307\023<r\270o\274\207\365\026=v\241\022\275i\037\205;\304\016\251\274\267*#\275\014$\037\274Q\341\370<\004\236\017\275\270\307\264\274\365\236\263<\001{\030\275`\272\346\273\257\303\222;CE\005=WS\030\275\245\372\024=\255\330\022=7S\014=\255\233\235\274h$\370\274\237\325\000=\254$)\275\350z+\275u8\246\272,\327\304:m6(\274\263\303\370\2747g.\275kjk<\354\374\024<so\373\274\270\252\203<\251\227\032\275\216[\024\275\373\253S\273w\004*=\2230\253:Pp\255;\350\255\034=\224\352\230<T\027::\374\273\013\275\251@\005;\017Fh<n\345\273\274\020\212\343\274S\214\017\275[\232\364\274K\200\230\273\020\221\257\274\230,\321<nW\251\273&b\364\272\307\243(=E\252\036=\362\355S<\007\264Y\273D4\353\274\313\375o\273\214\371\272<{\355\n=m\037\266\274\034x\033\274\250\375&=\247\262}<@\006\334\272T\346\003\275\257]\"=\303T,=\203\330\354\2730\234 ;\375p$\275\305\254\013\275\245{\"\275\246\375\255\271\024\271\224\274\274\372~<\362\245\343\274\343\202\340<\222gh<\220-\266<a\315\'=\206\237\016\275\001\252\377\274h-\346\274\307\374\260\274\370\262\022\275\342\031\306<C^b\274\321\220\023=\202 $\275\2030/\275\020\363#\275^<x\274\333\026\246<(*\036\275\313\254\203<\317\221h\274~`\352\274=\002\250\274i\266!=5p)\275\022\272\315<\250\217\006\275\347\2001=3+_<\022\315:\270O\t\250\274W*\204\274-\355\254<A!\r\275p\374P\274\370\204\256\274\375\313\355\274\037\256O\274\321\250\265\272\242b\271\274\342\251\004=\226\302\336<\026\335\372\273\207\224w<\365 \025\274x\230%\275c\253\370<\036\214\036=\311\010\000\275\242\234!\275\213\341\022=\355[\214\274\333#\004\275\326\364#<\234\274@\273(\237\014\275\203\241\024\274\374\263\177\274,\323.;\276\323\325<\246 \223<b\332\245\274\024\217\364<_\212\210\273J\205\"=it!=\251ZX\274\332z%\275\305\\\215<\036:\371\274\306\016\365\274\031:!=>}Z;}\326\354\274\375c/=\270~\\:\310\345\272\274S\0250\274\330\225\231<\220\305\"\274G#\320;\265\360\275<p\177\003\275rn\225;\350q\271\274kA\215\273\200X.\275FW\260\274>=\240\274\253\004,=[\247*\275\232\374\301\274,t\352\272\356\211\336<\321\341\304\274\313\275\002<\214\312\375\273\252Q}\274\\\317\215\274[\225\"\274\301&&\275\237\020\003=~\201$<\315\233e<8)%8\237\027\007=\323s\242\273\312\255\2659\334^\242\274q\255\246<?\247\231\272m\360\323\274\364\217\372<}\362\n\273\344\313\211\274\210\217\003\275V\212\313<\004F)=\205\260\272\273{y\256\274\332|S\273\272\016\242<\362W\333\274\025\205\226\274\255\250k\274\341\332\323<\365\325$\275\344\332\034\275A%!\275z1\n\274\324H\350\274ab\004\275\r\376.\275<\226\232\274\014\375\034<\216H\003\275k1p\274\000\035\370;\231\266\023;Y\330-=\302.\200<\0324\224<\037\363\"<dW$\275d\210*=;p\214<n\020[\274\010e\220\274\240\311%=\220\241\252<)f-\275)\317\261\272\361\260\030\275\035\317\231\272\315l\351\267@[\251\272y\247\204<\210Ki\274\360\034\010\275\374\260\375<\317\027\303:\rG\241\273\244V\026;i\3523\2749}0\275\203\236%\275w\352\231\2730\261\231<\3601\243\274\n\274\254\2745\360\303<\362+\313<\010$\267<u\274h\274q\002.=\225\303\315<\266\214\240\273\232\035\356\274\275\031\035\274\300\005\221\274u=\025:\312\221\322\274\030\222*\275\341\265f\274\254?K\274\255.2<I\004\265\273wQ-\275\357\260\177;\325\260\016=\350\027\311<]}\217<\274\301\225\274\237\025\334\274oe\"\274\254-\023=ro><\220\"\023\274U\231\025\275\006\272\017\275_\234#=\274\341\r\275!\202#\274\350\206\230<\347\322\031=\354v/<\252\344,=pf\031={\264\340;A\357\r\275.\266\243\274\00370=\271\t1\274!\004\253\273\337\307.\275:(X<\242\326\241\274\224\333\316<\302=\312\274d\356\311\273\021\277\010\275\271\034\324\2736\336\340<\000_\326\274D\325,\275j[\270\274\275\367\342<\310\350\t\275\346\231\014\2730R\226<_\311\342\274\2069k<\262\\\365\274\332\206\033\274*\036\220\274\355\261\021=\205\255\307\274/\252\033\275\264T\265<T\231h\274>#\036=\025z\346\274\246q\t\275\244_\026\274[\223l\273x\010\247;O!\362<\261]\306;\361\246,\274n~\030=\033\033\301\274\231\266(=\354M\350<\316\271<<\276\205\210<\010\007\345\274t\004 \274lY\022<\003\275\267\273\230\353O<\332\2522<\341\n\021=\275\334\020\274\021\310R\274\013%*\275\001o!=\260\263><\231\265\340<-\226\023\275\230\221\370\273s\003d<\304|\203<&\034N<\3727\037\275\202W\351<[\306\261\274\3577\2278\032\216*\272\273\274\212\274E#\353\274V\"\272\274-\271\322;\305m\014=\217^%=\252;\374\274\202/\";\022\262\026\275?\356\354\274\322l\324\274\306\035\034\2752c\246<\363q\237\274\001@)=\254P(\275<X\035=\326\346\026\275`1\235<k\274\253<\365M\376\274\241\251\032;\274\r\360\2746\327\301\273X\241:\274d-\016=\217`(=\212I#\273\256\035\324\274j\350\342<v\365\224<=;\021=4\333\002=\354\241S<j\216+\275\376W\350\274\006\322\027<\306n7\274\225\226L\273\264\376U\274\351%\021=?\300\261\274\336\322\210\274h\\\005=\377\256\370:gu\325<\"\371$\271\022\310\006=\355\007~;\267\306A\274i\302\254:\201\307\201;\365t\013\275![0\275\027\274\230:Tl\200\273\273\322\240\273\276\353/=\363\265\376\274\313\256\r\275\202@\026=M.\335;w/]\274S\377\246\274P\2675<l\023\234:\010\332S\273@>1\275\245U\';E\216\2759u\025\227\274|\354\321<\3534\374<R\324\034\275\343\334\034\275V1\310\274<\351\013=\263\260 =\240\353\310<8+\033=\312m\233\274\212q\334;?\247\014\274\361q1\274\310\024\226\272\006\324\350<\203\377\251<\377\357$\275\306\205\366;\344\n\355:\001\370&<e\270\n=\025\310\227\272 \354\206<\350\t\203\274\245\\\344<\262\211\321<\000o\220<\356\222\006=\276~-=\020\316\271\274\013\376\371<\177v\n\274f\3169\274\232\310\334\274\360N\235\274,\346\030=P~+\275\2271\023\273\310 \022=U\325\242<>\020\010=m\361X\274la><\341_\017\275hX\035\275\355\010\264\274I\266\037=P\316\024=u\030\343\273\243\255\271\274\242r&\275\254\331\357\274l\2758\274\354\303.\275C\231@<\235b\351\274\234\277\203\274\215.\355<\351\226\033=F\202;\274\327\253\003\275\035.\216\274:X\275<@\226\010=\357\023\211<\316\265\027\274`\002\246<\"i\343<\014\205\027\274\2668\016\274\271\022\376\274\347\341\313\274\216\373E\274\231\223\305\273\307\216\254\273\232\343\016=35\321;\314N\"\275\357\177\207\273b\327\246\274\314\004\002=\224\000\255<\373\004y\274\016\210\366\274\227\353\013\275\265\217\346<\005m\325\274\022\025\031\274 ;\371<\355]\244\274\277P\027\275\263e\035<\310%\271<nY1\275\252t}\274\024\004\254\273W\240\024\275\227`\222;\354^\201\274!\254*=kN\261;\357$a<r\201-\275\321q`<\265\014\n\275\023\026\353\274$\234\"\275\230\254><YY\353<\304\227 \275\264\357\276;J\037\327<\2431\005\275_\317\256\274R\004\003=\324Q\246\274PQ\277<\330\254\330<0\277L<#<\305;\356\334\034\275\3372\366\274o\242V<4\001\220\274z\274\306\271\263b*\275b\007.\273Z\207\376<\254\205\340;\234\245\262\274?\000\262\274\262\030\013<\230V-=\020\240\375<\007\032r\273\261\206\360<\232\200\005:\202U\020=\251u\026=\313\251\303<\351\225\327\274xw*\275\276\216\007=\240\372\214<\330\"\000\274i\375\344\274\342\246\244\274\316`\027=\2625\000<\257t\036=\013\213\033=\277?)\2752\207\022\275\342T\001\272\305\345\013\273\2314\206<j\275\337<\234Y0\275\324S,=\222I\n<G=\306;\335\317\014=s\033\212\274u\221\r\270\276~\017=H\'(<m\035\033=\257\014\223\274k8\257<\020\027\264\274\345\215\350;iB\337\274\365y\220\273\033\307\026<Q\360M:\376\000\234<\325\021\341\274\222\370\027=\026xA<\'\036\246\274d\237D\274\373\213\032\275)l\312<\n\327\204\274\267\003y<\255\352\010=\200_\340;Dn/=\002\344\016\275|\342\363\2730\014\032=\353\210\362;Q\245\r=z\003\"=>\020\016=\332\003\022\275P.\276;\347\375\022=x\363\245\274$\031\374<\340\374\000<w\314\306\274N\353-=\206\222\217<\016i\324;#\273[\274\350W\'=OH\232<z\225\325\274\217\305\335\274C7\227\274\370\243\273\274\r2\220\274L\024\006=S\312\027\272\333>\356<\221\3620<\341\367\360<\213j\310<\250\006\017\275\323\360\371<\207f\363\274\324K\374\274\034\035t\274uc\205\274o)\242\274q\ng\274C\345\002=h<.\275a_\245\274\302\346\353\271\313\343\321<\201\206\024\275\333\005\255\273\373\320\334\274\'\n=<\203\225\003=\254\242:\2739r\373\274\275\000\240\2747{\233<\332d \274\275\327\305<\2656\351<\373\037\206\2745\310\n9\177\212]<\364\353\036;\262\230\273<l\030&\275L\216 \2758M\360<]=\223<\250\364\n=\224*\244\274\017Z\030\275\014\267\205;\034\341\216\274\nC\350\274\365\200\013=\316\177*=\253\211\037\275\262-\245<\354E\317<\222`\036\275\355\005\233\273\226\347=<\367Y\257<\200\253\337<\251\321\260\273\312\305\036\275\222\235\030=\\z|<w6\034;\373V)<{X\315\274\030l\250;x\217\365<\3639\035<\376\000\016\274ut\364\273\322\256[\274H\332l<\352\377\327<aT\032=LYv\274)\306\245\274\326\317\337\272\311\3768<\344\033\247\273$\312?\274\212\331\001\275\317w\n\274\330\231\330<\257\305\263<g\276\033<\317\342,=\207\217\204<blH\274\246\247w<\232\007\364<\242\344\332<b:\257<\315k\370;\007\361><\031\251\002<\033j\333\274\365\325r< W\376< -$\274O\232\032\275(\264\000\275w7\r=k\374\r\275\030\277\333\274w\255\350<h\201C\273\003\351*\270\244\317\017<J\317\013<m\346\227\274\344\2520<D\212\222\274\346\313\362\273\330\307\000=\273(8;:%\005\2755a\340\274\004\n*=FS\004\275Z\367\024<\016\225\267<\177\350\341\273\310\017\033=\304\252\031\275R\304\221\274\334-\262\274\031:x\274\366\017\t\275\'T\314\274\362\201\237\274\365W\305:\361l#=l\003\200\274\302n\255;e\347\360<\207j\365\274t\036\372<\221L\373\274\303\373\231<\250\332\351\274l\"2\274\302\304\000\275-A\306<I\232\211\274\275\263\377<%\241\021\273V\r,\272\246\201\336\274S\217\"\275\004\333\364\273\031_9<F8\035\273\366(y\274T\244+\275\222\214\032=\360\021\342<\000\224\364\274V\001n<\211x\235<s\370\357\274\317\343\332<\214TS<\237\032\033=\265\305f\274\342C\365\274\313B\'\275V\315,\275lU\204\2744Z&=\014\345\230;5\275\006\2755\235\217<\023\243&<\243\221\363<\007VY\272\225\355\301;\236\307l\274\302\353\323<\273\255\344\274\244\353\231\274F\\\204\274\375\236\t\275\224o\n\275Y4\"\274\333\302#\275\343Rv<\337\334\315;\032I\017\275\345S\016\274\302\306T\274lV\017\275\216\370\375<|\214}\272Y\365\242\274\030\372\246\274\014.+=l\t \275\230\262\311<!\256,=i\032\307\271\020WW\273\0260\236<\266\221\241;\023T\377<3\254\001\274^\244\336<\023\276~\274\320\363\255\274?\020\014;l\353\356\274@\373\335\274_V\032\275\3477\004=\352\375\341\274\223\002/=A,\341<\003a\037\275\221\352\004=\333f;\274\224={\274\351\036,=\275\364\231;\000\215-<\250\223\231\274\001Q?\274A\247k<zA\032\275Y\226\273\273\243\326\255\274\375\027\330:\230\177\370<C%\002\275\354&\033=\213\241<\274\322\220\260\274\007\364\257<\215\244V\274\210\220\257<\340h\230\274M\361M\274\366\207\340<\200z\221\274^\316\226\274\344]\022=\215\234o<\001\024\236:\253\274\027=\246\025\005\275\202%\007\275k\322\212\274Rc\333<~8\330<R\247\357<k\230\235<\010\211\310\274y&{\274\336\334\253<;\024+=\363\304\003=\276\356\201<\346\nq\274\260\020\023<\244\005#=iY\214\274\350\020\360\274GC\334\274y@\372\274D\010\264<\347\255\006=\234\221\234<\257b\330<\301-\265\274\026\257)=\336~\336:w\323L\274\316\341\347\274\304\366\245\274O\273\225<\231A \275\257.\356\272:\000\342\274\226\342\357<t\345\"<Z\271/=\026\204\335<\007\305\312<z[\231\274@\323\341<\333\265Z;\260\301\210\274\016A\007=q\355h<7\031!<\021\210\354\274\235\226\006\273\321\220y\274\360\207\364<\036\000\247<\261V\030\275\224W\253<\033J\300;\037\205[<\301f\031\274:B\213<\221q\0018g\227\355<w0;\274;b\254\2747D\n\275Ak\202<\376\303\037=H\023\177<u\245^\274\351\222d<\251\251\371\274jH\317<\212e\260\274\243\310F\273\224\232J\2743\264\221\274\2053\025\275\353\323\322\274\271|.\275$\007\t\275\377\336\222<vw\357:*\266z<\003\344s<$f\016=\r\271\373\272\320\'\240\273\3502\366\273\250;\217\274{\'\032=\256~\314\274{\333\370<\260\373\307;&n\020\2751}\001\275\353\361\002\275N\247V<QTP<\364h\335<R\217\350\272\355<\222<\0065w\274\2006\261\274\313\251\264\273\003\227\304\273\356\353\221<\322\237\022\274\023\220\256\274PS\330<\202\227\031=I\312\n=\270\375\033\275M*\320<:\363\024\275h\027\316\274P\014R\273\222(\272\274~\r\334\2745D\311\274\372\363\212\274\207\255_\273\020\255\373<Q\014\352<\014\312b<\334\252\371<\247N\371<\3208\370<\355\225*=\007\246\246\274\376\3024\274\200\226\263\274L\266K\274?\212\032\275\267\262\233\274\034$\007\275@\276\362\274\260f\230:\322;]\274{.\027=\311\333O<P\302\201\274}s\n\275\374\304\013\275\215w\266\274Jd\377<\257>\222;\224\237)\275K\302$<\032\224\023=H\375\346\274\017\264\021\274\210\372\333\273\357\307\"\275\301\206\316<\350\243-\275\200\315\006=\352L\225;b\177\276\274\267a\202;\233W\254<\371\201\311\274(t\251\273/\305\245\2732\025\t\275\210\274e\274b\350\212\274{\322i\273\202u\200<\334\303o;\325A\034\275\224H\036\274\247\324\236<\0303\032=\322\202\034\272\326\256*=Q\204\236\274\365\246\"=\r\213\315<\033^(=|I;<\303\356\370;O;\213<\234-\010\275\364\000\360<#\224\301\274\214\351\026\275*\355q\274\254\317\254\274\342\023\031\274\033A\227\274\336a\t\275\007&\215<\227\326\240;\247b\000=\257\321E\274,[*\275\007\277\332<\375\025\265\274\254\303\'=\275`/=k\200\t\275\226\001\036\275\202\302\'=o\'\317\274\243\227\321<\003\320\005\275^\270}<6\267\034\275i\274\337\2736\260\315\274\017v\031=\232t\307<I9\326\274\220\214*\275\300m\217\273\017\232\371<\243\265J\274y>\022<7T\222\274\016\272_\274J\021\305\274\030l\335<e\216\273\2741\321\263<\212\211\004<\325$\007\273\2160B\274\225\374\021<\'?\221\274\316\024\322<V\320\353<h\261j\274\364\3338\274k&\020=\327\323\257<z[\035\275\204\204H<\031\223q<u\350\333<v\027.\275\252\210x\274@\265m<\025\021d\274F\211\022=x%\010<m\241\005=\025\035\021<\016O\346\274\244zN\274\237A\346\273\253\313^<\22402\274<\2261<\251\326\357;e\376\317\274I\202\252\274\2426o\271v\266 \275\257\005\"=\206\230\213\274LXa\274\017\031\222\274\311\001\226\274)\312Z\274\023/\211\273<\3245;D\244%<\"D\361:\341!b<S\252\n\274\032$\340\274\017\352\367<7\026D\274t\300O\272\322\324\216\272\025Q\370\274z\020\213<\216\315\237\274\365\025\n=\346\255\326<5\001\353<\275\333U<\361\274\317<\210\017\272<=M\025\275_\264\203\273aSO\270$S\264\274\200\341\303\274\225\214\032\275|\'\005=\220\n\222\273N\360\001\275\305\303#=p\271\310\274\035K\200<<\362\313</\353\203<\016\302\036=\360U\005=7\373\374<3\326\244\273:\203\365\274\ts\323\274.\336\'=\355Y<<\220l&\275\017jm\274\353\333\030;\023J\232;\376/_\273\210!L\274<\245\326<\325x)\274\207:4\273)\314\370;\316\003\032<\252\307\263\274*\356\255<\316\361\377\274i\311\305\274\315\331\265\274\376\267\000\274\006.\337<\357S\222\274\007\270\021<N`\"\2751\324\217<=\'2\274\200\225\237\2727\346h\2748\267T<\377\233\334<\205\314\037\275\360\374\301\274\022\315\201\2731@+\274v\226}\274\257\222\020\2759\024\202<\235\361\373<\274\367\217\274`\200\353<\223\020\005<\254\266\023\275\322\210\354\274\025]\020\274s\342\033=+\024\2569[\265\304;\324\227\034\275\356\216\320\273\002\303s<m\001W<K\205C;\246\214\323;V%D<\250\201\321<I\3153<\217\372\262<\345\376\313<\207\206\027\275q\360x<\333\274\037=^\007-=,\207S;\270\3465\273\200\267O\274Q\236\310\274qH\332\273\303\205\275\274s\306\025\274}G\344\274I\327\371<\262\261\233:\004+\"\275\010\217#\275\204\277\323\274\217\272\263\274z\311\221\274X(\272\274\251x.\275\362\206\332\273\332\232\311;\027*\252<\351\305#\275 \324^<\275\021\204<\302\0049<O#\'=\016\0239\274\020\037\276\274\365\236\256\274`q\201\273\315\247j\274^\017\255\273Uf6\274\tFl\274)\276D\274vk\323\274e\025\031=gh\374\272Zn\263\272\034-\365;\350M-\275\351\"\004\275\023\256\032:\332\251\334<\3741\216\274\363<\025< \246S\274?\217\231<\315X\213\274N\234\335\274\234\213\201\274&\320\037\275_\327\'\275\270\333\331\274\211\005R\274X\303j\274\n|\230\274k@=<\r(\221<\262\347N<\3156\314\273\034E\274<\242;\331\274\235\220\245<\256\0213;\007C\t\275\374Ko\274\340k_:%\030\324\271\342=\225\273\270\311\037\275\351H\254<\212e\245<\267\302?\274\\\005\234\273\247\022\021=0\261\234\274\216~\302<M\252\002<(E9\274\253\245g<G\033\027<\334\034+\275o\371\357<7\310\276\274\312\225w<\031\031\227<\000!\030=\216>\354\272\320\214\320<\231\353\224<>\010\315<\2204s<;\267/\2752\240\356<>\031\007=.\025\306<\025U,\275\037\033\334\273\313\032\007\275r\363);y\255\022\273\334\266\340<\003\023l\273\271;\030=\242\032\t\275gR\352\274}J\253<\205\317\001\275>C\202<\354`\326<2\201q\272l\206\363\274\322\256\026=\301\325\262\274\003\303j\274G\207$\275\332\372\"\275lj\033\275\375\275\210<\243a,<\320\303/\275=\246\316\274\374z\031\275\316\n-\274\262o0\275\311_\031\275\317t\035\273`a\026=\304>\205<b\247\273<\344\365\256;\375\371\230<\353\354!\274\003m\321\274,+P\273\275\1770<\242\211\\<\3355 <|\275\003\274\370E\272\274?:#\275\313w\001\275\026\306\312<\313\301 \275\341\0019<\227\351%\275]\343\262\2746\377\206\274\267\365 \274\326\217\024\275)\270\265\273\336\007\\<\233\371 \2758\030\002\275\233\307\026=\245}\273;b\245\344<L\360\301\274\276\307\001\275?4\325\274\364\233\331\274\n\322$=g\235\017\274\204V-\274a\234\305<2?s<T\016\n:[\277\013<\035\320\363<\236`\240<\t\267\005=\301\212\377<=\355\007=\001\2177\274\370\371$<6\356\221\274\341\220\027\275+\231\240<\265\217n\274|\274\203;\223\354\231\274o\311&=\030\020T\274\n\002\302<\315d\330<\246\263\210\273V\223\232\274A;\005\275O]\274\274w\220\001=\305\321\'=r\021\32594\020\223\274F;\\\274\226\274\254:\267\315\371\274\003V\027=\204+\240<X\244\'\271\214\363\320:\243]z\274:u\327\272\235+\203<X6R<;\272\035\274\361-J\273-\313,\275\374tU\274\005h,=\222\200\024\274\027\252\257\274\213\242\233\273\3332\023\275\022r\373\272^\025\351;\357\325\013<\240\033\201\274\037\324\002\275G\275\r=\331/\016=f\223\365;\213}\004\274\320v\013\275\306D\205<\335\244\314;b \014\275C\207,=\324\005\352\274\331`\362\273\223\221\254\274\031n\367;\220q\341\274.\361\000=I4\346\273k\326\010=t\224d\274QF\"=.N\246\273\335\333\026;`\355a\274Z\344]<gk^<\034;\370;y\266\027\275\346\276\246\274\3221\3439\026\271\356\274\314Ot;]1\201\274\347{\204\274\261\273\030\274\306\205\361\274\024!\237<\344\010\320<Ou\240\273\277\314t\274\375a\031\275$\324!=\222U\327\274C:\007=\351\255\254<\020\366\324\274\342l*\275\002\221\001<0\005_<\261\362\347\274\357\017F\274\233\005\341<Qtq;\330\363\230\274\253\3230=\006\002\346\274O\215\373<\245\026\005<qT\031\275\005aC\274 \345\246\274\230\244\224\274\004u\313<\021\265\321;\rd%=\311\306\016\275\3767\311<\233K\214<;\333\\<+07\274\\\251\010=6Q\031\275\'^\243\274\363V\356\273\004\252T<;W\223\273\312:\274<\177^)\275\362\267\212<\272\246)=\232\371L\273\357\265\025\275\204\206\257<\304?\034\275\253}\211<\361\237\205\274Ld\n\275\003\225\371;\343>\373\274On\357\274\322\362\036\275WC#=j\246)\275Gk\353<\332\360\343<\016wX<<g\010\274\026\014#=\221^\335\274dv\240;\327g\026\274\325\324\350<\251\005%\275\251D\331<F8-=\010\'$;.\"\312\274\320\325\342\274t~\362\274\253X\264<\357[\236;\332:,=\264\240\007\274xl\025=8\224L\274\035\315\354<\267-q\274\213\324\371<\263 \224;#\300\025<\240\345q<\246>\276;\203r\214<E\013\223;\020\310(=\321\006\225<\232\n\247\274K$\362\273b\3576\274\372\\.=\262\260-\274\305\217\024=\337\370\252<\224\323\377\273\226\2213\272\241cc<\226\372\271<@E <\351o\221\274I\204\'<:\311\257;\333\306\341<\335^\025\275T\246<\274j\322\300\274c=\256\274\256H0=\326\037\204\274o\031$\275{\356\202<1\001\372<\367\334\004=\216\201\037\2750\021\360<\037Ik<=\230\214\274]\201\327<\341\'\000<\220L\371\274\356+;;\373\220\004\274\214\211*\275gHd\274@\262\353<\365\342\237\274t\244\222<\024[\257\274<\224\351\274\025\n\374\274\206|\235\273FHk\274\263Cp;n\3557<\t:\n=\376o0\275[\020\350\271\266\254\357<\372\354!\275\002\275z\273T\270-=\223`\254<\272(J\274\317\023\225<\221;\307\273\277\027\020=\341\002\t=\241\304\\\274R\247\353\274\375C\302\2732\330-=\2340\316\274\206\027\026\275\235\376\366\274\217G!=\2600%\275W\337!=\207\260\026\275\205\207\344<{o\215\273V\335l\274\265\343\013\275\333\020V\2746H\374\274\321\222\022=\351f\221\274c\303R<8W\217\274\256\323\'\275!\337\364\274o\251\245<\331g\232\272\037]E<\275\037\317<n\005\255<\373\035\253\273\026$\016\275\347A\273<\010\3477<\2142\010\275f\243\022<q\246\364<\206\262\211\274\266\235\034=\001\277!\275\206\262\340<\340\314\332<n<\345\274h}\362<\362~\220;^_\032=/\211a<\2535$\274\210\345\201;7\354\205\273OA\036\275\226\0221=M\323\316\274b\027\343\274\275!%\275j^\023\273\035\376\361<\322\202\013\274\313\n\275<\341H+\275\201\317\222\274\263f\360\274-\367|<\232m\314<m\327\025=u6!<\003\350\360\271Z\271\332\274\305\017\n\274\311\375\005\275R\204\007\275\267!\021<R\207\204;\302\n\020\275w\363\031=\002\265\300\274D\255\357\274\242\231{\274G\263\300\274\004l\325\274|\342\000=\255G\035\275\002`\010=S\246*\274\255B0\274\220\260\026\275+\373/=A\375g<\'\341\223<\216\343\r=7\302\177\274\273\r\306<6\227\023<Q\037&=E\022~<\'\302\357<\271[\243<\001\235\035\275\320\312(\275\226\010\306<\306\353\013\275\032\362\370\273vv\020\274;R\252<\340r,=\210\346\347\274\005\365!=\241\t\236\273\342d\253\274M\247\021<L\216\033=\'s\373<\274f%\275\003B\032\275\2652\252<\024\215\036\275\201\353\232\2736\016\305;\334\256v<\026\222\231\274c\036\207\273t`y;U\005\210<\n^\001<\035\255\330<\347\001\232<\235\257\271\274\013m\302<\010\241\005\275\363}%=\301l\r\275\304x\244\274\252L\n<3\312\250\272\006\312\313<{\353\361\274;\235\223;\000)\001=\034\235\301\273\370\243$=\362\344P<\\\373\300\274]l\027\275:\325\320<,\013\"=\263\270\037=j\\\235:\344\354\216\273\214\250\365\274\001\350\016\275\302\361\227<\364\013\003\275*\255\'=\244\022\357\272\214\353\250\274\373\317\262\274\271_\002=\305U\003=\335\335\212<\001\010\311;#\261\371\274W\250o;E\373\361<_\325\333\274\304p\355\273\002\205\t=O\371\347\274;\202)\275Hf\364\274\'_\376<<\347\233\274\316\0001\275M\365\002<\2373\"\275\242#\t\273\020Lh\274\2738\337<\022\226\236;\370a\016\274XU\031\275\255\3445\273|`Z<X\331=<(1\007\274\242\210\374;\246\254\341\274%f\261;?\316 =Yl0\275\267\305\031=\325g\346<\351\340\036\275\367\003)\275\256#\224;\230\351\017\275\231So\274\346\340\335\273SGj<7A\277\274\3077\034\274\035q\310<\'R\001\2759\262\021\275\307?\004\275\362r\025=\340^\245<*\201\r=A\022,<\250\334\033=\"\242\026\275\365\007\236;;R\r=\331\304\307\273\215\223\034\275\370\225\253\274\304\365\326<\n\206~\2743m\026=\374\302q<\301\330&\274^\271\300\274L\257\027=\251\3528\274\036\220\267\274\325\315\002\275\256u\254\274\272\365\020\275}b/=Y6\033=\304\315\344\274\013x\317;Z\230\377\274W\225\317\274\371\366/<\215\332c\274\315J^<\004k\005\275`\377\352<3Y+<\340\375\037\275\'N5<\020\001\307<\210\375\031=\343\301\207<\331\037\005<_\254\036\275\3008T<\2079\"<P|\252;\255\031%\275Nw\212<#\347\322<\242\316\354;\350\034\001=\304X \2755l\220\274\360\250\270\274\"\\\377<\363-\226\274\341A =\253\344\312<\347\014\261<\313r\235\274W\213\216<\274\355\357\274\2571\277<\206u\243\274\003\365~<Z_U<\352V \275m -\275\262\202Y\274{\363\030=v:\r<\030\265\242<\007+j\274\264\003\202<\360\177\267\274\200\223\213:\231\217\370\270\220I\260<\270\326\315<\004\346,=\027\030.\2758!\036\275fq\326\274d\311B\274Ag\016\275\301,\342;T\256$;\027.\'=\271\222S<\022\320$=G\221\000\275sA\374\273\331XS<\031x\002=\337\033\014\274\213\366-=4I\364<s\356\301\274(\255\255<p\032\226\2744\323\373\274j\007!\275\273N\337<wU\355;\353\225\245\274\301Ay<\3019\244\267\260+\275<;\374\365<\270\000\032\274}P\342<\365\372\265\274\337\025\232\274Y\2551<\260S\225<\371\227\234\274\3639\t\275\277\223\305\274x`Y\274X\014\371<\246\302\250<Z\2072<\232\016\030\274\005\356\311\274\224\005\325<\035\367\345\274Z\033\244<\334+-\2750\220{\274\241\274A\272\200i\016\271H5 \273\262X#\274?tI;\331\242!=\357\007\216<s|0\275\354{.\275\255\266\215<\315\337\016\275\212\304\022=\220\372M\274\300\310\200\272\310\302\247<I>\t=\333\256\024;\223-\246\274B\020`\274B%E;\'\367\210\274ns3\274\200\374H\271I@n\273\237\243d\273N\357\322<+\232\303\274a\323\031\275\002a\363<\326\035\035<\343r*\273\214x\227\2742\372#\275Y\344\"=Mv\311\274)\315\027;y\217\320\274\214\207\310\273G\376\230<c,m<\336=\006\274\017\335\013\275F\235!<3\305\016;\014Y\371\274\344\337$\275\323\271#=\'h\\\274\304\373\314<\210\'\222;\346\335\001\273G\241\271\2746w\030\275\311\223\2249r\344\024=\305j\347\274\022U\205<\320\364\037==z\365\274V\370-\274\313\241?<\002\307\356;\211$\"<\352\240\n\275?\r\006=\305\300\342\273!rD\274\024\030\231\274\331k\t=#\323\247\272\237&\240;\304\265\034\273Co?<\021\007\023\275p\026\r\272$6/\275\245\272\362\272U%1<l\271\n<\r\257\\\274\017\032\246\274\216; =JJ\340\274.\276!\275fj-=\256\361\257<\t9\022=\004\362\007\275\201\227#<\244\230\204\274#\236\020=\376P\250\274\324,&<\206\234\020\275#\251\n\275\260\230%\275\301-\004\274Gq\000=\336o\033<\017\340-<\212V\317\274A$\251<\311\260l<a8>\274\240c\010=V[\'\275\311\276\n=\220\031\206\273\245\217U\274\220\027Z<\200$\026\274\201\373\354\274-\022><Y\252\212;~ \037=\244~\016;\374\331\336<E\345\305<?U\000=\261\017\020<_\274\205<\326\217\223\274\374\367;\274\355tc\274\203\272\266< \237\"\275\200d\304\274\365\375\002=\025\036\272\274\243\343\016\275.\266O<]<\207;\027R\"\275\324\215\010=\264\217\022\275\'\263\321;/\274\353:i\317\010=#\271\216\274C\321\275\274\200\336\037\275\021\026M\274\241l\264\274\2626\302<\013\203\333\274rd\346<\244\335\244;\372c\333:\322\376L<\313\214\n\275j\253c\274\362\207(\274\340X\264\274\243\025\031=_\220\006\274\232\217\330\274-\241\002=`\251j\274\202\224\006\275N]\027\275\300\306\325<_?0;D)\013=\367\\\215\274\025G\224\274\232;\032=)\211\021\275T\257&;\375\033!=\203\344+\275\265\331\240<\032\321]<\277E\253\273GC[\274\261\204\261<\302\006\003=\n\005e\274}\320,\275\2079*<\346\3515;V\315\'\275*\257\264\274@3+=\233\364\347;\207\333\310<%u\271<<*\006=\234\305+=\211:\227\273\302\261\361;d~v\272\244Q\321\274\0063\035\275\324\202\304\274\343\222 \275J\256k;\206\310\305<M\370\005=7\245{<\211\031\026\275\224\3621=<x\200\273F\361 \274z\030\227<\210\273\213<JC!\273\372\205N\2741\245\256<\324\333#<\306T\013=S\351\305<%6\216;\221\034\004\272%\275#\275`y/=\231\271$=d-)=\312L\177<\231\366B<\222\207\234\273\274i\265\274\336@\200<\205\033\017\275\226Cf<\254\245\005\274\323\221\356\273w\203/=\027\027\265<\037,\033=<z\277\270G\300\026<>\034\031\273\341]\264\265\316$X\274\035\0141=\245\242\255;\t\"M<\236\314\3378;\300\030\274\314l\234<\334\025\206\274$\257g\274(\013\344<\247\315\235<\317\177\220\274\360\221$=k\326\303<\307\233\"<\242\037/=\204\274\371<_\275U\274r\354\002\274\273x\036\274\235\"\026\275\274\304\022=\301\216\202<\201-\014=\320\211\272\273\004\373\214;\246\207\\\274/\230\013\275\244\023\243\2741\242!=\3648\267<\001\203\320\274v.\317<\035\013\340<\332\"R\2747\277\207\274N\200\204;NWe\274R8!;d\227G<\231\245\201<K*\221<\313\0351\275)D)=\261\036\315<a\315\013=\251M\227<\036\243\312<\325f\335\273\271\314\032\275\244\245\'=r\226f<2\356Y<\357\r\365;\n\321\327\274\013R\016\275Y\007\017<v\213\253\2741`\324;<I\023\275E\221\364<\376\014v;\235*\215\274\331b\267\274\214\262\350;\"\375\300\274,l\270\274\036\246\343:\351?\301\273\014\024T<\372A\316\274\207\244f<\310\021\267<7\334g<F\314x<\006\305\312\274\007\224\034\274\312\227\000\275\242\221\214\274\202\\\036\275\226\240\035\275\337\214L\274F\363\324\274\233L\366\274\242\204\257\274\352\210\234;\367\311\004=\322\262\030=yF\013\275L\352\034\275VY\255\274\027\031\007=\020\234\207<\337Y\224<\004\226\351<t\336M\274t\304\352\274\034\273$=qk%\275K\344!\275\235EY\274\265_\032\275\247\304\344\274,?\005\275\316n\364;)\237\201<y\036\250<\271=\023=\370:\010\275R\016\260<D\366\005\275t\2631\273\374\r\276\274\305W\270<n\340\362\273$\276Y<\227\263\n=\332\364\352\273\234k\034\275~\311\014\275F4\206\2747\027\020\275\257\250\023<5\331,=;\215\277\274L\021\315\273\333\214\242;\267J\036\275\347 O:\017\032\203<\006\217\333\274\313~\247<#\023#=\314\234K<-\321\326<\323\3613\274l\266*\275\200=\256:#%\005=\006\250\261<\267\253#\275*\310\217:\274\256k\273\371\333]\274\0223e\274\275\320\211<\033\310\271:\220\212\265;S\360-\275V\340\026\275\275~\010\275T\343\371;9\212\340\274o\004\235<\363\270\'\274\214\240Z\274\035\227\030\272w\345\222<\362\005\346<i\276\030=\"f\231\274\203\022N\274x\376\022\275=\371\322\274\246\032\267<\302cL;\203\327\266;\370 \353\274U\002\333;lw\205\274\347\214\324<\030\\\216\273\006eB\274\360\013\340\274\373[\310\273+\332\202<\232,\320<WS\345<\337\005\264<R\210\017;\326=\313\273\263\t\206\274Xyi\274\264f\005\275V2Z;\250\374\027\275v\251}\274\371\371\r\274%\232=\274\342}<\274\200\346\032\275\234\216\336;\273s\'\273~\177\351<\253\035\017=1\306\322<P\003\214<\230$c<y}\033=2\244!\275\232\333\305<W\343\002\275b\350%\275J\313\323;\034\222\202\273u\200\020<\007\021\235\273\205t\221\274\363\221q<A\037\001=\033\347\234\273\037\326\014\275U5\317\273\337a%=\307\027\356:\211\345\277\274\344\r\014\272\221\233\355\274k\030l\273\211\003\004\274\373\030\013\275\347\244\235<\020\272\277\273\344\306\r=\222\313$<<\346\346< \375\345<\024y\006=\'z\343<\363\343\311\274\307-\000<\023\nO\273~\003\001<Yu,\274\350\240\245\2744\324&\275\332-\031\275\316\344\226\274D\373\033=c\010R<\342\032\333;\"-\264;#\005\027=\306\334\002\275\246\335#<}P\355\274\365\341\310\271nL\257\273\314\276\312<HC1\275Saa\274\350R\217<V\020%\275\367\245\225\273\3617#\271\266\250\020\273c\217\031\273\223\243\251\274\253@\375\274\272\264\327\273\334\202\334;\2648\351\273A\230&\274\032\177\214\274&\234\235\273z\013Z<\001\270\001\275K\341\355\274/\020\020=\225\211<<\006\373\273\274\347VU\274]\250\014\275\3229\266\273\242\223\r<\262a\216;\037\302\334\274\200\300\346\273\253\333\357;\320\374-\275\315y\010=\207V\006=\215\000\003=\231x\205<=S\255\273\225\255?;\232\362\n\275\371\003(\274f\323\267\274\351\335\032=\351\342\257<A\266\t\275\333\233\311\274\343\0040=Z\226-=\361F\363<)\366\034=t\314\357\274)\016\351;\200\n\027\275\330\016\243\274\312\346N;3\263\034\275\352Q}\274\312\2310\275:\013\037\273\035\036\233;bl\232\273\357x9<}\271,\2754\361Y\2748\030\177\274w\276\037\275\277\210n<\337\273\270\273&N\307\274\272\312\031<\367pM\274\\-\275\274\366\247\004=\240Rz;\273\354,=V\2109\274\260q\302\274\254\374\r=\352\322\336;H\250Q<\236\351%=m\343&=\301\213\035\275m\260\004\275*r,\275\016\326\314:\024\362\010\274\303\223\"<N\242E\274)]\331<\312C\2469O\327\t=o\357\r\275\253\262\312<\2245 =`\364R\274\354\315\001\274\020/-=j2\235\274\n$M<\210\352\265<\267\2312\274\022@\016\275\216N_<\232T\"\274\023\006{\274\325\004@;\2315#\273;a(\275\346\316\013=\212g\021\275\317\010\033=\325\342\236\274\t\245\303<Jr\006=\332N\346<<.\366\274\016\306\013=\030\021x\273fT\272<\225\225\215\274\031s\335< \307\353\274\rU\016\275\342\007#\275p\301\216<\215\0039\274\013\023\350<\246\261\307;luY\274u\224\227<\273\343\020\273j\233 ;]\'\035\275\203@\334\274z\346\014=\303\226\212;L\277\016=As\350\274\002\205$\2753Z\242<\016\2200\275\246\267\230\274\215A\310\274[P\037\273\010\375\033\275\022\204\252\273\373N\313\274U\266\373\273\217o9\274\213\000~\272H\013\032\275\307\0251\275\027ke\273\204\314\301\274h\266\031=\0378.\275\021\"\261<\224\277\262\274t\326\030\275X &\274@\255\241\274\t\202\003\275\037x\031\273I\027\036\274&\027E;\017\0240\275\220\317%\275\356\034y<M$\313\274\351\322\277<r\326\3679\336\375/\275\341N\374<8\277s;\272\361\320<\013\264\247\273v\257\327\274\301\216\322\274\350\025\346\274L}s\274Y\350\277\274\314p\257<\357\252=<\260O\351<k\342\205\274\004\315\240\274\250\225\232\273h=\354<\236{\007=-`V\274v\225\256\273V\365\014\275\310+,=?+\036=\320\210\237<_\342\\<v\007\245<j\030\036\275\252h\037\275\237}\377\272\241\331p<JR\'<S\"B\274\233\220\032=\022\007\335\274\272=\324;Q:\034\274xP\257\274?B\000\275\217o\235<O/\226\274\241\252\376<_K\030\273\326h,\274\241\003\265;\354\2131\274\257x\t=\263\032\222\274h2N\274}yu<v\325\377;\221&%\274\032\272\020=\257_\371\274\237Zl<<\210\276<\254\227\206<x\3541=/w\351:\177\302\374<\315Cp<\230\210\034=.D\363<[\\\010\275O\017\025=a\211E<\330\\t<Y\310]<-\002\215\274!\t.\275\246)\272<\322\033\031=\256\252\031=R1\364\274\223B\241\274L\016\260<y\367\006=\350m\242\274\347\320\336\274\212\004m<\214\363\r\275\027L\246<\304\032\030=\030\006\200\274\313\323\272<\326\331\324\274M\360\016;\307\210%\274\236\243\262<\323\320R;m\270\264<\025\216\331<\010N\260\274\206\2665<R\367n\274\030\005h<\307\030\312;\025\273\276\274\006\276,\275\353/\300\273E\246\211<\025(\035=0\364\327<}\031\021\275\357\203\325\271\225\217H\273\031\003\225<S\267\237<\250\201Y<5\306\301\274W\344N\274\344t\003\274\237\356\354\274`\220\253:\026\334 \275cO4\273@\275x\274\237\\\037\275\321\027\037=\253\366b\273\002t\300\274\344E\340;x2\204<|\230\025=\270\347\255<\330\271\210\274\206\332\356<\0038\244;\007e \275\245`$<\332\214\326\273!L\004\275\202\031I<\030\0340=-[\370;\245\265\"\274W\215*=\242`J\274 l\021=\256\202\001=\330(\277\270\327G\262<L\263\214<w\312\341<\002\354\022\274+7b\274\277\273\027\275\207\311*\275\004\303\314:b\311\373<\224N&\275\351\347\312<H\367\003\270|M+\275$\377 \274\302K\332\274\032\217\031\274A=h\2740\276\t\275M\336\356\274\322\323.\2751\371\033\274>\313o\274`\272\214\271\361\021\330<\341\225d:\033\363\023<\243\271\240<\341\017\356\274l\"y\270+ \005=\373\361\003\2757\336\370<\346\233\272<\300\027\260\274\031\363\247\274\213w\027=\332\303-=\311\261t\273\324\302;<\323\"o;\222\202\254\272\007\310j<@\337\013=\226\3514\274\034\374\t\275m\332\020=\032\303\023\275\331\217\"=\020\302\312\2734iE\274\223\231\241\274i\021\314<\"?\034=\t\352\232:rD\353\273\325\314\304\274\327d_\274\212\323\230\274u\006\007\273Q%\307\274\257hf<\021\213\003\275\316*O\274U\016\313<B(\031==\236\251\273^\\\355\273\331\357\210\274%C\332;\316B\';\3438\236;m\3360\274\021\270(<i\306\004\275\301\227*\275\251\304J;\214/\305\274m9\027\274\316i\3338O\252\217<\036\030\317\274g\202\245\274\2327\325\274\014/\300\273\001\306\244\274y\252 \275\013G\023\273\217WW<\031\273p<.v\305<I\022\347<5\335\312\274o\345+=\236A\024\275^8\026<K\233\001=<\354)=\315\231\324\274\231T\360\273\344h(\275\'\236$\274 \214m<m\226R<\305\214!=<s*=\310H8\273\234t*\273\366\334\001=\366\301\036=\217b&\274\226\227\325\274\201\206\013\275\303\323\375\274\233\3643\274\263\010\261<\275\374\373:\214T \274\033\326\'=i\202B<\364\342\273\274e6\202< ?\255\274\024\037]<\354.\326\274\262\2425\274R@\331<\360f\230\274\224\355_\274\316\253\312<\"2\333;Ax0\275\374\2349\272=\031\262<f\330\262<\021;\252\274\342\001B\274\335\313\356<\316\250\251\274\277\340\343\274\356<1=^\360\264\274;qs\274\237~g<\037\337\345\274`s\006=\274i4\274\022\207\245\274\342]\324<\367\232\303\274J\205u<,\276,=\213$\341\274y]0\272\215\373 =\273\267\325;\356\203\003=5\345\351\272\231O\334:~D\033:/\370\026\275\206\234%\275\227\263R<\334<-\274\024\246\302\273\324\315\003\275\344\010\344<\263\230\224;\025\252\217<<\326\216<\2030\'\2755\344\007\275\347\342a<j\272\\<\260J\021=\224\372\331\274wD,\275\215_1\275|\316\001\275\313K#\274\277\251\233\274\000U\260\274D()\275\320]O\274\323I\311<\007\317\305\274@\307\240<\025T\336;\261\010\002=\223\263\365\274\340\300t<\324y0\275\321\'\005;\225_\355\274}\371\007=\356k\220\274\205\310L\274\005\323\214<\016\321\027\275>\225\210\274!\364\325\273\223L\031=\236\350\t=v\335\003\275X*s<\255\320\t:\244-\263:y&\014\275\013]\236\274\350\363\374;\277\324\215;\340\320\020=O\024\010\272\200\263\271\274<\340\001\275;Z\247<%\035\243\274\246u\312\274B\3000=a\236\223\273\211\264M\2743I\341<\350\370\201\274\244xe\274]\353\010\275$\307\257\274\354\000#=q\251\032\275f\346\222:/\002\020\275\211\372\230\272t\333X<\265\"\356<\344G\024=F\322\241<\357\r\350\274wz6\274<f\002\275)\020,<\331-l\274\031\237\211<\332\017\013=\327\275\254<\302\2637<\221\227\230<A\260\234\274rk\250\274\024\304\320<\216\3646<\364\304\001=o8\276<0+\357<i\247\017<\214\344\n=V\362\320<?F\006\275#t\014\275\213n:\272vO\364<\370}\007=\0103\376;\357\266\347\274\234\334~\274\005\345\035\275I\363*=0\354\224<\262k|\274p~O\274\300\254\243<w\247i<Z\001\301;D\333\033\274\303\034\2368\332J\264\272\3201\220\274\345f|<ly\227<\227\232\350;\337\222\r=\360H\233\2744\003q\273\236U]<nh\035\275\340\267`<\323)\032=\254-\315\273\025U\271<\226\233\006\274~  \275\313\334\035\275,o\315;NL\006=>\274\342<`@\341<\023@\205\273O\206\352<L3\035=\036\303K\274\\t\201\274\351\245\274;]?\321<\235P)<\221r\236;\225\237o;\227c\331<\313O#<\237\275z\274\344;g\273\033\314\030=\035?\367<A\2451\2740\315\027<x+\215<\027e&\275D6\232\271C\257\261<\323\323\305<\2713\242\274]\235N<y,\271<_\260\363\274t\306\272<_\271\034=@\027;\2733\202\016\275@\250%=\214\321/==u\277;\245\225\272\273\212\314\r=\222\357\005;X\337\210\273\007N\364;\347\313\013=#\035\270<\314\354\331<\346\210i\274Nm\226;\357\200\371\274\203@b<\367\321\201\274E\023U<ar\331;W\342\305\274\212R\313;\001\235\030:^N\023=\2745\217\274&%\360\274\316g\304<H\267\006=\270Q\"\272,h\350<\227\346\034=\313\037Z\274\274\362\251\274%\000\321<\267\242%=\023d\004\275\367\316\'\275d\275j<ck$\275\nQ\213<]\344\306\274(\216B\274\2405\365\274\200\367\310\274/\253\206\274\276\306\023=G\261\220;p<\255\274\262\376\314<\004\314\026\275\310\270\316<9\200\334<Kw\017=\027\255\n<\252k9\274s\265\257\274\221$\303\274\236\240\032\275\t\243>\274\207xI<rGH\273\206\240\031\275\255`}\274\023u\320\274\332\362\221;>\227A<u\240\223<\037 <<\305\277\377<\314\211\322\274x\273\007<\264`\023=\235\017H\274\321\014*\275\363\266\303<\267\260\210\274\207\225\334<\236/x\274\tA\367:u\306\224<\303\2544;\033\363\032\275{\353\203\273\246L\356<\020\312C\2740\001\n=//\352;FO\337<\232\334\336\274Z\276\372;\2617\337<\000\024\035=b\304\304<9\337\324\274\200\233\363\274B\276\022<\261.%\275L\340\272\274X\272C<\251\217\264\274,\346\r\275\340\3031\275M\376\272<\016\230)\275\227\362\354<cj\341\274MR\033\274\372^\224\272l\025\006\275&\317\371\274\321\306*=\344,\253<\257q\264<\305\322\313<\236\257\"\275\330\303\201\274i\020\007\275.\221P\274\267\376\005\275\344I\031=\233\026\006=\261\346\236<N;,\274\233@e<G\2171=\360F\265\274\026\2520\275v#\010=\373\312+\275a\244\321<\344n\314\274\267\345\027\275\265\335.=\260\266\027\275\010vM\274\321E\253\274\255}\365\274 \332%\274\375@k\272\227\247\240\273\343\304\344<l\216\272\274\200Y\341\274\344\022/=\200\314\246\273\354\363\t\272\304\002\223<9\301.=26+\275z\010\337\274\335\n\247<#\261\026\275\367\355\307\273TzR\274m\311~;\217\252G\274\\\334\304<\276L\001\274\356\"\311\274\371\274^<\210\335\225<\001\221X\274\213\331\024\275\302f\032\275\216\344\352<\226\0336\272\247a\264\274.\032\216<`\241\321;P\317$\275r\254!<\212\227I<_\203\013=\231u\204\272\300#\315\272\365\2511;q\264/=>\032\316\274\323\272)\2752P$\274\371]\210\274\314\347\253\273\236]+=\276\004\244<Yh\000\272\016)\310\274\215\034\034=\310\273\310\274\226^p<\371\240/=:\307\010\275\203\374\336\274\207\367\233\274\256\264\225\271I\354R\274\033y\361\274\362#\245<\205e\335<\002E!\275\230E\014\275\003\335\030\275\342\200\350\273\361:&=\210\373\376<^1+\275\376\222\247\274\350\225%\274\240[\277\273\356\3150=\360\357\'=\026\017\322;&K\025\274\2200!=}p\256<\200Kj\274<\033n\274f\214\013=\213\177\265\273R\006\237;\017\020.=\246c\\;\305<\220\274/\343\"=P\242\000\275\243\023\022=<h\375\274/\207G<\271v\032\275\347\013\356\274\006^\375\274\336\305\210<\237\377\002=_?\002=\222\340\205\274\371$\327\274!\303\001\275\210v\020\275\260\212J\274\3166T\274\276t-=\360\273\222\274u\230\220\273\177!\024\275\341\024\253<\241?\301;\224\"U\274\3179\373\274S~\245<\234\373\315<\025\353\t<B\010\030=\3713+\275lq\250;\355@\020\275\220\216X\274\374\207(=\370\014\201<\212\315\001=\273\336\211;\202;x<\3429\037=k&p;\nq4\272\274r?;\232\262|<\323\230\376<J^\343<\364+\202\274\373\240\010=P\3711=\246\017\240\274\340y\t\275L\200\274<\007j\201<\211\243\223\274\231\311\n=3\362&\275\210\303\255\273\240\001`\273\347j\225;\256Q\t\275F\322\334\274\034\260\207\273\223\374\024\275L\265g\274\305\262W;\002VP<mR\020\272\253N\266\2744\356\303\274\256\222\301<\030\350\273\274u\241j\274\246\003\366\274d\355\236\274\352\301\216\272\372\024\305\274\263\356\010\275;M\024=CG\214\274\311.\200<\322\245\023=\330\254O\274\254\352\007=Ei\331\274\2035\331\273\370D$\274\226\372Q;\312i-\275 \036/=\333\370\231\274\033\314\346<\311\231\014=\277,\373<w\273\034\275\220w\033\275\267/\253<O\216)\275\300\213+\275W\r\034<\277\315\023=\374)&\2753\026Y\273\216\\\021\275\216/)=6\025\r=\277<&=\322\374\256<9\305\277<\266Q\220\274\376\017!<\246\255\221\274\214#\317\274\000\335\006=\302\226%<$\226\332\274\031ps<\341\363\313;\257\006\326\274Fx=\274\366\231\020=\327i\213;;d\362<o\241\212\274\275\310\032\274\2400.\275\205\244\004=\261M\010=\007\r\251;\306\351r\274t\335\260\274\245\267\024<\260\371#\275\202\202\r\275\246\2053;\314\021\037<\236B\242;\014\241\255\274\005\276\"=P\372i<*\212\317\274\273\272\334\274\0173\010\275:\010O\274\360l\354<7\021\350\274\034\261\272\272\036\271\266\274\367\277S9\303RE\273\202\260\260\274\'\277-=\001\307\347;\261\016\002\275\027D\227<A0\021=\027\314\346<J\264\200<\361\312\342\274\t\320\022\274 \000\'\275\374A\223\274\n\264\030\275\271\372\213\274\352\034\235\272\363\212\033=\213\375\363:!\302M\274\374\314\014=n\tj<7\325\217<\361\306/=\2300v<\216\026\363\274\025\210/<\375Z\346\274\275\354\357<\021\324\007\275\376n\211\274at\304<_#r<?N\033=\021{\307;\320\202R<\361\306\266<\231r\253\274\356\374\021\274T\260\370<\257\205&\275\352\260\000\275\371\223\361\274\203\033z\274\310\341\230\274#\3070\275P\310\330\273\n\245\262\274=5\372\274\026\030\020\275\315\254\266\274d}2<Lk\342\274_\324\326\274\330\252\200\274\361{Q\274?\'\252\2743\351\362\273mI\262;\311\226\321<\021\235\007=\235V\207<\373\325\336<L\307\230;\262O?<\352\243\213;\250\007\321<\264X\000=L\007\240<\315\375c\274\242\350)\275\235\301\227\274\374q\"\275\241\311\020;\257\310+=\313\375\002=\305\251\230<\347r\342\274\227\024\333\274\366\245\340;\274\243\240<\224\016\026\275\206\341!\275\332\005\234<\001\323\013\2755\242&=\032C/<*G\"=\323\250\216\274\300\371\265\274wc\000=\321o\030\275\037\252\034=\311U\236\274\355\234\014<D\333\031=u\226\002\274t\372\316\274\365\323\202\274\251\242\037\275(U\332\274\r\245R;\250\356\302<\230\037\242<\3661\250\273\367]#\275.\322\251<\236\014/=/C\342\274\034\023\377<]\356X\274\236\034*=\020\212\300<R\245W<\234\267\217<\322\027U<\327\021*;\257\367\235\273K\025\232\2749\332\023=\031\337H\274U\301\"\270\025\r\014=;\375\037\275/!\271<\212\233\262<;\225\225\2747\212\333\274j\226\212\273\270\306\204\274J\021,\275\2231\371\273\343s%;\220T\202\274\013\232?\2727r\351\274\360\374\327\2745\364\267\274C\202\004\275c\255\221\274\277\357\315\274\007(\357<\216\367l;\326\226.\27510\025;C\2671=w\335g\274\336\005\007= \310\265\2746\341\342\273\245L\233;\336\007,:5\027\235<\327:\014\275E\263\214\274C\331{<9\351\r=\323\'\230\274\003~`\273\003o\223\274k:\013=\204F\345;k3%=T\334+=\320iW\272\3507`<\346\266\275<\215\017!\275h\277#\275\335q\003\2748\017\252<\271\237\321;\374\243\316<3\325M<\326C\013\275.\376\307<\2438\341\274\265\340\001<\265\370\016=\253\216F<\274$\202\274 H%=K\331\017=*\t\010=\257g\033=W9\234<P\310\036=\251\336k\274\223\320\022\275\350K\023;\3366\n\275\204\304\"=K:\033=\"\317=:;\321\004\274\034\314\335<~[D\274%\244\000\275\002\311\023=\232-?\274!\314\342\273\326a\350<K\r\t\275\323\357\363\274\332O,\275\374\233\r\2744\265\027=\3067\210<\271W&=\"\207\323<\235]\202\274\354&\356<C\254\305<\266\215\034\275\373\270\270<6\323\361\274\365\212t<\367\273\350\274\033p\344<\177V\277\274@\262v\272\203\374\036\275d\215+\275\010A\315\273\343\000\246:}\344\270;\207P\325\274\336<\'=\030\373\224:\036Q\004=Y\354z\274\215\246\017=\377\202\030=\343\334V<\271\223$=9\347\001\275\353x\307<\030\212|;\341rM<\321\351\235<\364\214\213<O\002+\273B\325\r\275\350\317\231<Q4*\275\225\304\220\273\356\372\017=\273\236\023\275#q\210\271\026Y\022\275c\000M\273.\345+\275\3221`<\315o\033\275\022.\352\273\375[)\275\372\363q\2748gP<#\351\247\2748gN<\221s\243<%Ck\274\010]\022=\260 \006\273\351M\024=\223\216\021\275I\330(=\247\320\010=~p\243<9\352\t=G\027\307<\306\211\035\275\324\000\320\274\310mi\273\025\337\021=\221h\014=.A\001=\314]v<\302|\377\274\376\320\026<\335\301\036\275?\034\025<oN#=\365W]\274F]:;\351+\"<\026\216:<\270_\240\271)\305\341<\271\364\027=Z_j<HL`\274!\352g<\240\252i<R\211\367;\302\261\376\274\337\355[\274\2553\007=\005 \331\274\2154!=A\314\201<wRd\274\363\255\022\274(z\001\275\031\321`;\205\021\312\274\323n\026\274R\257\221\274\351k\010\274\261\257\326\274@\3062<\204\364\205;\\;\r\275\352\250#=\177\000\035\274\237q,<G\023\340<\240\r\004;\351V\026\2759\356\010<d;\020\272\t\245\\<\217\237a\274\352\300\206<\336#\257\273\201>\317\274\376\234\016\275\243w\023=\260\037\032\275\\\003\301;\360f\260\274\345\326e\274\204\003\216<\n\304M:\321{\032\275\206#\325<\360\227.=0T\030=\314\271\t=J\263\331\273#\277\314\274T\211\035=Y\367\004\275\236\324-<\001\205&=\334\331\035\275\304\007\246;\030k\306:\343\355\276<\225Y\203<\344\'\337<:\366%\275\310X\231\274\271K\036=\3751\210<\230\275\033=\336#\003\275\350\332\246\274\373\202\211\273\022\341\216;]\321&\275\255\t\266<a\327%\275\355:\271<\301e\214\274\354\260\372;\365\241\023\275\t]*=\320\347\024\275\235A\2329\304\301\036=\201\\\266\274\332\306L;\303\232-\275z\306|;\247\253\t\275\377\354\032\275\017\317\322\274=\313\325<\230\014\014=\2639\030=\271P\"\275~\221\030=n\202\017<\004\345\025\275\214\342&\274\344\326\t=|\361(=R+\000=\373K(;\372\235\002\2750K\330<\322\341\"\274\235P\242<\323\260\366;\300X\"\275\233\360H\273\216\355\314<\221SF<\0006\300;E<\256<\311\247\223<\203!\017=d\317\253<\302\246h<\257\373`<$\246\266:J\361\036=r\2360\275\274\034\300<\027\2748\274n#v<\264!\363<l8\334\274\351\014\250\273\014\350$\275&\177o<\264\r\017=\232\3648:%0y\274\177\025%=\334\266\036\274\014\335\224<\020i\261;\261\1772\274p\"\030\275\216\364\251<\332\t/\275:\020K\274\350\325\363\274Dx\220\274aE.=\2338m<\343\2620\275\034\321M<2\326\027=\346:\377<\374j\333\272)H\024=t\016/\274Z\253\024<\023\336Y\273\216\026z\274\372\203\030\274\304\272\016=\007\315\010=p6\010\275\225\363\025\275\272v!;V\256D<\322\306\006=\322\331\250\274]^z\274R$X;\3608\245<;\341\210\274mu\266\271\322\373j\274J\356%=n#\005=\303>\314\274\n=\261<\315$\317:D\316\017=\017W\214\274\341\377\356<\222\335\004\274\000|\024\275y\'\272<\002\036B\274\326\332\010\275\'\337\002=\022\2073\274\303\010\352\274\305\213\310\274\261\222\346<((\337<\333K\361;\031\343!\2757\327\356<\326\333\314\273$\310Q\274\221\252\024=|\234\033\274\205\312\010=h\301\303\274\001\240\326<\336h\313<\327$\002\273_8\355\274\005\017*\275\206\030T;(x\n<]\230\250\274\211V\003\274u[2\274u\245\267\274\335\303\r;Z9$\275\206\327#\275\372\365-=f\004\000=h\017\213\274\217`\t=\246o\261\274.\214\353\274\207\205\355\2747\302\224\273d\205\277;\257\300\250<\326}\007\273\\\361\240\273\221\350\363<\207\030\245<\013\313\357<\312\372\275<\354\330m<h\300\021\274\\C\201\274\254-\374<\242_\004;\315J.=i}\317<\305B\274<\033V\351<&\251!=\210\242M\274\364 \037\2753\232\375\274\351\236\265\274U\0273<\323\372\366\274\242\311\344<OH\314\274\251\'\214<\245b\022=%.\210<\212\213\325<M\007*\275\200\305\'=\232\220\271\274>\357C;+\306N\274\225X\035=\227\270\227\273\263\024\210\274\364\216\367\274\352U\037\275\334\211=\274\255\220L<\212\306\004=\003g\373<y\017\t\275\006\224\275\2746\350\212\274\007\264A\274\024\322/\275\251\255\311<\354\0200\275\r\025\345<I\317)<\360^h<\240\343\221<\273\276\000\275^i)=\022n\257\274\335:\271\274\357\266\325\274`-,\275\231\003\225\274\221\274\002\275\254\351v<\226\251\027=\036G\r\275\037%&=#.\026\275\326\336\327;\230\001\037<\\\336\277<\257\243\027\275`\331D\273\323X\350<\304\262\226\274\373-\313\274\245s\r=KT\034\275\254\305a<5jZ;\227-\027=\3230\t\275\361\304\017\275#\317e<\331\233-=\341M\325\273\247\345\230<!\274\251\270=\025/\275oh\"\275\265\366\354\274\376(\211\272N\014\362<\221\275\367;\324\220^<\206\351i<3N\036\2753\211\240;\246ml<\035\035\223\274y~\316<<\241*=z\3543<(A\303<\013w\001\273\246\332\033=\376}m<I\214`\274pS\300<\237\326$\275\377\000\240<\177S\222\274-\254)=Z(1=\267\206 =w~\362<\t\207\220<\372\005\365\274\321\273\346\274S\331\364\274\233*B<\335\272)\275\005\266\005=>\304\013\271zZ\347\274\300x\260<_tB<c\025\324\274\001\334\271\274\032iU\274\331\027\036\274!\202\232;H\272\276<~T\374\274\036\210\253;\241\321q<\304\2071\275\3279\017=O\025 =\361\242\373\274\004\014\016=\355\225\036\275\262?\013<\247\310\r\275\300\3427\274#S.\275\326[\343;T\210\005<\324\363h\274\365[\265\272\344:\002\275(\366\310<9\305\230<K\300r<2\360\276\274H\335\307\274\014\232\237<t\336\371<\213\213,\275\223`\302\274\'\204\203\274\222\034\332<\313\350\334\274\030\330\353\2732Z\027\275!\005\360:q\003\032=E\252\327:\213\245$<\373\"\226\273\313!\356<\341\256\300:\337\327\242<\326\200\243\274\337\374\010\274\247X\000=\020\241$<^\365\232<\001L\006=\360S\005\275\214\342\224<\324\240$=-f\315<\344\357\006\275\t*\024=i\221\312\272\241A\014=\247DS<\006\3514\274\031\023\314\274x\016\212<\360\242\372\274\356$\323\274zh\252\274\032\336\372<\213\336\035=]\227\363\274\263\202\211;X\345r<LK~<\250\343\n=\324\214^<\223T\275\274\240\355\206<\272\341\002=k\021\032\275_\274\357\274\275\213\374<k\377\014\275$Qa<\276\365\266<\024\230_<\234\373\021\2745\275\035=\036\371\237:f4$<i\021!\2750\364\t\275\300\033j<\0227%=d\027)\275]\230w\274\274o\314<I\274;\273\360\004\022=\3343\030\275r\313\004\275\363\277\'\275xm\005=\263Ku<\201)\342\274c<\005<\'\r\033=\341\260\t<\327\264I\273\222LE\272\226\227\'\275\213\240%\275S\357\211<~5\243\273O\370 \275`<\021=po\316<`;h<\2441\250:\n\221\361\274\256\217\312\274\374\363\001=r#\371<\306\264\004\275\312\376\331\274\004\353\010\275\255\312<<1\272\026=M\244\277;\031-\373<\274W\330\274&\301\331\274\007IP\274T\035\206<\266\363*=>\253\361\274\032\027 \274a\034\017=\210\235F<\313\005\251\274!\334\006\275\226g\350\271}\177\023=\2608\317\2738]i\274\265\323\222::\271\236<\330\346\364<!\274\001\2756\222\341<\325}\375\274\374\273\326;\240\013\301;\224\243\242<;\033#\275\325:f\274#\352\241<\322\326\034\275\2020\031\275\006\214\327;\304\257\267\273;:\010<\014{\033\275~\177\021=i\251\"=|\002\372\273vA\343<\243\333\027=\007\212\000\275\rW\002\275\200\232\236:\222\014\365<\3269#=\346\325\031=\377\302\031:6^\212<\204\003N<\254C\030\275e\347\024=\365\226\001\274U\320\\\2748H\207;\237\205\310<\331Y#\275\301\376\230\274\340X\035\275j\233B\274\244\331F<\221*\230<]p\260\274\272\307#\275\3711\310<m\224\031<\254\025\331\274_\215@;\267\022T\274\214\362\323\273\251\274\003=\020n\361<3n&;8\213\341;C[\214\274B\363\227\274(0\r<\264\271\236\274\214\030\366\274?\321\213\274\305\307\204\274\374\347\014\275X\305\010=\2062\343;#X\261\274\360\335,\274\006\313\352;\274\322\"<;\244\001\275\204B\020=H\347%\275!\331e\274/\026\277<\307=\253\274\252\013\217<B\374\246\274#u\030=a9\006<b\246\361\273\016-\257<nQ\'=\027#\251\274}\214\327\273Q\303\030=:\300\r\272\266qc;^\226!=\240\274\347<Z\036\034=\237T\014=\326M%\275 \017\"\275Ckd;\027\275\376<\326A\363\274\201\262\020\275d\031\231<\216t\336\273\331\315r\274\267/\013<\340\372\005=Dk\370<-\256\024<jF\364\274\016\211\216<cS\027\275\256\364\344<\035+\016\275\234z\223;l\005\301<\313w$\275w\0024\274\213>]<#\236v\274\'\251\r\275=A\251\273\257\220B\274D\362\365<\224\271\271<s\224\236<\243^\"=\007\367(\275\020^A\274\310\215#=\014\222\020=\304\024\267\274\242\217\0029\\\263\332\274\242b\364\274\274T\026\275\233\265\n\275\264U$\273z\313\256\274\371\256\204\272\225\021\014\274\323\n\355\274\004\340+=Y\325\370;\213\001\213\272I\306\313<s\376\021=>p\001=\370\201t\2723\221\234\274\361\252\327<\025DK<Qu0\275\316\342\020\275\350\277\245:\355w\\\274~\311$\275\260\351\265\272\377[\212<\036\302\367<\016W\376<O\303\363<[\2140\274\246r\344\274\265\216\277\2734\007\206<\354\036\360<\243\350\307\274\000\372\224<\375\245x\274\374\363\307\274\2066\244\274\266N\006=8\205\'=\2240\273\274|)K\272\004 \347<\000r\252\274\365\257{\273cM\240\274J\202\255<w\030\315<\375\373#\2750\252\300<\017\263\302\274\257\335\316\273\001@\030=\026a\014\274r0^\274v\345\002\275\2576\255;\023T\036\273\360&\303:P\010\330\274J\307\204\274\304\'\210\274\276i\n<\017z\227;\333\267\201\2743\312\220\273\001\373\226<6\034\013\274\241\271B\272%(\212\274\220V\016\275\010K\222\274Q\214\001=T\355\n==mA:\210z\213<\366\017%\275\237\016!\275\311\251\336\274W\007\013\275S\\\274<\221\273\032\275\335\272\277\274\3642\256\274\265\272\255\2735G\251\273\365@\357\274\t\267\023\275\274\251\236<\211?\242;\302\364\030=\277\024_<\370\2568\272\232I\214<\310\"\027\274\234\264\003\275\317\311\020\275Dr\332;\032$\214<Y\316\027\275\001\376\205\274l%&\274\316\276\322\274\301\007\353<\367&\024;1\351~\274\013\274/= \212%\275\256l\226\267\025K$\275\216?\005=^\323\237\274\265<\307\272\215i\220<y\2041=^\210\223\274\227Y\211<\254\214\250<\372\016\370\274\004H\247\274_\236\227\274@\275\'<\251\234%\274>\310\271<\031M!=\351Z\317\272\0167\272<\032P\222<va);[\231Y\274_#\213;\n\257\356<\3538\314:9\375\306:\212\177\007\2753\350n<\222\032w\274\234\231\224<\321c\265<\022\215\272\273,\223<<\n\014\352\273\344E\340<E_\365\274q\303\016\275\233\345\266\272\322*\'=\310\271\336;\250\025d\272\206\307\323<z\023\333<\263\347\312<\"\241\331</\004\000\274iv\007\274\375L\035=\212&\265\274\354!\036=\006\300\332\274),b</eU\274K\214\375<\246\031\021=\277\317\212<\212\226\221\274\003g\216\2730>\035=4\216\006=\2007\210\274\377\302\240\274\0311\327<\217\331\361<\267$\323\274\202e\027=\251}\222<\353\021\273<\251>t<\017\333\023\275hV \274\362\344\005\275\r\332\007=<\006\353\274\215\374\032=w\304\314\274l\024\320<c\330\362:W\027\311;=|\"=\236\233\024=E\004\023\275\344\261\317\273#\372o<K\325\247<\351Q1<\341\206\373;g\3714\274\274\223\305\274a\234\346\274\235b0\274fX\"<\340\036\362\273\177\016\204\274\304\243\334\274\241%0=\302\231t\274;\355\026\274\251\n!\275\221\335\032\275P?\213<1\r\037<\313\254<<\023\000\021\274\317A-\275-\'n\274\355Q\016\275\260\020\020\274\207\270\037\274\214k7<\021S\240<\365Q\250<\374Q\204<}\356\224;\020\370\233\274\2367,\275\212V\207\274*,\030\274\240\205\365;\374\014\307:UA\253<\016\037\274<\240\351L<\254!\337<<\330\226\274\023\022\300\274\312J\356\274\032-\246<\334\226\'=\336\3208<\377\226\223\2742(\272;\225\252\350\274\364\343\257<\305\244.\275\361\to<\036\250\037\275\267\222,\275(&\010\275\334\247\207\274\037w\230<D\321\001\274\263^\265;\2260\372<\365j\352\274\224j\022\275\321\231\240\2740\326V\274\345\252\376\274\004\206\036;e\031\327\274c\016\'=\203-\035<o\204F<\0070\t=\327y\242\274i\024\202<\217\305\331<\240y/\275\232\341\3258\246\020\211<8w\220<\271\340\220<\016!\005\275\034\215 \275\210z\341\274\3439\360;\227r\215\271F\034\204<\"\241\305\274j\264h\274\226\034\004\274\'(\001=\364le;\260\353$=$\233.\275\356-\274<\376\255\037=SaS\2747Q\356\273\322o\221<\243\222\256<p\312\355\273b\242%\275K\333-\275(\334);\263\024)=\326\n\"<\3024F<\360\254j<\354zp<T\"\305\271\350SB<\373r\246\274K\366\033<\235\264*\275~\215\365<\223\332\004\274)(\002=\026{\024<\261\257\244\274\034g\370\274C\320\003=<\334%=\224\317\024\275\270\002\005=\205#\215\274\236\315\347;\275\006\225<\022\234\361\274lyv\274\302\315\331\273pi\332;$\253\036\275\227,(\275t\030\013\275R\2608\273N\244\252\274T\354\000<\0045\001\274(\332\350\274dO\n\275\352\324\214\274\353d\004\275\224c\336;\236G\232\271\027\207\360\274\263.\203\274SJ\257<\362\365\003;\272\032V<T\354\020=8|\201\273\2462(=\365\305\360\274\2746\355\2743\335\312;B0:<\'\023\017\275\257\330\342<f\272\254\274\371\374\025\275\210\303\225:0\375B\274\355PY\274Q`\037<\340k!\275r\301\365<sJ\030\275\032\330.=F\277/=\nQ$=\346\362\216<-\246\r\274\033\343)\275\243\260\312;o\207+<\371\242\020<.\276\017\275\220!\273\274Y\256\247\273\274w\212<\254D\202<\205\365{\274Ap=<\325u\007=\252\277\364\274\357\254\262:\221\326*=\366\235\234<\226\313+=a\006\201\274\014\363~<\036\317&=a\023\317\274[\016\005<\331\3651\275\201 l\274$?\022<\367}#=z\220\224<\310qU\274\r\3542<J\353\217<\302i\337\274\361\2561=g\323\351<\210\274\001\275\363\317\014=\342\231\315\274\322\200.\273\320\0141=\035\220\037\275\370\370\222<\305\027$:I\360Y\274\\\350c\272\315B\322;\342\361a\274\267\374$\275\0355\302<\221\023\253\274*:\035=\272\332.=\353\2034;\037\321\355;\006o\230;\023\027\203\274\200\217-\274\306v\006\275\356o\005=\307\310\276;\264*\212\274\274%\331<!\331\006=V\245\025\275\240\201\001=E\037\230<\342\377A\274\305\\\365;\3303\021\275\211_\030=fC\301<\241\020\336;e?\032\275_\034\355\274\204b,\275\264+\242<\323t\222\274W4!\274\243`\366;\242(\332<\251\021\200<Ll\005=\t\'\031=\000\210(=7\270\241;Uk\271\273\005\001\027=\014xS\274\341\262%\275\344t\375\271\223y\366;\300y,<\277Z\232\273v6\246<\n\241\350<m\222\205\274\243O\356\274\304s\026\275#\367!\275F\305\333\274A\252\244<\254|G;\037]\233\274P\336.\274\333)\021\275\317\207\005=\031\244,