node {
  name: "global_step/initial_value"
  op: "Const"
  attr {
    key: "dtype"
    value {
      type: DT_INT32
    }
  }
  attr {
    key: "value"
    value {
      tensor {
        dtype: DT_INT32
        tensor_shape {
        }
        int_val: 0
      }
    }
  }
}
node {
  name: "global_step"
  op: "Variable"
  attr {
    key: "container"
    value {
      s: ""
    }
  }
  attr {
    key: "dtype"
    value {
      type: DT_INT32
    }
  }
  attr {
    key: "shape"
    value {
      shape {
      }
    }
  }
  attr {
    key: "shared_name"
    value {
      s: ""
    }
  }
}
node {
  name: "global_step/Assign"
  op: "Assign"
  input: "global_step"
  input: "global_step/initial_value"
  attr {
    key: "T"
    value {
      type: DT_INT32
    }
  }
  attr {
    key: "use_locking"
    value {
      b: true
    }
  }
  attr {
    key: "validate_shape"
    value {
      b: true
    }
  }
}
node {
  name: "global_step/read"
  op: "Identity"
  input: "global_step"
  attr {
    key: "T"
    value {
      type: DT_INT32
    }
  }
}
node {
  name: "input"
  op: "Placeholder"
  attr {
    key: "dtype"
    value {
      type: DT_FLOAT
    }
  }
  attr {
    key: "shape"
    value {
      shape {
      }
    }
  }
}
node {
  name: "output"
  op: "Placeholder"
  attr {
    key: "dtype"
    value {
      type: DT_FLOAT
    }
  }
  attr {
    key: "shape"
    value {
      shape {
      }
    }
  }
}
node {
  name: "HistogramSummary/tag"
  op: "Const"
  attr {
    key: "dtype"
    value {
      type: DT_STRING
    }
  }
  attr {
    key: "value"
    value {
      tensor {
        dtype: DT_STRING
        tensor_shape {
        }
        string_val: "X"
      }
    }
  }
}
node {
  name: "HistogramSummary"
  op: "HistogramSummary"
  input: "HistogramSummary/tag"
  input: "input"
  attr {
    key: "T"
    value {
      type: DT_FLOAT
    }
  }
}
node {
  name: "HistogramSummary_1/tag"
  op: "Const"
  attr {
    key: "dtype"
    value {
      type: DT_STRING
    }
  }
  attr {
    key: "value"
    value {
      tensor {
        dtype: DT_STRING
        tensor_shape {
        }
        string_val: "y"
      }
    }
  }
}
node {
  name: "HistogramSummary_1"
  op: "HistogramSummary"
  input: "HistogramSummary_1/tag"
  input: "output"
  attr {
    key: "T"
    value {
      type: DT_FLOAT
    }
  }
}
node {
  name: "fully_connected/weights/Initializer/Const"
  op: "Const"
  attr {
    key: "dtype"
    value {
      type: DT_FLOAT
    }
  }
  attr {
    key: "value"
    value {
      tensor {
        dtype: DT_FLOAT
        tensor_shape {
          dim {
            size: 8
          }
          dim {
            size: 3800
          }
        }
        tensor_content: "\2002\022=\351o\021\275\231&\013\275\233x\022\275*\326\265\273\251\'\036=\276\354\216<\226\223\006\275\002\215\336<\026\013\325\274\351_\364<;$\010\275\341\222\276\274{\207d\274!\341d\274\276\035w\274\331\340\013\275\010M\"\275\347\322\222<\347\255\206<om\360\274u\032s<\272\002\013=vq\302\273G\276\262\273\213\236E;\201\343\372\274\206\237\007\275Nq\372<\257\236\321\274\035\273\213\272\276\340\301\274\332\224\035<]\251.<.\361\007\274\204\261\'\273\234\033\217<\376\222\204<\312h\372\274\326\325\264\274\020\213\253<I\031\323\274NjW<\'\034\260\274`\336m<\024\345\032=\370\262p<Z\025+\274\307*\244\274\340C\016<\313\315{:w\334V;d\205D<J0\352\274?M\353<\013\003\270\273kY\006\275\206c\322<I!\277<|\344\001<]\272/<\201qW\272\r\027^\274\373c\345<5\017\317;\305|\314<\374\300\311<^\303\204<\303\024#9\256o\002=\031*|<\345\216B\2716\204\240<\341\271\023\275G\376\240<\326\353\025=3\330\n<lg\032\275\265\021\353\274\020>\347\274\310\303!\275\246\226\372<\021\3615:\307{\302<\204_\004=\233p\024\275Z\216\262\274\224,\t\275bt\005=\305C\362\274\207L\211\273\336{P\2746\217\037=(`\027\273\0162\225<\010\351\267<\370H@\273_\230\270<\365.\006<5\353O\274\375\356\270\2737\016\370\274\033 \2469w\347\013\274\220\013\273<\004\223\016=\215>\307\274\202\361\000\273\216\030t\274\377\236!\274\267\337\243\272].\330<U\207\"=\307\355w<\353\307\277\273Db\344< \333\204\273Dp\343<\370y\226\274\251\034s\274\'\302\356\274u\330\316<\355\224\201;\2129r<&Tw<\004,\001\275\223%\332<\304\236\004=\033\373\323\274\230\330\243\274\312u\002=v\261\331\274\270\243\022=\341\026\345\273\035\010\000\275\022\206\231\274ay\006\274\201\317\314\273\213\311\240\272\007\257\001\275D6\241<\351\263\333\274\304\004\037\274\236\304\266\274\326\243\265<\341\311\033\275\000\311\204\273q]U\273\237-\213\272>\306\204\274N\252\032\275\243h\274\2742D\257<H\t><\241\331\013=i\327\021\274\"\022\033=Z\003]\274\310\330\r=\031\033\355\273BOr\274\212a\347<Uc_\274v\232\230\274\005\"\326;\310\265#\274\347\210\265\274\221\\\032=\022\242\317;\023=\327\274\226\252\211\274:\226e<C\224\037\275g\3428\273-\3423\274\235v\'\274D\323\365\274\'\204\024\275\250\3277<{\204\212\274R\354\300;\272\307\260\272\274\203\005\275!\204\236\274\341;\316<\233d\014=\260\254y<l\201\323<\022\321\010\275\r\027I\274\333\035\267<\375\204\n\274v\020_<\030\260\377<\302w\030\275V\210\000\274\240O\302\274l\266\346\274I\006\245\274*\211T\274\375\306\013=\014\340\007=\246\317\343<\333B8<\351\014\225<\343w\016\274\263\304\337<\203^\n=:\303\220;\031\271\265\274\002A\333<r\262G\274\253\017\236\274(\322\220\274-\246\031=\227f\273\274[\336\007<L\226\271\274\306e\302\274\377\010\234:\177\033\223< \261\257\2736\315\024=\t\005\217\274\375\n\n\275\017\200\313\274\301E\007=\227\031\233\274\017\021\344<\n_B<\201\250\036=H\021\024\275f\371\334;e\034\034=t\017\303\274v_[\274\246\350\343<;\207\340<o\274\376\274\261\343\025\275cU\275<\014,\007\274y9\356<\276\300\360\274B\305\037\275x\230\034\275\023\202\233\272\261\004#\274\034f\216\274\205\013\027=?_\354\274\224\005\252\273\244V$\274\276\202\"\275\242\030\032\275\"\370V<\244\027\276<\204\345\006=\243\312\257<\270\245\001=y\017\236<\324\013~<\331\273%<\n\350\244<\'~\207\274&\325\271<Pk\361<t\227};/\271q<sJ\301<\365\025\020\275\310\273O\274Z\362m<\277j\204\274\221\212Z\273\002\023\002\275\366^\207\274\203\275\037\275\335n\000=e\\\241\274H\372\364\274\302\235\004\274H_^<\370\271\263<Pr\277\274O\327\264\2743`b<\373Zz\274\030\227\315<\256\317\210<HL\227<7\200\312\274i\313#:q+\216<\003\036W\274\362\007R\273X\356\002\275;*\031=a\307\315\274h\031\354;\t\230\253\273\021\234\210<\365\022\'<\002\341\031<\350\017\026\275\254\251\021=\260c\017=\322l\270<\347?H:G{\016=?+\244<\277+\235<e\304\327\274!-\323\272P\263\017=\264\017\230;\340\027\327:z\031\214;\021\226\003=n\366\315\274\021\000\354\274\361wl<Rz1\273\027e\001=\257\004L<\242\"X\2745\220\013\275\346h\324\273U\034;\273\032\226\366\274\246@\210\274}\207\025=U\327[\2741\216\375\274\026\013\322<K\357!\275\373\365\244<\212\232\256<\013\362!=\005t\034\275\200\274\006=v\220\356:\034\273\260\274\260\177\244\273\274U\246\274Fr\024\275\301\300u\273vB\371<\0012\236;\274\317H;\375\241\024=\272\246\321\274\243%\205\274\r\216\022\275\266\032\266:_\037\020\274O\3374\274]\024A\273ca\264<V\305j\274\250\\E;\\\313\357<8\201\253\273\242p\272\272\014Y\277<!1z<\370\332!<\347U\310\274\367Co<\'\257\020\275\357$\327\274N0\026=\3207\020<\212\316\013=\177\367\025=d9\024=\327\020\237\274H@\254<\244\2756\274-\236A\274\224w\313\273n/\337<+2\244<\230\"\275;C\242\007=\245*\362<d\364\220\274iH\203<\026\350\026=M[\252<\366\'g;%\371\006\275\016\213\026\275\351\366\300<\032\350\007\274\232\311E<\021\n\010=1\253\374<\"\265\250<\253\3457\274R\330\030<\r\377\311\274\374\367\200\274*V\260<FK\003\275\340\235\366\274\377>\370;\225H\237\274\000u\317\274\3021n\271\304K\375<\257D\262<p8\020\275\352\325\374\274&6 \275\306\"\253<\004\372\344\273\261|\324<\323\354\030\275\325!k<\245$I<N\243X\274E\206\302\274I\321 =\016\222\014\274X\024\367\274\364\\q\274\230d\021=\205\n\263<\213\216\216\272R0\n\275\261X\240\274\270\256_\274xD-\274\271\324\247;\355\213\025\275\244,\361\274\203\235\324<\032\260\220<\267\234\307\273\025\343d;\225\305\021\274\313\000\006\275h\000.\273%\t\267;i.\225<\3055\257\273K\226\t=\227tg\274\273F\346<m\350\247\273\325>\302<L\300\337\273\013\214\341\274\240g\002\275\023-n<\234\0253\274\035\230\243<\017(\342<omr<=Kv\273\246K\003=\235\207\336<z\242\215\274f\354\253\274O\316\352\274\350\207\260;\263n\r\275\2447\307\274~fI\273\3540\'<\311\205\031<\341\311>\274\027\321\r\274\215\352!=\005\253\004=\336-\033\275\002\205(<\350\220\267<\303K\225<bV\360<h\376E\274\265Y\"\275\2404\362;\264\301\211<\344\310\202<Kjx\274qr)<\007\222\216<L\202\256<\225\305\242<\2659\010<t\260\216<`\303\001\275\023\007\006\273\006\246\244\273d:\001=O\005\362\274\224C\035\275Qk\277;\344`\"\275\243/`;9\262\030\275\363\016\010\274J~\213\274Uf\373\274_Q\262;\205\234\035\275\244)\232\274\230\370\334<\004\233\327\273?u\237\274}\375\350\274\245\257\362;&r\023\275\031\005\340\273%^I<\206\017\252\27444\207\274\244\274\017\274r\212\224<\243r]\274D]\377<\323\303\267<t4\226\273h\227\017\275\307x\210;\000\374!=\006r\021\274\3762=<\240s\032=D\274\357\274\332e\200\273\326g\375\273J\232\251<\365\346\246<\243\237+<\330h,<\276=\001=\014\355\235<\327\255\326\274\025\262\'<U\350\355<\224\242A</&\027=\016\n\236\273\304S\306<\356g\363<V\376\357\272}\311\270<\024r\034\275By\026\273z\215\366\274\267}\016<;\311\204<\236C\035\275\345w\037\275r\372\014=\204\345\232<E\274\310<$\024\271\274\256k\004<T\225\341;0\r~\274]\022\027\275\316!\377<\317\300V<\016G\357<\326\336\003\275<\264\022\273u\256\031=\343\230^:\207Y\014\272\027\001\342;\325r\007=\233`\246<\352F\344\272\312\225\265<+<\036\274\275ag;l\275\223;\210O\315\274Lq;<\000M\310<\030\350\245<\332\314\342\274\222\221\033=\272\2659\273\003\366><\nX\320\273\265\035\315<\254\034\024\274\3241\002\273\031\340V\274H\241\215\274\243\355\367\274\224X\225\274{o\006\275\337\236\222<\"\334\241\274\372Q\271\274\3277\010\273\344A\243\274\"\323\005\275\214\263\034\275$\272%\274\236\335\000=\262\264{\274s\300\202<d\233\3119\200-\366\274\321\021\336\274D\260\316;_\030\025<\340\257\237<a\243s<\013\016\016\274kE\272<\305\200\'\274\340\344\226<\324<G;\242\324\373<\236\014\017\275]Z\367\274\376\343\016=\3159\256;\004!\303\274\024l\323<\302\240\006=W\017u\273\232\336.\274h\246\253<\\\014\002<\350M\373\274@\314\355<\337\214\003\275#S\235\274o\031\010\275\213\226\237\274v\356\036=Htf<\243=\\;\354\036\036\275\n0\250<AP\316<B\035\212;\333\330\211\274m\273\341<<\000\316<\343\252\000=f\277a\273 \036\022=n\221\266\274\202\305\000\275\234?\311\2732\246\001</\241\030\275\202\333\207\273\340GT<\323a\323;\025X\252<\315\362\352<\227\016\256\273\354q\000<\2642\201\273\315]\321;\272=\025\275\023\306\375\273\030ai\274ed\234;&O\036\275z\005\262<\tp\t=\267\033\030;\210\375\026<\212\220\274\272<!R<\241\225\314\273\372\205\265\274\334\310\306<)\326\342;\326\031\255<\261\260\275\274\001e\300\274\343\315\363;\300\224\230<\370\205\254\274\203\033\201:\306P\315\274,\340\256;\316\322X\273E\346\251<\020\352\211<\'\376\210<\365\317\001<\263\224\301\2741:\355\274\315U\"\275\3574-<\204g\'9\374c\244\274/\302\357<\315\016}:1sw<\333\303\244;\221\370!=\027\277\260\274\033\204\026=|/\001=\0166\027<@H\367\274\212d\357\274$\376\250;\362\254:<\014\021\316\274be\365\274\221t\r\275\362#\263<\210\001\242:\031\241\351<\004J\030=*m\241\274o,\257\274 G\223<L\241\312<\263\200\025\275A|\317\274\n\267\205\274\356\356%<S\252\022=\"X%<\217,\024\275\264\016\371\274\034\000\316<\204\216\007=\207Q\037<]\324\211<{c\370;\304+\265\274\2461z\274m\031\036=+\3362<K<\324<v=s\272\370i\010\2755\257\016\275\014\212\004\275\334\234\277<\037\373\010\274 \361%<\032\272\224\274\203\316\027\275;&\273<\027\245\004\274-\354\021<\014\004\215<\356K\274<\336\036\215\274V\200\013=S\212\240\274\005\210\232\274U\333 \275+\013\232\274\200\262 <\351O!:\002\222\317;_\344\017\2754\207\361;\r\034\017=\263C%\274\235\316\376\274\"\004\257<\247/\332\273VK\340:\032\020\312<\210\"\276\274\332k\201<\2456\334<x\360\263\274;\300\020=\351?\"\274\234\2627\271\354\253 \275q\257\222\272r\226\035=e\004\255\273\013d\210<\302\316\317<\310\305~\274hv\276\274T?\266\274\333u\212\274\026I\254<.\337\036;\374\020\025\2750\037\331;\236K\361\274\204\214\n\275:b\t=\366\366\270\274xZ\253\274\310/\324\273\270 h<q\372V<,\205\374\274\004\023\331\273\006E\216<\261p \275\362\331\323\274w\245\366\274s,\362<(\320\031=\271\302\230\273\373\243\270;\202\365G6\213\343\333<\t\376q<\312\252f<\321\241\331<[\223\350\274\360\326\027\275O \"=\374\374`\274O\243\307\274\002/T<+K\r\275\215\261\006=#n\211<=\252\360\273\322*Y<\310#T\274\212\355\017\275\':\023\275(\240\215<<\243\331\274 \305\007=3\006X<Ke\375<y\352;\274r\227\200<\360D\204;\253!\252\274\277gB\274\372\374\367;\n\274\331<\335.\247\274\025H\250\274%\014\302;\305\204\371<|\3721<.\362\263<\324=\003=\274#\204\273\374\324\232<\034I\007\275\033@\222<R\230U\272\0329p\274-\222\371\274\205*\246<\322\325\371\273w\301\025=\206Q\023\275\217\003m<u\316\033;\251R\\;O1\313\273e\032\346<\201\316\010=\375jE\274Y:6<\235\r\365\274Ot\352\274O\341\257<\344G\"\275H\272\266;\320\275$;gQ\000\275\252\326\251<\035\025\225<\235\357v<\232\220\261\274zZh\274V-\273\273c\230\215\274\373\240\310\274Z\270\320\273g\365\310\274w|\246\274\211x\276\274\205\342\270<\341\273%<C\271\213\273\236\253\024<\246\274\376;`\007\352\274\347\365\002\275xm\200<%\327d<\2541\262<\210\353\000\275\005u\017=\346\t\271<j\277\035\275>2\307<\212\325\343;\262r =.\321\340\274\231\346\321<\271\245W;4\t0:\365\361\267\273\2668\003\2747\320\322<\215\023\000\275Q\000\234<\034\310\031\275\252)m<i,\017=9\320\304<\331\215?<\023\243E<x\360 \275x\000\210<\223\025\234<\356\212\354\273\017\354W<}\251\r< \342\026\275\302\313a<\371\246\007\275E7\001\272\376\326E;5^^\274U\301\033=\263\010\227<QO\336<\341\0179\274BY\301<Zi\036\273\031\341\224\273\374R#\274,\037\244;g\357\260:\242v\023\275\244\344\273<\325A\257\2741\334\237\274x\204\252<L\004\244<+\362\304<\3449\223\274a\204\222\273\024\243\330\274\n2\n\275\211\016\020\275H#\222<s%^\274\330\261\013=\030\320\037\275C[b<W\332H\273ET\356\274@\222\316\274\273\035U<+\346\t\275\233A\313\274Uc\006=U`W<\330\257\033\274i\355q\274\274-\351\274\244c\224\274\272\336\317<v5\314\274\033\301\347\274.\257\227\274^\323b<\263@V<\237\302\037=vL\016<\300>\323\273\347%\t\275\013\331.<\306\225\372<\362\250\224\273wh^\274\t\202\345\272\362A\274<\347\217\220<\321\222\332\272\020\362\025=\372\022\335\274\211W\t<\n\016\030\275F\332c<\267T\366<0%\221\274\014\300G<S\013\232<\205\367p;\031\027\t\275\310\010\243<\264\353_<\2052\245\274$\n\367;\n\312\037\275@\222\222\274\354\261\213\274\357\232\362\274\373\321\222\273\320\336\032=\337\353\014\275\316\362>\272\004\201H;\020\336\350\273\017\313\316\274\340\374\010\274m\244\3579\371\220\366<\241\351\361<\2400\221<\0259\013\274 h\"<S\304\272\274\r)\200<5\304\003\273\356%}<\345W\306;\322\217\027\275\215\207q<\233\031\337\274\310<\033\275!\245\014\275j\241\217<\025\326\332<\026\210\014=\206h\262;\353F\202\274\210\214\013\274\257\326&;\222#\035=Tb\262<a\320\003\275\000&;\274\t\233\215<9\001{\274~JV\273\237\277\026\274q`\254\274\365\377\036\275Y\277\360\274V\332\305<9n\272\274tFN\273\207\266\020\275\010\034\276\274/\253\227;o\230\335\273\001\256\361<\211S\013\274\353\241\305<a\035\027;\225\340\350<\3046{;C \020\275\231\202\342\273\3058d<^\214k\274\030\216\272\274\336\222\310<V}\351\273\3109\231\274V\321\005=D\345\325<w\314\025=\007\237\027=\263\005\333\274\230}\335<@1\206\274\202V\n<\027cG<1J\242<v\374\264\274\201\264\034=P\302\360\273\304f\004=\032\267\344<\274\027\322\274i\264\203\274b\300\323<\030\327]\274\304\270\201<\207J\357\273\300\'\362<\202\272f\273\n\230\302\274L\030\341;\214\036~<m\267\022\274\302y\035\275\n3\257<\367\344\314<\346\312><\264Z\004=%[+<w_G<<\245L;\036\335\334\274\321\236d\274Q\222\021\275{\265M\274Y\r\005=\354\376\222<\255\005\271<N\223\234\274\212m\217:\200\341P\274\201D\232<M9\275<\234yd\274\363\223r<\236\026\333;\t\005Y\273\267M\005\275\342&\237;\t\000\021\274\300\317\360\274}\027\302\274\243\205\030=I1\366\274\325\200!\275\315z2<&\320\341\274-\220\023=\325c1\274l\316\235\274\201f\244;\222\264\220\273\2179\364\273]\261\362\273T\345\225\274T\362\024\274\'B\215\274IC =\306\240\024\275\241\020\357<\014?\224\2749\033j<Mh\037=\017qt\274%V\317\272q\242\370\274=\323\327\274\020\261\026=\205\250\001=\243\262\234\273\200>\t\275L\2731<g`A;\225=\222\274\354V\325\274KO\206\274\212\327\210<Dn\352\273w\364U\272n\327\035\275\300\240\031:\014\345\317<2\275\275<\360\023^;\336`\357\274<\314\003=E\346\376\274\257\335p\273\335\240:9)i\273\273\224\371\005\275\276\035\333\274\013\243\217<\375\000\020\275X\301\214\274\327\236\347;\364x\226<\214L\006=\360#\355<\033!\236<\256\212\024=y\276\002=\'\034;<\030d\232\274>B\352\274\351\326\222\274\340\241\334\274\r1\031\274\367\021\255;u[\254;\253\256\373\2742\230\030\275\247\373\313\274g\331\t\275\224\323!=fa\316;\305\330\261\274\374L3\2745\233\006\275n\225\010=\205\316*<\256\030\305\272\301\324\004<\225\341\201\273\317\304\223;2\365\363<\260:\340<\246\315\360\273w}\n<o\005\026\274\325\352\240<\221J\307\274\267\216\223<%n<<\376\2414<\222\216\350;:\306\340\274\377\300\n=!\"\354<@B\276< /\340;\341\365A\273\nzC<]g\320<\243\025\322\274\0066\227<N%m;Pb\362\274\336t\372<\323\3455\274\207y\327\274\3550j\274\375\353d\274E\336 \274\303|\016=\302\220\024=\261\\\017\273\344\263\203\274>u\361\272\304\272[\274q\243\022=\"\316\007=\273\315\303<O\364\320\274\3207\273\274e\0326\273\026\341=<\363\273*<\215\316\010=^\232\255<jD\316<\213y\250\274=$A\274\207(\020\274o\205\350:\220\336\014\275\303\341\356\272\003\273\375<#\272\025\275@\025\336<\360V\\<D\366\025=\241\230\013=\350\311\006\275\367\333\325\271\351\204\323<i\344\033\274\346\352!\274\341\367\240\274\377G\327<\317\274\301\272\232\236\320\274R\203\n<\177\231\026\2750\271\203\273\331\016}\273\265\345\342<hZ\022<\262\023\010=8=B\274u\240B:0m\000=t\327N<\370\221\226;\276?\241<W #<\237O\343<l\252\340\274\244\231N;\256\231\377\274\347\356\006=d\001V<\265\\\224\274>\377\232\274\375\214X\274\246%\376<\002\241\013=\030\032\227\272\277\352\000\275\232\213\302;2\030\"\275!\027\267;\332j\234<!b\007<\206\034\330\274\203z\236\274\316g\375;n\211\324\272m\224\017={`\356<\351\004\205\274.\356\215\273\214\264\340<X6\261\274\377\372\023\274\362f\036\275`d\372<\303\352\261\274m\307\r\275\033\321o<\177\325\024\275p\263\271;\277\334\346\274\006vr:\\\3720\274\340\312\236;D\326\032=\r9\005\275G\007\302\274\'\332\357<\260\325\340\273\177\344\223<\352\337\222<3kX:\002i\033\274&\256\364<-\365\254<\212\322=;\315\365\277\274\261\013\232\274o\266\023=\2719\213\274+\334\235<5t\210:\214\313\271\274\377zQ<\213\030\371\274\275\030\312<:\227\010<\247Ti;/\255~\2741\365n\274:\266?<\231\350\245;\311v\201<\022\252T<\263CC\271R\347\020\275\321\000\006\275O\025\005\274`e\341\272\216,\273\274rs\375\273L\\\242:\221;*<\027\217\234\274\373\274\214;\333\004\207\274\242\215\262<c\306\010<\201!\204;\272q\304\274\271]\312\274u\322\n=A\205\307\274\201\377\027<\030\357\373\272d\342\371<k\373\002\275\312\221\035<I\321\317<;\213\307<\365\357\227\274\350Y\365\274U\246\321<4\266n\274\304\264 \275\326\201r<\323\322\247\274\305\001\024=b\200J\272yr\034=\222:\247:.\372\030\275/\304\177<\351\320\000\275\262/\250;r\333\214<\374\226\252\274\242g_\274\3324\345<k\001(\273\315\257\312\274\342o\371<\024\226\032=SEs\274*\003\030;\366\212\024\275\243\307\021<\255:\020\274\027\322O<\364\303\"<\337\274\325\274\215\202\265<\036\223)\274\235\033\223\274\016c\n=pEy<\237\344c<\310\245\325\274\362~K\274F\246\222\274\332\005\215;T\356\353\274\300.\206\274,\360\363\274V\255Q<\232\236\225;\377\013\271<\275\306\274<\341p\007=\230\332/\274\354\243\334;\3010\030\274I\216o;~_B:\254\010\315<~\036-\274B\313\007\274\251\232\340\2740I\203<\250\204t\274\260\216\334\274\303\376\026\275\341\t\032=<\224\355<\367\035\004=a\366\352\274\026-\341\274\321#\204\274\223L\245<\307 \327<VY\221<?!\234<\023\324\035\275C\346\016\275\274\231B\274\206\235\321\273\256\017\017\275Q\224\t=0\326\n\275\357\177\"\273\336s\367<\365\226\016\275\213Al\273\265\004\230\274\220f\236\274\014\205\262\274[\303\027\274@f\031\275;\217\220:rJ\204\274\303\220\334\273\314#\n=\273Q\234<o\003\004<\342\266\004<#d\217<\254\372\032=V\257?\274\373\303\217\274\352x\342\274\304\257\207<e\253p\27448\024=N\246\034=\275\0173\274_\340\343\274m\300\241\274^\267\200;`\311\337\274\212s\240\274\313\267n<\367\240\264<~\3761\274l_\035\2752\216\036<\346\274\302\274\206\272\000=\252\326\004\275_Q\361\274\237\370\346\274\337\202\215\274*\263\211;\034o&\274\2507C<\233\r\244\274ib\212<hr=<\177p\277\274E\213\322<\031\024\034\275\003@\261;+T\316<6\222\032\275\302\036Z\274\212!=\274\242\340\032==)\001=\370\335\270;I\256\362\274\373|\345< \304\030=\n\374\031\275\255f\203\274i7\257<\275u\233<\231\350\377\274\331\312\017\274\363 \354\274\304\333\356\274\240\243\322<\n\345\326<\307\010\262\273Y\346\271\273\020B4\273\036\351\210\271\301d\201<\203\376\031=P\232\226\274K\016\017\275\266\270\033=\260\234j\274\365f\332<\264O\033\274 5\036=y\376\200<?\201\n=uE\252<@B\307\271\321%\374\274\207\034\032=\264\315\022=X\025\231<oZ[<\240\013\340<[&\213\274\206\274\277\274\343I\365<\007\0054\273\324`\206\274\354\365\023\274\301q\225\274\226T\000<\021\342\343<w\n7\273\252\222)\274\321t\334\274d\300\362\274\221\316\013={\253\001=\2406\256\274\271\210L<2\"g;\232\350\231:k\241\214<\341\030\014\275&3\245;T\341\224\274\031R\202;_\347=<]<\227<l\274\037\275\245E\020\272\\\t\005=!?\024\275\206m\367\274R$\020=Z-\243<\267\345\372<H\273\221\274\322\332\006<\303\224\250\274\030\265\262\274$\345\207<\357\251\n\275\346\t\320;-S\251<\216\347\032\275\334_\266<{\375\375\273\214\300!=\272W\022\275\377l\016=\317q\364<3\225\373<6\250u9\227J\345\274m*\264\274\3657K<\253,\r;\244\017\030\274\265dy;2\002|<\371\314!;\315}\222;\336%\242<<\267\301\274\274~H<\333\366\025=\251*\262<l\305\352<\334\301s\274\233R\330\274\245\031\t=\232\037\275;|\014=<T\323\220\274X\331\202:\325\317 \275\224\032\347\274B\035\014=\272\360\301<y>\360\274\n\276\314\274\330*\026\275`&[\273\323\276\r=\336<V\274\310\204\203\273\\\276\327<\"&8\274\314R\352\2745\342\366;\006\300\217\274\223\036\235<\035c\264\274 \253g\274\2407\325<\310\261\001<:\031\004=3\006\224\274\322\3261;\271\037\222<\217\230\026=Q\327\214<\2068\376\274a\315\216\274v\213\r\275\211\223\017<\307L\365\274\215E\220\272b\337\n<\227 \355\2743;\323<\247\005\234<_\034\237;\327>\257<j}\202;\020\232\230<\202\003V\274\030\354\264\274\341S\003\275\242Fl<\215\346\014=\371C\340<pV\002=\201\323\027<\330k\247\274!\016\034\274\214\222m\273\335\342\230<\244Y\263\274H?\031=\326\344J\273\004\261a\274\267\226\'<({k\274\310\272\027=\213\034\177\2749\334\336\273\000\274\261\274\\\226\005=\027t\313\274\272\\ =Pg1<\024o\222\274d\037\023\275H^N\274>\225\361<W\233 =\261\342\026\274q\344\004<\230\317W<>@\020=\266\'\r\275.\006\330\272\357\222\036;\'\025k\273\222\332\001\275\327TH8\264\253\327\274\207I\026=\302Q\013\274jjE<\377{\t=?\325\026<zF\r=\357\031\224\274\331\353E<\223\2442\274\352N\340;\227c\370<\323\367\021\274\2127\004=\"\312\327\274\312\221\245\274R\305\347\274\025\006\347\274\000&\256\273z\212\265\274\362\322\252\273\327\316\246\274\206\330b\274\260z\324;\270\002\030=\n\246\005\275S?\264\274\374\220\010=q\351\351\274\350\324\032=T\271\255<\177\256\331<\372g\n=G\352\260<4\204\327;T\274\252\274\327,\307<\342\004\033=\314\024\373;\361\327\340<\254\342\202;A\303\371<\"\227\332<\"\272\325<u\324 =\252vw\274OW\366<\037\245\304\273h:\030;\033\014A<c\322\013\275\177S\021\275\002\032\242<\374\337\246<u?\215\274\227\336\272<?\312!<\214\177\037=d\207\363\274\274?\333<\315\031\222:\204\266z;\373\023\227\274\244\032\336<&\260\257\274\0063\326<\203\021\323\274\272\260\030=\352(\201\273;\022n<\340@\345<\245\234\371;\177~\024=\342\371\013\275\363l\357<\273NA<\360\245\355<\271\362\341\273p\232\361\274\354\227]\274w<\016=\373_\316\273\017g^<\030\234w\274Mu\317<\216NT\273\013\254\025\275\nf\302\274?\207\223\274\346\246\253\272\303\302\017=\226J\331\274\265\t\335\274\2615\025=\205Z\216\273x\301y</\332\370<\037\367\004\274\254\305\325\274\313\327\r\274%\261c<F\024\246\273L\333\030\275\372P\347\274\256C\251\274\274\250\020=\307\226\230\273\341\247\001=:\254\001\273Sl\344<]\346\020=\022\262\313\274Q\344\232\274\241\374\376\274:\000\361\274^~\200<i\335v\271\365\371\247<z\222\236\274?\026\201<Z\266\252\274qV\213<\226\217|\273\200\004\342\2745J\227\274S{\270\272\007x\022\274\212\037d<\212\222=<\267\333A\274G\317\022\274\350\265:\274\313U\037\275)^\002\275\'\375\272\274\362 U<BE\213<HA\330<\325\366Q\273\320\033\020\275\267\323.<\252\222\027=\310\231\036\274\227\342\371<YN\246<8\210\037\274\364\000\037\274\306.\262<s\261D<\214\323\333\274\255$\305\274\257\3604;\321\340\322<Mk\000\275\234-\206<XGl\274LNk\274\374\274\270<\350UT<\017\271\276\274\0047\036=\272\232\246;\307\242\346:|\'\211\2743\305\007<\265`\367\274\217\035G\274\'\204\n=\234)g;\322\207=<\320\005M\273\223\212\257<\n\002\031<\004tC<A\226\343\2740\316\033\275\364\0356<\\]\007:\204\267\374<p$\003=\246C\033\275\331y%\274\210\235\336\274\265p\304\274\001,\330\273\321sW;\376\3604;\324_\372\274<+\312\274j\321\213:+\316\305<\335\004\276\274@\266\366\274\364B\224<\334\027\244\274i\257b<\260\345\000\2751\n\027=z\021\257\273\t^\202;w\370\360\274\253\245\315;:\007\034=\211o\376\273\030\326\347\274\314A\t<\222\203\004\275}W\027=\226\024\237\272C\370\t\275G7\232\274\336s\302;\020\347\204\274+p\216\2706<\277;\355\226\244<\037\275\343<\371i\274\273\231z\344\274lG\233\273\314\266\255<*\263\001=v\324\036=\t+V<W\r\243\274Ocm\274\327_\225<\210\010\206\274\222\330\331\274\335\036j<k\277\003<L\'\r\275\302\333\025\275\207+\213<\010\320\205\274\316\222\276<\221\n\342<\313\224\300<3\247\232<\214\004\021=\204^\2669R(\216\274\336\361\262<\276\010\226\274\323\250\023=]\261\020=\023\262\n=\342D\235:\035\204\211<\322@\276<y\267\216;\024\262\014\274m]\245\2742+\033\2755@\005\274\217G\237\274\215\241\016\275\"\275\233<.\013\227\274I\344\273\274\022b\270<g\223j<2i\231\274\310.\341\274\320\007\031\274\013\355p;\200\224\036\275\307-%\274\371\257\301<# \035=\320\271\213\274A\010\232<|Q\200\274[\326\320\273\301O =\254\237\256<ru\264\274\3708\023=U\361?\274A\033\337\274\310(\332<\273\345\004\274\373M\020\275\010\030\337\274\006\231\355:\202X\315\273.02<\236\342\002\274]Q\r\275qW\023=\225\213\360:\375*\303<\244\300\253\274\232\241\007\275O^\377<eE\232\274Ui\325\274l\316\344\274\340\036\317\274\237\033\214\273\210\317\223;\206\331\236<\220I\275<\327\030\214\2745\313\327\273\340\305\265\2734}\n\275me\207<\211r\305\274\321\367\237\274}G\324\274\376j\205<fLW<ed\033\274\210\0366;1\327\215<\316&\367<\371\207\024\275\371\335\225<?\276\350;I\'\342\274xCW:\301\272V<U\264\027\275\214\203\241\274e\320\276;\036\010\366<\372\246E\274F\365\001=x\303\222\274\213\033\363;=\354\206\274_\n\240<\034\271\034=M\035\306;\333\320\001\275laC\274\230D\035\275\2046E<\014\337\215;X\005\375\273\247\321\247<\3326\010=\363\261\251<\010\345\207<\264\'\320\274(\220j<Tq\037\275Zq\344<\330\003\033=\277\374\361<\264\204\253\274\277o+<x\t\220\274\3442\031=4\016\216\274\215(?<\203\214\\<\027t\350;\311\252\036=vJ-\274\327Sa<d\016\214<<\374\017=`\207\201<\330\035\343\274P\\\030={<\037=\217/\026\2758(\204\273\276n\"=kc\334<21\343\272\3377\013=\374\326\031\274,D\230\274\273\277&\274b\240\373<hp\323<\356\275b<\346m\035=-L^<\031\023\263<\327\233\213<S\360\213\274\272\031\205\273\002&k\274\361\377\241\274G\0337<\'\213\250\274_\\\257\274\001(+<\353\260\"\274\033\260\342\274\327\225\364<\347T\027=\336\377\201;\321c\030\275\025\350\327\274\004\377\213<\020O\367\274\316\235\210<\365\247v<\232\263%\274\361\352\007=\002\303\033\275\332\370v\273\250\372\223\274\230\347\305\274D\305\302<\221$\266<\232\032\325\274\0260!=\303\224\210\273\337j\257<?P\353;A\006\006\274\n\0334\274+Z\020=\201>\260\274\343\373\346\274-C\360\274\357\013\306<\031>\251<m\210E\273>\242\244;\252\244\200<\363\346\007\275\000\017\005=\2601B<y\245\227<$3\030=3S\372<\262\262\202\273;\330\006\275X\312\376\274\337X\360\273\242\017\262\273_\313\332\274\235\244\226\274\033h\346<\267h\036\275T\267\252\274\310\364P<\222\346\362\274Q\237\323\274\222\027\2269\242\000S<\322\033H\274Q\350\251<fAW<\222\344*\274>b\023=\031\270U<Ys\016=\3320\334<\354\014Z\274\2140\007;\315\365\024=\242\023\020=\362\240\271\273M\025\t\275\334\271\024\275\333AK<$j\001\275\335\326\031\2759g\245\274\342r\312\267}\237\305\2732\022P<\200\214\212\274\272\254\240<\2446\"=\032\021\022\275\'c\000<=q_<\224\341 \275\006\021\222\274\035<D\272\'\271\320<\344\031\033\275\n\324/<Y\346n;\332\220\347\274#\"\200\273*\211}<\022\300\r\275\336\335\252;\367(\020=\034\300/\274\001\"\020\275i\331\325\274j\023\361<4\351l< \331\024=\356\031\027\275\224%\003=\024\357\211\274\274>\223:8\222\326<t\332\232<\325\227\255\273\376\324\306\274\262.\034\274\274$\357<r_\261<\274C\001\275\263\233(\273NfR<mV\354:e\006\237;\341|\215<\341S\220;\264S\351<\224\276\211<T|\242<s\267\007\275\326\274\344\274\342\364\321<!\215\022<\234\023i<j\r\234:\250\200\027=\316t\032\274^\237\202\274M\003\177<\360\245\233\274\266C+\274\251n/\272\200\262\321\274\335\233\206\274\320\234\025=@\0109<\014\263\274;\302\357J\273JN\004=\023\333!=\316\260\264<\355\216\272\274\237\357z\274\313U\'\274\002YV:\216\320\016\275\361\224\321<\322\364\010=iD\357<iD\335\274\342\220\334\274\262\t\014<\367;\220\273B*\305<[\024\323:\314,\020=\333\007*\274\250\364\317:\020\267E;q~\364\273\230\334!\275\204eN\272\310#\352;\332h\350;\327\276\272<4Q\010=\354\212\251\274T\017]<Im\026\275gm\303<\004\305\250\274\240\227\211<*\026.;<\246\360<\325\203\210\274?\327\232\274\353\376\034\2757P\274\274\355\2522<5\267\275\274\242\'\001\275\313\364\272<B\034\342<\035\200\235\274%\230c<\214\033\t=K\245\323\274&\027\021=@\265%\274c\017\016=%\336\004\274Zo\031\275Ag\013=GA\212<\312\n\211\273d?\261<\216\265\020=2\307\033=\246\0004<e\305\246;\262\246\264<\337\351\356\274l\246\344<\023\246\n\274\361(\007\275kZ\013=\356\016\026=\302\n\026<ns\230:\242L\342<\333\217\037\274l_\346<(;\030=\010\374\032\275\'\326\035\275\236\375\266\274:@\323<\242}\223\274\005\2666<\253(\246\274\354h\"=V\234\234;\327F\206\272U\033\212\274y\340\013\273\233Xz\274(>\037=\271n=;\241\023\r=\231}\017\274\271A\253\274\267J\357<\036>\251<\236\236\027\275t\200,\273\037\\\261<x\215\230<\021\324\205;\250<\242\274\332CE\273\325\335m\274\270\233\010\275\244SH\274H\343\270\274o\022p\2742~\004=G\325\023=\351~\226<\3212\213\274\005\334\333\274\254o\264<\2430\313\274\365\3540\274UR\010=\033J\316\274\200\006\277\273\222\362\250\274\215(\363<H\361\222\274\364\204\247\274\244\222\362\274\307w\032=\257f\245;\240\235\312\274\305\260\016\275\233\306\3659\354\230\r<\200p\013\273\205\345\000\275\365\227\327\2737\377\211\274m\240\326:P\251\265<\246\260\256\274\256b\205<\244\201a<\262\346\232\273\232\344\374;8\024_\274\002\\\000=\245g\246\273z\276\303\273e\344\354\274Z\316\025\275\340.\025={\004\356<\237:\207<m,\253<\214\027\246\274\2136\223<\031\352\317\274\003C\357<\344\345\276;\261\332\232<\316\270\324<8S\264<\342\202\025\275\242\246\216\274?\332\315\274\220\\\340\274\003&P\274wI\246\272S\276\270\274\\.\005\273\310\331\023=TZB\274\364\373\330\274\240t\254\273h\021\223\274_\013\2468\221`)\273\033\267\020\275\223z\036\275\237(\316<I\030\n\275\016\032 =qO\334\274(\235I\274\236q\353;>V\331<pwF\274<&4<\236\242\231<W\373\242\274\227\243\212<\205#\035=\303|\213\274\217\200\336<\243OA;\243\250\341<\225r<<\262\374\377</R\212\273\230s\030\275\372\016^<\025\330\231\274\215\007\"\275\244\211\036<9z\351\274\025\316X\274\363\212\225\273#3\205\274\035\217\320\274Ihh<AOJ<;\232\347<W\263\024=E\260\276\273\232\243\r=\377\243\267<\336\212\007=l$\315\274\333\036\224<^\211\027\275\361X\325\274R\021\005\275\271\034\027<\376^\032\274\005\250\233;\006\266\034=\276\r\200\274\222\374\254\274\014\304\201;\002\370\t\274\026/\372\274\260\332\336<\340\375\\<\302\256\240\274\326\237!\275\225L\334\274\225\317\217\274\014\270\372<\325P\355\273\025\231\247:#t[\273 {L\274\335\266!<?V\375\274\265_\001=\344j\357\2744\r\252\274\005\302@\274k\277M<\243\300\013=Xd\305\274\233\nQ\274\232\225\025\275\307\257\211<0\351\307\273\334\312Y;\276\256\203:\375\250\037:3\225\212<\304\302c\274@\327\336<\017W\r\275\307\2271;_\027\023\275\255\271R<*;\313:+/\371<\205\321\n=b\035r\273@D\t=V\322,<\277\376\267<)\340\201<\363n\017=\245\232\002\275\214\313\010=T?\266\271\010\306b\274\246\361\032=\310\202 \275g\241\215<V\253L<\036\207n;i-\242<\352\322m<\267f\363\274\360\271!\272\233\366\235\274\030\020\327\274\270[\036\275\310/\333<-\225\257\273\375\"\315\274G\001\334<\341\024\221\274\021\342\232;\034\271\307<\005\223\316\274\177 \304<Hj\253;P\221\222<\272\020s<\270\231n<\375<\033\274\021\273\245\274q\330\003\2756\240\036:\203\265\375<\343\271\033<\2248\342\274;\225\036=\356\003\314\272\0318\361<\341\210\216\273w\005&<\253jb;\275\262\221\274\tu!=h\217\370<3\035\036=* \315<,\236\277<\007\013\004\274v\\\210\274\343[V\274{\200\355\274\332\367\217<T\327\177;\021\260\365<J>\270\274\323\347\032<*k\362\274\214\225&;\224/\034=\332%\036\275\224\002\030\275Z\321\005\274\020\332\334<\265\210\013\275\277\211\354\274\362\006\253<\354u\212<\321f\355<(\272\274<\351\014k\274\2332\271<\274\262\361<eH\024\275\337\321\226<R\226\300\274c0\314<\210\314\364\274j\226A\274\2762\377\274\311\025\016<\023!\022<\314n\032=rh\223;\201\263\263:\321\224\r\275\263\r\023;\023`\016\273E\373\226\274\310\026\346\274\210\234\315\274\226M\002\275\337{\227<jt\023\273\217\372w<TtS;xK\007=\333\201f;\324\226\017\275\305\266\016\271b\004\\;\213\304\033\275\200u\336\274r\220\362\274\260\206.\274D\352F<\234^\374\273\336\264l;\205\324\312\274r\375\225\274\236\241E;\032z\235\274\273\r\364<\311\351\037\275\376\236[\274=k\242;\336\356f\273\'\035\034\2754\224\"\274\223H\271;\266,\036<\361yr\274\342\312\373\274\343N\007\275\312\354j\274\355\006\225\273H\242\202;\307\\\003;\346-f\274`\016\353<w\324\310<\255\325%\274\270o\220\274u\027\223\274F\204\361<Q\377\374<\"\250\335\273\334p1\274\246j\t\275B\210\034\275\375\205\312\274Pr\350\274\272.\014=$\307@\274\240\273\211<\301\304\202\273\352\251Y<\323s\374<\253\243\000=\304>\326<@a\216\274=\264F<\275\177?<\365\003\000;\222Q\007\274(*@\274\3069\323\272\300%\036<%?\001=\267H\315<\251-\361\274\002\340\027<\264*\250<\245\220\"=\252\360\322\274\005\343\031<!\200\212<\357Md\272\275\tu\273\215\313\001<\240@\255\274\360\246\255;\245\200R\274T\251\315\274\332\025\037\275wP\035\273\204^\n=\016^[\274\260]\360\274\rw\314<\236\324\306:\273\207\242;\026UZ\274\034\021\007=\317\"N\274\357\300\014\275\232\253L<U\017N<i\245\016=\277@\006=8S&:MO\t=_@\016\275,:%;\034\230\017=\\\262\274\2742\035\253\274}\030\372\2739a\006\275\302@\242\274\023\316\335\272\027,\237\273\201\027\t\273o\260\315<\304\357n<\227\304N\274n>!;\365\361\263<\177\221\305<aW\005\274\201\370\247<\240\257L<Fj\373\274=\365s<2(\006<\025\374\020=\244\275o\274\241k\005=\207\000\313<M\344\253<\004\346\251\274\255g\360<\010*<;\310\373\331\274O\213\322<=\323\367;\"g\372<Y1\r\275R\3603<mxZ\274)*\021<\'WR\274\0069\026=\271l\200<\312\300\025=m]\021;}$\364<-\216\214\273T\027\326\274V\221=<\324/\232;\"Z\003=\213+\312<\\+\275\2746\215\337<xFb<\333\226\222<tDl;\266\236\036=\223\245\305\274\007\261\320\272l\213\206\274\352\234\206\274o\345K\271\257\002\014<\307\237\030=V2\010=+\374\"\274F\233\006\275\\\344f\272\245\216\324<\305K\336\274N\270f\273\245D\340<wc\026=>;\003\275\274\212\220\274\017\221\006=\221|}\274\021jB\273\274+\036=\230\276\017=\005\311Z\274&5@<\245z\"=\374\372\327<\r\035\037=\373\025\364\274\375\020X\274\210{\025</\333\326\273\230g\255<{\346\346<\207\374\027=\n\241\215\274\213V[\273{U\276<|)\030=\307:s\274?\315f<\356\001k<\256\232\261<\304\233\361;\243\344\203<8\220\213\274\036\r\"\275V\275!\275y\316O<\341&\013\275\225\314^\274,\254\017=\312\336\256\273\376w\270\274\200^\255<9b\022<\331\275\260<\275`\036\273\317\016\034<\314\n\234<\336v\010=c\002\245\273\320\340\221<~C\013\274\r\026\322<\327\214\234\273#\3264\274\214)\\\274\310\222$\274\216\233\244<\215\307\2668\357\246\341\273\007|\221\272M\037\216\274L$\273\274\027\024\020\275\311\377\022=\317\243J<|B\210\274\031\204o\2736\031\315\273\nb\256<@q\005\275h\325\022=n\326\306\274\343\331\212\273\354\010G;\203a\203<\375\033\333\273Y\304?:\326\200\321\274\254\240\266\274\227\303\034\275M!\346\273Y i<\330\250\311<\250\026\236\274l\002\265\274\226]\302\273\"\317\362<c\177\324<l\237\202\274\344%\374<\353\024\314:\205\204\266<\373\334\027\275\231\345\207\274\334|`\2728\013w<\353\347\033=\237\304:<\226\352\002\275\217{\032=\264\t\230<\324\342\032\275\365j\240\274\325A\202\2739\352\244\274c\'\273<\3261\366<D;\244;\341!\213\274\273{\307\274Y\376\300<fy\226<\252S%\274\210\263+;s\300\002=\303\222\024\275H\304\273<\232\"\211<\227\215\020;\263q\237;8\341\340\273GJ\363<\231\346\250;z\320\357<<\316\006=\232\212S\274\340\233\267<\372\260\025=\317\007\000=\330\255\020\275\270}\333\274\375\271\272\274\376\250/<\204\215>:7\'\223<U\200\022\275\334\342s\273\226_f<\0233\214<\214\273?\274\373\356s\274\3764\372\274b\036\t\274G\220\337<\2129\307\273f\203\351\273#\342\217\273k\327\241:@x\013\274\241\205\372;\035V\356<\267\363\232<\225\021\274<Fq\366\274\275[\333\274\2015\027\2752\265\240\274\365`\010=\240&^<\346\0172;/q\352;\254\0178\274h\275\225\274\001\235g\274\022dC;\375\006\034=\324z\003\273&\260\356\273E\365\242\273J\n\004\275sv\205\274\330\246o<\017|\010=\264\326\255<ol\017=m\371\2469%\030\336\2724W\231\274\367\274\204<F\224\342<\304\310\001=Y\002\021=\316\353\t\275/\204\000\275\263\251\024\275dw\024=c\t\007\275\302!\345<\220\225\373\274\364\0103<\241\t\302;\024\000\346<*\004a\273\370J\252<\010\344!=\212Y\347;\315k\256<\253\312\262<\333w\313\274\3437\227<\266\301\021\274\027\241\256\274\236\230Z\274\334\326\311\274\317o\215;\304x\003<\304.G<\240\006\363\274~k\005\273\241\377\037=\267\202\237\2744\320\t\275\014\273\005<\2433)<\'\244\320<\240{H\2705cS<a\t\303;+`\037\275)\356\263\274\204W\021\275>}\035=\374\250\221\274M\207\354\274pW\025=u \007\274\005L\276<B\273\000\275\231B\372\274\302\025\030\275u\275&\274\216\200\236<#\301\317\273\320\274\000\2739\245\227;\246f=<\344\252\014=\214\024\264<\026\210y\274\033;\204\274\204\260\013=\2140\014\275u\350\n\275,+\334\273\331m =\232>\016=I\300\210<\3753r</\337\246\274\231\354X<\205\272\010<[\344\252\274\210i\037<i&\312<&\356\261\274~\363L;\264\350\356<\215\374\314<{\"\234<\232*V<\371*&\274mF\252<\263g\223<QP\177\274\374Q\275\273\240\330\336<S\'\344\273\361\002\005\2758\033\'\274\336\374\222;(i\020\275\235\274\270<\201\342\r=\200\327\301;L\'\335<\365 \265\274\361\204O<\275\214O<\024K =\205\205\032<\305\322\273\274l\303\016=\367\315\025=\306\232H\271\202g\003=\236;{\273\316k\016\275\005\341\212\274\313\005\253\2748c\312\273\373)O<x\022\274<\320\336i:\255\026@\274\316\374\377\274vJ\216<\236\326\361\274\334\322\000\275*\261\3137~z\370<\t1\340\274@\344\223<\310\022G<.\207\267\274]\225\032=\262\262 \275\3516\025\275+4\017=WZ!:M6\313\273\001\221\'\274x\270\242<S4\340\274\001\010\342<0\236\030=\350\371\215<\224gG<\221%\312\274\320\221\317\274\233\330B9\024\257a<>E\252\274x\325\010=\355\243\361\274\265-\033=~l\033=?)~<\272 \033\275\266\305\3517\013\322\r\275\356\370\250\273\234\352\005\275\332\030\'\274\021\335\367\274\211\t-\274\224F\207<\377\023\227\274\302\2071\274\317\3708<6`\361;I\225\246\272\246>\021=\306\014\242<\376\n\267\274\006\243\363\274\304RF<}\017\003=\010>\205:r\025\332<\003\256\312<b$\261\274\265\333\376;Tq\245<\302I\014\275\210\023T\274\001\355{<\010N}\274\327\312\252\274\376\220\376\274.e\376\274w\212\314\273\222\3659\274\000\330\265;\302\266\037\275\241\312:\274\363\351\030=\237\207C\274\024\300 \275\270\250\021\275)\243\373\274v1\267<\327\307\246\274\233\024\265<\023\310\002<\364e\021\275\266\203J\274\243\362\017\275\342\275\225<\341\264\365\274\177X\034\275EC\203\274\r.\010\273\000=\036=\3654\017=x\001\255\2741}\035=\343<O\274;\265\377\274\225\367\230<#8><\363i\303<\"\242Z;I\334\375;\311\030\362\2739\256\2179am\236\274\360\232\032=\214^\240<\001t\017=2\363\027\275:T\312<|ee<\3106\224:W\\\006=\030\205\036=\361\002\253<Y<g\273a\234\025\275\333\314\334\274\366\306\036=\372\254\356<\231S\321<\315\254\246<\216\306\374\274J\240\222\274\030\334\252;\317 \r\275\351s\274<\333xX<l>\302\274:\342\014=\207IZ\274\253k\227<\325\375-\274X\217\354\274@\203\342\274\246%\246\274\277}a\274\241Z\014\275\177P\374<Kw\305\274\200\033\005\275\234\351\266<VCY\274\260\"\307<\177\257\265<S\232\014\274\230=\001=\204\302.\274\377\246\016\275\236[8\274\234\326\023=\234\202\275\274?\310Z\274\365\372\032=}\014G<R\267\016\275\2168\213\274\364\340\347\274\2124\274\274r\203\022=\243[\002=\315\343\001=\224z\255<\306i\"=\362?\030=;\'\310;\275[\303:\376\201P<db\016\275\256d\326\274\360\320\026=9\375#\274\324Q\036\275Df\216<\216x3\274\315\356\265<\352\257\302\2746\004\000=\021\264\363\274}\3029<6\212\025=\246\245\320\274\022\264\271<;\004F<\225\305\217\274\371S\201\274G\020R\274\231\235\020\274et\014\275\306u\224\274\037;\'<\265\225\301\274\205K\004=^\334\251<[W\000=\362\336\343\274\244S\017=\251G\244<\361\212\005=\221-\360;\374\307\370<}b\222\273\357\022o\274\305L\025=\313-\366<\214\313/\274\341\037\306<\22231<\220\241\032=\310L\254<1\232\327\274\203\261\353\274&\360\020=a\205\036\274!a\354\274\027\324\234\274[5\352<\031\300\020\275\267M\007=5\306,\273\300q\211\273L8!\275\335\321\205<\243\374\341\2742 \227\2737nh\274s\270\002=~\022\006\275N\365\276\274\261>\026<\t\247\266;\032>\305\274\324ck\274\351~\007\275\240\353\016=\033\204\267\274\214\014\367<\t\216\251\2747\037`;\377\362\247\273S\376\361<\013K\002\275\3770\344\273\357\2468:\017\232\000\275.\201\033\274d\237\272\274\271\237\242<\320\357\257<\207\321H\274\307\007\n=\345\354\274<\013\025Z<\000m\004\275f$\007=\265\"\034\275xTc<\363\2238\274U\327}<R\224\272\273/><\273\370WK\274]\331\241<;u\231\274\246=\244<\313\212\231<\203\026\014\275\232b\206\274\3360\247\274>q\032;9*\350<\2379\234<\031\366\225\274;2\301\274^u\321<\300`\377\274\364\202\016\275\312\321\310<\025\252\022=L\312<<\020\220\340\273r\203\215<\334\217\240\274H{0\274\213N\326<\247\203(\274\333\n\223\274m\262\366<X\037\005\275\032\216\264\273\250\021\331\273\324e%\273\327@\037=\371\237\350\273R\222\240:\274:\303<M\323\n\275\352p{\274\202\372\267<\030\267\034\274g\010\000\275\325j\343\274(c\372<\334\223+\274\\\224\325\274\033\210\237\273\321\343\337\274\014o\021\275d\316\306\273\211T\327;\342\340\313;\207_\221\274W\341e;\341\013F\274F\271\365\274\2231\251\274N\341\014\275\003\325\374\272\303\263|\274$*\005=7\270\022=\373\364\215<,S\002\274A\213\014<\037\253&\2728\325\233\274\337\206_\274\250u\004=c\371\034\275\336\236\251<\007\273\325;^\330v<\331\211\021\274\333J+\274d\325/\274\340}\315<\235Z\r\275\036\274\032=\301r\016\275\230\235\375;ag\020=\270\326\315<\356L\246<\366\347\213<\016x\351<Y\302k<\211\014\374\273Ns\226\274\304\347\350\274@\274:<}\336\236\274\254\264\351;\026\210\331<\235Bq\274\303K\266<\222\360\214\274\334\326\350\274\304\215<<95\004=5\002\201\2745\'\007\275\336\021\000=5\257\313;\004\350N\274A{\036\274\251\014\035\2755\037\271<b\037\021=O\370\254\274\371K\234\271\025\213\275;8%\351\272\373\333\214\273\354\360\230\273\302\030\377\274V;l\274QA\205<\211\n\014\275q\320f<\022\217\024<\307c\030\274)\334\022=\026`6\274\036\214\331<\375\335\023;tH\005\274\355\305\322\2746\362\t\273\327y\333\274mFq\274\204\243\304<\340\376\037=\366[C<\327,\033\275b\377G<\220!\322;GkJ<<uK<\022c\000=\037\212.;\201:\320<\031\000\321\273\365\207\311\274\02760\274\027\263\252<F\230\030\2749q\353<tM\033\273\206s\017=\013W+\273<s\370\274fL\301<\202\340\305\274\n9\036\274TI \275\273=e\274\207V\203\274\202\233\010\274Z\235.\273\307\000 :\017\003\235<\031#\035<l(\305<\352\363\022\275@u*<D\325\316\273\371b!\275\305\334\266\273A\215\216:\341\206\027= N\010<\005\225\037\273VE\251\273\254\246\035=9f\236<\346=\027=b\360\200<iH\031\2751<\004\273%\317\235\271\324\"a\273a\211\023=8m\363\274\306^\242\274\223L+\273\245\035\000\275!]\256<\376\340\266\274\243\231\024\275\352\245\037\275-;\374\274\3049R;\2337\375\273\247\252`<\325\233\366\274A\320T<\366\001\013;\327\036\351\274\330\"\315\274\267\242\262\273\363\007\256\274 >\324<Vh\014\275\037g\205\274\231\365:;\236%\257<\016\365\262\273\231+i\274B\327\234\274,\213\"\2751\323\r\275\'\304\313\274\322\312\344:;\033\366\274\304\247_\274\'\317\226<2\250\311\2743h\026\275\305\261!=\325\205\021=*\333\277;X\376\001\275\354\205R\272\333\217\340\274ql^\274\024q\203\274;\204\010=\276\334p\274+\266\354<\374\351\006\274\202\037!=o\322\\<\376\007\341\274\006=\341\270\256\211\301\273g\265\033\275\021)\017\275\244=\303\274A\t\202;\251*\274:\026\341\375\2744C\301\271\260\007>\274\340\223n\274m\346\222<\2747\336<E\027\332:0\256\373;\222b\321\274\213\005C\273\301\235\302\274$F\250<\005\374 \274\261)\264\274\351y\030=\360(\004\274\tW\327\274):y\274\t\326\335<#\260>\273\016X\\\274\240N\337\2740\t`\274\322o\211;\3649\037\275\210\211\217\274\344\206\365;\033\363\021=\320\263\203\274 \265\'\274\262\263\303<\332\311y<\266\337\335<\377v\"<\344E\220<\024N\337\274A\262\223<\244\300i<3\307\307\274\236\010\371\274\202\313\235\274}a\337\274\223B\220<\235\322\330\274\346\\\006=\352^\327<\342t&\274g\263\302\274>\216\267;H/\336<\302x\002=\n\376\352\274H\306P\274\226\247\241;\204\022e\273\177\235h:\t\317\010\274Mi\324\274\217#\353\274\017\304b<`5\336\274\242\377x:\333t\\9jS\014\275a\213\301<T|\237\274:\026\206<d\217f\274\307.\207<Z\032h<\236\346\272:\211\323\352<AG\267\2739\366R<\2650\367<Jh\246<\365C\275<\211=\245\274GiJ\273\016q\303\273=\350\334\274\033Y\344<A\277*\274\234I\021=Z\335X<\005G\225:\021Z\035\275I\244\303\274M\024\364\274\2637\211<\244\276\313<\343{\202<\365\022\006\2750\314\326\274q\206\r\275-z\351\274\230\330\204\274\306\241@\274\005\375\023=@\350\t\275\236\340\334\274\217\261\340\274\336K\014\274\250\225\266\274\223[g<\200x\310\274|\034>\274\0226\256<\256\334\013\275\366\006\014<\250C\014\275\3446~<V\310\361\274%\\\010=\215\320$<o\374\366\2737\376\026=\222\250-<\'\214R\274\236\031u\274aW\013=\035\203\255\274zt\223\274\232\311\212;\255$\244\274\367|\036=\242\224\252\273\273\344h\274\324\370\024\275\216\341\275<\214\3331<\270\217\344\274\202A\016\274\217\375\322\274\351\016B\274@\276j;-\264\250\274Iz\277<\270\264\206<\221\233\321<\374L\334<S,\327\274\363M\r\275\275\032\344:\316\364\035=m\356\273\274\304b\305<\343&\001=\372{\025=5\373\267\274\374\005\343\274\370\213\021\273\032D\260\274\274GQ<\377\370\021=\177\364\330;\217R\315\274\007M\235<\202_\026\275\200\035\t<\265\207s;\372\332\362;\177\262\030\275\r\025\263\272\343J\004\275[\256\007=W(\325\273m\301(<\376\254\335\274\317\237\035=\314\027\037=\004r\034\275n\303\032=\335\022\006=\212\033\256\274S\200\274<pE\323\274\031\273\022\274\220+\310\273\n~\372<}\270\206<\252\213\005\275\255\177\330;0}\022\275\207\203\002=y\265Q<\332\271\312\272q:\221<\316R\225\273\375X\026<\260\377\237\273?\211\031<xvx\274K\366\017=\225\203\272<\211\317\316\274&U:<\342\334\244\274\006\006\203\274a\317\324<\357&\365\274\017\277\331<\016k\025\275)\315 =\001B\000<\304\017\006=o\330p<\334Q_\274\207\350\035:a+\3219\352z\240<\343k\266;^\366\017\275G\023f:\032\t\034\273\"\t\254\2737:F\274\037\372\203<@\027\026\275f9\243\274\251\206\002\275\006\243\354<\271\340\244<a/\200\274\026y\225<\2570\233<3\026\317\273\034\244J\274\261\227K<\005\013\274<\260\203\202\2749bD\274\354i\315\274\366\337\035<\003\351\206\274=\275h<\340\336\214<\247\274N<\nw\021\2751uC<\220\232\337\274-\264\214;[.#\274\376\016\023\275u\367\\\274\370\037\023;\334\277~;\324\365\237;\036:\016\275\004\353\344\273+X\021\275\007r0\274wAl;d\270\003=\335\223\255\274c\002k\274\336{\257\274\211\324\255<\031\031\373\274w\301]\274\361\255\302\273r\244\327<0L\022;\346K\275<\342\305\224\274\326\367l\274\255X\347\274Q\306\215<1{U\274\300\206\237\273a\264\303\274\027y\240\274W\2540<{q\222\274\210\237\250<\376}\265<\264\340U\274]$\317\274Pj\322;\345\360\321<y\375\266\273\030-\305;\023\313\263<P\352U<b\277\366<\237\270\030\274\010(\317;\037\203M\273\r\327\025\275\245\335\343\274\222\342\020=x.\210:\253\306\347;\347\353\247\274\375$\007=L\002\226\274\226b\010=\365\337\003\275<\276\n\274\203\304f\274\320\n\004<\331AE\274\275I\033=\344\254\031\275\317}\261<\027\334\337<\367@>\273\007k\350\273;B\032;@L\013\275\270\276\027\273\024\315\330<x\370\352\274\306\'\366\274\332\031E;\234\357\006=4b\003<V\365J\2737\216\315\274\263\255\007\275\363\016\376<\362dW:\344?\306\274\323H\204<\033UJ<q\254\021\275#\"\210\274\322\035\213\274\257;J\274\003\276\007\275y\003\265<\2745\204<-\314\315:\347\233\341\2745\256\005=o\305\262\274\001t\343\273\r\3020\272\347S\231<Y\204S\274WB\006=N\251\027\274\205\370\301<`1\205\274\347\224\232\274\267\2150<\351\221\333<\305\033\000\275\'0\355\274v\314\233<\217\220\246<\326\303\346\274P\240\363\274\274\342\"<\341\310\350\274\"\325\031\275\346\313\347<\n\266\241\274\200N\324<\266\274\240\274\204\266l\273O\245\262\274R\'\034\274\300=\343<Z-a\273YA\246<*m\224;\200\000\017=d\243\361<\234\376\333\274\026E\024<#xh\273\n\367\001\274\312\253\314\274\365\342\022=\223a\354\274\337En\274\036\300\026<\327\270}<\317\000\315<\223y\362\274A%@\274\363[\005\275\277\236.;\224\\j<\035\342\306\273C\317\323\274\355\236\343\274\2327\3549\307\017\026=\257\005l:}\345c\274\216\021\357;\225\302\353\274\351\303\023<)\352^\274G\206\t\275\270\217\002=\277*(;\271\001\273<\2435\037;By\261\274A\231\256<Kq\215;\315KP\274h\373\276<\023K\347\274\000>\310<Y\201\016\275\273\020\002=\320\364\006\275\3340\357\274\256sG\274\326\227\002\275u\325\275\274OG\014=\002\014;<\305z\000=b\260\335\274(\322\241<\r\321\327\273\023.\227\274i\210\230<\346g\257\273\344+X\274\250r\302;g]\243\271r\244\376\274\367\312a<X\025\211<\373;\366<\235\330\014\275\357i\322\274tM\r<\362\372\203\273\364\327}\274\236\345\232<%:\367\274b\333\211\274\344\363\"<-R\016\275\013;\211\274R\373\022=\377R\216<)\222!=\307\032\013<\211\257\330\274\200\207K\274yL\264<\211\n\227<8\220J;\306`\371<\262\336~\274\013\275\232;T\312\334;\303c\261<Q\351\000=\224\265\021\275\231\241\360\2720\354\004=\363i\013\275\r-\037\273;^\n=\306?U<\230\257C\272z|\237;\276\366\000=\246\036\374;\031\014\017=i\344\241<0\375\327\274{;\177<\211\204r<gu!\274\365 \305\273PD\026\274\260m\370;\014L\021\275x\"\344<\375J\007\274v\317\222;Z\275,;\027E\275\274E\202P:\204\237\020\273\010^\246\274g\314\004\275\005\317\260<\016\257\247\270\220\225\023=T\317\037=\300\204\242\274g*\246\274T\022\342<&P\366\274\345\252\023<-\323\270\273\351?\266\274\333%\017=wY\2619I\016\r\275lI\263<\366\001\001\275CD\031=\r\344\371\274\240\264\361\274\005\024[<C+\342\273\247\013\035<\n{\361<8\023\315<\324RB\274JSv<\213O\217\273\257=\014=\020\213\026=$\014\273\273\356\250\231<\023\272\352\274!\003\315<+P\030=\213\250\014\273\242\246\315<\323\213\234<W\322\037\275\310\000\251\274\\\033\030\275\222!)\273\247*\024\275\202\017\211<\361\226\320\274u\373\014\274u\347\377\274XMN\274\334w\301<A\232E<p\341!\275\177\031\031\275[\263O<\314i\205\274,\351\276\2741\300\003\274N\030N\2746\222\321\274F\321N\274Bl\317;\350\231\3209\270\202!=\025o\004\275\335\344\250\273& ,\274\244J\200\274\017vR<\237\220\265\274\031\303\027\275\214J\214<_\203l<\020\226\371\274X\203.<\305\236\327\274\256\036 \274\305\000\241\274\317\263\220\273\020\335\327\274\233q\361<Q-_\274\301\024\035\275\034\350\027\273i\2730\274\345\373\207<\354\327\301<\266\271T\274\342\317\373<\307\255\010\275\214d\344\273?i\366\274\360\232\250\273n\231\034;\227\213\037<M\3642<\311\213@\272\306\207\375\274D\246\023\275\2610\360\274\237{\2159\357\375\007\275\0069%\273\267\277\005=\2608\251<\207i\362\274\213\350T\273\242\001\224;O\323\320\274W\347\033=u\220\311<\276\340\323\274\231\314\r\275\324V\264<\010\325\300\274\372\357\224\274\241\n\304\274\362\337\300<\254\224\036\273c\207!\275\224y\331\274$p\202<\036\351\245<\330.U\2740H\366\2742\312\242\274Z_\023\275\313\221\013\275#\021\236\274U5v<!\257k\274\205\375\024\275,C\013=\362\236\\<X\344\303<8,\n<S\265\020=\206\021U;\334x\021=\034\277\352\273o,\026<\303\261\274<=\365\313<}\335\023\274\226\020\233;b\215\305\274\204\027\\\272\203<\206<i\010\005=\366p]\274DD\322<\211!\034\274jq\000=`\230\000\275Nj\217\274\252\260\375<7\024\017=@ \234\273;f\226<\250\320S:\256\376\323<\346\303`<\267x\346\272t<\210\273\245\340\264\274\250{\365;\301.\007=\226|\341\274\231\241M\273\275!<\274\3667L\274\373\006\201<\273\330(\274\032\326\016\275xV\306\273\331r\340\271\214\302!=\365\342\226<\006#\002\275\247\276\250<\274\023\335\274\252\251\205\274a`\231\274\211\010\006\274o\311\204\274$\213\255<\001s\365:\006\207\302\274\246\363\324\274gz\004\275$\343\212<\213\221\005\275\347\340\344\274\233\r\261<\373\346\261<>\307z\274f\200\370<o}\324<\203#\264<\200`\017=<\004Q<\345\030\325<zy\232<\203(\211\274\357\232\366\274J5\322\273\354\375\006\274t\013\365<\024\360\374<\r\352\204\273\031\334\263\273\344\341\232;\362x\023\275\006\212\266\274\202~\r=\3343\010\275\001\330\333\274>:\177\274\351\216\201\274\361\273\324\274\231\200\274<:\230\023=\377X\321\274\340\240\254;\300\230\n=n\257\r\275\032\305\035\275M|\221\274W\203\241\274\204\305\274\274\030\337\026\274Q\301\006;p\312\324\274\225e\260<\231\254\216\273\207\337\232<#\210\240\274c\344:;\021\267\022=j\302E<\303\242E<\006\374\037\275f\274\005\274\242~\016:\215\005\357\274\254\371\023=\006\264\213<\241\234*\274u\020\t\273\351\342a;{\327!\275\r\256\023=p6\313\274\023\306\371\273\206\224\251\274\256@!\275\256\002!=\317\261Z<\005\356\001=\270\246\374\274\231O\020\275\245\260\272\273\030#\261<\301\372\030=\361.\016=\313\336\337\274\362*\264\274\366\007\234;Ld\024;\245[\340<\035G\"\275V\217>\273k\251\321<\332\"\303\274\261\267\340<\212\366\341\272dx\236;\013m\215<x\031l\274y\220\030\273\327\206\003=\321\025&\273\242\350\274\274\303\246\206\274E\0049\274\276\374s< \0172\274\244;\005\275\370\322\006=L\002?;\366Y\010=3\245\257\273\356\023\264<s%\261\274B\215\t\275\240\243\273<=\344N\274\226e\003\275\253\345l<Z\374\346;\203u\252\274+\316\201<\202\033\243\274\004\r\004=\331\203\317\274\235\221T\272\273\277\n=\330r\021;j\371%\274\025q!=\263*\226;\234[\253\273\213\213\305<\014\355\371\274=n&<\361\270t\274\225\024\3129\014\372~<\'\210\367;\254\246\200<\rml<y\373\031<\246\247\023\275\026.E\274\205\264\224<\260\327\322\271\250\300\007\275\352h\336<\301\345\214:\243\r\272<\241\272\031\2742P\206\274\2749#<$\002\377\274R\343`\274\214(\025\275\365\331\226\274\322<\324\274\267\373\265;(\017\362\274\r\004\315<\357\030K<\025\024\340<v\014\371;H\262\371;\353K\024\275\266\031r<\316\326`\274\364\240\034\275\250\276\003=\253\203b\274;\217\027;,X\354\274\2701\t=\021=\017\272\005E!=r+\005=pS$\274\n\323B9\300\200j<E \353\274\301\336\315\273j\230\344<\261\023\366\274\352\363\374\274\201\363\276<D\013(<2Du\274D\000\233\274I\344\005\274XB\245<U\000\200\273\327d\263\274T\316O<\220\220\255:\227!\302\274\232/\271\274\324\006^<0\223\016\275\231J\202<\272\317\240<\013R\030\275\232\303\260\274w\006\014=\347\231\r\275<\337\022\275\243,\244\274l\026\027\275\007.L\274\214\267\207;D\216q<\340\222\325<\362\363\024\275\312a\324;N6\277\274 \r\270\273\311\377\273;\t\313\205<\365\206\273<0\201\010\275\243\250\303\274b!\317<\007.\021=\275i\336<\356\311\366;q\025Q\271\314\007s\272\242+\225<C\211@\274HPT\274\253\234\351;\001\320\250\274\314\214\222\274\3002l\274\017u\021=\027\363\276\274?S\300\274u8\005<\204\336\220<\271|<<\036|\215\274\370\272N\274i\036\367<j2\325<\251\025\301<\000\327\315<\332\005\305<5\032\252\273\004 \330\274\260\316\031=\221\223\251;\272\305\244<\247\\\022\274\374\224\363\274\232w\251\274\215\317|\274\345%\262\274f\016\325\271\214\322\3159\247Ct\274\205\200\036=\032\372k\274\027\334)\273cp_\274\032\027\323\274\374\232\025=\352@\004=\361)\027\275bU\214<\037\263\262\274\355A\350\274\267w\313\274\021C\256\274\252)F\2747\234\021=DyA:\243\253\023=H\000N\274\330\017E\274\277\310\221\274\230\334\315\274\021\307\270\2725H\024=\025\216\204\273\030\037\227<\330-\234\274kb\334\274\027/\203<\013S\010<vx\306;N\205\035\275;\337\254<\330+\\\273\265@\003\274\340\004\352\273\016\317\217\274I_\240<\201\364\t\275\353^\227\274\272\273\003\275\274G\257<<M\n;V\255\240<\233\225\352\273\377\220\036\275\302\032\214\274e\246\027;)9,<L1\014\275\300\276(<\277\330\343\274g\334\311\274\230\250r\2740\271\332\274p\347\025\275\231F\241;]\024n<5\005\324<\0052\t\274\3356\256<B}\035=\240;\350;\232_ \274\220^\016\275\336V\010\275Q\260\207\274\337\010\002=\371\231\025\275\036~\003=F\225\242<.1*\274:i\274\274%\371\366\274Mq\007\275\250(\006=\257T\263\274bqN<\224\250\032\275{\231\t=\242\330\236\274\022\231\206\274\375\335\371\274Zp\354\274\350j\337\274\3756\334<\177\\\262\273\277\353\r\275L\177\330\274\342\020\260\274\221[\312\274\034\022x\274\367`\206\274)\003\030=\370\305\232\272\374\200\212<\211+\325<\\\327\271\274\230z\002\275\240[\n=s\036\3039\242\244\205<\0021\246<\312\307\023<0\026\010=k\311\254<\224\357\007\274\013\'\031\275\245\320\201\274<\236\033\273\321\017\033<%\223\363<\277\371\234:\\\352\314<\270\276\004<\273\201\230<\230\324\323\274\346\267d;\025\200\255<\325\307\202;D\323!\275\2208\343<\276\340\254\273\rG\253\272\013u7<4T\032<kd\274\274\035\267\253\274=\322\365<\367\211\023;\244\210\234;:j\030\275\370\333d<l\233\004=\024\336\315<d\000#\274Gc\331\273\270f\311;\224\250\201\274\274l\236<\217\320\341<|T\246<\347\367\232<\2229\t\275\302\225\300\274}\262\252<\262\034\251;\007Q\"\275\311Mg\274S\310\245;\364\214\312<n\270\004\274x\001w\274\237X\364\273\300\020\031<>\256C\272-\243\005=\340\215\033=\273T\232;\365\205\001=\250}\221\272\221\324|<\212\331\250\273\213)\034=\221C\224;\226\027\234<r\177\264;:\234\324\273|\371\250\274/u\230\274\230\000\251\274\237\024\240<\010|\020<8\206\014\275;\331%<Z\322\326<\367C\016<\264\013\000\275\3440\261\274\366\305\317<\304\346.<\350I\221<\260\013\250\274\025\374\374\273%\365g:\333W\001\275\202\241b<\361`d\274\250\311\271\273\304t\003\275\337\341\025\275\31029\273t=\033=\307\350\374<\033\"\022\274\323i\004=<\275\353\274=\221\302<g)\n\273\207/\335:\343\006\036\275\3079\"=\346\177\375\274:\274\321<W\235$<\246\036v<~\006\236\274Aq\017\275X\321\2669\351\220\274;\311L\260<\037\250\367;\215.\213\274\003N\037\275\346\331\033=\030\276\033=&\'\354\274q\254\244\274:\240\207;PD\354\274\306\032\356<bh\346<0^\262<\2306\350<K\316\312\274[\275=<\210\257\034\275\225\233\237\274\031\205|\274\016\304\315\274K\222\253:V\352[\274\370\323{\274\037\373\020\275)\013\305\273\036e\216\274\321\033\037\275{\366t<\007\307\007<\003|\227<7\263\275\272\026\204\356<lH\032\275\010W\212\274\260\201\030\275\004\303V<P\235&\274\245\326\213\274n)\031=\001\253\010<\216X$\274\313\372\r=9\366\000\272\221\366\255<\000+\345\273\261\277,\274\242{\202\274\355\217\351<\326\361\204\273\364^\352; nI\273\212\276.<&1B\274\300\254\200\273F\213\240\273\352d\260<\276G_<\336\313\241\274\036\220\034\2751\265\332<g-}\273\343\255\254;\261 \223<;\016i<(\236\221;<\241\344\274j\n\004\275`b+<\253\262\251<~\320\215\274h\341a<\014\035D<`\027\335<\260\253\000;\371\361\210\274\000\020\r\275\256\032\317<;\343P<\351\021\017=E\253\201<y\321\206<H\264\330;\254\266\360\274\324\273\324\274nd\373<\025p\000\275\367\033\267;^\226\"\274\342\272\231\272\013b\304<A\037\375<\326\343d\274\031f\226\273\354:X\273m.3<\\\302\n=\225\035\365\273\320T\032\275\370m\032\274\000o\026<\327\204_<\300)\300<\214:\310\272\315\253\357;7c\210<\262\214\235\274J\203\t\275\302\275H<5{\343\274\034%\025\275l\224\376\274\372\236\311<\024\307\036\275\225U\017\275\334\220\373:\342?\260\273\275\036\311<\266\031^<\224\264*<6\003\275\274\205N\317\274\027[\013\275\004\217\217\274\223\341\201:\360\034\205\274\363s\035<\'V\276<\027\250\r\274\023x\243\273\276\n\031=K\251\326\274\024\374\001\274\343\240\246\273DE\374<\336p\357\273K\367\334\274\370r\232<\271\226\314;\265u+<\373\213\245<\260t\036\275\316Y\024<(\315\273<Q~\030\275rp\240<V\330=<\036\231\351< -\246\272\2042\262;\252>\25494\010\000\275\032Y\025\275Q\370-<X\244\231\274*\310\375<\313z\346\274\242\214\n=\354\031\246<XD\371<z~J<\023k\361\274e\253\371;^\016\312;\356\025\013\274\232\245p\274\317\324\3319*\325\264<\005\376\207<!\235\360<\351>\377\274\251\027\267<\235PR<\223\375\206\274\344\256\003<\204\350\023\275\252;\327\274\200\307\370\273\210y\002\275\376\345\023\275 \006\024=\271\017\310;\257\265\343:a/V\274l2\017\275\274,\343\273\273R\030=\266x\300\274D\240_\274\315a\214\274\375\264!\275O\252\350\274mF\201<:E\022=V\255\221\274\371\313\316<0s\220<=\346O\274\032\363\031\275\3455\006<\233G!\275\335K~\273\266\226\375\274\240\344\347<!\263A\274\371\333\245;r\256\226\274\313\214\t\274$?\215;Y\343\005=0\'d\274p\33487\275\233\375<\210\242\267<\344h\225\274\024\306\024=7\340W<U\016\260\274\275\362\203<\037\014\n=\272\333><F&\020=\332\203\037\275\377\304\305\274.\356\257\274\205\n\013=\260\027\276\272\277\357\2128K(\013=Qo\000\275\n\362U<0\203&\273\360\000\037=\371\202\215<P\3603\274\311\221\013\275\'\306#\273\200\232#<\302a\245\274\312p\240\274\013\362:\274\353\321|<$x\215\274\307h\212\274\241\332\034=\2475j\274L\325\376</C\010=\022\316\346\274\254Fn<\"\026\"=\300s\306;\244lN\274\014\266\252:\\7\373\274\216B\274<qK\234<5\007T<%\261\200\274\262\364\205\273\376\320\336\274\032BQ\274\221\036\346;\037\000Z;\240\t\034=B\033\022<e\304\303\274H\354\005=\010v\205\274\272\322\036;\260\202W\274w\200\2559\210/\361\274\352>\201<\242Y\030=\351w\200\274\201/\230<6g\267<>\347\332<\3030\221<\001<F\274\301\347\343\274\337*\027\274\317,\317<\332\224\021\275\347\236\301\273.@\272<\241\253\016\275|\346H<\351\304\227\274\271\330\243<\266\362\032\275\301M\037\275\260=\377;\274\210\037\275\355\242\034\274(v\001=1\325=<\010\220\343\274}Y\021<\243\tS\274\260\333\272\274\227\002Y<\273\327 =\314\025\013\275\304I\226\274\273\357\227\273\306k\031=\252\336\236\273\001,\300<\216{\004=\270\003\205\274\241\251\370\274\037\351\031=\214\005\023\275@\333\036\275\0147\306<Va\363\274\316\235\231<}\344 \275A\353\005\275\314\364\021\275&\364\352\274\301\375L<\003\264\312\274\005[\365\274|\001\256<\335\002\001\274\337C\243\273\t\025\t<i\335n\274\250\027\033\275p\014\024=\202x\023\274@]\010=\247`\245\274\215\232\231:\304\226\024\274:\336\202:\303\031\023=\002\314D\274\210n\270\274\324\374\276<\270\001\002=\277-U<\002\207D<F\264\307<b\002\261<d:\n=R\304\356<+,H;\306\026\304;H\314I<\332\367\320\274\020\356\221<\026S\301\274y\004U\274\244.\277<n\025\022=j\t-<U\233\357\274d-\210\274sG\"\275D\217\016\275\237\306\351<eH\235\274W\267\352<\002^\210\274R(\';Qrw\274\247!w\274Q\264\253<\215C\253<\275\363\256<\321\334#<R\275.\274\322\321\014=\264\362\366<h8!\274t\033\251\274\362&\362<\334\034\260\274\020\210\370\274\347\222\240<\323\203\021=&\265\336;\357\326?<\216}\236<\346\006\036=z\354X;\337\360\276<\n\341\231;\026qE\273\212\357\032=\363\210\272\274\312\317\354\274\232\221\033\273Lt\217\273\260\032\317<p\363-\274\001\357\371\274.T\230\272\265\024q<\204\375A\274\356S\326\274_u\302\274\352\260\221\274E\365\262<\261\222\0109\260\272\341<\206r\000\275T\\ \2753\327\346<\226\275\206<\263-\352\274\365\037\267\274U/\016=\314\363\027\275\253\275\336;\256\207\300\274\276\006\373<\351\340\035\275\263l\n\275\315\010N\274\331\256\\\273\361\256\364<Z@\202<\251\002\213\273N\357\037=\007\017e\274\265\t\017=\241\245\322<\306\223\251\273p\331\024=\355LU<E\2524\274\\\231\r=R\250\000=\001\360\305<\366\375\3159\270\370?\272\300\213\301\274?\027\036\274\370+\031\275\232\376\320\272\3322\035\275\223\246\325\2743w\023;\261\036\366<\365\271\233<\360\306E\274\267\250\340\274\347\022e\274\241\240\314\2748Y\367\274MI\227\274\210n\272<\317\355\263;mZ{\274\272\327\320\274\177\215\006\275\365\214\023\275o\250\322<^#\017\275\362\227\032\275]7\261\274\023\335\003\274M,\t=\211\244\344<\345\204\325<3\210\032\275J\246\375<\340_ <\210\277\000\275\001\316\206\274\377\250\363\274\2620\210\274\212\326T:\n\013\024\2751\361\225<&\035\232;\200K\246\273\254\331[\273\t\020\207<\221!\0269\346R\210\274/5\246<\247P\245<\224\007\334\274\037\306\251;\224H\267\274O\267\353\273q\005\001\274\334\004`<\320\325\322\274z~\032:\360\023\014\275bn\225<\003\233\315\274i\302\001\275^\240\267\274u\221\306\274\356\255P<\333v\214<\321cT\274\262 \263<\330\035\260;\265\232\366\274\306\344\373\273%\361\021\275\307\027\204\273\275\236y<A\213\271\273\247O5\272\355\225\273\272i\341\016\275\253\316\376;\230\223\003=\363\255\312<=\341\010\275\260\315\327<\177\000\003=\036\0067\274\273\341\005\273\261@w\273\332\r\004<\213-\031\275\237l\311\273\343`\307\273\367)d\274G\332\247;k\355\222\271\212\341\235;\347\265\226\273`\373\366\274R\301\222\274\316$\245<\276\025\020=\265\3029\274\203.\345\274\372\'\235<\375RH<?\324\360;\2353\017<\3457\025=\251\372\010<\251\003\024\275\031>\274<5-\246<\304\003\243<\263M\013=\265\243o<\030\022 =\315h\370\274\'\262\\<\035\351\366\2740c\325:\331?\027=\367\315\372\2743\023A<\000\360\337\274\370\334\003\275\021{|<\207@\223;\263\351\226;\034\266M<\nt\035\275\233\327e<\306O\250:\334\n\321:\350\317\355<@h\020\274>_\250<\203\377\211\274\036\3075:F\031\031=~9\347<\222\301\007\275\376\367\314;_iO<#g(\274Q\331 =\354\235\026\275\261#S\274\245\3475\274\215\323\370\274\263\250 =\243\202\024<Z\233\222\274\266\356n<\344\262\315<e\363\205\273h\234\201\274\t\204\271<F\252\325<\016[\242\274\371\301\345<\r\323\313<v\354\200;R\014\270\274\267!n<\276j\026=iG\341<\206W\210<9\354p:\300\340\367\274\207\267H<\211G <\230\003\377\2738\266\007\275!,7\273\320u\374<%\342\276<\260\362s<\230z)\274\030,l<\221\202\265<\267e\302\274M\355 \275\362\347\024\275\020\216\243<\274\260\252\274\362\244\232;f\234\375;\225\360\262\274\235t\005=\237\213\250<YA\017\275_x\370\274[\322\025=;h\007\274\027=\342;\333s\033\275\270\221\247<\210\301\315\274\301\370\300\274\023-\374<\340`\001=w\230\n<Y\353\030=v|\032\275\336\245\036\275A\340\004=\366\300\362\274\2357\224\274\326\276\207\274\250D\363\272\026*d<\002\226v\274rz\320;d\252z<\177\317\202<2-1<3@\357\274\3749\304\274+\374\211<d?\020=!\tw;\257\235\241\274\256f};\321fp<\360\245\250<\002\027\000\272\301\312\321;\307\247\013\275:T\000=\315\363\220\274\333A)<\311:\333<W\361\261\272,#\304\274$\034\346\274\233\244\303\273\035\306\223\274\0230\n\275\366\312\244\274x:\247<\222\017\343\273\241\030\316<\376\211\212\274\333\206\t\275^O\033=\240<\367<?b\021=\3673\231;\342\225\217\274\260\361\276;M\003\372\274\321OZ<\260\020\315<;\004\242<\337J\264<\265)\325\274\'\207\225\274\023z\344\274`C\231\274\'U\217\271\243\364\225\274\204V\033\275\231\252\273\274\017Q\303;\341\'\032=\206Da\274\223\262\023=\261\361\001\275)\255\034<\t-0<*Q!;v\253\240\274\216\240\272\274:_D\274>\224\322\274\216\226\020;\376\367\261<n\217\275;\333wY\274\017\276{<\0265\246<y\364\372<\\\333\005<\363\216\025\275\247\245\344\274\024\212\005\275\'P\002\274\343\326\001\275Es\227\274\366\371\354\274z\215o<\177n\347\274on\016\275a\206d<\036\306~\2744\003\247<\235\023\022\273\r\037\004=e|\'<\027\241\273\274\0323\262:\204\'\315<8\026?9\003\303\322<\267\343\033\2757\264\335<&\350-\274rzB\273\003q\010\275KN\276<\217\004\334\274\354,!;\217\377\310<B2=<\340d\342\274\245e\364\274\270F\350\274\206\344A<J\"5<gF\377\273\204r\023\275\231!\023=60\014=d\225\371;\356\010\373<\272\323\371;\210\314\024=\322\027C<\302\325\005=\215S8<\333\006\315;T\262\261;aJv\273\367\315%;\004\334\253\274\010\372\371<\212\217\037=6a\372<\000\360\022\275\360\265\246\274\222\201\025=|\334\017=%j\031\274\204h\307\273 \032u\274-.N<}\206\275\274\0029\026<\341\017\352<\244\253\037=\3114R<#g\357<\350D\215<\224q$:\254D\037\275\247X\257\273_\036\036=/\322F\274\214\017\354<1\344q\274\317\014\377;M\320\360<\004\315\250;\220\023\377\274MR\006\273Z\277\202<\265#\020\274\216\332\220<\337\036\026=\032^\033=\025\341\336\273\212\235\315<\215V\327\274H\321\305\274\216\317\207;\365\345\265<g\035\346\274\241;&<\004\365\r=a\230\207\273\355U\277\272\n\353T\274\354\342\032\275N\214\277<A\277g;a\270\311\274\213\275N\274A\002\201<j\234Q\274\222\325\246<v\213I<\370H\331<#\202Q;D`\362<\330*\323<\345s\324\273\322\005\021\275\263+\337\274b\246\345<l\313\335<@\326\215\274q\331\032=\347Qr<\355\037\311\274-_3\274\304\203\270\274lM\200<\274\324\245\274\232\206\212\274\032\300\375\274R\304\020=\\\255\370\274oB\024\275\271\342\001=\177\003\212\274nB\273<_<P\274\267\375-\273\013\217\305;v{-\2742\355\244;\222\322~\274y\010\221\274\260\035\035\275\350\023\306<\214S\n\274\351\252\027=\220\240\323\274\035F\214:\\\r\350\272\302\320\277\274\340\266\035=F\311^\272\311\031\226<\260t\372\274\203\374\t<\016*\277\274\270&\350\274\021\304\030;CP\035\275\003?\234<\\b\233\274~t;<\013u\246<N\254\213;\316\340\377\272i\317\027<\270\234\320<\305m}\274\322\277\371<X6\203\273\313\254\032<\336\023\211\273<e!=\0144\025\274]\010\003=\276\346\263\274jKM\274\347M\334\274\240\337\220<\227\373\332<|*\246<\372\2307\273\024\200\201\274\244[\227\272\215\224\373<\"\217\316;\217\2461;V^\002<\032\361\035<\'}\264:\036]\000\275\022X\032\275\327\'\202\274\315W\205<\264\227q\274\023\257b<Ls\205\2743\243\373<\\\333\006=\211\321(\274\277\231\311\274C\245\332\274\214\353\216\274_\373\363\274{\035O;h\311h\274\276\301:\274h\315t<\005\236\356\273\265\024\370\272\025\262\037\275\347J\304<\024\260\234<\320\345\304<\026\017\005\274S\254\035=%\355\274\274\221`\214<\270\345\256\274L3\255\274\235\203\034\272M\242\262<-\241\367\274\265 \225;p\030\024\275\345>\n=n\266\\<\\\364d\274\005\031\364\274:\267$\274\241I\"=P\350\031<\246;w<rD\331\274\321\347\t=\362w\034\275@\375\006=\347\325K;\0045\235\274\253\236D<\224\356\324<\227\t\325\272\013\332\302<\230$\033\275Q7\316\274\375\357\203<p\224\272;\373\346\262\272\t\255\003=\322\3505\274\351]\314\274\377\241\332<|\276\232\274-U\375\273\267\362!\272)\241\347<\t\350\200\274\003\207\221<\270/\"=O\323Y<\236\266\366\274\344\311\033<\"^\014=\332\277\021\275\357\327\300\273=\024\366\274Im\331\274\300X\032=\205<\002\275\374R\214<\301\225\005\275\363\327\354\274\324\203\002=\210P\001=\314ui;\2076~<\272G\017=\234\230_<\302\r\320<p\034!\274\342.\363\273\315\237\374<&\351\317\272\005\200\036\275-\254\333\274U\206b\273\336c-\274\014\303\t\275\2112 <X\315\014\275\003\214\001\275\032\272\t\275\275\253\303\2743=\203\273l\346\004\275\307\222\006\275\261\306\306\274#\327`<\021\331\263\274\3500A\273\203\355\200<\r*2\273\265\373\376<<.\226<[p\340\273r\032\227\274\374\026\315<.\274\205\274\324\'\253<\2040\357\274\230\312\264<\312\351\334\274\220\352\304;M\001|\2746\223R\274y\332;\272\216\032P\274\243\333\344;\276y\022\275\245 [<\030\210\231\274\330\376\034\275$\343\n<\005\364d\273\301\372\357<Q2\002\275\323Q\000\270{\211\321<\372\371\332<\004\235\036=R\357\000=\277\317\035=\360}\311\271\346\351\031\275\347\367\033\27548\277<~_\341\274\331\002\227:\260\215\240<qT\034\275ygJ\274;=\005=R\225\355\272\206\033\317:%\330\016=n\022\211<\203\260\020\274^\354\223<\304\'\225\274:K\3169\327\351\017=|i\023\275\334\356\232<.=\260\274\376\000\001<\226L\330;\371\236\257\274=7\211\274\202\225\203\271\305\331<\274c\306M\274\340D\366\271\247fr\274Sn\245<R\314\304\274!\353!=\261)\002=\361>\016=\264%\312<\243\327\365<8\235\037=\216\325\035=\214\013\215\272)\230\233\274\r,\025\275\031\266D\274\246\277\302:\r\177P<\013\002\254\274\362&\021\275BF\342\274;+\271;tB\313\273\230\347\355<\335\0052;\326\013\350\274u\201-<R\300\306\274\334\244\005<\350\026\274\273ud\021<\247\032\036=\024\n\353<\231P\231<\002\353L\274p\035-\273=GW:)\200\372<\330<\341<\233Mz< :\033=\202Z\003\275\234-\367\274\242{D<[\203\347\2747\305\215\274\310@\2309|.\207\274K\013\020\275\222\270\304\274\005,\200\274\016\326\334\274\005\313\364\274M\320\223<#\2359;#\333F\272\360XI\274\324U!\275\004\032\214\274)\267\330<\356\375K\274\246\357b<\354\373\361<T\002\377\274\351\341\360<j\304\242<\220\205 \2745\334\263\274\002d\026=}J\232\274j\205\343\2737p%<\024y\207\274\231\037\000\275\210\345\017\275\307-\370\274\367\332a\274s::\274\324\222\343;S\227\205\274\221v\033\275\376\306\333;f?\240\274g\r[<Y\245\234<\260\321\353\274\262\317\006=\007\223\303<\221\317\243<\001N\"<\222\324\330;\240\340\235\274~$\340\273\267\021\027\275t\026\214\273@\023W\274U5\020<&\222\364\274\257\203\t\275\364A\277\273)\244]\274\2303\313<\273\235+\274\265\317\257<\270\371\336<)Y\231;\220\\@\274\330\031\016=\032\006~\274\241\301G\273\313\341\023=\\R\372\272\301\224=<1\257\203\274\363\027\033=\200\202\321\272\002+\001\275\211\372\"\274#_\355\274F|\032\274\243\341\221\273*\240(;\204\226\341\274\327i\";){\225<\376\222\222;v@\004\274\372\177\201<*\201q;go\323\274\225\337\313\273\026\231\237<l`\373\274\364\256O<\312(!;mK\256\273\021_z<}F\276<\214\274\214<\214:\251\273i~\320;\261\004\334;\315\247!\274\203\333\035\274\275\364\244\272Q\n\344\273\034_\245<t\345\032<\375:\373<s\206y<|s\303\274\313\272c\274~\266?<Gw\223\274O\205\020=\233\367\221<\353s\032<\306\233\265;\313\311\276\274m\343\262;\271\033`\274x\251\007=D_\035\275\037 \025=\034b\344<\212\216\216<(\240\313<\355\235\223<{\336\214<pd\002=\240\227\254\2745v\255;/\022\267\274\351\302#;\017[\203<ZI\005<:\230\221<\331*\024=UN\315<\343M\341<\315E\273<Mm\025<\327\347\256\274\303\272\336<\021-\201\274\315\254\246\274k\311\361<\334\306\267\274\260\250\262\274\225\230Y\274Dt\007=\346\250\001=*\324\021\275\256\025\373\274\325Iv\274K\260\322\274\213N\004\275>\216\215<\305]\363<\305\312K\274\023\335\013=-\237\007<\346\201\207<n\253\343<|\037\210\274\002\254y;T\213L;\206\240\310<\3545\201<^\335{<\224\335\033=\274w\272<!v \275\221\177\376\2727\237\233\271\225W\346<\334\\\261;\365\367 <\256\214\030\275\004_ \274(9\343<\250\002\317<o\001\023\275)\262\272\274\317\026\372:=\020\265\274\221G\265\274\n{\324\274 I\275<Y\004\020=V\033\260:\004\367F<e\205\262<\321\252\027=\024\361:<YF\304\274\357\177\344<\214;\007\274\336\222\014<\3128h\274\206\354\272<V\002$\274\267J\354\274j\tT\274\024\241\310<K\021F\274\315\022\261\272\021\021~<\020\352\035\275\n\214\324\273\030@\270<\234)\205\274$\031\377\274\3037\202\273\311\242\\\274\360\273\354\274\022\375\026\275\201\310\217\274)\317\344;\327]\204\273\324\262\243<zU\243\273{\263\310\274\331\000\022\275\234\026\202<P\356\204<\022\214~;\000#\334;A+!=1\246\242<}\271\034\274\334\233\021\275%M@<\366o\266<\214\203\007=\244O\033=\tz\302<&9\226\273V\323\342<\3474d;\326\363\323\274\310Bq\274\364\r\233<\324\006\025\274=\232\023\275\212<\242<1\024\341<\327u\323<\031\t\254\274u\376\031\275\013\346\271\273\343\277\036=\315\351\237;\224M\200\274\316K\311\274\231\320\323;\364`\274<\346\336\354\274\312>?;4\217\226;f\277\"\274\371\336\357\274\002\243\316\274)\332\327;?\213\031=Vix<\2039\310\274\223B\200<\305l\251\274\035N\214<\302\023\373\274\233\324\020\273\261G\017\275C\351(\274jB2<\245\253\276<a\244u\274S\241\272<\t\315%<JG\270<\301\253\301<\006<\020\275\032\020\031=\350\240\031\2741\352\004=\340\033\n\275\r\261\021\275s\317\210\274V~\236<?\313\267\272`\340\335;\311_\025;\237\277\364\274\202\037|;$-\016=u\334\t\275\3125\037=i*f:!\352\327\274\365\016\312\274\\\030\203\274\347\375F\274\245V\220;\003Y!=n\355\034=\204\022\357<:\345\275<R-\357\274y\271\377<RQ\014=sb\002\275\n\263\251;\024\276\256\274\322d\365\274\256T\001\274\315H\207<\366\315/\274 \274a\274\315\016\350;n\237\252<\300\2332<;\211\214\274\022\001\214\274\373.P\274y~9;\376\355\360\274{z\257\273\344\216\034=n\007\265<:=\347<`\241\024=\037T\252<v0\014=7\241\303\274\312\224\t=[a\367\274\246\260\367<-\316\275<\377\300\335\274\210\346\332\274\264<\240;\367\260\377\274H\331\216\274\345Wf<+\301!=}1\377<\234i\372<\205\304\273\274\372\005\211<_\370\000\275\363\375\010\275\271\016\241<\226\353\373\273\272O\270\273E\035\032=k,K\273\377y\241<u\376\017=q\201\323\273\227\236\212\273\232Q`\273m\303\251;\342\274\220<\242\333\306<\300\362\024=_\251\n\275\320\303\033=\220\222\316;\351\342\301\2749/Z<\240L\214\265X\200\376\272\274L\273\274I,\030<+w\010=go\177\274\021\021\020\275\222\205\036=\312\267\t\273/\374\006\275\371\353\022\274\227=4<\376\372\365\274\010\304\000=P&\r\275J\006\022=\341-\023<\263\267Q<\367\t\243\2744r\277;o\375\037\275\375\263^<\210\301\036<\340\032\002\275\226\365,\273\356q\016\275\241\236!=\244\357y<\353\205\204\274\212\'c:\372I\037\275\207\312W\274\035\225\375<\226\310\300\274\331\024 ;\246\305W\274\334\212\262;\351\245\033\275\t\343\255\274\232b\374<O\365\021\275h\003\000=aev\271\351A\005=\340\023\321\274\300\332\243<\230+\200\274q\345\246<}\367\245<\2406\353;\255\021\021=!\216\340<\365n\265\271Jt7\274\344\375\017=>\373\254<*7\031\275\224\340\331<2\276\023\274\345\354\013=:NV<\312\227\355\274\275\2602\274\374\306\027=\214\300\033=\242\365\254<w\323\003\275\223\326\355<\036\335\356\274\330\326\r=Z\350\342;#2\037\275\263\214\002\273\014\032\336\274\253D\217\273q\267\300<w+\202<\343S\330;\325.\324<\365\305\000\274\310\327\022\275\374>\355<\330\220\024\275\240\267\217<\315\232\270; \330\003\275+\030\322\274s\257\330:\262\237!\275\367\216\342\273\277`s<\244g\241\274T\303\355<pb\375\273\247^\351<K.\017=\'Z\027=+\027\005\275O\370\254\274F\331G<\364\333\t=\271\250\034\275Ir\206<D\371\367<\024\207\032\275\204R\355\274\326@\277<\202\013\365\274\rn\235\274\370\275\376\274*\237\007=\227\244\000\273\363\257\301;)\030\324<\321\304P<:\2749\274$\244\236\274\374\237\375<\343Y\304\274\010\362\301<Iv\207\273O\250\244<\202\233S<\000?\251;\246r\016\275\217\026\236<l\366\273<pe\204\274\031@\226;\222\203\017\275\027\304\254\273\215a\006=T\342\001\275Y\300\027<\262\312\030=\323\362\346\274\313\200\220\274\333\245\216\274\0253\256<\234\373\223\274(\021\005<\261\354\201:B;\016\275\r.\206\274n@\340<\021\350\234;\337\363\335<\375\010\245\273\215\013\373<<\371w96GP<)\224\360<\216\216\026=\253!X\274>\035\313<\370\311\\<Q\303h\273\250kx\274\033\320O;\225\021\020=,\315\026=\320\003?\274d\261\356\273\277\336\243\274\376\251\257;\006h9:n\324\035\274$\243V\274\236\366\024=@\316\367<\216\332D\274\334#\032\275(o@<\025\326\370<Rpo<\320?\264<1\263\317\272\233#!\275C\302\231<X>u<3\376\013=\220\250j\274\013\020\263;Ml\000=\224\364:\274t\303\026\275\224\332\014\275\303\252^<\005\010\346;\275;\214\274\233?\035;\027t\203:\236\003\343<\316J\034=\345m\245\274\303\037\024=\342:\205\273\276s\324<\363(\372<\'\201\375\272\347\333E<v;\263<#C\005\275\223\321\003<\367Q)<{0\n=_\315\024<\000fV\274!\022\024=u\247i\274\304\335#<\353>\035=\037\271\022\272Q\342\017=\271\001\364\274\331\224\014=\306L\013=\255Q\310\274xq\215\274\027\317\211\274;hZ<>B\"=\005\240@\273.\221\302\274r\360O:\332F\267\274\222b\n\275\312.\253\274g\313\336;\332\203\224;\215\275\331<a\316H\274\236\333\273<+\262\361<h\002\353<I\214\351<e\030\030\274]{\361\274\353\345\032\275\007\225\233\274\030P\217;,\261\322<\372\033\001\275~\373\024\275\330\273\371;\222\202\241\274\312\215\220;\026\374U\274AU\345<\215o\375\274\3221\031<:\003\332<4\253\032\275\362\363\346\2735p\365\274#W\274\273{\3452\273UE\335;N\204>;\220\215\016\275?<+<O\257\016<UU\326<\312Bt\274v\375\337:\264\234\226\274\306u\324<\365\247\335<u\215\200\2744`\276\274\2708\251\274R\272\006\275[T2<\035P\262<\301\022\277;\275\363\367<\234\177I\274e\361\347\273\206\207\376\274\335\037\346<\262\245)<\353\235\311\274\364Z.<\335\357\034\275x\270\374\274\226\263\250<\031\275\374\274&\331?:\013\203\340\274\316)A\274i\261\267\273w\326\337\274\366\377\245<\037\375\020=\254\027\247\274k\251S\274Q\302!=\177;\027\2758\004\340\274\370\272\311;\027\213\262<\256\240\307\274-\247\301\274\201\214g;\3574\212<-U\033=Y\313\305\274\005\350\t\2758Y\317\274\271&b<^\010\237\274&\373\024=\332\355\376\274?\n\004=\355\307\310\274\241`\350<\334\276\006=\245 F\274\340\305\357<{\232\260;\2717\252;\t0\244<\032`\300\274\276\270I<\341\347z\2740R\307<\001e\210;_\375\034=CXe;k\325\000\275\347\270\201\274\362\256\252\271\331\212\030\275Yf\227<&\022\031\275F\027\317:\307\221\017\272\035\317c;\221u\010=\302p(:\\A\r=/\317?<\022M\010=c\031\005\275\207c\037=wc\034;\377\010\207\273H\357\364\274d\362U<\374\250s;5\222V\274\'sj<\210\242\323\273\346\307\315<\253W\362\273\347\032\346<dI\036\275\237\001\202\273\214\234\315\274\377\321e\274\317:\303<\270g$\273Ik\367<H\301\37497\254\254\274\345\266\266<\233\356\026=\007&\222\274\222\000R\274-\361O\271\035g\332<\316B\025=eX\007\273/n\375:&\"\334\2741\034\343<\221\210!=\205\030\026={\346\354\274\007\223\351\274\240\025\002\275\t\351\345<q\253\201:w`\373\274\257\323\302<\335\333\317<\241\367\021\275Z\250\370\274\214\034\037=\306\276\016\274s\2025<\231\345\315\273Q\027\340\273\244\007\037=\027\245\251\274\230E\025<|\244\306<\342\362[\274_uK<\0249\205<\262\213\253<_\312!\275\035\263\031\273:\307\276< \351\234<\rU\217\274\020\006v<\367\335\212\274\"\360\261\274\332R\025<\245\265C<\351p\022=\340v\211\274\254RH<4\323\314<\014\'G<\200\365\033\275\362\233\'<\'#\241<\030\230T\274\356\222\217<\211\206\023=\\\323\020\275\335G\216<\264\030\221<?K\007\275\374\304\304<~\200d\274\370\376\310\274\3125\375;\246)\255\274\3364\230\274\254\264\027<\214\341\217;\177\244\207;\"\357\017\275\3312\233;|LL<\334|\365\274J:\030\275\250\205\006;8\250\016=\023n\002\275EeY\274C\001\236;mX\231<\027\205\332\273=\276\005=\002\340I:f8\n=\225\254\r=-\300\034\274\005\306\343\272\231\216\213\274\024q\n=\251\205\021\2756^\n\274%G\302;\031\t\335;I\301-<\270\000\260<\317(\351\274\306Y\272<R=\254;7ij\273Xr\275\272\032y\332<@\341\013\275\344K\025\274\371\372\241\273@\033\300\274(\010\024=7lF;i\315j<\235\016\r\275\356@\033=!!\320\274\237\327\337\274\267X\232\273\221y\221\274x\215\207:\235m\227<<\032\367\274U\347\026\275t\375\014<\363F\213<^\210\n=\010\356\200<R\321\347\274\035\245I;\245?\233\274\316$g<NNl\274\257\337\006<=\310\254<\265z\367;\321\302\223\274\207\224\021=h\220\376<\375\375\362<\010\024\231<\376k\311<\352\343\242\274\233)\200\274\377y\000\275\347\267\021\275\027:\313\274\303\373\031<\353\202\255<G\360\334<\222\0100\274\340mg\274\233\'\021\274\031\000\262<\371\274t<\262\335\373\274S.%<\221\222\026\275#\317\255;6\234\311\274\367.\315;u\302\030=\214|\303\274q\305\377\272\315{i:\243\020\362\274)\254\025=zF\300\274pUM;\177\360\n\274\254\365}<\211q\301<D\264\037\274\213\202a\273~\002\211<\3760\334\274\226\310\206<\364\255\317\274\357\317\005\274\030&\321<\302$\343\273\231v1\274R\2133<\360\230\262<\\\243\254\274\006\361;\274m\203\024\275\253\315\001\275\010\245\265\274Of\277:e\236\255;\375\224\230\273\220&\247;4\203\340\274\211.|<6\017t\2739\362\251;\3304\322\273}\360\266;\266\200\360;\2219\000=!\236\343\274]l\213\274\025K\017<\264D\250\273\313\231\014\275y\333\276\274Y\3757<\254\031\353<\3249\030\275?\r\r\275\356\323\023\275\026i\315<\024\364\247;\016_\206\273\205\325\325\274\240A\362\274\3050\000=8\342\037=\032\2119\274/\035\303;p\333\370\274\271\t\364\274\025NI\272\036\345\225\2741d\001\275I\253\210:\274\210\023<|\243J\274M\364\317<\021f\346<{\370\035<\316Z\344\272\034\350\234\274\237\345\016=s\000\2039N\220\000=\340\323\375\274\202\251w<\21416\274\302\255\002<\307LB<\215%\010;T\345\267\274\037\017\331<\263\246\251<N\031\037=\330\234\354\274\326%\t=\2475\013\275\321\362\025\275f_\315<\370m\t\275F\201\347<\327\222;\274\301\016\215<\001\211\373\274\242^\275;\352\253\341<\327\247\346\274\005\022s<\205\250\212<\022\261\231\274\200\210G:\030\310o\274\240\315\224<\340.\031<vL\023\275exK\2666\331\r\275Sw\222\274z\272\337\274\223\316\250;\333\177\037<\260\305\002=n\217\037=\207\014\251\274\277]\337\274\376i\016=\234\260/\274\230i\263\274\345\377\r=2N\271\273\233p\010\275s7\373<\325+9<E:\016\275\346\221\211\274`H\3459C\314\311\274\026Z\265<\214\265\257\274\342\307u<\225b\026=h\377O<Q\304\000=\346/\253\274\356\204};\275\005\036\275\"X(<3\000\037<\214\213\306<\3437\234<+k\362:\3568\250\274\'$^\273~\024\026\275\2156\037\274\345\006!;\"\345N\274\216\\\361\274T|T\2723Z\010=\030\026/\274\013&\341\274\227+\035\275\211\223\231\274\370\3615\274\352\377\037=\274_b<4o8<\357\'\004\275\'\224\374\273\006l\253<4\272\357<\216`\023=\236\301\232;\242V\020<xI\013\2758\315\226;\265\261\346<\344<\375\274\265\255\216;\002A\240\272\334\351\224\274E\300\305<\327\301\241\274\375:\020\274\026\355\016\275\355s\021\275\335A\\\273v(\361\274s\261\312:\265zI\274o_\360\274s`\213\272)6\003<\026\242\354<ycn:\207\334\357<\335n\361\273\375o\024<\027\230\252\274\036`\302\273\274N!\275\233$\251<]\374\034\275n\303\220<\327\350\037\275\004$\032\275r\347\262;\034\242\376<\335\t3<\305\247B\274\200\r\017=\301\370h;YPd\273\223\3404\274\033\364\261<0$\271\273\013\322\356\274)l\r\275\214\322\301\274o\317\252<\326\t\207\274+\265\202\273>}\201\274\2761g<\300wn\274\257\312\274<\267\325\024\275po\301<C\025\002\275\313\336\004\274\346\245[<\213\350\007\275)\234!\275\314\222\266;6\267\336<\244\237\242;\205A\244<\301\343\357<(\205\005<\252v =]\355\032=\024^\n<?\006B<\245?\200;/C\342\274\260\316\371<\373\273\002\275,\007\206<\322\302\023<\025\307\021<\020d\021=\n\331\023=\013\372\313\273-\347\023\275\225n\376\2748#\222\273\224\227\250<@\237\320;E\244\317<\242\037\362\274U\324\r=\014v\365<\363\326\372\274\022\347\004\274\032\344\362\274]W\227<\373\267\225\2743l\306;\177h\220\274\253\032\306<@\\\027=D\370\033\275\344\250\233\272U\032\010<`H\300<e\026\030=K\253\357\274\2516\356<\r\367\256\274\263\314\223\274\004B\003\275o\260\260<\\\230a;\2345\262<d\217\366<\315\333\267\274\264Fx\273\366-\243\274\232\001\374\274x\'d\274\263n\244;D\256\354;eb\267<P\203\016=\335\373n\274N\201\376\274\217a\004\275\327\311\244\273\224u\260<\035\330F\273\263\027=\274E\0210<\207Q\014\2750r\353\274\362d\362<0k\004=\321\307\271<\333\274\315\271T\205\231<\022z\365\274\360\235\314\274\317\364[<L\346\340\274\231\342\246:\004\207S8q\300?<\242\346\220<\t\361\236<D1W<\240\366\237;\375\025\333;^\026\274\274\364\221\270<C\235\354\273\3069\n\275\364\031\343\274\223\301\316\274\016%\366<}\345\016<O\221\001:cR\007\275\231\322C;\020f\346\274\003\241p;\005:\263<\032\217\264;\2033\264\274\006nZ<J-\'\274VE\234;\336\204|<\372\345\342\274\346\243\275\274\025\014\355\274\364\344\237<\371\377*\271K\225\001=\344\251|<\363\327\276;]\377 =q\303\325<\337\317\307\274\004r<\274\315\343\227\274\310\352\241\273\353\276\222<i\005\354<J\211\007=\363\305\026=s/\276\274\344 \320<\005\326N<.\331)\274\373\365\r<\325\377\036\275\021\242\215\273\213\254\004\275(\220\023\275\n\210\035\274I\316\220<\356\027\321\274%\027\244<\024\353`\273\203\311\214:\232\220\250<\275\341\204<Y\374n<\341\023\226:\010\026\007=V\306\007=\314\262<<P_\241<F\304\001\2752t\007\275\200\274`\272\253+\021=\316\326\010=\331_\006\275\312\014\326\272c\347\220< E\365;\206\007\375<\366\240\303\274zh\270<\304\tX\274X\263g\2745\035\004\275!#\034=\314=\224;\3317\222<\367.\233<\005o =\202\367\030\275\240H\273;y\033\373;sAN</\204\300<=\215\313\274\315,\255</\244\213\274\327\004\327<&\010\213\274\255c*\274\341?[; \335\275\274\246\244\207<s\030\266<6`\241\274\237\330!;\247\2072\274<\371\016\275\021\323\003\275\026)s<\276\023\325\274\302\273\305\274\233\374\302\274s$\320\274x\340\375<i\277\214\271\036\253\343\273,\027\377<u9\362<\023\211\014\275\n\371\001\275\021\337\206;\376\006\361<\245\217U<Y\025\006\275\2748\275<\220\373\310;\336V@\273W\224\242<a?\000<z\002\022\275mi\037\275\256\377\256\274\357\206\271<\010\263|<\nb\036\275\004G\312\274\257\361\262\272\304\206\355\274m\003\352<=\352\257<\317\237\027:\037j\250\273\2472\301\274\332G\034\274$(\030\275R5\031;\336\003\024=\010\377\026:\340*\004;h\254~\274yl\257\271\345\205\021\275nV\226\274\270\324]<z\004\357<%,\005=\206\272\351\274\346\254\275\274 B\014=S~\032\275\234\321\312<\350%\036\274\274%H\274g\216\035=\2125\021\275/\261\274\274\253\027\250\274\372\327\036=\210+x<\310c <\341s\035\275\275\233G<\0169\037=xvI<\242\001\032\275\232\211\032=m\003\033\275\205\261-<\263`\222\274)\021\324\274v\273\321<\261+u\274\206\341\245\274%gw\273u\230\"<\302\230\300\274G\004 =\364\366\022\275\315\371\276\2735w,\274\026f\006=g\345\024\273\003=K<\271a\257\274E\326\214\274\304y\346<\273\211\013\275\223\212\032=v|\t\275\354\030\030<\215\005\017<\313^\033\275\230J\375\274]\002\304<\366y\317\274u}\024\275B\017\355\274\202\323\027<\244\323\206<}j\271<n\306\337<\334\t\006=D\344\322<\265s\335\274S\177\275\274\261\366\370\273\220\006\370\274\305U\023\275\266&\350;\352\277\336\273A\0059<}\276\031\275\313\303\246;5\323\200\274J\034\262\274m\333\213\274\331\255\001\275V\247\010\275\024\214\251<\377@\034\274.C\200\273\271\315\031=\242\356\317\273\204\235\t=\274\300 \275{\243\216;M\362\256\274\300a;<\323\005\354\2744\351_<\322\215\013\272\242\267\231\274I\347\035<\n<\031\275\343\311!=yo\032<G\037\364\274\374\021\310\274m\307&;\027\301D;r\357\024\275}\243\241\274\014\322\r\275\030\214t\273\001\274\273\2747+\006\275\004\257\010=\035\222\332\274\320\002\255;DW\033\275p\3145\274n\251t:\225\"\276<t\315\260\274pPd;\302\200\374\274O7q;\370\355\312\274|\235\034<*I\325;\350z\207<\371c\250\274\\T\246\273G\335\347\274\026\252\010=\024\256\357<)|\227\274D\334\307\274F\326\202<\302g\217\273\r6\035\275\367\305\363<\263\003\252<\201$\202<C\375\035\275\276\3566<\224\007\377\274\032L\027\274Rw\264\274\031\352\024<\032\231\325\274\352\035\334\274\202\240\236<\234\335 =-<\227\274\200\227\302\271\006~\006=\363\243\n\275\255P\005;@G\307<3q\000\274\250\210\235<\376\264_<\253\277L<\003a\213\274 \232\033=\201\330\262<\237\031/;\301W\351<~\366\024=1\263\353<\215\031\233<\232s~\274i\336\211\274\364N\022=!\356\275\274{\214#\274\265\307\243<}\016\025\275\340\374\033\275I\030\201\273\271\023\222\274\377\267\237\273d\024\001\271\004Fe\274)e\362\274E\362\367\273\353)\023=\347\263V\2742W\340\274\306\0229<X\372\221\274\246d\t\275\237\260\016\275\r:y<iX\327\273\3240/\274\353\220\221\274\000\037\024\275\350\275\243\274=E%<\320\256\213\274\002OU<qh[<\223\000b\273b{\244<\317w =\265]\355<E#\014<\371\266\\\274\023i\356\274g\373\265\274\331\301\222\274\301h\270<Q\334\276\273\007Y\362<\262\024\220<\301\275\001\275Jw\375<R:u<z\224j\273\026\233\205<\227\200\314<\274Y\027=\213Y%<\030\225\232\274<\260\035=\247hY<_\017\324<[\365\001\275\300\243\371<x>\010\275\340\214!=\274\212\n\273K\346\217\274\214F\204:\037\265\232<\270\373\032\275\201\177\216<.Z\312\274Q\243\362\274\233\370\222\274i\314\000<]c\006=\2516\200\274\221N\374\274\362LL;*\033\252<\023\340r\274\212w\336\274\362\177\240<\363\313W\273\251v\023\275\213\366\256\274\237A\336;\323\n/\274\214\234\031=\252\313\354\274b\254\224\273\237L\223\274Kh\206\272\3210\022\275\003\201\010=.\345\353\274\332\014\310\274\315\320\315;\321\310\037\275\235R\371<kM\327<`E\360\274$\272\321\273\341\310\320\274O\251\356\274\232\211\003\275\027\242!=kn\227\273\272\332\003=t\211\212\273h#\r\274\353o;\271\007\222\037<9C\333\271\006\276\371\274\33429\274\n\254\267;HT\275:\352\352\232\274o8[\273\361N,;\033\273\214;\342_Q<\000N\020=\305I\206<\242\355\337<\245mR\274\177\2449<5z\272;\264O\026=l!\320;/\260\225<|\236\025\273p\266\376<c\241\032<@\020\223;\346\355\314\273\316\260\223\274\351\2265;\331H\020=\320\013\000=\314\325\257<\253b\026=Wh\305\274\270\325\032<(\n!\275\240\344v<\024\342\025\275&\335\024\273>\222z\274\332\365\260\274\017\007\025<B\301p\274\222cm;\271\254j<(\233\375<\275\273\207<\005\376\320\274X@\032\2753\336\353<\340\314\341\274&\272\010<B\271\021\275\034\231\251<\334\226\030\275\177\222\345<+\3125\274]\027%<\226=\246\274;s\254\273j{\371\274m\026\272<\211)s<\333\020\241<+\351\337\274\215\325\020=h\206\020<\246\364\035<m\347\305<\263\230\201<\310u\253<@d\027=Q\202\035=\205H\334;c\332\306<\322K\035=R\177Z\274\270\253j\274P:\007<\372b\013<\302\213\010\275m\200\376\274\353\245\021=\004\311\324<w\"o\2741Y!\275;|r\2733\243\026\275^\333\033=)\234\036=\230(\310;\013\216\255:Us\266;\t\353\202\273\234?\230<\276\312P\274\007\230\200\274~\346\001\275\'\363\215<\206\026\367<\037\310\355\274\002/\t\274ng\016\274\370\335\242\272=^\323<\274w\210\274hS\237\274`\360V<m\006\220<\177\216\352<\334\245\324<\220\313\343\274\300\2434<\333;4\274\215{\376\274t\311\246<\334\022\005\274e\020e<D\261\266\274\232G\r\274\\\220\311\274\216qx<\311P\314<g\251\250\274e\336\227<\310\247\362\274\363\326B\274y?\361\273&u\037\274Ug\320<\2553\264\274\360\033\215;Fc\2107U\000\333<\264\277\312\274U\251}\273w\347\201<)\247\026\275\306\276.\273O\222\210<\304\270\206\274\345P\034\275J\032E\274\372_\031<.m\000\275\3007D\274pp\006\275\220\362\023\275|\340=<\244\205\331;\006\341\344<^\321\226:\2309\212<Ac\264\274\374ff\274\351\300\020\275x\344\022=\026\t\340<3:\240<\007\370m;0\273\375;|\037\316<eW\301\274y3z<\310&\023\275\300o\317\273\013\374\226\274\307\033?\273\341#\327\273\260\217@<\3027\307\273\246\r\203<\322!\030\275\257P!=\354>\236;U\243}<\017Q\302<\027\377\271;\324\375\007\274x\336$9\t\351 =\317cA\273\2216\231\271\230D\204<2\271\301\274\201$\350\273\226\030L\274\003\021\007=\360O\016\275\355\207 =\025^\303\273<=\242<\037\035{\274stN<\215R\321<\325\231\267;aN\240<\\z.\274s\\\023=;\350\230<\250\342\001\275\366\235\006\275\324\247\375\273p:\312\274\324*\036<y\353\276\274\351\214\271\274\304\216\022=\212\355\004<dJ\005\275\316\035\210<\335Y\n\274o\254\373\274\274\2226<\312\243\277<\264?\254;#\005\246<r\317\022=\271\257\304\274\230\223\001=p\321\343;\3401\000=\340\017-<2;\351<t\327\177<P\374\260;\305\275\241\272E\311\014<I\304\221;:\357\312\274\351\314\001<\231;\216\274y\006\337<\320W\220;\341\321g\273V\275O<Y\205\252;\022\010S\273q\267\230;x\207x\274\340\021\266\274\021\030\261<y\200i\270%V!<\240\267\013=\005\243\323\274\2422\020=\314P\264<\320\345\362;\216;\';\362\267\202\274{K\362:&j\273\273}\031\365\270\276\037}<\241\3046\274g@\033=\300\010\272<\002\216\335\274w\r\261\274\306C\264<\367\223\306\274\306\331\270;t\273A<w\221\277\274\216\213\005\274\247\323L\274`n\034=\366X\030\274\224\307Q\273\273\263\313\272\335Oh;\242\372\\;\2378\251:\030i\317<\305\317\347\273\207\372\373:\341\251\020=2\302]<e\037\367<\240\005p;<\tF\274\016\265\375<1\304\212\274\360\020*\274\376\005\023\275C\345\321\274\223x\261<\030\207\217\274[n\262\273\250\204\305<\004\373F\274I\307\231\274\253\243\357\274\300\263\276\274\364\036\013\275wvA\274[\201\033\275%\026\005\275\004q\272<\206L\266\274\347\\\316<\376T\207<l\3262;\246\363\216\274Z\240L\274\325\231\343\274aT\024=\221\264\313<\272W1\274\376\034a;\242\014\370<\312>\271\274\024\\B\274ja\301<\354\267\344\274\357\220\276<\277=\352\274\255\314\031\273B\023\004\274\031\204T;\017\204\020=,\t\320<\325\206\343\274\304\362\014\274<e\007\273\223p\263\274\245\034\321<v\277\024\274\227Zl\274\317\213[\2747\210\276\274;/f\273\300\221\242\274Lh\010=E\326\213\274\332{\227\274\332+\344;\003\205\223\274\327\367\005=\336\200\221;\367y\013\275\024q\303<\343\323\000=\334Em:\353W\'<\021\264\200<\307\343\226<\0350\207\274\000\267\005<i\005\254;\277;\242\273\261\334\002;\000\363\255\274\r/\343<8\366\204\273\257\306\025\274\355\304\325\274_\353\331<,\355\203<\027,%<d\265\236\274\254rW<\036\244\365<\312\341\257\274\275\304\225<\340\336\220\274g@\242\273\300\265\353\274\262\233\371\273\310\350\030\273\035S\252;\216\001\342<\256\306\253<\357\252\017=\352\277\241<\006\376\220;\356\217\000\272\350\341\225<\255\330\264\274\365\3559\274\272\031U<l\265q\274\271,\013=\341\310\336<\222\315\263<\214\331\221\273\342]\311:N\207\006=\214Z\016<\305 !\275`\303\304<~\026\255<7iC\273\235?5;\013\261;<\320\257\211\273\252.\004=^\376\227\274\255\247<\274\\r\016=*,\242\273K\207\032\275\035\024 ;qi\266<\237\363;\274\t7\034\275r\240\275\274ej\344<\223H\341\2723\241\337<x5q\274I:\t=\001\273\346<o(\224\274\257r\216\274\276\234\300<(\207\025\275j\245\022\275]\377\263\274+\243\024=$\022\347\274?HG<~\241\t<\230\253\023\275\226\236\310\273<y\372:\'\222\262<\371\302\305\274P\037\315<\010\t\024\275(\004\016\275\006u\315<r\275\274\274\326/\347<u\257\034\275\374\231B\273\304\317\216\274\332\036\357<S\337\004<\243\320\245\274\233\024\257\274\205&\354\274k\025\376<\374\242y<\366\362\350<\353&\023\274\026\303\214;^\007\027\275\311\232[\273,v\272<V0\002\275\013\364y\272h+\n=+\356\311\274k\240\237\274\005\004\344<sf@<\\j\214\274e)<;j\323\030=\203\306\220\274*\360\327;mH*<\020o`\274\351U\276;\373\310\022=\261\324\232\274\232\010\336<:\317\347\274\330y\306<\264\200=<h\220\237\274\001\334\202\2747U!=*\331X<\363_q:z\320\221;U\205M\272\234\317j<\361\004\215<\347\177\236\274\216\212\312\274\324T\332<\247Ry<o\357\n=\306^\355;q\336\320<a\325\253\274\307\366\255\274\255\020\001\274\006\rS\274o\204\262\274\303\374\365\274\243\225\215\274\341\377\217\274\230\303\363;x\203\362\273\003O\307\274\216\020\023<Qm\021=\233\320G<\246\314\202;!M\374<&\204\315:G\036\r\275\220\210\336\274\321s\304\274v\201\276<\254\366\204<.\301s\274\326\005\337\273\304.\360\274\277]\014\275\r\304\331;\'\242\t\275\316\203\036=\001\203\232<\003\353,<\344\000\302<s\301\020\275\272\327\254<\2713\n=\215E\306<\376\342@<\202\363\357<r\263\312\274 \021\032\275\345\002\025\275K\220\363<\035\216\216\274\2534\300;\203\226\313\274~\240T<\271$\032\273\033\370\023=q\220-<+\312\034\274:\364\003<\271\036\036\274\376\234\233<\267\356\321<S\200\321<\201\354\207;\357\\\244\274\375\225\022=\341\273\225<\270\030\324\273\341\244\013=f\332\340\274p\210\326\274\355W\315\274\3742\203<\353\027\';\007\360\215<\257\320\014=\272`\037\274\365\"\270<2\t\277<\274\334\341\273\250\213n\274\221x\t=\344\277\340<np\264\274\033\025\335<=;M<Z\'\300\274\022\340C\274\243\230\373<\3631\005\275\210\010\370<:\320\257<\257\222y\273\317T\243\274,\3349\273\000\233-\274\373q\242<m\203\211;\202\035\021\275I\025\370\272\305\316\006\2750\346.<j\374\364\274/\255\006=\001PT<U\3359<g\262\037=W7\212\274}\304\242\274\2020\237<\037H&\274^\235\023\275\235\274y\274k\372^<sKY\274\273en\273\255\201\033\275\351\267\r\275\033=\234;\346)\376<\n\203\016\275w: ;4>A<\207\370\027=G\004\025=\223/\022=\2754\244\273\236\370\006<\377x\342\274\023\257#<\311\247\3719Q\277\024\275\232\010\032=\0043U<t\020\200<z\224\017\275\367,\375\271r\317\343\274\375\347?\273V\275\365;\273\007\210:4j\373\273.\316\367\274\023\371 \2754k!<\353\245\251< \334\200\274\301x\004<I\\,\274U\255!=\237\302\355<y\025A<\332>\"=\241\231\332\274fg\344\274\357\323\302<\234Y\311<>\017\3118\353Q\257;\230\324\022\274\205\317\306\274\321\372\261<F\025\271\273\\&\035\275\004\030V:R\246\014=Y\021\016\275\215\271\026=\216R\005\275,}\016\273\240TX<I<\025\274\337]U<\2714\301<\317\337,<g,\377\274\320\364\024=\250\360\031\275h\257\0338w\244\201<\020\330\200<3\355\342<\340\251\306;\304X\323<\3302\016\275j\274\351\274\005\253\332\274\306\016\375<\364\356\225\2741\311\341<\203\275\260\274o\317\254<\373b\177<\223\202\235\274\316\324\021\274\262%\335<5\307#;\237J\002\2757\336\006<\240%\245:\342>\005\274\361i\374\272iJ\256<*p\363;)\203\000;\306\005\263\273\206V,<OX\002<CI\037=\017\240e</\232\274<\261_\020<\374%\346\273\265+\366\274~\241\217<v\315\004\275\302\273\334<\332W4:\212Y\373\274\014\031\031=\227\320 \275\217\255\032\275i\246\217\274(\024L\274(\331j\274\365\352><\003{\305\274\334l\350\274\234\371\235\274\332\320\260<\343\327\010<iX\237\272Zu\263<0\310\211<\372\251\001=%n\016\2755_\027=\305\350\352\274\304\253\376\271\323\002\254;C[W<u\014\252\274\361E5<B\343\017\275\221>\244;\257D\234;\203N\013<\274m\037=i<\236<\201\325\000\275\"\007\271<\203\252\375<\345|\342\273\r\352\030=\330`\224<D\355\027=A\224\000=\007\223\272<s\335\326<{t\351\271\356n\357<t+\251<J\362\034\275o\036\007=\262C\247<\246\t\016=\217\337 \274>]\n<\373\307\232<@\000\240\271\t\261\331;sM\322\274\370\034\023<=\216\310<{\230\235\274\313Y\013=\217\332\310\274\365\241\205<\241/\372\274H\266\006<\213\r\003=\324J\262<\225\r\222\274jy\027<\t\020H\273\310\333\364<\036o\355\274c\010r<\370a\026<\234\010\354;8\277\331\274\261\213\n\275\215\205\232<\271\344\233<Z\017V\274\031\333w\274\344*\205\274m{\254\272Y\365\366<mK\t\274\250A\026=\312\345\026\275\021\212{\274\322\215\362\274[\307j<U\017\360\273\317\272\336<BM\221<r\201\237<\3627L\274\305\037\026<%\031\343<\005\036\363;~\231\025=\200\320\025=:\340\253\273\366\202\001=\002\003\212;\000\274l<\357\340n\272\177c\230\274O\026\313\274\325\270\370<\253\241\277\274\321A\332\274#+J\273\222\375\240\274\366C\303<\225\017\275\274}\332\223\274\177U\014=H\213\032\275\337kQ\274\322\217\027=\217\214\357<>\002f<\031\210\366\274\203\226\305\271=\347\264<i\213\237<\237\273\353\274><\023=Z\230\023<x\036f\274\010\365A<\311,\035=\274\312\260<\211\365\n=\341\241\217<\\\335\266\273\005\314\237\274\205\342\217\274j\014\217<\370\037\016\275\200pb\273\034\356\324\274\255\372\013\275-K8;\240\274\r\274\305\213\247\274\336\275\377;yC\227;P@-<\313\236\330<:\222\223<\037\272_\273\237|\351\273\253\240\022<\312\314E\274\220\322\235;\274Yx\274!/\022\275\231\027\010\275S?\021=\023\275r;\\\021\230<\313,#<+O\010=\026\235\023\275C\"\032=\254\240\322;R\003\270\274\250\301\270\273&#\355\274\344a\372<\3468\000=\262Dp\274\262\205\034=\373L]<\032L\330\273x\314\241\274\232W\206<V\224\017=G\243\222\274M}\031=<\000\036\275\260\342\270<\350n\"\275\322\313<<O\210a\274\212\332\002\273==I\274\003F\331\274+\271\002\275y#\351\274},\227<\366h\224\274\016\007\010=\247\372\036\274k\376\r\274.\213\"\275\342\216\237\274:\311\022=\215\366\352\274\006s\020=\3613\001=\002\310\240\274Y\004\306\273,\343];\266! 